<?xml version="1.0"?>
<MethodSetup Method="BDT::BDTG">
  <GeneralInfo>
    <Info name="TMVA Release" value="4.2.1 [262657]"/>
    <Info name="ROOT Release" value="6.18/04 [397828]"/>
    <Info name="Creator" value="sblusk"/>
    <Info name="Date" value="Tue May 26 22:34:08 2020"/>
    <Info name="Host" value="Linux lcgapp-centos7-x86-64-40.cern.ch 3.10.0-957.21.3.el7.x86_64 #1 SMP Tue Jun 18 16:35:19 UTC 2019 x86_64 x86_64 x86_64 GNU/Linux"/>
    <Info name="Dir" value="/afs/cern.ch/user/s/sblusk/HLT2Upgrade/b2ocupgrade/TMVA/B2D0KPiPi_BDT"/>
    <Info name="Training events" value="186392"/>
    <Info name="TrainingTime" value="2.73864314e+02"/>
    <Info name="AnalysisType" value="Classification"/>
  </GeneralInfo>
  <Options>
    <Option name="V" modified="Yes">False</Option>
    <Option name="VerbosityLevel" modified="No">Default</Option>
    <Option name="VarTransform" modified="No">None</Option>
    <Option name="H" modified="Yes">False</Option>
    <Option name="CreateMVAPdfs" modified="No">False</Option>
    <Option name="IgnoreNegWeightsInTraining" modified="No">False</Option>
    <Option name="NTrees" modified="Yes">300</Option>
    <Option name="MaxDepth" modified="Yes">3</Option>
    <Option name="MinNodeSize" modified="Yes">2.5%</Option>
    <Option name="nCuts" modified="Yes">20</Option>
    <Option name="BoostType" modified="Yes">Grad</Option>
    <Option name="AdaBoostR2Loss" modified="No">quadratic</Option>
    <Option name="UseBaggedBoost" modified="Yes">True</Option>
    <Option name="Shrinkage" modified="Yes">1.000000e-01</Option>
    <Option name="AdaBoostBeta" modified="No">5.000000e-01</Option>
    <Option name="UseRandomisedTrees" modified="No">False</Option>
    <Option name="UseNvars" modified="No">4</Option>
    <Option name="UsePoissonNvars" modified="No">True</Option>
    <Option name="BaggedSampleFraction" modified="Yes">5.000000e-01</Option>
    <Option name="UseYesNoLeaf" modified="No">True</Option>
    <Option name="NegWeightTreatment" modified="No">pray</Option>
    <Option name="Css" modified="No">1.000000e+00</Option>
    <Option name="Cts_sb" modified="No">1.000000e+00</Option>
    <Option name="Ctb_ss" modified="No">1.000000e+00</Option>
    <Option name="Cbb" modified="No">1.000000e+00</Option>
    <Option name="NodePurityLimit" modified="No">5.000000e-01</Option>
    <Option name="SeparationType" modified="No">giniindex</Option>
    <Option name="RegressionLossFunctionBDTG" modified="No">huber</Option>
    <Option name="HuberQuantile" modified="No">7.000000e-01</Option>
    <Option name="DoBoostMonitor" modified="No">False</Option>
    <Option name="UseFisherCuts" modified="No">False</Option>
    <Option name="MinLinCorrForFisher" modified="No">8.000000e-01</Option>
    <Option name="UseExclusiveVars" modified="No">False</Option>
    <Option name="DoPreselection" modified="No">False</Option>
    <Option name="SigToBkgFraction" modified="No">1.000000e+00</Option>
    <Option name="PruneMethod" modified="No">nopruning</Option>
    <Option name="PruneStrength" modified="No">0.000000e+00</Option>
    <Option name="PruningValFraction" modified="No">5.000000e-01</Option>
    <Option name="SkipNormalization" modified="No">False</Option>
    <Option name="nEventsMin" modified="No">0</Option>
    <Option name="UseBaggedGrad" modified="No">False</Option>
    <Option name="GradBaggingFraction" modified="No">5.000000e-01</Option>
    <Option name="UseNTrainEvents" modified="No">0</Option>
    <Option name="NNodesMax" modified="No">0</Option>
  </Options>
  <Variables NVar="17">
    <Variable VarIndex="0" Expression="log_B_PT" Label="log_B_PT" Title="log_B_PT" Unit="" Internal="log_B_PT" Type="D" Min="2.77698112e+00" Max="1.11628170e+01"/>
    <Variable VarIndex="1" Expression="B_ETA" Label="B_ETA" Title="B_ETA" Unit="" Internal="B_ETA" Type="D" Min="1.93900728e+00" Max="9.83230686e+00"/>
    <Variable VarIndex="2" Expression="log_B_DIRA_OWNPV" Label="log_B_DIRA_OWNPV" Title="log_B_DIRA_OWNPV" Unit="" Internal="log_B_DIRA_OWNPV" Type="D" Min="-2.49812508e+01" Max="-6.90776634e+00"/>
    <Variable VarIndex="3" Expression="log_B_ENDVERTEX_CHI2" Label="log_B_ENDVERTEX_CHI2" Title="log_B_ENDVERTEX_CHI2" Unit="" Internal="log_B_ENDVERTEX_CHI2" Type="D" Min="-4.56595898e+00" Max="2.30257797e+00"/>
    <Variable VarIndex="4" Expression="log_B_MINIPCHI2" Label="log_B_MINIPCHI2" Title="log_B_MINIPCHI2" Unit="" Internal="log_B_MINIPCHI2" Type="D" Min="-1.25745831e+01" Max="3.21885967e+00"/>
    <Variable VarIndex="5" Expression="log_B_IP_OWNPV" Label="log_B_IP_OWNPV" Title="log_B_IP_OWNPV" Unit="" Internal="log_B_IP_OWNPV" Type="D" Min="-1.07474785e+01" Max="7.52813518e-01"/>
    <Variable VarIndex="6" Expression="log_D0_PT" Label="log_D0_PT" Title="log_D0_PT" Unit="" Internal="log_D0_PT" Type="D" Min="3.26895547e+00" Max="1.09137917e+01"/>
    <Variable VarIndex="7" Expression="log_D0_MINIPCHI2" Label="log_D0_MINIPCHI2" Title="log_D0_MINIPCHI2" Unit="" Internal="log_D0_MINIPCHI2" Type="D" Min="-9.38978291e+00" Max="1.22780237e+01"/>
    <Variable VarIndex="8" Expression="log_D0_ENDVERTEX_CHI2" Label="log_D0_ENDVERTEX_CHI2" Title="log_D0_ENDVERTEX_CHI2" Unit="" Internal="log_D0_ENDVERTEX_CHI2" Type="D" Min="-1.86492462e+01" Max="2.30222678e+00"/>
    <Variable VarIndex="9" Expression="log_Min_Bac_PT" Label="log_Min_Bac_PT" Title="log_Min_Bac_PT" Unit="" Internal="log_Min_Bac_PT" Type="D" Min="4.60518122e+00" Max="9.20121479e+00"/>
    <Variable VarIndex="10" Expression="log_Max_Bac_PT" Label="log_Max_Bac_PT" Title="log_Max_Bac_PT" Unit="" Internal="log_Max_Bac_PT" Type="D" Min="5.52677774e+00" Max="1.03393593e+01"/>
    <Variable VarIndex="11" Expression="log_Min_D0dau_PT" Label="log_Min_D0dau_PT" Title="log_Min_D0dau_PT" Unit="" Internal="log_Min_D0dau_PT" Type="D" Min="5.52146626e+00" Max="1.00204649e+01"/>
    <Variable VarIndex="12" Expression="log_Max_D0dau_PT" Label="log_Max_D0dau_PT" Title="log_Max_D0dau_PT" Unit="" Internal="log_Max_D0dau_PT" Type="D" Min="6.81130457e+00" Max="1.04729986e+01"/>
    <Variable VarIndex="13" Expression="log_Min_Bac_IPCHI2_OWNPV" Label="log_Min_Bac_IPCHI2_OWNPV" Title="log_Min_Bac_IPCHI2_OWNPV" Unit="" Internal="log_Min_Bac_IPCHI2_OWNPV" Type="D" Min="1.38630569e+00" Max="1.12346401e+01"/>
    <Variable VarIndex="14" Expression="log_Max_Bac_IPCHI2_OWNPV" Label="log_Max_Bac_IPCHI2_OWNPV" Title="log_Max_Bac_IPCHI2_OWNPV" Unit="" Internal="log_Max_Bac_IPCHI2_OWNPV" Type="D" Min="1.41044724e+00" Max="1.24733448e+01"/>
    <Variable VarIndex="15" Expression="log_Min_D0dau_IPCHI2_OWNPV" Label="log_Min_D0dau_IPCHI2_OWNPV" Title="log_Min_D0dau_IPCHI2_OWNPV" Unit="" Internal="log_Min_D0dau_IPCHI2_OWNPV" Type="D" Min="1.38632643e+00" Max="1.05485964e+01"/>
    <Variable VarIndex="16" Expression="log_Max_D0dau_IPCHI2_OWNPV" Label="log_Max_D0dau_IPCHI2_OWNPV" Title="log_Max_D0dau_IPCHI2_OWNPV" Unit="" Internal="log_Max_D0dau_IPCHI2_OWNPV" Type="D" Min="1.40384257e+00" Max="1.26943684e+01"/>
  </Variables>
  <Spectators NSpec="0"/>
  <Classes NClass="2">
    <Class Name="Signal" Index="0"/>
    <Class Name="Background" Index="1"/>
  </Classes>
  <Transformations NTransformations="0"/>
  <MVAPdfs/>
  <Weights NTrees="300" AnalysisType="1">
    <BinaryTree type="DecisionTree" boostWeight="1.0000000000000000e+00" itree="0">
      <Node pos="s" depth="0" NCoef="0" IVar="16" Cut="5.1761837005615234e+00" cType="1" res="-4.1978056542575359e-03" rms="4.9998238682746887e-01" purity="4.9580219388008118e-01" nType="0">
        <Node pos="l" depth="1" NCoef="0" IVar="2" Cut="-1.1796612739562988e+01" cType="1" res="-4.0552055835723877e-01" rms="2.9249459505081177e-01" purity="9.4479449093341827e-02" nType="0">
          <Node pos="l" depth="2" NCoef="0" IVar="-1" Cut="0.0000000000000000e+00" cType="1" res="1.6429765149950981e-02" rms="4.9320539832115173e-01" purity="5.8214884996414185e-01" nType="-99"/>
          <Node pos="r" depth="2" NCoef="0" IVar="0" Cut="8.6965847015380859e+00" cType="1" res="-4.5695227384567261e-01" rms="2.0296457409858704e-01" purity="4.3047726154327393e-02" nType="0">
            <Node pos="l" depth="3" NCoef="0" IVar="-1" Cut="0.0000000000000000e+00" cType="1" res="-9.6268780529499054e-02" rms="1.3530722260475159e-01" purity="1.8656099215149879e-02" nType="-99"/>
            <Node pos="r" depth="3" NCoef="0" IVar="-1" Cut="0.0000000000000000e+00" cType="1" res="-2.9664507135748863e-02" rms="4.7749391198158264e-01" purity="3.5167744755744934e-01" nType="-99"/>
          </Node>
        </Node>
        <Node pos="r" depth="1" NCoef="0" IVar="2" Cut="-1.0350538253784180e+01" cType="1" res="4.4503283500671387e-01" rms="2.2791618108749390e-01" purity="9.4503283500671387e-01" nType="0">
          <Node pos="l" depth="2" NCoef="0" IVar="-1" Cut="0.0000000000000000e+00" cType="1" res="9.6673026680946350e-02" rms="1.2789891660213470e-01" purity="9.8336511850357056e-01" nType="-99"/>
          <Node pos="r" depth="2" NCoef="0" IVar="-1" Cut="0.0000000000000000e+00" cType="1" res="-2.6514377444982529e-02" rms="4.8210445046424866e-01" purity="3.6742812395095825e-01" nType="-99"/>
        </Node>
      </Node>
    </BinaryTree>
    <BinaryTree type="DecisionTree" boostWeight="1.0000000000000000e+00" itree="1">
      <Node pos="s" depth="0" NCoef="0" IVar="16" Cut="5.1673512458801270e+00" cType="1" res="8.3921891928184777e-05" rms="4.5924556255340576e-01" purity="4.9988964200019836e-01" nType="0">
        <Node pos="l" depth="1" NCoef="0" IVar="0" Cut="8.7108745574951172e+00" cType="1" res="-3.6345905065536499e-01" rms="2.8468507528305054e-01" purity="9.6166327595710754e-02" nType="0">
          <Node pos="l" depth="2" NCoef="0" IVar="14" Cut="4.5508098602294922e+00" cType="1" res="-4.2059862613677979e-01" rms="1.7961326241493225e-01" purity="3.4555636346340179e-02" nType="0">
            <Node pos="l" depth="3" NCoef="0" IVar="-1" Cut="0.0000000000000000e+00" cType="1" res="-8.8428676128387451e-02" rms="1.2621167302131653e-01" purity="1.6277896240353584e-02" nType="-99"/>
            <Node pos="r" depth="3" NCoef="0" IVar="-1" Cut="0.0000000000000000e+00" cType="1" res="-2.7943640947341919e-02" rms="4.5671397447586060e-01" purity="3.2638597488403320e-01" nType="-99"/>
          </Node>
          <Node pos="r" depth="2" NCoef="0" IVar="-1" Cut="0.0000000000000000e+00" cType="1" res="1.7906326800584793e-02" rms="4.8654106259346008e-01" purity="5.8454364538192749e-01" nType="-99"/>
        </Node>
        <Node pos="r" depth="1" NCoef="0" IVar="3" Cut="1.4541687965393066e+00" cType="1" res="4.0133106708526611e-01" rms="2.1763688325881958e-01" purity="9.4548428058624268e-01" nType="0">
          <Node pos="l" depth="2" NCoef="0" IVar="-1" Cut="0.0000000000000000e+00" cType="1" res="8.8204607367515564e-02" rms="1.2467701733112335e-01" purity="9.8289793729782104e-01" nType="-99"/>
          <Node pos="r" depth="2" NCoef="0" IVar="-1" Cut="0.0000000000000000e+00" cType="1" res="-3.2424658536911011e-02" rms="4.6002843976020813e-01" purity="3.5655021667480469e-01" nType="-99"/>
        </Node>
      </Node>
    </BinaryTree>
    <BinaryTree type="DecisionTree" boostWeight="1.0000000000000000e+00" itree="2">
      <Node pos="s" depth="0" NCoef="0" IVar="16" Cut="5.1673512458801270e+00" cType="1" res="-2.3209797291201539e-05" rms="4.2280691862106323e-01" purity="4.9961429834365845e-01" nType="0">
        <Node pos="l" depth="1" NCoef="0" IVar="3" Cut="6.6721200942993164e-01" cType="1" res="-3.2847040891647339e-01" rms="2.7324125170707703e-01" purity="9.4900585711002350e-02" nType="0">
          <Node pos="l" depth="2" NCoef="0" IVar="2" Cut="-9.3484897613525391e+00" cType="1" res="-7.0630885660648346e-02" rms="4.4814914464950562e-01" purity="3.7063077092170715e-01" nType="0">
            <Node pos="l" depth="3" NCoef="0" IVar="-1" Cut="0.0000000000000000e+00" cType="1" res="4.9887225031852722e-02" rms="4.1920477151870728e-01" purity="7.1836346387863159e-01" nType="-99"/>
            <Node pos="r" depth="3" NCoef="0" IVar="-1" Cut="0.0000000000000000e+00" cType="1" res="-7.3875173926353455e-02" rms="2.2342121601104736e-01" purity="5.5823553353548050e-02" nType="-99"/>
          </Node>
          <Node pos="r" depth="2" NCoef="0" IVar="16" Cut="4.6285390853881836e+00" cType="1" res="-3.9978450536727905e-01" rms="1.2762865424156189e-01" purity="1.8638230860233307e-02" nType="0">
            <Node pos="l" depth="3" NCoef="0" IVar="-1" Cut="0.0000000000000000e+00" cType="1" res="-8.4273509681224823e-02" rms="8.7424568831920624e-02" purity="8.3669917657971382e-03" nType="-99"/>
            <Node pos="r" depth="3" NCoef="0" IVar="-1" Cut="0.0000000000000000e+00" cType="1" res="-6.0407403856515884e-02" rms="3.2223969697952271e-01" purity="1.3690477609634399e-01" nType="-99"/>
          </Node>
        </Node>
        <Node pos="r" depth="1" NCoef="0" IVar="2" Cut="-1.0352271080017090e+01" cType="1" res="3.6155509948730469e-01" rms="2.0946024358272552e-01" purity="9.4515228271484375e-01" nType="0">
          <Node pos="l" depth="2" NCoef="0" IVar="-1" Cut="0.0000000000000000e+00" cType="1" res="8.1427201628684998e-02" rms="1.2408840656280518e-01" purity="9.8310750722885132e-01" nType="-99"/>
          <Node pos="r" depth="2" NCoef="0" IVar="-1" Cut="0.0000000000000000e+00" cType="1" res="-2.1771915256977081e-02" rms="4.6943533420562744e-01" purity="3.9513325691223145e-01" nType="-99"/>
        </Node>
      </Node>
    </BinaryTree>
    <BinaryTree type="DecisionTree" boostWeight="1.0000000000000000e+00" itree="3">
      <Node pos="s" depth="0" NCoef="0" IVar="14" Cut="4.5822038650512695e+00" cType="1" res="1.1393271852284670e-03" rms="3.9000129699707031e-01" purity="4.9998322129249573e-01" nType="0">
        <Node pos="l" depth="1" NCoef="0" IVar="0" Cut="8.7668638229370117e+00" cType="1" res="-2.8365004062652588e-01" rms="2.7301028370857239e-01" purity="1.2239018082618713e-01" nType="0">
          <Node pos="l" depth="2" NCoef="0" IVar="15" Cut="3.6997663974761963e+00" cType="1" res="-3.3984303474426270e-01" rms="1.8601752817630768e-01" purity="4.8250801861286163e-02" nType="0">
            <Node pos="l" depth="3" NCoef="0" IVar="-1" Cut="0.0000000000000000e+00" cType="1" res="-7.7198125422000885e-02" rms="1.2303436547517776e-01" purity="1.8366837874054909e-02" nType="-99"/>
            <Node pos="r" depth="3" NCoef="0" IVar="-1" Cut="0.0000000000000000e+00" cType="1" res="-1.2338800355792046e-02" rms="4.3975082039833069e-01" purity="4.2267560958862305e-01" nType="-99"/>
          </Node>
          <Node pos="r" depth="2" NCoef="0" IVar="-1" Cut="0.0000000000000000e+00" cType="1" res="3.1461123377084732e-02" rms="4.1197961568832397e-01" purity="6.9789904356002808e-01" nType="-99"/>
        </Node>
        <Node pos="r" depth="1" NCoef="0" IVar="3" Cut="1.2512137889862061e+00" cType="1" res="3.4033402800559998e-01" rms="1.8119975924491882e-01" purity="9.4971060752868652e-01" nType="0">
          <Node pos="l" depth="2" NCoef="0" IVar="-1" Cut="0.0000000000000000e+00" cType="1" res="7.8574173152446747e-02" rms="1.0313456505537033e-01" purity="9.8613017797470093e-01" nType="-99"/>
          <Node pos="r" depth="2" NCoef="0" IVar="-1" Cut="0.0000000000000000e+00" cType="1" res="-8.8734626770019531e-03" rms="4.2075943946838379e-01" purity="4.5447108149528503e-01" nType="-99"/>
        </Node>
      </Node>
    </BinaryTree>
    <BinaryTree type="DecisionTree" boostWeight="1.0000000000000000e+00" itree="4">
      <Node pos="s" depth="0" NCoef="0" IVar="16" Cut="5.1673512458801270e+00" cType="1" res="-5.0582799303811044e-05" rms="3.5964316129684448e-01" purity="4.9985331296920776e-01" nType="0">
        <Node pos="l" depth="1" NCoef="0" IVar="0" Cut="8.7691926956176758e+00" cType="1" res="-2.7279469370841980e-01" rms="2.4078325927257538e-01" purity="9.1844260692596436e-02" nType="0">
          <Node pos="l" depth="2" NCoef="0" IVar="13" Cut="2.6349394321441650e+00" cType="1" res="-3.1297296285629272e-01" rms="1.6212567687034607e-01" purity="3.5927440971136093e-02" nType="0">
            <Node pos="l" depth="3" NCoef="0" IVar="-1" Cut="0.0000000000000000e+00" cType="1" res="-7.2561919689178467e-02" rms="1.2243045866489410e-01" purity="1.8797464668750763e-02" nType="-99"/>
            <Node pos="r" depth="3" NCoef="0" IVar="-1" Cut="0.0000000000000000e+00" cType="1" res="-2.2559899836778641e-02" rms="3.8427788019180298e-01" purity="2.9030448198318481e-01" nType="-99"/>
          </Node>
          <Node pos="r" depth="2" NCoef="0" IVar="-1" Cut="0.0000000000000000e+00" cType="1" res="2.5530442595481873e-02" rms="4.4436687231063843e-01" purity="6.4730733633041382e-01" nType="-99"/>
        </Node>
        <Node pos="r" depth="1" NCoef="0" IVar="2" Cut="-1.0047266960144043e+01" cType="1" res="2.9723393917083740e-01" rms="1.9408874213695526e-01" purity="9.4457328319549561e-01" nType="0">
          <Node pos="l" depth="2" NCoef="0" IVar="-1" Cut="0.0000000000000000e+00" cType="1" res="7.1983911097049713e-02" rms="1.2785077095031738e-01" purity="9.8027980327606201e-01" nType="-99"/>
          <Node pos="r" depth="2" NCoef="0" IVar="-1" Cut="0.0000000000000000e+00" cType="1" res="-3.3413697034120560e-02" rms="4.3460050225257874e-01" purity="3.1292438507080078e-01" nType="-99"/>
        </Node>
      </Node>
    </BinaryTree>
    <BinaryTree type="DecisionTree" boostWeight="1.0000000000000000e+00" itree="5">
      <Node pos="s" depth="0" NCoef="0" IVar="2" Cut="-1.1211000442504883e+01" cType="1" res="3.1739627011120319e-03" rms="3.3409270644187927e-01" purity="5.0413620471954346e-01" nType="0">
        <Node pos="l" depth="1" NCoef="0" IVar="14" Cut="3.7598178386688232e+00" cType="1" res="2.6472651958465576e-01" rms="1.9592921435832977e-01" purity="9.2329704761505127e-01" nType="0">
          <Node pos="l" depth="2" NCoef="0" IVar="-1" Cut="0.0000000000000000e+00" cType="1" res="-3.7329364567995071e-02" rms="3.4282582998275757e-01" purity="2.6961857080459595e-01" nType="-99"/>
          <Node pos="r" depth="2" NCoef="0" IVar="-1" Cut="0.0000000000000000e+00" cType="1" res="6.9890268146991730e-02" rms="1.2182004004716873e-01" purity="9.7755962610244751e-01" nType="-99"/>
        </Node>
        <Node pos="r" depth="1" NCoef="0" IVar="15" Cut="3.9470911026000977e+00" cType="1" res="-2.5261765718460083e-01" rms="2.2561551630496979e-01" purity="9.4207800924777985e-02" nType="0">
          <Node pos="l" depth="2" NCoef="0" IVar="3" Cut="6.6720384359359741e-01" cType="1" res="-2.8896740078926086e-01" rms="1.5923553705215454e-01" purity="3.8532998412847519e-02" nType="0">
            <Node pos="l" depth="3" NCoef="0" IVar="-1" Cut="0.0000000000000000e+00" cType="1" res="-4.2482480406761169e-02" rms="3.0673506855964661e-01" purity="1.7766265571117401e-01" nType="-99"/>
            <Node pos="r" depth="3" NCoef="0" IVar="-1" Cut="0.0000000000000000e+00" cType="1" res="-7.2279520332813263e-02" rms="8.7661221623420715e-02" purity="8.2542542368173599e-03" nType="-99"/>
          </Node>
          <Node pos="r" depth="2" NCoef="0" IVar="-1" Cut="0.0000000000000000e+00" cType="1" res="2.8264444321393967e-02" rms="3.9912247657775879e-01" purity="6.8329203128814697e-01" nType="-99"/>
        </Node>
      </Node>
    </BinaryTree>
    <BinaryTree type="DecisionTree" boostWeight="1.0000000000000000e+00" itree="6">
      <Node pos="s" depth="0" NCoef="0" IVar="14" Cut="4.4550204277038574e+00" cType="1" res="8.1576680531725287e-04" rms="3.1049630045890808e-01" purity="5.0118178129196167e-01" nType="0">
        <Node pos="l" depth="1" NCoef="0" IVar="3" Cut="6.6721200942993164e-01" cType="1" res="-2.2589311003684998e-01" rms="2.2435373067855835e-01" purity="1.0109642893075943e-01" nType="0">
          <Node pos="l" depth="2" NCoef="0" IVar="2" Cut="-9.1990861892700195e+00" cType="1" res="-3.7822578102350235e-02" rms="3.5956490039825439e-01" purity="3.8095673918724060e-01" nType="0">
            <Node pos="l" depth="3" NCoef="0" IVar="-1" Cut="0.0000000000000000e+00" cType="1" res="3.7894200533628464e-02" rms="3.5862421989440918e-01" purity="7.0551198720932007e-01" nType="-99"/>
            <Node pos="r" depth="3" NCoef="0" IVar="-1" Cut="0.0000000000000000e+00" cType="1" res="-5.8290809392929077e-02" rms="2.0817682147026062e-01" purity="6.2634550034999847e-02" nType="-99"/>
          </Node>
          <Node pos="r" depth="2" NCoef="0" IVar="13" Cut="2.3493070602416992e+00" cType="1" res="-2.7642953395843506e-01" rms="1.3061767816543579e-01" purity="2.5895176455378532e-02" nType="0">
            <Node pos="l" depth="3" NCoef="0" IVar="-1" Cut="0.0000000000000000e+00" cType="1" res="-6.9653742015361786e-02" rms="1.0394567251205444e-01" purity="1.2582845054566860e-02" nType="-99"/>
            <Node pos="r" depth="3" NCoef="0" IVar="-1" Cut="0.0000000000000000e+00" cType="1" res="-4.6494401991367340e-02" rms="2.5740364193916321e-01" purity="1.4619234204292297e-01" nType="-99"/>
          </Node>
        </Node>
        <Node pos="r" depth="1" NCoef="0" IVar="3" Cut="1.4356486797332764e+00" cType="1" res="2.4780395627021790e-01" rms="1.7206117510795593e-01" purity="9.3705511093139648e-01" nType="0">
          <Node pos="l" depth="2" NCoef="0" IVar="-1" Cut="0.0000000000000000e+00" cType="1" res="6.6945396363735199e-02" rms="1.1449144035577774e-01" purity="9.7796869277954102e-01" nType="-99"/>
          <Node pos="r" depth="2" NCoef="0" IVar="-1" Cut="0.0000000000000000e+00" cType="1" res="-2.0712899044156075e-02" rms="3.6403694748878479e-01" purity="3.7107521295547485e-01" nType="-99"/>
        </Node>
      </Node>
    </BinaryTree>
    <BinaryTree type="DecisionTree" boostWeight="1.0000000000000000e+00" itree="7">
      <Node pos="s" depth="0" NCoef="0" IVar="2" Cut="-1.1210976600646973e+01" cType="1" res="-1.9309384515509009e-03" rms="2.8850746154785156e-01" purity="4.9623274803161621e-01" nType="0">
        <Node pos="l" depth="1" NCoef="0" IVar="14" Cut="3.5426208972930908e+00" cType="1" res="2.1537676453590393e-01" rms="1.8145230412483215e-01" purity="9.1907012462615967e-01" nType="0">
          <Node pos="l" depth="2" NCoef="0" IVar="-1" Cut="0.0000000000000000e+00" cType="1" res="-4.3593328446149826e-02" rms="2.9775309562683105e-01" purity="1.9644139707088470e-01" nType="-99"/>
          <Node pos="r" depth="2" NCoef="0" IVar="15" Cut="3.8281350135803223e+00" cType="1" res="2.4406073987483978e-01" rms="1.2861214578151703e-01" purity="9.7027093172073364e-01" nType="0">
            <Node pos="l" depth="3" NCoef="0" IVar="-1" Cut="0.0000000000000000e+00" cType="1" res="4.3428361415863037e-02" rms="2.7926394343376160e-01" purity="8.2972759008407593e-01" nType="-99"/>
            <Node pos="r" depth="3" NCoef="0" IVar="-1" Cut="0.0000000000000000e+00" cType="1" res="6.6787272691726685e-02" rms="6.9229677319526672e-02" purity="9.9526232481002808e-01" nType="-99"/>
          </Node>
        </Node>
        <Node pos="r" depth="1" NCoef="0" IVar="13" Cut="2.7129328250885010e+00" cType="1" res="-2.0999956130981445e-01" rms="2.0712715387344360e-01" purity="9.1372735798358917e-02" nType="0">
          <Node pos="l" depth="2" NCoef="0" IVar="3" Cut="3.7073040008544922e-01" cType="1" res="-2.3400285840034485e-01" rms="1.7117629945278168e-01" purity="5.1095359027385712e-02" nType="0">
            <Node pos="l" depth="3" NCoef="0" IVar="-1" Cut="0.0000000000000000e+00" cType="1" res="-2.2010168060660362e-02" rms="3.4002485871315002e-01" purity="2.6959481835365295e-01" nType="-99"/>
            <Node pos="r" depth="3" NCoef="0" IVar="-1" Cut="0.0000000000000000e+00" cType="1" res="-6.5183952450752258e-02" rms="1.1967684328556061e-01" purity="2.0993076264858246e-02" nType="-99"/>
          </Node>
          <Node pos="r" depth="2" NCoef="0" IVar="-1" Cut="0.0000000000000000e+00" cType="1" res="1.8042428418993950e-02" rms="3.4093639254570007e-01" purity="5.7406008243560791e-01" nType="-99"/>
        </Node>
      </Node>
    </BinaryTree>
    <BinaryTree type="DecisionTree" boostWeight="1.0000000000000000e+00" itree="8">
      <Node pos="s" depth="0" NCoef="0" IVar="14" Cut="4.4476928710937500e+00" cType="1" res="-5.0738902064040303e-04" rms="2.7098336815834045e-01" purity="4.9764025211334229e-01" nType="0">
        <Node pos="l" depth="1" NCoef="0" IVar="15" Cut="3.5678193569183350e+00" cType="1" res="-1.8717133998870850e-01" rms="2.0820905268192291e-01" purity="9.9869899451732635e-02" nType="0">
          <Node pos="l" depth="2" NCoef="0" IVar="3" Cut="2.0488174259662628e-01" cType="1" res="-2.2318659722805023e-01" rms="1.3505494594573975e-01" purity="3.4050304442644119e-02" nType="0">
            <Node pos="l" depth="3" NCoef="0" IVar="-1" Cut="0.0000000000000000e+00" cType="1" res="-2.8394142165780067e-02" rms="3.1399995088577271e-01" purity="2.3279519379138947e-01" nType="-99"/>
            <Node pos="r" depth="3" NCoef="0" IVar="-1" Cut="0.0000000000000000e+00" cType="1" res="-6.4255341887474060e-02" rms="9.1833733022212982e-02" purity="1.2959557585418224e-02" nType="-99"/>
          </Node>
          <Node pos="r" depth="2" NCoef="0" IVar="1" Cut="3.7414581775665283e+00" cType="1" res="6.3245989382266998e-02" rms="3.8239187002182007e-01" purity="5.5751943588256836e-01" nType="0">
            <Node pos="l" depth="3" NCoef="0" IVar="-1" Cut="0.0000000000000000e+00" cType="1" res="3.3852573484182358e-02" rms="3.5842317342758179e-01" purity="6.7085349559783936e-01" nType="-99"/>
            <Node pos="r" depth="3" NCoef="0" IVar="-1" Cut="0.0000000000000000e+00" cType="1" res="-1.3684256002306938e-02" rms="3.8322752714157104e-01" purity="3.9308217167854309e-01" nType="-99"/>
          </Node>
        </Node>
        <Node pos="r" depth="1" NCoef="0" IVar="3" Cut="1.5140397548675537e+00" cType="1" res="2.0555013418197632e-01" rms="1.6035902500152588e-01" purity="9.3673712015151978e-01" nType="0">
          <Node pos="l" depth="2" NCoef="0" IVar="-1" Cut="0.0000000000000000e+00" cType="1" res="6.2258757650852203e-02" rms="1.1413805931806564e-01" purity="9.7643077373504639e-01" nType="-99"/>
          <Node pos="r" depth="2" NCoef="0" IVar="-1" Cut="0.0000000000000000e+00" cType="1" res="-2.7192223817110062e-02" rms="3.3262997865676880e-01" purity="3.2093650102615356e-01" nType="-99"/>
        </Node>
      </Node>
    </BinaryTree>
    <BinaryTree type="DecisionTree" boostWeight="1.0000000000000000e+00" itree="9">
      <Node pos="s" depth="0" NCoef="0" IVar="16" Cut="4.6413588523864746e+00" cType="1" res="3.3674141741357744e-04" rms="2.5282731652259827e-01" purity="5.0149500370025635e-01" nType="0">
        <Node pos="l" depth="1" NCoef="0" IVar="0" Cut="8.7108745574951172e+00" cType="1" res="-1.9690929353237152e-01" rms="1.5307271480560303e-01" purity="4.7999072819948196e-02" nType="0">
          <Node pos="l" depth="2" NCoef="0" IVar="0" Cut="8.4282875061035156e+00" cType="1" res="-2.0926368236541748e-01" rms="1.0806651413440704e-01" purity="1.7855070531368256e-02" nType="0">
            <Node pos="l" depth="3" NCoef="0" IVar="-1" Cut="0.0000000000000000e+00" cType="1" res="-6.3516817986965179e-02" rms="7.2226263582706451e-02" purity="6.6313478164374828e-03" nType="-99"/>
            <Node pos="r" depth="3" NCoef="0" IVar="-1" Cut="0.0000000000000000e+00" cType="1" res="-4.8470016568899155e-02" rms="1.9756235182285309e-01" purity="6.8800300359725952e-02" nType="-99"/>
          </Node>
          <Node pos="r" depth="2" NCoef="0" IVar="-1" Cut="0.0000000000000000e+00" cType="1" res="-1.0844029486179352e-02" rms="3.7460961937904358e-01" purity="4.0850093960762024e-01" nType="-99"/>
        </Node>
        <Node pos="r" depth="1" NCoef="0" IVar="3" Cut="1.4356806278228760e+00" cType="1" res="1.7133177816867828e-01" rms="1.8988384306430817e-01" purity="8.9463621377944946e-01" nType="0">
          <Node pos="l" depth="2" NCoef="0" IVar="13" Cut="2.1892781257629395e+00" cType="1" res="2.0673140883445740e-01" rms="1.2724676728248596e-01" purity="9.6595585346221924e-01" nType="0">
            <Node pos="l" depth="3" NCoef="0" IVar="-1" Cut="0.0000000000000000e+00" cType="1" res="3.2388165593147278e-02" rms="3.0742511153221130e-01" purity="7.3693579435348511e-01" nType="-99"/>
            <Node pos="r" depth="3" NCoef="0" IVar="-1" Cut="0.0000000000000000e+00" cType="1" res="6.3998170197010040e-02" rms="7.4656814336776733e-02" purity="9.9455672502517700e-01" nType="-99"/>
          </Node>
          <Node pos="r" depth="2" NCoef="0" IVar="3" Cut="1.8897927999496460e+00" cType="1" res="-1.5950493514537811e-01" rms="3.1707569956779480e-01" purity="2.2809945046901703e-01" nType="0">
            <Node pos="l" depth="3" NCoef="0" IVar="-1" Cut="0.0000000000000000e+00" cType="1" res="-1.6224769875407219e-02" rms="3.5830375552177429e-01" purity="3.4951499104499817e-01" nType="-99"/>
            <Node pos="r" depth="3" NCoef="0" IVar="-1" Cut="0.0000000000000000e+00" cType="1" res="-5.9768144041299820e-02" rms="2.3849619925022125e-01" purity="1.0844053328037262e-01" nType="-99"/>
          </Node>
        </Node>
      </Node>
    </BinaryTree>
    <BinaryTree type="DecisionTree" boostWeight="1.0000000000000000e+00" itree="10">
      <Node pos="s" depth="0" NCoef="0" IVar="2" Cut="-1.0755650520324707e+01" cType="1" res="-2.5858653243631124e-03" rms="2.3897881805896759e-01" purity="4.9071532487869263e-01" nType="0">
        <Node pos="l" depth="1" NCoef="0" IVar="3" Cut="1.2731870412826538e+00" cType="1" res="1.5578852593898773e-01" rms="1.7682641744613647e-01" purity="8.9155226945877075e-01" nType="0">
          <Node pos="l" depth="2" NCoef="0" IVar="1" Cut="3.8183643817901611e+00" cType="1" res="1.9003184139728546e-01" rms="1.1792319267988205e-01" purity="9.6899443864822388e-01" nType="0">
            <Node pos="l" depth="3" NCoef="0" IVar="-1" Cut="0.0000000000000000e+00" cType="1" res="6.2100060284137726e-02" rms="8.8977843523025513e-02" purity="9.8924875259399414e-01" nType="-99"/>
            <Node pos="r" depth="3" NCoef="0" IVar="-1" Cut="0.0000000000000000e+00" cType="1" res="5.0640240311622620e-02" rms="1.6880452632904053e-01" purity="9.1724824905395508e-01" nType="-99"/>
          </Node>
          <Node pos="r" depth="2" NCoef="0" IVar="2" Cut="-1.2185334205627441e+01" cType="1" res="-1.2287542223930359e-01" rms="2.9215922951698303e-01" purity="2.6134622097015381e-01" nType="0">
            <Node pos="l" depth="3" NCoef="0" IVar="-1" Cut="0.0000000000000000e+00" cType="1" res="1.5149329556152225e-03" rms="3.4591272473335266e-01" purity="5.0804978609085083e-01" nType="-99"/>
            <Node pos="r" depth="3" NCoef="0" IVar="-1" Cut="0.0000000000000000e+00" cType="1" res="-6.7024655640125275e-02" rms="1.5021000802516937e-01" purity="2.9156176373362541e-02" nType="-99"/>
          </Node>
        </Node>
        <Node pos="r" depth="1" NCoef="0" IVar="0" Cut="8.7641639709472656e+00" cType="1" res="-1.7129020392894745e-01" rms="1.7163972556591034e-01" purity="6.3733801245689392e-02" nType="0">
          <Node pos="l" depth="2" NCoef="0" IVar="13" Cut="2.4781174659729004e+00" cType="1" res="-1.8528719246387482e-01" rms="1.3239301741123199e-01" purity="3.1876426190137863e-02" nType="0">
            <Node pos="l" depth="3" NCoef="0" IVar="-1" Cut="0.0000000000000000e+00" cType="1" res="-6.0515571385622025e-02" rms="9.8939351737499237e-02" purity="1.2763055041432381e-02" nType="-99"/>
            <Node pos="r" depth="3" NCoef="0" IVar="-1" Cut="0.0000000000000000e+00" cType="1" res="-2.3244179785251617e-02" rms="2.9357272386550903e-01" purity="2.2721369564533234e-01" nType="-99"/>
          </Node>
          <Node pos="r" depth="2" NCoef="0" IVar="-1" Cut="0.0000000000000000e+00" cType="1" res="5.7114064693450928e-03" rms="3.9498081803321838e-01" purity="5.1300907135009766e-01" nType="-99"/>
        </Node>
      </Node>
    </BinaryTree>
    <BinaryTree type="DecisionTree" boostWeight="1.0000000000000000e+00" itree="11">
      <Node pos="s" depth="0" NCoef="0" IVar="16" Cut="4.6391706466674805e+00" cType="1" res="7.5942435069009662e-04" rms="2.2622722387313843e-01" purity="4.9846881628036499e-01" nType="0">
        <Node pos="l" depth="1" NCoef="0" IVar="0" Cut="8.7516584396362305e+00" cType="1" res="-1.5847513079643250e-01" rms="1.5911875665187836e-01" purity="5.4623283445835114e-02" nType="0">
          <Node pos="l" depth="2" NCoef="0" IVar="15" Cut="3.3416142463684082e+00" cType="1" res="-1.7082306742668152e-01" rms="1.1684372276067734e-01" purity="2.1873431280255318e-02" nType="0">
            <Node pos="l" depth="3" NCoef="0" IVar="-1" Cut="0.0000000000000000e+00" cType="1" res="-5.8576919138431549e-02" rms="9.4078131020069122e-02" purity="1.2801817618310452e-02" nType="-99"/>
            <Node pos="r" depth="3" NCoef="0" IVar="-1" Cut="0.0000000000000000e+00" cType="1" res="-3.0232490971684456e-02" rms="2.6790702342987061e-01" purity="1.4102047681808472e-01" nType="-99"/>
          </Node>
          <Node pos="r" depth="2" NCoef="0" IVar="-1" Cut="0.0000000000000000e+00" cType="1" res="1.4214941766113043e-03" rms="3.8974869251251221e-01" purity="4.9204996228218079e-01" nType="-99"/>
        </Node>
        <Node pos="r" depth="1" NCoef="0" IVar="2" Cut="-9.2185869216918945e+00" cType="1" res="1.4211697876453400e-01" rms="1.7788901925086975e-01" purity="8.9248454570770264e-01" nType="0">
          <Node pos="l" depth="2" NCoef="0" IVar="13" Cut="1.7673714160919189e+00" cType="1" res="1.6604609787464142e-01" rms="1.4365661144256592e-01" purity="9.5174920558929443e-01" nType="0">
            <Node pos="l" depth="3" NCoef="0" IVar="-1" Cut="0.0000000000000000e+00" cType="1" res="-1.2343654409050941e-02" rms="3.2320320606231689e-01" purity="5.1736813783645630e-01" nType="-99"/>
            <Node pos="r" depth="3" NCoef="0" IVar="-1" Cut="0.0000000000000000e+00" cType="1" res="5.9177536517381668e-02" rms="1.0964119434356689e-01" purity="9.8007130622863770e-01" nType="-99"/>
          </Node>
          <Node pos="r" depth="2" NCoef="0" IVar="-1" Cut="0.0000000000000000e+00" cType="1" res="-4.7412391752004623e-02" rms="2.6165971159934998e-01" purity="9.6092820167541504e-02" nType="-99"/>
        </Node>
      </Node>
    </BinaryTree>
    <BinaryTree type="DecisionTree" boostWeight="1.0000000000000000e+00" itree="12">
      <Node pos="s" depth="0" NCoef="0" IVar="16" Cut="4.6391706466674805e+00" cType="1" res="-1.3887634268030524e-03" rms="2.1212801337242126e-01" purity="4.9553644657135010e-01" nType="0">
        <Node pos="l" depth="1" NCoef="0" IVar="3" Cut="5.3988412022590637e-02" cType="1" res="-1.4609304070472717e-01" rms="1.5036964416503906e-01" purity="5.1880821585655212e-02" nType="0">
          <Node pos="l" depth="2" NCoef="0" IVar="-1" Cut="0.0000000000000000e+00" cType="1" res="-2.8267703019082546e-03" rms="3.2079067826271057e-01" purity="3.2902342081069946e-01" nType="-99"/>
          <Node pos="r" depth="2" NCoef="0" IVar="13" Cut="2.4268436431884766e+00" cType="1" res="-1.5935218334197998e-01" rms="1.1304171383380890e-01" purity="2.4748148396611214e-02" nType="0">
            <Node pos="l" depth="3" NCoef="0" IVar="-1" Cut="0.0000000000000000e+00" cType="1" res="-5.8793529868125916e-02" rms="8.6822330951690674e-02" purity="9.9489577114582062e-03" nType="-99"/>
            <Node pos="r" depth="3" NCoef="0" IVar="-1" Cut="0.0000000000000000e+00" cType="1" res="-3.0215615406632423e-02" rms="2.4751776456832886e-01" purity="1.7105360329151154e-01" nType="-99"/>
          </Node>
        </Node>
        <Node pos="r" depth="1" NCoef="0" IVar="3" Cut="1.1467225551605225e+00" cType="1" res="1.2748844921588898e-01" rms="1.7227454483509064e-01" purity="8.9066720008850098e-01" nType="0">
          <Node pos="l" depth="2" NCoef="0" IVar="-1" Cut="0.0000000000000000e+00" cType="1" res="5.7367645204067230e-02" rms="1.0775692015886307e-01" purity="9.7664088010787964e-01" nType="-99"/>
          <Node pos="r" depth="2" NCoef="0" IVar="14" Cut="3.8240349292755127e+00" cType="1" res="-7.9464539885520935e-02" rms="3.0264022946357727e-01" purity="3.5926625132560730e-01" nType="0">
            <Node pos="l" depth="3" NCoef="0" IVar="-1" Cut="0.0000000000000000e+00" cType="1" res="-6.4483508467674255e-02" rms="1.8238833546638489e-01" purity="3.8479771465063095e-02" nType="-99"/>
            <Node pos="r" depth="3" NCoef="0" IVar="-1" Cut="0.0000000000000000e+00" cType="1" res="1.7130739986896515e-02" rms="3.1636610627174377e-01" purity="6.5037006139755249e-01" nType="-99"/>
          </Node>
        </Node>
      </Node>
    </BinaryTree>
    <BinaryTree type="DecisionTree" boostWeight="1.0000000000000000e+00" itree="13">
      <Node pos="s" depth="0" NCoef="0" IVar="14" Cut="4.4476928710937500e+00" cType="1" res="1.6234671929851174e-03" rms="2.0418690145015717e-01" purity="4.9947291612625122e-01" nType="0">
        <Node pos="l" depth="1" NCoef="0" IVar="3" Cut="5.2305203676223755e-01" cType="1" res="-1.1631332337856293e-01" rms="1.8438704311847687e-01" purity="9.8195441067218781e-02" nType="0">
          <Node pos="l" depth="2" NCoef="0" IVar="0" Cut="8.1967601776123047e+00" cType="1" res="1.4785907231271267e-02" rms="3.0402171611785889e-01" purity="3.9746648073196411e-01" nType="0">
            <Node pos="l" depth="3" NCoef="0" IVar="-1" Cut="0.0000000000000000e+00" cType="1" res="-4.8401918262243271e-02" rms="1.8418969213962555e-01" purity="7.3462471365928650e-02" nType="-99"/>
            <Node pos="r" depth="3" NCoef="0" IVar="-1" Cut="0.0000000000000000e+00" cType="1" res="3.9270803332328796e-02" rms="3.1154823303222656e-01" purity="6.4668744802474976e-01" nType="-99"/>
          </Node>
          <Node pos="r" depth="2" NCoef="0" IVar="9" Cut="6.4459328651428223e+00" cType="1" res="-1.4525701105594635e-01" rms="1.2832075357437134e-01" purity="3.2123293727636337e-02" nType="0">
            <Node pos="l" depth="3" NCoef="0" IVar="-1" Cut="0.0000000000000000e+00" cType="1" res="-5.7272192090749741e-02" rms="1.0972256213426590e-01" purity="1.7959753051400185e-02" nType="-99"/>
            <Node pos="r" depth="3" NCoef="0" IVar="-1" Cut="0.0000000000000000e+00" cType="1" res="-3.0581643804907799e-02" rms="2.0647938549518585e-01" purity="1.2904703617095947e-01" nType="-99"/>
          </Node>
        </Node>
        <Node pos="r" depth="1" NCoef="0" IVar="2" Cut="-9.9508666992187500e+00" cType="1" res="1.3012352585792542e-01" rms="1.3567590713500977e-01" purity="9.3669170141220093e-01" nType="0">
          <Node pos="l" depth="2" NCoef="0" IVar="-1" Cut="0.0000000000000000e+00" cType="1" res="5.5564198642969131e-02" rms="1.0338316857814789e-01" purity="9.7986239194869995e-01" nType="-99"/>
          <Node pos="r" depth="2" NCoef="0" IVar="-1" Cut="0.0000000000000000e+00" cType="1" res="-2.5615200400352478e-02" rms="2.9825651645660400e-01" purity="2.3059722781181335e-01" nType="-99"/>
        </Node>
      </Node>
    </BinaryTree>
    <BinaryTree type="DecisionTree" boostWeight="1.0000000000000000e+00" itree="14">
      <Node pos="s" depth="0" NCoef="0" IVar="2" Cut="-1.0758884429931641e+01" cType="1" res="4.3012043461203575e-03" rms="1.9229309260845184e-01" purity="5.0726264715194702e-01" nType="0">
        <Node pos="l" depth="1" NCoef="0" IVar="3" Cut="1.7768059968948364e+00" cType="1" res="1.1273174732923508e-01" rms="1.4965468645095825e-01" purity="8.9943933486938477e-01" nType="0">
          <Node pos="l" depth="2" NCoef="0" IVar="14" Cut="3.7180960178375244e+00" cType="1" res="1.2921202182769775e-01" rms="1.2577940523624420e-01" purity="9.4700390100479126e-01" nType="0">
            <Node pos="l" depth="3" NCoef="0" IVar="-1" Cut="0.0000000000000000e+00" cType="1" res="-2.9519950039684772e-03" rms="2.9107812047004700e-01" purity="3.9375257492065430e-01" nType="-99"/>
            <Node pos="r" depth="3" NCoef="0" IVar="-1" Cut="0.0000000000000000e+00" cType="1" res="5.6451410055160522e-02" rms="9.8769761621952057e-02" purity="9.8439991474151611e-01" nType="-99"/>
          </Node>
          <Node pos="r" depth="2" NCoef="0" IVar="-1" Cut="0.0000000000000000e+00" cType="1" res="-4.6548239886760712e-02" rms="2.3026099801063538e-01" purity="1.2454991042613983e-01" nType="-99"/>
        </Node>
        <Node pos="r" depth="1" NCoef="0" IVar="15" Cut="3.9470911026000977e+00" cType="1" res="-1.1605387926101685e-01" rms="1.6007705032825470e-01" purity="7.1956597268581390e-02" nType="0">
          <Node pos="l" depth="2" NCoef="0" IVar="3" Cut="5.0456100702285767e-01" cType="1" res="-1.3300190865993500e-01" rms="1.1972922086715698e-01" purity="2.9201874509453773e-02" nType="0">
            <Node pos="l" depth="3" NCoef="0" IVar="-1" Cut="0.0000000000000000e+00" cType="1" res="-2.7674278244376183e-02" rms="2.5647220015525818e-01" purity="1.6288457810878754e-01" nType="-99"/>
            <Node pos="r" depth="3" NCoef="0" IVar="-1" Cut="0.0000000000000000e+00" cType="1" res="-5.7547315955162048e-02" rms="7.3810428380966187e-02" purity="6.9856070913374424e-03" nType="-99"/>
          </Node>
          <Node pos="r" depth="2" NCoef="0" IVar="-1" Cut="0.0000000000000000e+00" cType="1" res="2.5173122063279152e-02" rms="3.4650546312332153e-01" purity="6.2721014022827148e-01" nType="-99"/>
        </Node>
      </Node>
    </BinaryTree>
    <BinaryTree type="DecisionTree" boostWeight="1.0000000000000000e+00" itree="15">
      <Node pos="s" depth="0" NCoef="0" IVar="2" Cut="-1.0350359916687012e+01" cType="1" res="3.8035513716749847e-04" rms="1.8251186609268188e-01" purity="5.0083762407302856e-01" nType="0">
        <Node pos="l" depth="1" NCoef="0" IVar="15" Cut="2.6844954490661621e+00" cType="1" res="9.3753762543201447e-02" rms="1.5694929659366608e-01" purity="8.6732822656631470e-01" nType="0">
          <Node pos="l" depth="2" NCoef="0" IVar="3" Cut="1.3089128732681274e+00" cType="1" res="-7.7052854001522064e-02" rms="2.3608896136283875e-01" purity="2.8098607063293457e-01" nType="0">
            <Node pos="l" depth="3" NCoef="0" IVar="-1" Cut="0.0000000000000000e+00" cType="1" res="1.0372560471296310e-02" rms="2.8225463628768921e-01" purity="5.9685009717941284e-01" nType="-99"/>
            <Node pos="r" depth="3" NCoef="0" IVar="-1" Cut="0.0000000000000000e+00" cType="1" res="-6.2222860753536224e-02" rms="1.2634253501892090e-01" purity="8.5101630538702011e-03" nType="-99"/>
          </Node>
          <Node pos="r" depth="2" NCoef="0" IVar="13" Cut="1.8556618690490723e+00" cType="1" res="1.1965914070606232e-01" rms="1.2173599749803543e-01" purity="9.5625579357147217e-01" nType="0">
            <Node pos="l" depth="3" NCoef="0" IVar="-1" Cut="0.0000000000000000e+00" cType="1" res="3.6993615794926882e-03" rms="2.7575942873954773e-01" purity="5.9379631280899048e-01" nType="-99"/>
            <Node pos="r" depth="3" NCoef="0" IVar="-1" Cut="0.0000000000000000e+00" cType="1" res="5.6226566433906555e-02" rms="9.5214031636714935e-02" purity="9.8452579975128174e-01" nType="-99"/>
          </Node>
        </Node>
        <Node pos="r" depth="1" NCoef="0" IVar="15" Cut="3.6997663974761963e+00" cType="1" res="-1.1621493101119995e-01" rms="1.4023126661777496e-01" purity="4.3201070278882980e-02" nType="0">
          <Node pos="l" depth="2" NCoef="0" IVar="2" Cut="-9.0388650894165039e+00" cType="1" res="-1.2515537440776825e-01" rms="1.0127697139978409e-01" purity="1.5447705052793026e-02" nType="0">
            <Node pos="l" depth="3" NCoef="0" IVar="-1" Cut="0.0000000000000000e+00" cType="1" res="-4.2971756309270859e-02" rms="1.6865161061286926e-01" purity="5.4313886910676956e-02" nType="-99"/>
            <Node pos="r" depth="3" NCoef="0" IVar="-1" Cut="0.0000000000000000e+00" cType="1" res="-5.7540055364370346e-02" rms="6.4456753432750702e-02" purity="2.6992987841367722e-03" nType="-99"/>
          </Node>
          <Node pos="r" depth="2" NCoef="0" IVar="-1" Cut="0.0000000000000000e+00" cType="1" res="-1.8685390241444111e-03" rms="3.4839260578155518e-01" purity="3.8107672333717346e-01" nType="-99"/>
        </Node>
      </Node>
    </BinaryTree>
    <BinaryTree type="DecisionTree" boostWeight="1.0000000000000000e+00" itree="16">
      <Node pos="s" depth="0" NCoef="0" IVar="2" Cut="-1.0350359916687012e+01" cType="1" res="4.4122911058366299e-03" rms="1.7872844636440277e-01" purity="5.0535964965820312e-01" nType="0">
        <Node pos="l" depth="1" NCoef="0" IVar="16" Cut="4.1743931770324707e+00" cType="1" res="8.8381253182888031e-02" rms="1.5608188509941101e-01" purity="8.7028479576110840e-01" nType="0">
          <Node pos="l" depth="2" NCoef="0" IVar="13" Cut="1.7448865175247192e+00" cType="1" res="-9.1327272355556488e-02" rms="2.2675952315330505e-01" purity="1.6109684109687805e-01" nType="0">
            <Node pos="l" depth="3" NCoef="0" IVar="-1" Cut="0.0000000000000000e+00" cType="1" res="-5.7615619152784348e-02" rms="1.2614576518535614e-01" purity="2.2184351459145546e-02" nType="-99"/>
            <Node pos="r" depth="3" NCoef="0" IVar="-1" Cut="0.0000000000000000e+00" cType="1" res="-8.6004566401243210e-03" rms="2.8099370002746582e-01" purity="3.0045974254608154e-01" nType="-99"/>
          </Node>
          <Node pos="r" depth="2" NCoef="0" IVar="3" Cut="1.4541062116622925e+00" cType="1" res="1.0983466356992722e-01" rms="1.2967555224895477e-01" purity="9.5494693517684937e-01" nType="0">
            <Node pos="l" depth="3" NCoef="0" IVar="-1" Cut="0.0000000000000000e+00" cType="1" res="5.4776255041360855e-02" rms="9.9718220531940460e-02" purity="9.8479610681533813e-01" nType="-99"/>
            <Node pos="r" depth="3" NCoef="0" IVar="-1" Cut="0.0000000000000000e+00" cType="1" res="9.8411040380597115e-04" rms="3.4359818696975708e-01" purity="4.6337541937828064e-01" nType="-99"/>
          </Node>
        </Node>
        <Node pos="r" depth="1" NCoef="0" IVar="13" Cut="2.5556929111480713e+00" cType="1" res="-1.0008068382740021e-01" rms="1.4726339280605316e-01" purity="5.1238067448139191e-02" nType="0">
          <Node pos="l" depth="2" NCoef="0" IVar="2" Cut="-9.6945781707763672e+00" cType="1" res="-1.1088329553604126e-01" rms="1.1909355223178864e-01" purity="2.6904642581939697e-02" nType="0">
            <Node pos="l" depth="3" NCoef="0" IVar="-1" Cut="0.0000000000000000e+00" cType="1" res="-2.4147033691406250e-02" rms="2.1916382014751434e-01" purity="1.3407258689403534e-01" nType="-99"/>
            <Node pos="r" depth="3" NCoef="0" IVar="-1" Cut="0.0000000000000000e+00" cType="1" res="-5.3536731749773026e-02" rms="9.8209008574485779e-02" purity="1.3548259623348713e-02" nType="-99"/>
          </Node>
          <Node pos="r" depth="2" NCoef="0" IVar="-1" Cut="0.0000000000000000e+00" cType="1" res="6.3605317845940590e-03" rms="2.9954689741134644e-01" purity="3.2352274656295776e-01" nType="-99"/>
        </Node>
      </Node>
    </BinaryTree>
    <BinaryTree type="DecisionTree" boostWeight="1.0000000000000000e+00" itree="17">
      <Node pos="s" depth="0" NCoef="0" IVar="15" Cut="3.5678193569183350e+00" cType="1" res="1.3758746208623052e-03" rms="1.6711165010929108e-01" purity="5.0399160385131836e-01" nType="0">
        <Node pos="l" depth="1" NCoef="0" IVar="3" Cut="5.0456100702285767e-01" cType="1" res="-8.5230641067028046e-02" rms="1.4622707664966583e-01" purity="1.0689374804496765e-01" nType="0">
          <Node pos="l" depth="2" NCoef="0" IVar="0" Cut="8.2243824005126953e+00" cType="1" res="4.1786939837038517e-03" rms="2.4327087402343750e-01" purity="4.4093999266624451e-01" nType="0">
            <Node pos="l" depth="3" NCoef="0" IVar="-1" Cut="0.0000000000000000e+00" cType="1" res="-4.8611979931592941e-02" rms="1.5195295214653015e-01" purity="1.0066554695367813e-01" nType="-99"/>
            <Node pos="r" depth="3" NCoef="0" IVar="-1" Cut="0.0000000000000000e+00" cType="1" res="3.4440375864505768e-02" rms="2.5145754218101501e-01" purity="7.0435988903045654e-01" nType="-99"/>
          </Node>
          <Node pos="r" depth="2" NCoef="0" IVar="9" Cut="6.6284461021423340e+00" cType="1" res="-1.0604975372552872e-01" rms="1.0142035782337189e-01" purity="2.9110524803400040e-02" nType="0">
            <Node pos="l" depth="3" NCoef="0" IVar="-1" Cut="0.0000000000000000e+00" cType="1" res="-5.4424863308668137e-02" rms="9.0116009116172791e-02" purity="1.8047643825411797e-02" nType="-99"/>
            <Node pos="r" depth="3" NCoef="0" IVar="-1" Cut="0.0000000000000000e+00" cType="1" res="-2.0337121561169624e-02" rms="1.9728785753250122e-01" purity="1.9441416859626770e-01" nType="-99"/>
          </Node>
        </Node>
        <Node pos="r" depth="1" NCoef="0" IVar="3" Cut="1.4356826543807983e+00" cType="1" res="9.4527035951614380e-02" rms="1.3498193025588989e-01" purity="9.3109720945358276e-01" nType="0">
          <Node pos="l" depth="2" NCoef="0" IVar="-1" Cut="0.0000000000000000e+00" cType="1" res="5.3338740020990372e-02" rms="1.0459242016077042e-01" purity="9.7612053155899048e-01" nType="-99"/>
          <Node pos="r" depth="2" NCoef="0" IVar="-1" Cut="0.0000000000000000e+00" cType="1" res="-1.4116276055574417e-02" rms="2.9796314239501953e-01" purity="3.5203364491462708e-01" nType="-99"/>
        </Node>
      </Node>
    </BinaryTree>
    <BinaryTree type="DecisionTree" boostWeight="1.0000000000000000e+00" itree="18">
      <Node pos="s" depth="0" NCoef="0" IVar="15" Cut="3.1315207481384277e+00" cType="1" res="2.3881550878286362e-03" rms="1.6297633945941925e-01" purity="5.0294363498687744e-01" nType="0">
        <Node pos="l" depth="1" NCoef="0" IVar="0" Cut="8.7004261016845703e+00" cType="1" res="-8.3250626921653748e-02" rms="1.3223201036453247e-01" purity="8.6043462157249451e-02" nType="0">
          <Node pos="l" depth="2" NCoef="0" IVar="11" Cut="6.9977178573608398e+00" cType="1" res="-9.3587316572666168e-02" rms="1.0486827790737152e-01" purity="3.3613540232181549e-02" nType="0">
            <Node pos="l" depth="3" NCoef="0" IVar="-1" Cut="0.0000000000000000e+00" cType="1" res="-5.1536247134208679e-02" rms="9.1261222958564758e-02" purity="2.4647615849971771e-02" nType="-99"/>
            <Node pos="r" depth="3" NCoef="0" IVar="-1" Cut="0.0000000000000000e+00" cType="1" res="-3.0619530007243156e-02" rms="1.7237491905689240e-01" purity="1.0091171413660049e-01" nType="-99"/>
          </Node>
          <Node pos="r" depth="2" NCoef="0" IVar="-1" Cut="0.0000000000000000e+00" cType="1" res="2.9156752862036228e-03" rms="2.5663465261459351e-01" purity="5.5322694778442383e-01" nType="-99"/>
        </Node>
        <Node pos="r" depth="1" NCoef="0" IVar="2" Cut="-9.2623710632324219e+00" cType="1" res="7.7052742242813110e-02" rms="1.5001748502254486e-01" purity="8.6642009019851685e-01" nType="0">
          <Node pos="l" depth="2" NCoef="0" IVar="13" Cut="1.7881309986114502e+00" cType="1" res="9.5444187521934509e-02" rms="1.2711684405803680e-01" purity="9.5280528068542480e-01" nType="0">
            <Node pos="l" depth="3" NCoef="0" IVar="-1" Cut="0.0000000000000000e+00" cType="1" res="-1.4636373380199075e-03" rms="2.9598411917686462e-01" purity="5.2484977245330811e-01" nType="-99"/>
            <Node pos="r" depth="3" NCoef="0" IVar="-1" Cut="0.0000000000000000e+00" cType="1" res="5.4179951548576355e-02" rms="1.0403940081596375e-01" purity="9.8060339689254761e-01" nType="-99"/>
          </Node>
          <Node pos="r" depth="2" NCoef="0" IVar="13" Cut="1.7126801013946533e+00" cType="1" res="-8.9490458369255066e-02" rms="2.2175812721252441e-01" purity="8.4161393344402313e-02" nType="0">
            <Node pos="l" depth="3" NCoef="0" IVar="-1" Cut="0.0000000000000000e+00" cType="1" res="-5.2308857440948486e-02" rms="1.5269196033477783e-01" purity="3.0060335993766785e-02" nType="-99"/>
            <Node pos="r" depth="3" NCoef="0" IVar="-1" Cut="0.0000000000000000e+00" cType="1" res="-1.7353443428874016e-02" rms="2.7140358090400696e-01" purity="1.4241321384906769e-01" nType="-99"/>
          </Node>
        </Node>
      </Node>
    </BinaryTree>
    <BinaryTree type="DecisionTree" boostWeight="1.0000000000000000e+00" itree="19">
      <Node pos="s" depth="0" NCoef="0" IVar="14" Cut="4.0483117103576660e+00" cType="1" res="2.8215828351676464e-03" rms="1.5734016895294189e-01" purity="5.0343513488769531e-01" nType="0">
        <Node pos="l" depth="1" NCoef="0" IVar="0" Cut="8.7668638229370117e+00" cType="1" res="-7.7333666384220123e-02" rms="1.3843160867691040e-01" purity="7.4526131153106689e-02" nType="0">
          <Node pos="l" depth="2" NCoef="0" IVar="1" Cut="3.6725420951843262e+00" cType="1" res="-8.8784314692020416e-02" rms="1.0325714200735092e-01" purity="2.6774255558848381e-02" nType="0">
            <Node pos="l" depth="3" NCoef="0" IVar="-1" Cut="0.0000000000000000e+00" cType="1" res="-4.0501974523067474e-02" rms="1.3570711016654968e-01" purity="4.6894688159227371e-02" nType="-99"/>
            <Node pos="r" depth="3" NCoef="0" IVar="-1" Cut="0.0000000000000000e+00" cType="1" res="-5.2968703210353851e-02" rms="8.2624360918998718e-02" purity="1.7187526449561119e-02" nType="-99"/>
          </Node>
          <Node pos="r" depth="2" NCoef="0" IVar="-1" Cut="0.0000000000000000e+00" cType="1" res="1.2701392173767090e-02" rms="3.0618518590927124e-01" purity="5.8578866720199585e-01" nType="-99"/>
        </Node>
        <Node pos="r" depth="1" NCoef="0" IVar="2" Cut="-8.4776992797851562e+00" cType="1" res="7.2264268994331360e-02" rms="1.3860958814620972e-01" purity="8.7502145767211914e-01" nType="0">
          <Node pos="l" depth="2" NCoef="0" IVar="3" Cut="1.4355920553207397e+00" cType="1" res="8.5099495947360992e-02" rms="1.3152943551540375e-01" purity="9.3251430988311768e-01" nType="0">
            <Node pos="l" depth="3" NCoef="0" IVar="-1" Cut="0.0000000000000000e+00" cType="1" res="5.4430134594440460e-02" rms="1.0948599129915237e-01" purity="9.7817742824554443e-01" nType="-99"/>
            <Node pos="r" depth="3" NCoef="0" IVar="-1" Cut="0.0000000000000000e+00" cType="1" res="-1.2173175811767578e-02" rms="2.6584401726722717e-01" purity="3.3329084515571594e-01" nType="-99"/>
          </Node>
          <Node pos="r" depth="2" NCoef="0" IVar="-1" Cut="0.0000000000000000e+00" cType="1" res="-5.7601973414421082e-02" rms="8.9077070355415344e-02" purity="4.9603106454014778e-03" nType="-99"/>
        </Node>
      </Node>
    </BinaryTree>
    <BinaryTree type="DecisionTree" boostWeight="1.0000000000000000e+00" itree="20">
      <Node pos="s" depth="0" NCoef="0" IVar="16" Cut="4.6391706466674805e+00" cType="1" res="-2.1140168246347457e-04" rms="1.4909686148166656e-01" purity="5.0066477060317993e-01" nType="0">
        <Node pos="l" depth="1" NCoef="0" IVar="4" Cut="1.7146687507629395e+00" cType="1" res="-7.2236947715282440e-02" rms="1.2948258221149445e-01" purity="5.0425726920366287e-02" nType="0">
          <Node pos="l" depth="2" NCoef="0" IVar="3" Cut="6.6832768917083740e-01" cType="1" res="-4.5751363039016724e-02" rms="1.8019747734069824e-01" purity="1.1676397174596786e-01" nType="0">
            <Node pos="l" depth="3" NCoef="0" IVar="-1" Cut="0.0000000000000000e+00" cType="1" res="2.2056641057133675e-02" rms="2.9496622085571289e-01" purity="4.3099132180213928e-01" nType="-99"/>
            <Node pos="r" depth="3" NCoef="0" IVar="-1" Cut="0.0000000000000000e+00" cType="1" res="-4.6610433608293533e-02" rms="1.0786277800798416e-01" purity="2.4229951202869415e-02" nType="-99"/>
          </Node>
          <Node pos="r" depth="2" NCoef="0" IVar="0" Cut="8.4256324768066406e+00" cType="1" res="-8.9984826743602753e-02" rms="7.3868617415428162e-02" purity="5.9727514162659645e-03" nType="0">
            <Node pos="l" depth="3" NCoef="0" IVar="-1" Cut="0.0000000000000000e+00" cType="1" res="-5.4169449955224991e-02" rms="5.1921300590038300e-02" purity="2.3281699977815151e-03" nType="-99"/>
            <Node pos="r" depth="3" NCoef="0" IVar="-1" Cut="0.0000000000000000e+00" cType="1" res="-5.4205432534217834e-02" rms="1.1888865381479263e-01" purity="1.8148606643080711e-02" nType="-99"/>
          </Node>
        </Node>
        <Node pos="r" depth="1" NCoef="0" IVar="3" Cut="1.7246387004852295e+00" cType="1" res="6.2767758965492249e-02" rms="1.3603393733501434e-01" purity="8.9435398578643799e-01" nType="0">
          <Node pos="l" depth="2" NCoef="0" IVar="5" Cut="-3.3465216159820557e+00" cType="1" res="7.4587471783161163e-02" rms="1.1706349998712540e-01" purity="9.4733470678329468e-01" nType="0">
            <Node pos="l" depth="3" NCoef="0" IVar="-1" Cut="0.0000000000000000e+00" cType="1" res="5.0434827804565430e-02" rms="1.0208247601985931e-01" purity="9.7242611646652222e-01" nType="-99"/>
            <Node pos="r" depth="3" NCoef="0" IVar="-1" Cut="0.0000000000000000e+00" cType="1" res="-1.0944747366011143e-02" rms="2.2502848505973816e-01" purity="5.8312964439392090e-01" nType="-99"/>
          </Node>
          <Node pos="r" depth="2" NCoef="0" IVar="-1" Cut="0.0000000000000000e+00" cType="1" res="-3.3197484910488129e-02" rms="2.3691424727439880e-01" purity="1.6980293393135071e-01" nType="-99"/>
        </Node>
      </Node>
    </BinaryTree>
    <BinaryTree type="DecisionTree" boostWeight="1.0000000000000000e+00" itree="21">
      <Node pos="s" depth="0" NCoef="0" IVar="16" Cut="4.6413588523864746e+00" cType="1" res="1.1922057019546628e-03" rms="1.4501532912254333e-01" purity="5.0234436988830566e-01" nType="0">
        <Node pos="l" depth="1" NCoef="0" IVar="3" Cut="2.0490956306457520e-01" cType="1" res="-6.4336836338043213e-02" rms="1.2801787257194519e-01" purity="5.3008299320936203e-02" nType="0">
          <Node pos="l" depth="2" NCoef="0" IVar="15" Cut="2.5760214328765869e+00" cType="1" res="2.0070707425475121e-02" rms="2.7507856488227844e-01" purity="3.2294327020645142e-01" nType="0">
            <Node pos="l" depth="3" NCoef="0" IVar="-1" Cut="0.0000000000000000e+00" cType="1" res="-2.9651284217834473e-02" rms="2.0049841701984406e-01" purity="1.2874822318553925e-01" nType="-99"/>
            <Node pos="r" depth="3" NCoef="0" IVar="-1" Cut="0.0000000000000000e+00" cType="1" res="3.6936774849891663e-02" rms="3.0424830317497253e-01" purity="5.1459127664566040e-01" nType="-99"/>
          </Node>
          <Node pos="r" depth="2" NCoef="0" IVar="9" Cut="6.5660452842712402e+00" cType="1" res="-7.4904061853885651e-02" rms="8.9238807559013367e-02" purity="1.9214354455471039e-02" nType="0">
            <Node pos="l" depth="3" NCoef="0" IVar="-1" Cut="0.0000000000000000e+00" cType="1" res="-5.1627732813358307e-02" rms="7.1892954409122467e-02" purity="1.1760096065700054e-02" nType="-99"/>
            <Node pos="r" depth="3" NCoef="0" IVar="-1" Cut="0.0000000000000000e+00" cType="1" res="-1.8989693373441696e-02" rms="1.9511340558528900e-01" purity="1.0384090989828110e-01" nType="-99"/>
          </Node>
        </Node>
        <Node pos="r" depth="1" NCoef="0" IVar="3" Cut="1.0120429992675781e+00" cType="1" res="5.8522254228591919e-02" rms="1.3433589041233063e-01" purity="8.9545947313308716e-01" nType="0">
          <Node pos="l" depth="2" NCoef="0" IVar="-1" Cut="0.0000000000000000e+00" cType="1" res="5.1834508776664734e-02" rms="9.5496989786624908e-02" purity="9.8167455196380615e-01" nType="-99"/>
          <Node pos="r" depth="2" NCoef="0" IVar="7" Cut="3.6280517578125000e+00" cType="1" res="-4.4173981994390488e-02" rms="2.3523275554180145e-01" purity="4.1516810655593872e-01" nType="0">
            <Node pos="l" depth="3" NCoef="0" IVar="-1" Cut="0.0000000000000000e+00" cType="1" res="-5.6526739150285721e-02" rms="2.1149620413780212e-01" purity="1.1687874048948288e-01" nType="-99"/>
            <Node pos="r" depth="3" NCoef="0" IVar="-1" Cut="0.0000000000000000e+00" cType="1" res="8.4251239895820618e-03" rms="2.1897825598716736e-01" purity="5.6373083591461182e-01" nType="-99"/>
          </Node>
        </Node>
      </Node>
    </BinaryTree>
    <BinaryTree type="DecisionTree" boostWeight="1.0000000000000000e+00" itree="22">
      <Node pos="s" depth="0" NCoef="0" IVar="15" Cut="3.5499095916748047e+00" cType="1" res="-9.0632122009992599e-05" rms="1.4393688738346100e-01" purity="4.9193200469017029e-01" nType="0">
        <Node pos="l" depth="1" NCoef="0" IVar="14" Cut="4.8163328170776367e+00" cType="1" res="-5.4791565984487534e-02" rms="1.3236831128597260e-01" purity="1.0778131335973740e-01" nType="0">
          <Node pos="l" depth="2" NCoef="0" IVar="0" Cut="8.7204313278198242e+00" cType="1" res="-6.6286206245422363e-02" rms="1.1567053943872452e-01" purity="3.7901725620031357e-02" nType="0">
            <Node pos="l" depth="3" NCoef="0" IVar="-1" Cut="0.0000000000000000e+00" cType="1" res="-4.9464903771877289e-02" rms="8.8274627923965454e-02" purity="1.1810602620244026e-02" nType="-99"/>
            <Node pos="r" depth="3" NCoef="0" IVar="-1" Cut="0.0000000000000000e+00" cType="1" res="-4.3350993655622005e-03" rms="2.9042172431945801e-01" purity="3.8319927453994751e-01" nType="-99"/>
          </Node>
          <Node pos="r" depth="2" NCoef="0" IVar="-1" Cut="0.0000000000000000e+00" cType="1" res="2.3112650960683823e-02" rms="2.0827911794185638e-01" purity="7.5754797458648682e-01" nType="-99"/>
        </Node>
        <Node pos="r" depth="1" NCoef="0" IVar="14" Cut="3.5791172981262207e+00" cType="1" res="6.1553712934255600e-02" rms="1.3095037639141083e-01" purity="9.2484444379806519e-01" nType="0">
          <Node pos="l" depth="2" NCoef="0" IVar="-1" Cut="0.0000000000000000e+00" cType="1" res="-1.5637686476111412e-02" rms="2.9535165429115295e-01" purity="2.8025555610656738e-01" nType="-99"/>
          <Node pos="r" depth="2" NCoef="0" IVar="16" Cut="6.0556197166442871e+00" cType="1" res="6.9422863423824310e-02" rms="1.0582654923200607e-01" purity="9.7104042768478394e-01" nType="0">
            <Node pos="l" depth="3" NCoef="0" IVar="-1" Cut="0.0000000000000000e+00" cType="1" res="4.2786698788404465e-02" rms="1.8731443583965302e-01" purity="8.9200383424758911e-01" nType="-99"/>
            <Node pos="r" depth="3" NCoef="0" IVar="-1" Cut="0.0000000000000000e+00" cType="1" res="5.1180936396121979e-02" rms="6.6196478903293610e-02" purity="9.9304884672164917e-01" nType="-99"/>
          </Node>
        </Node>
      </Node>
    </BinaryTree>
    <BinaryTree type="DecisionTree" boostWeight="1.0000000000000000e+00" itree="23">
      <Node pos="s" depth="0" NCoef="0" IVar="14" Cut="3.9878613948822021e+00" cType="1" res="-1.3810707023367286e-03" rms="1.3379900157451630e-01" purity="4.9411594867706299e-01" nType="0">
        <Node pos="l" depth="1" NCoef="0" IVar="3" Cut="3.7074580788612366e-01" cType="1" res="-5.9640549123287201e-02" rms="1.2198524177074432e-01" purity="5.8843601495027542e-02" nType="0">
          <Node pos="l" depth="2" NCoef="0" IVar="16" Cut="3.7789688110351562e+00" cType="1" res="-6.1811385676264763e-03" rms="2.2516907751560211e-01" purity="3.0974787473678589e-01" nType="0">
            <Node pos="l" depth="3" NCoef="0" IVar="-1" Cut="0.0000000000000000e+00" cType="1" res="-4.0903311222791672e-02" rms="1.7024603486061096e-01" purity="4.4971771538257599e-02" nType="-99"/>
            <Node pos="r" depth="3" NCoef="0" IVar="-1" Cut="0.0000000000000000e+00" cType="1" res="2.0486399531364441e-02" rms="2.4166905879974365e-01" purity="5.1306647062301636e-01" nType="-99"/>
          </Node>
          <Node pos="r" depth="2" NCoef="0" IVar="16" Cut="4.6413588523864746e+00" cType="1" res="-6.7814514040946960e-02" rms="9.4337731599807739e-02" purity="2.0480247214436531e-02" nType="0">
            <Node pos="l" depth="3" NCoef="0" IVar="-1" Cut="0.0000000000000000e+00" cType="1" res="-5.2353233098983765e-02" rms="5.3866151720285416e-02" purity="2.9194268863648176e-03" nType="-99"/>
            <Node pos="r" depth="3" NCoef="0" IVar="-1" Cut="0.0000000000000000e+00" cType="1" res="-3.7027630954980850e-02" rms="2.2479207813739777e-01" purity="1.4556846022605896e-01" nType="-99"/>
          </Node>
        </Node>
        <Node pos="r" depth="1" NCoef="0" IVar="2" Cut="-9.2623577117919922e+00" cType="1" res="4.7147519886493683e-02" rms="1.2343807518482208e-01" purity="8.5668617486953735e-01" nType="0">
          <Node pos="l" depth="2" NCoef="0" IVar="13" Cut="1.7878712415695190e+00" cType="1" res="5.9784211218357086e-02" rms="1.1211258172988892e-01" purity="9.4633555412292480e-01" nType="0">
            <Node pos="l" depth="3" NCoef="0" IVar="-1" Cut="0.0000000000000000e+00" cType="1" res="-3.5999424289911985e-03" rms="2.3248401284217834e-01" purity="5.2803599834442139e-01" nType="-99"/>
            <Node pos="r" depth="3" NCoef="0" IVar="-1" Cut="0.0000000000000000e+00" cType="1" res="4.7870233654975891e-02" rms="9.9285334348678589e-02" purity="9.7073453664779663e-01" nType="-99"/>
          </Node>
          <Node pos="r" depth="2" NCoef="0" IVar="9" Cut="5.9199495315551758e+00" cType="1" res="-6.7065425217151642e-02" rms="1.5767227113246918e-01" purity="4.6417348086833954e-02" nType="0">
            <Node pos="l" depth="3" NCoef="0" IVar="-1" Cut="0.0000000000000000e+00" cType="1" res="-5.8763448148965836e-02" rms="7.1170359849929810e-02" purity="0.0000000000000000e+00" nType="-99"/>
            <Node pos="r" depth="3" NCoef="0" IVar="-1" Cut="0.0000000000000000e+00" cType="1" res="-2.0625049248337746e-02" rms="2.0445054769515991e-01" purity="8.9902251958847046e-02" nType="-99"/>
          </Node>
        </Node>
      </Node>
    </BinaryTree>
    <BinaryTree type="DecisionTree" boostWeight="1.0000000000000000e+00" itree="24">
      <Node pos="s" depth="0" NCoef="0" IVar="15" Cut="3.1171929836273193e+00" cType="1" res="2.8994777239859104e-03" rms="1.4014503359794617e-01" purity="5.0396281480789185e-01" nType="0">
        <Node pos="l" depth="1" NCoef="0" IVar="13" Cut="2.5383467674255371e+00" cType="1" res="-4.8222325742244720e-02" rms="1.2900684773921967e-01" purity="8.4159389138221741e-02" nType="0">
          <Node pos="l" depth="2" NCoef="0" IVar="13" Cut="2.0443964004516602e+00" cType="1" res="-5.6263774633407593e-02" rms="1.1562569439411163e-01" purity="3.3594779670238495e-02" nType="0">
            <Node pos="l" depth="3" NCoef="0" IVar="-1" Cut="0.0000000000000000e+00" cType="1" res="-4.8233173787593842e-02" rms="9.2808738350868225e-02" purity="1.7911616712808609e-02" nType="-99"/>
            <Node pos="r" depth="3" NCoef="0" IVar="-1" Cut="0.0000000000000000e+00" cType="1" res="-1.8234081566333771e-02" rms="1.8685108423233032e-01" purity="1.0812311619520187e-01" nType="-99"/>
          </Node>
          <Node pos="r" depth="2" NCoef="0" IVar="-1" Cut="0.0000000000000000e+00" cType="1" res="8.8576311245560646e-03" rms="1.9664996862411499e-01" purity="5.0030511617660522e-01" nType="-99"/>
        </Node>
        <Node pos="r" depth="1" NCoef="0" IVar="2" Cut="-8.6293325424194336e+00" cType="1" res="4.6877231448888779e-02" rms="1.3430298864841461e-01" purity="8.6510062217712402e-01" nType="0">
          <Node pos="l" depth="2" NCoef="0" IVar="3" Cut="1.1713143587112427e+00" cType="1" res="5.7205755263566971e-02" rms="1.2603321671485901e-01" purity="9.3442225456237793e-01" nType="0">
            <Node pos="l" depth="3" NCoef="0" IVar="-1" Cut="0.0000000000000000e+00" cType="1" res="5.2425406873226166e-02" rms="9.7668848931789398e-02" purity="9.8367571830749512e-01" nType="-99"/>
            <Node pos="r" depth="3" NCoef="0" IVar="-1" Cut="0.0000000000000000e+00" cType="1" res="1.9252899801358581e-03" rms="2.6159769296646118e-01" purity="5.0300878286361694e-01" nType="-99"/>
          </Node>
          <Node pos="r" depth="2" NCoef="0" IVar="-1" Cut="0.0000000000000000e+00" cType="1" res="-4.1228055953979492e-02" rms="1.6515681147575378e-01" purity="3.9599150419235229e-02" nType="-99"/>
        </Node>
      </Node>
    </BinaryTree>
    <BinaryTree type="DecisionTree" boostWeight="1.0000000000000000e+00" itree="25">
      <Node pos="s" depth="0" NCoef="0" IVar="13" Cut="2.1321456432342529e+00" cType="1" res="7.8922579996287823e-04" rms="1.3269151747226715e-01" purity="4.9970853328704834e-01" nType="0">
        <Node pos="l" depth="1" NCoef="0" IVar="3" Cut="1.8793447315692902e-01" cType="1" res="-4.8770997673273087e-02" rms="1.3261212408542633e-01" purity="9.6151605248451233e-02" nType="0">
          <Node pos="l" depth="2" NCoef="0" IVar="8" Cut="-2.6663187146186829e-01" cType="1" res="3.4787219017744064e-02" rms="2.1485453844070435e-01" purity="5.1238119602203369e-01" nType="0">
            <Node pos="l" depth="3" NCoef="0" IVar="-1" Cut="0.0000000000000000e+00" cType="1" res="2.2638974711298943e-02" rms="2.3167905211448669e-01" purity="5.3462642431259155e-01" nType="-99"/>
            <Node pos="r" depth="3" NCoef="0" IVar="-1" Cut="0.0000000000000000e+00" cType="1" res="7.2049293667078018e-03" rms="1.9322709739208221e-01" purity="4.8827224969863892e-01" nType="-99"/>
          </Node>
          <Node pos="r" depth="2" NCoef="0" IVar="16" Cut="5.1782259941101074e+00" cType="1" res="-5.9750035405158997e-02" rms="1.1310734599828720e-01" purity="4.1461583226919174e-02" nType="0">
            <Node pos="l" depth="3" NCoef="0" IVar="-1" Cut="0.0000000000000000e+00" cType="1" res="-4.6045586466789246e-02" rms="9.1698773205280304e-02" purity="1.6048962250351906e-02" nType="-99"/>
            <Node pos="r" depth="3" NCoef="0" IVar="-1" Cut="0.0000000000000000e+00" cType="1" res="-4.6979762613773346e-02" rms="2.4297018349170685e-01" purity="3.3704185485839844e-01" nType="-99"/>
          </Node>
        </Node>
        <Node pos="r" depth="1" NCoef="0" IVar="2" Cut="-8.6293401718139648e+00" cType="1" res="4.2721267789602280e-02" rms="1.1742402613162994e-01" purity="8.4115111827850342e-01" nType="0">
          <Node pos="l" depth="2" NCoef="0" IVar="15" Cut="2.6270344257354736e+00" cType="1" res="5.3691502660512924e-02" rms="1.1286144703626633e-01" purity="9.2685693502426147e-01" nType="0">
            <Node pos="l" depth="3" NCoef="0" IVar="-1" Cut="0.0000000000000000e+00" cType="1" res="-1.2131849507568404e-04" rms="2.0545072853565216e-01" purity="4.0873420238494873e-01" nType="-99"/>
            <Node pos="r" depth="3" NCoef="0" IVar="-1" Cut="0.0000000000000000e+00" cType="1" res="5.0613291561603546e-02" rms="9.9242001771926880e-02" purity="9.7271567583084106e-01" nType="-99"/>
          </Node>
          <Node pos="r" depth="2" NCoef="0" IVar="10" Cut="7.3644161224365234e+00" cType="1" res="-6.2043171375989914e-02" rms="1.0815519094467163e-01" purity="2.2670915350317955e-02" nType="0">
            <Node pos="l" depth="3" NCoef="0" IVar="-1" Cut="0.0000000000000000e+00" cType="1" res="-4.3731223791837692e-02" rms="1.1405204981565475e-01" purity="1.9221013411879539e-02" nType="-99"/>
            <Node pos="r" depth="3" NCoef="0" IVar="-1" Cut="0.0000000000000000e+00" cType="1" res="-4.2916230857372284e-02" rms="1.0176257044076920e-01" purity="2.6197474449872971e-02" nType="-99"/>
          </Node>
        </Node>
      </Node>
    </BinaryTree>
    <BinaryTree type="DecisionTree" boostWeight="1.0000000000000000e+00" itree="26">
      <Node pos="s" depth="0" NCoef="0" IVar="2" Cut="-1.0831834793090820e+01" cType="1" res="2.6554774376563728e-04" rms="1.2468369305133820e-01" purity="5.0474470853805542e-01" nType="0">
        <Node pos="l" depth="1" NCoef="0" IVar="14" Cut="3.4942939281463623e+00" cType="1" res="4.0416136384010315e-02" rms="1.1480988562107086e-01" purity="9.0292990207672119e-01" nType="0">
          <Node pos="l" depth="2" NCoef="0" IVar="-1" Cut="0.0000000000000000e+00" cType="1" res="-2.0866680890321732e-02" rms="1.8375496566295624e-01" purity="1.9394052028656006e-01" nType="-99"/>
          <Node pos="r" depth="2" NCoef="0" IVar="16" Cut="5.1575622558593750e+00" cType="1" res="4.7318067401647568e-02" rms="1.0415843874216080e-01" purity="9.6189188957214355e-01" nType="0">
            <Node pos="l" depth="3" NCoef="0" IVar="-1" Cut="0.0000000000000000e+00" cType="1" res="3.0137175694108009e-02" rms="2.4511173367500305e-01" purity="6.9490242004394531e-01" nType="-99"/>
            <Node pos="r" depth="3" NCoef="0" IVar="-1" Cut="0.0000000000000000e+00" cType="1" res="4.7539759427309036e-02" rms="7.0278540253639221e-02" purity="9.9311220645904541e-01" nType="-99"/>
          </Node>
        </Node>
        <Node pos="r" depth="1" NCoef="0" IVar="1" Cut="3.2482340335845947e+00" cType="1" res="-4.4007390737533569e-02" rms="1.2006602436304092e-01" purity="6.5677016973495483e-02" nType="0">
          <Node pos="l" depth="2" NCoef="0" IVar="3" Cut="1.1224299669265747e+00" cType="1" res="5.3622731938958168e-03" rms="1.9315522909164429e-01" purity="2.8070867061614990e-01" nType="0">
            <Node pos="l" depth="3" NCoef="0" IVar="-1" Cut="0.0000000000000000e+00" cType="1" res="3.5939283668994904e-02" rms="2.3010949790477753e-01" purity="5.5052626132965088e-01" nType="-99"/>
            <Node pos="r" depth="3" NCoef="0" IVar="-1" Cut="0.0000000000000000e+00" cType="1" res="-4.9917828291654587e-02" rms="9.9351763725280762e-02" purity="2.9819702729582787e-02" nType="-99"/>
          </Node>
          <Node pos="r" depth="2" NCoef="0" IVar="4" Cut="2.1140887737274170e+00" cType="1" res="-5.1755536347627640e-02" rms="1.0188434273004532e-01" purity="3.1929641962051392e-02" nType="0">
            <Node pos="l" depth="3" NCoef="0" IVar="-1" Cut="0.0000000000000000e+00" cType="1" res="-3.1094841659069061e-02" rms="1.3058707118034363e-01" purity="5.8295231312513351e-02" nType="-99"/>
            <Node pos="r" depth="3" NCoef="0" IVar="-1" Cut="0.0000000000000000e+00" cType="1" res="-5.3240686655044556e-02" rms="6.4788848161697388e-02" purity="8.4116263315081596e-03" nType="-99"/>
          </Node>
        </Node>
      </Node>
    </BinaryTree>
    <BinaryTree type="DecisionTree" boostWeight="1.0000000000000000e+00" itree="27">
      <Node pos="s" depth="0" NCoef="0" IVar="3" Cut="8.5778206586837769e-01" cType="1" res="-4.5554805546998978e-04" rms="1.2218789756298065e-01" purity="5.0016778707504272e-01" nType="0">
        <Node pos="l" depth="1" NCoef="0" IVar="2" Cut="-8.4277744293212891e+00" cType="1" res="3.5550639033317566e-02" rms="1.2113697081804276e-01" purity="8.2356607913970947e-01" nType="0">
          <Node pos="l" depth="2" NCoef="0" IVar="0" Cut="8.1018905639648438e+00" cType="1" res="4.6929024159908295e-02" rms="1.1529999226331711e-01" purity="9.1732603311538696e-01" nType="0">
            <Node pos="l" depth="3" NCoef="0" IVar="-1" Cut="0.0000000000000000e+00" cType="1" res="-7.1803191676735878e-03" rms="1.7476752400398254e-01" purity="4.9422651529312134e-01" nType="-99"/>
            <Node pos="r" depth="3" NCoef="0" IVar="-1" Cut="0.0000000000000000e+00" cType="1" res="4.9096755683422089e-02" rms="1.0549139976501465e-01" purity="9.6086078882217407e-01" nType="-99"/>
          </Node>
          <Node pos="r" depth="2" NCoef="0" IVar="3" Cut="2.5978904962539673e-01" cType="1" res="-6.1872955411672592e-02" rms="1.2605853378772736e-01" purity="2.0778564736247063e-02" nType="0">
            <Node pos="l" depth="3" NCoef="0" IVar="-1" Cut="0.0000000000000000e+00" cType="1" res="-4.4051963835954666e-02" rms="1.3461415469646454e-01" purity="2.6180358603596687e-02" nType="-99"/>
            <Node pos="r" depth="3" NCoef="0" IVar="-1" Cut="0.0000000000000000e+00" cType="1" res="-4.2063735425472260e-02" rms="1.1675065755844116e-01" purity="1.6295552253723145e-02" nType="-99"/>
          </Node>
        </Node>
        <Node pos="r" depth="1" NCoef="0" IVar="13" Cut="2.7284097671508789e+00" cType="1" res="-4.2168680578470230e-02" rms="1.0947242379188538e-01" purity="1.2551113963127136e-01" nType="0">
          <Node pos="l" depth="2" NCoef="0" IVar="15" Cut="3.6997663974761963e+00" cType="1" res="-5.4682068526744843e-02" rms="9.3910530209541321e-02" purity="3.2434374094009399e-02" nType="0">
            <Node pos="l" depth="3" NCoef="0" IVar="-1" Cut="0.0000000000000000e+00" cType="1" res="-4.9094650894403458e-02" rms="7.1867510676383972e-02" purity="1.2874155305325985e-02" nType="-99"/>
            <Node pos="r" depth="3" NCoef="0" IVar="-1" Cut="0.0000000000000000e+00" cType="1" res="-4.5917186886072159e-02" rms="2.2229339182376862e-01" purity="2.7305644750595093e-01" nType="-99"/>
          </Node>
          <Node pos="r" depth="2" NCoef="0" IVar="-1" Cut="0.0000000000000000e+00" cType="1" res="2.7087796479463577e-02" rms="1.5943637490272522e-01" purity="7.8273969888687134e-01" nType="-99"/>
        </Node>
      </Node>
    </BinaryTree>
    <BinaryTree type="DecisionTree" boostWeight="1.0000000000000000e+00" itree="28">
      <Node pos="s" depth="0" NCoef="0" IVar="2" Cut="-9.9886665344238281e+00" cType="1" res="1.1822638334706426e-03" rms="1.2300257384777069e-01" purity="5.0331395864486694e-01" nType="0">
        <Node pos="l" depth="1" NCoef="0" IVar="3" Cut="1.4592790603637695e+00" cType="1" res="3.1010111793875694e-02" rms="1.2337237596511841e-01" purity="8.4042966365814209e-01" nType="0">
          <Node pos="l" depth="2" NCoef="0" IVar="1" Cut="4.2819914817810059e+00" cType="1" res="4.2742937803268433e-02" rms="1.1029420047998428e-01" purity="9.4014000892639160e-01" nType="0">
            <Node pos="l" depth="3" NCoef="0" IVar="-1" Cut="0.0000000000000000e+00" cType="1" res="4.7458983957767487e-02" rms="1.0304372012615204e-01" purity="9.6840023994445801e-01" nType="-99"/>
            <Node pos="r" depth="3" NCoef="0" IVar="-1" Cut="0.0000000000000000e+00" cType="1" res="-3.9024790748953819e-03" rms="1.5891221165657043e-01" purity="6.5426754951477051e-01" nType="-99"/>
          </Node>
          <Node pos="r" depth="2" NCoef="0" IVar="13" Cut="1.9418671131134033e+00" cType="1" res="-5.0883010029792786e-02" rms="1.6995090246200562e-01" purity="1.4446820318698883e-01" nType="0">
            <Node pos="l" depth="3" NCoef="0" IVar="-1" Cut="0.0000000000000000e+00" cType="1" res="-5.6061163544654846e-02" rms="1.1069193482398987e-01" purity="1.0262737981975079e-02" nType="-99"/>
            <Node pos="r" depth="3" NCoef="0" IVar="-1" Cut="0.0000000000000000e+00" cType="1" res="2.8384453617036343e-03" rms="2.3673059046268463e-01" purity="4.0481954813003540e-01" nType="-99"/>
          </Node>
        </Node>
        <Node pos="r" depth="1" NCoef="0" IVar="2" Cut="-9.6951169967651367e+00" cType="1" res="-4.0582176297903061e-02" rms="1.0959950089454651e-01" purity="3.1290356069803238e-02" nType="0">
          <Node pos="l" depth="2" NCoef="0" IVar="-1" Cut="0.0000000000000000e+00" cType="1" res="5.5818324908614159e-03" rms="2.0212830603122711e-01" purity="2.1217785775661469e-01" nType="-99"/>
          <Node pos="r" depth="2" NCoef="0" IVar="5" Cut="-4.0749368667602539e+00" cType="1" res="-4.3903004378080368e-02" rms="9.9697262048721313e-02" purity="1.9415758550167084e-02" nType="0">
            <Node pos="l" depth="3" NCoef="0" IVar="-1" Cut="0.0000000000000000e+00" cType="1" res="-9.6287071937695146e-04" rms="2.1244135499000549e-01" purity="7.9583533108234406e-02" nType="-99"/>
            <Node pos="r" depth="3" NCoef="0" IVar="-1" Cut="0.0000000000000000e+00" cType="1" res="-4.5404955744743347e-02" rms="8.4784105420112610e-02" purity="1.4960158616304398e-02" nType="-99"/>
          </Node>
        </Node>
      </Node>
    </BinaryTree>
    <BinaryTree type="DecisionTree" boostWeight="1.0000000000000000e+00" itree="29">
      <Node pos="s" depth="0" NCoef="0" IVar="13" Cut="2.1482377052307129e+00" cType="1" res="1.6650256293360144e-04" rms="1.1903956532478333e-01" purity="4.9506756663322449e-01" nType="0">
        <Node pos="l" depth="1" NCoef="0" IVar="9" Cut="6.6599960327148438e+00" cType="1" res="-3.7418980151414871e-02" rms="1.1735214293003082e-01" purity="9.1497734189033508e-02" nType="0">
          <Node pos="l" depth="2" NCoef="0" IVar="3" Cut="9.4769798219203949e-02" cType="1" res="-4.2465247213840485e-02" rms="1.0889574140310287e-01" purity="7.1110852062702179e-02" nType="0">
            <Node pos="l" depth="3" NCoef="0" IVar="-1" Cut="0.0000000000000000e+00" cType="1" res="1.4320451300591230e-03" rms="1.8354423344135284e-01" purity="4.5322531461715698e-01" nType="-99"/>
            <Node pos="r" depth="3" NCoef="0" IVar="-1" Cut="0.0000000000000000e+00" cType="1" res="-4.5719694346189499e-02" rms="9.7163088619709015e-02" purity="3.2746117562055588e-02" nType="-99"/>
          </Node>
          <Node pos="r" depth="2" NCoef="0" IVar="-1" Cut="0.0000000000000000e+00" cType="1" res="2.2343145683407784e-02" rms="1.8939675390720367e-01" purity="3.8854327797889709e-01" nType="-99"/>
        </Node>
        <Node pos="r" depth="1" NCoef="0" IVar="16" Cut="4.3254570960998535e+00" cType="1" res="3.2687462866306305e-02" rms="1.1061479896306992e-01" purity="8.4425759315490723e-01" nType="0">
          <Node pos="l" depth="2" NCoef="0" IVar="14" Cut="3.9829006195068359e+00" cType="1" res="-2.8152445331215858e-02" rms="1.5835559368133545e-01" purity="1.3083972036838531e-01" nType="0">
            <Node pos="l" depth="3" NCoef="0" IVar="-1" Cut="0.0000000000000000e+00" cType="1" res="-5.2824862301349640e-02" rms="5.9704933315515518e-02" purity="6.0896757058799267e-03" nType="-99"/>
            <Node pos="r" depth="3" NCoef="0" IVar="-1" Cut="0.0000000000000000e+00" cType="1" res="1.7660601064562798e-02" rms="2.5328174233436584e-01" purity="3.9848324656486511e-01" nType="-99"/>
          </Node>
          <Node pos="r" depth="2" NCoef="0" IVar="14" Cut="5.2020096778869629e+00" cType="1" res="4.3480593711137772e-02" rms="9.5835752785205841e-02" purity="9.7081947326660156e-01" nType="0">
            <Node pos="l" depth="3" NCoef="0" IVar="-1" Cut="0.0000000000000000e+00" cType="1" res="4.7416310757398605e-02" rms="1.8095698952674866e-01" purity="8.6796659231185913e-01" nType="-99"/>
            <Node pos="r" depth="3" NCoef="0" IVar="-1" Cut="0.0000000000000000e+00" cType="1" res="4.9145828932523727e-02" rms="5.5726323276758194e-02" purity="9.9604564905166626e-01" nType="-99"/>
          </Node>
        </Node>
      </Node>
    </BinaryTree>
    <BinaryTree type="DecisionTree" boostWeight="1.0000000000000000e+00" itree="30">
      <Node pos="s" depth="0" NCoef="0" IVar="3" Cut="9.9427652359008789e-01" cType="1" res="-1.9622060062829405e-04" rms="1.1636095494031906e-01" purity="4.9690189957618713e-01" nType="0">
        <Node pos="l" depth="1" NCoef="0" IVar="2" Cut="-9.1878156661987305e+00" cType="1" res="2.7291059494018555e-02" rms="1.1798860877752304e-01" purity="8.0143541097640991e-01" nType="0">
          <Node pos="l" depth="2" NCoef="0" IVar="16" Cut="5.6200695037841797e+00" cType="1" res="4.0060892701148987e-02" rms="1.1135996133089066e-01" purity="9.4049376249313354e-01" nType="0">
            <Node pos="l" depth="3" NCoef="0" IVar="-1" Cut="0.0000000000000000e+00" cType="1" res="3.3257059752941132e-02" rms="2.1155895292758942e-01" purity="7.3867464065551758e-01" nType="-99"/>
            <Node pos="r" depth="3" NCoef="0" IVar="-1" Cut="0.0000000000000000e+00" cType="1" res="4.9232218414545059e-02" rms="5.5433571338653564e-02" purity="9.9693167209625244e-01" nType="-99"/>
          </Node>
          <Node pos="r" depth="2" NCoef="0" IVar="5" Cut="-3.3792712688446045e+00" cType="1" res="-4.2646717280149460e-02" rms="1.2830875813961029e-01" purity="3.9841160178184509e-02" nType="0">
            <Node pos="l" depth="3" NCoef="0" IVar="-1" Cut="0.0000000000000000e+00" cType="1" res="-1.4316894114017487e-02" rms="1.6652742028236389e-01" purity="7.5270116329193115e-02" nType="-99"/>
            <Node pos="r" depth="3" NCoef="0" IVar="-1" Cut="0.0000000000000000e+00" cType="1" res="-4.9488365650177002e-02" rms="8.5659027099609375e-02" purity="1.3278456404805183e-02" nType="-99"/>
          </Node>
        </Node>
        <Node pos="r" depth="1" NCoef="0" IVar="13" Cut="2.7015030384063721e+00" cType="1" res="-3.7067085504531860e-02" rms="1.0322438925504684e-01" purity="8.8406980037689209e-02" nType="0">
          <Node pos="l" depth="2" NCoef="0" IVar="16" Cut="4.6297068595886230e+00" cType="1" res="-4.2606487870216370e-02" rms="9.2887364327907562e-02" purity="2.3120056837797165e-02" nType="0">
            <Node pos="l" depth="3" NCoef="0" IVar="-1" Cut="0.0000000000000000e+00" cType="1" res="-4.7667827457189560e-02" rms="6.4738854765892029e-02" purity="5.0891768187284470e-03" nType="-99"/>
            <Node pos="r" depth="3" NCoef="0" IVar="-1" Cut="0.0000000000000000e+00" cType="1" res="-4.1133571416139603e-02" rms="1.8285754323005676e-01" purity="1.3132667541503906e-01" nType="-99"/>
          </Node>
          <Node pos="r" depth="2" NCoef="0" IVar="-1" Cut="0.0000000000000000e+00" cType="1" res="7.9812109470367432e-03" rms="1.6199839115142822e-01" purity="6.8074041604995728e-01" nType="-99"/>
        </Node>
      </Node>
    </BinaryTree>
    <BinaryTree type="DecisionTree" boostWeight="1.0000000000000000e+00" itree="31">
      <Node pos="s" depth="0" NCoef="0" IVar="3" Cut="1.1162186861038208e+00" cType="1" res="1.9310789648443460e-03" rms="1.1993038654327393e-01" purity="4.9976918101310730e-01" nType="0">
        <Node pos="l" depth="1" NCoef="0" IVar="16" Cut="4.0677776336669922e+00" cType="1" res="2.5768650695681572e-02" rms="1.2589417397975922e-01" purity="7.8020834922790527e-01" nType="0">
          <Node pos="l" depth="2" NCoef="0" IVar="0" Cut="8.3534259796142578e+00" cType="1" res="-3.0963810160756111e-02" rms="1.5310107171535492e-01" purity="9.7568333148956299e-02" nType="0">
            <Node pos="l" depth="3" NCoef="0" IVar="-1" Cut="0.0000000000000000e+00" cType="1" res="-4.5753277838230133e-02" rms="1.0223553329706192e-01" purity="1.9061159342527390e-02" nType="-99"/>
            <Node pos="r" depth="3" NCoef="0" IVar="-1" Cut="0.0000000000000000e+00" cType="1" res="1.3657850213348866e-02" rms="2.2840727865695953e-01" purity="2.9926082491874695e-01" nType="-99"/>
          </Node>
          <Node pos="r" depth="2" NCoef="0" IVar="16" Cut="5.3286948204040527e+00" cType="1" res="3.8325592875480652e-02" rms="1.1532219499349594e-01" purity="9.3130123615264893e-01" nType="0">
            <Node pos="l" depth="3" NCoef="0" IVar="-1" Cut="0.0000000000000000e+00" cType="1" res="4.0004134178161621e-02" rms="2.2942051291465759e-01" purity="6.3128834962844849e-01" nType="-99"/>
            <Node pos="r" depth="3" NCoef="0" IVar="-1" Cut="0.0000000000000000e+00" cType="1" res="4.6460282057523727e-02" rms="7.0742875337600708e-02" purity="9.9180930852890015e-01" nType="-99"/>
          </Node>
        </Node>
        <Node pos="r" depth="1" NCoef="0" IVar="13" Cut="2.6640708446502686e+00" cType="1" res="-3.4151285886764526e-02" rms="1.0001064091920853e-01" purity="7.5275100767612457e-02" nType="0">
          <Node pos="l" depth="2" NCoef="0" IVar="16" Cut="5.1673512458801270e+00" cType="1" res="-4.0812816470861435e-02" rms="8.5275538265705109e-02" purity="1.6645839437842369e-02" nType="0">
            <Node pos="l" depth="3" NCoef="0" IVar="-1" Cut="0.0000000000000000e+00" cType="1" res="-4.7906085848808289e-02" rms="6.5751902759075165e-02" purity="4.9739396199584007e-03" nType="-99"/>
            <Node pos="r" depth="3" NCoef="0" IVar="-1" Cut="0.0000000000000000e+00" cType="1" res="-4.8610851168632507e-02" rms="2.0164890587329865e-01" purity="1.7080117762088776e-01" nType="-99"/>
          </Node>
          <Node pos="r" depth="2" NCoef="0" IVar="-1" Cut="0.0000000000000000e+00" cType="1" res="1.5015844255685806e-02" rms="1.7732924222946167e-01" purity="6.3012433052062988e-01" nType="-99"/>
        </Node>
      </Node>
    </BinaryTree>
    <BinaryTree type="DecisionTree" boostWeight="1.0000000000000000e+00" itree="32">
      <Node pos="s" depth="0" NCoef="0" IVar="3" Cut="1.1039103269577026e+00" cType="1" res="1.1414608452469110e-03" rms="1.1583384126424789e-01" purity="4.9763369560241699e-01" nType="0">
        <Node pos="l" depth="1" NCoef="0" IVar="2" Cut="-8.6290502548217773e+00" cType="1" res="2.1872656419873238e-02" rms="1.1862430721521378e-01" purity="7.8068679571151733e-01" nType="0">
          <Node pos="l" depth="2" NCoef="0" IVar="0" Cut="7.9024968147277832e+00" cType="1" res="3.2623764127492905e-02" rms="1.1838614940643311e-01" purity="9.0644484758377075e-01" nType="0">
            <Node pos="l" depth="3" NCoef="0" IVar="-1" Cut="0.0000000000000000e+00" cType="1" res="-3.3870030194520950e-02" rms="1.4266715943813324e-01" purity="3.0294388532638550e-01" nType="-99"/>
            <Node pos="r" depth="3" NCoef="0" IVar="-1" Cut="0.0000000000000000e+00" cType="1" res="4.4811714440584183e-02" rms="1.1503215879201889e-01" purity="9.4005751609802246e-01" nType="-99"/>
          </Node>
          <Node pos="r" depth="2" NCoef="0" IVar="3" Cut="6.1869227886199951e-01" cType="1" res="-4.3511934578418732e-02" rms="9.7143761813640594e-02" purity="1.5869563445448875e-02" nType="0">
            <Node pos="l" depth="3" NCoef="0" IVar="-1" Cut="0.0000000000000000e+00" cType="1" res="-4.5998655259609222e-02" rms="9.4405375421047211e-02" purity="1.4894209802150726e-02" nType="-99"/>
            <Node pos="r" depth="3" NCoef="0" IVar="-1" Cut="0.0000000000000000e+00" cType="1" res="-3.6098312586545944e-02" rms="9.8126955330371857e-02" purity="1.6981612890958786e-02" nType="-99"/>
          </Node>
        </Node>
        <Node pos="r" depth="1" NCoef="0" IVar="13" Cut="2.6778852939605713e+00" cType="1" res="-3.0083606019616127e-02" rms="1.0396981984376907e-01" purity="7.1302637457847595e-02" nType="0">
          <Node pos="l" depth="2" NCoef="0" IVar="16" Cut="5.1673512458801270e+00" cType="1" res="-3.5256549715995789e-02" rms="9.0133316814899445e-02" purity="1.8074112012982368e-02" nType="0">
            <Node pos="l" depth="3" NCoef="0" IVar="-1" Cut="0.0000000000000000e+00" cType="1" res="-4.6988427639007568e-02" rms="6.4925976097583771e-02" purity="5.0004259683191776e-03" nType="-99"/>
            <Node pos="r" depth="3" NCoef="0" IVar="-1" Cut="0.0000000000000000e+00" cType="1" res="-3.3512476831674576e-02" rms="2.3540440201759338e-01" purity="1.8359942734241486e-01" nType="-99"/>
          </Node>
          <Node pos="r" depth="2" NCoef="0" IVar="-1" Cut="0.0000000000000000e+00" cType="1" res="1.1717880144715309e-02" rms="1.8724513053894043e-01" purity="6.1206275224685669e-01" nType="-99"/>
        </Node>
      </Node>
    </BinaryTree>
    <BinaryTree type="DecisionTree" boostWeight="1.0000000000000000e+00" itree="33">
      <Node pos="s" depth="0" NCoef="0" IVar="15" Cut="3.0255088806152344e+00" cType="1" res="4.2525557801127434e-03" rms="1.2074521929025650e-01" purity="5.0653225183486938e-01" nType="0">
        <Node pos="l" depth="1" NCoef="0" IVar="11" Cut="6.9961481094360352e+00" cType="1" res="-2.4308640509843826e-02" rms="1.1050994694232941e-01" purity="8.8470749557018280e-02" nType="0">
          <Node pos="l" depth="2" NCoef="0" IVar="12" Cut="7.6556501388549805e+00" cType="1" res="-3.1979978084564209e-02" rms="9.3659162521362305e-02" purity="5.0068065524101257e-02" nType="0">
            <Node pos="l" depth="3" NCoef="0" IVar="-1" Cut="0.0000000000000000e+00" cType="1" res="-4.9687847495079041e-02" rms="6.7463360726833344e-02" purity="1.8725629895925522e-02" nType="-99"/>
            <Node pos="r" depth="3" NCoef="0" IVar="-1" Cut="0.0000000000000000e+00" cType="1" res="-2.4126725271344185e-02" rms="1.2216461449861526e-01" purity="9.6943609416484833e-02" nType="-99"/>
          </Node>
          <Node pos="r" depth="2" NCoef="0" IVar="2" Cut="-9.1900501251220703e+00" cType="1" res="2.0583063364028931e-02" rms="1.7316362261772156e-01" purity="3.1319835782051086e-01" nType="0">
            <Node pos="l" depth="3" NCoef="0" IVar="-1" Cut="0.0000000000000000e+00" cType="1" res="4.7347750514745712e-02" rms="2.2359785437583923e-01" purity="6.0820299386978149e-01" nType="-99"/>
            <Node pos="r" depth="3" NCoef="0" IVar="-1" Cut="0.0000000000000000e+00" cType="1" res="-4.8475645482540131e-02" rms="5.2880194038152695e-02" purity="5.1631531678140163e-03" nType="-99"/>
          </Node>
        </Node>
        <Node pos="r" depth="1" NCoef="0" IVar="3" Cut="1.7615745067596436e+00" cType="1" res="2.7272082865238190e-02" rms="1.2369214743375778e-01" purity="8.4347808361053467e-01" nType="0">
          <Node pos="l" depth="2" NCoef="0" IVar="9" Cut="5.6565418243408203e+00" cType="1" res="3.2889131456613541e-02" rms="1.1852649599313736e-01" purity="9.0453165769577026e-01" nType="0">
            <Node pos="l" depth="3" NCoef="0" IVar="-1" Cut="0.0000000000000000e+00" cType="1" res="7.8672415111213923e-04" rms="1.2645135819911957e-01" purity="7.7598589658737183e-01" nType="-99"/>
            <Node pos="r" depth="3" NCoef="0" IVar="-1" Cut="0.0000000000000000e+00" cType="1" res="4.9749258905649185e-02" rms="1.1576853692531586e-01" purity="9.3057698011398315e-01" nType="-99"/>
          </Node>
          <Node pos="r" depth="2" NCoef="0" IVar="-1" Cut="0.0000000000000000e+00" cType="1" res="-2.6049062609672546e-02" rms="1.5924482047557831e-01" purity="1.1522910743951797e-01" nType="-99"/>
        </Node>
      </Node>
    </BinaryTree>
    <BinaryTree type="DecisionTree" boostWeight="1.0000000000000000e+00" itree="34">
      <Node pos="s" depth="0" NCoef="0" IVar="13" Cut="2.1566762924194336e+00" cType="1" res="-3.4459237940609455e-04" rms="1.0594522953033447e-01" purity="5.0302660465240479e-01" nType="0">
        <Node pos="l" depth="1" NCoef="0" IVar="9" Cut="6.4459328651428223e+00" cType="1" res="-2.5895714759826660e-02" rms="1.0748014599084854e-01" purity="9.7030155360698700e-02" nType="0">
          <Node pos="l" depth="2" NCoef="0" IVar="10" Cut="6.4625701904296875e+00" cType="1" res="-3.1447123736143112e-02" rms="9.8275318741798401e-02" purity="7.2686061263084412e-02" nType="0">
            <Node pos="l" depth="3" NCoef="0" IVar="-1" Cut="0.0000000000000000e+00" cType="1" res="-6.2725894153118134e-02" rms="1.0328029841184616e-01" purity="5.7932366617023945e-03" nType="-99"/>
            <Node pos="r" depth="3" NCoef="0" IVar="-1" Cut="0.0000000000000000e+00" cType="1" res="-3.4376543015241623e-02" rms="9.7324699163436890e-02" purity="7.7820762991905212e-02" nType="-99"/>
          </Node>
          <Node pos="r" depth="2" NCoef="0" IVar="15" Cut="2.2945971488952637e+00" cType="1" res="1.0280170477926731e-02" rms="1.4961414039134979e-01" purity="2.5566902756690979e-01" nType="0">
            <Node pos="l" depth="3" NCoef="0" IVar="-1" Cut="0.0000000000000000e+00" cType="1" res="-4.4523958116769791e-02" rms="6.7017808556556702e-02" purity="2.2382639348506927e-02" nType="-99"/>
            <Node pos="r" depth="3" NCoef="0" IVar="-1" Cut="0.0000000000000000e+00" cType="1" res="3.6503165960311890e-02" rms="1.8782970309257507e-01" purity="4.7183457016944885e-01" nType="-99"/>
          </Node>
        </Node>
        <Node pos="r" depth="1" NCoef="0" IVar="3" Cut="1.6483172178268433e+00" cType="1" res="2.1690901368856430e-02" rms="9.9464967846870422e-02" purity="8.5316121578216553e-01" nType="0">
          <Node pos="l" depth="2" NCoef="0" IVar="2" Cut="-8.6296300888061523e+00" cType="1" res="2.6769844815135002e-02" rms="9.4788268208503723e-02" purity="9.1816270351409912e-01" nType="0">
            <Node pos="l" depth="3" NCoef="0" IVar="-1" Cut="0.0000000000000000e+00" cType="1" res="4.4721409678459167e-02" rms="9.0101890265941620e-02" purity="9.6620458364486694e-01" nType="-99"/>
            <Node pos="r" depth="3" NCoef="0" IVar="-1" Cut="0.0000000000000000e+00" cType="1" res="-1.8658960238099098e-02" rms="1.4935824275016785e-01" purity="5.1242392510175705e-02" nType="-99"/>
          </Node>
          <Node pos="r" depth="2" NCoef="0" IVar="-1" Cut="0.0000000000000000e+00" cType="1" res="-2.6678420603275299e-02" rms="1.2863403558731079e-01" purity="1.2442760169506073e-01" nType="-99"/>
        </Node>
      </Node>
    </BinaryTree>
    <BinaryTree type="DecisionTree" boostWeight="1.0000000000000000e+00" itree="35">
      <Node pos="s" depth="0" NCoef="0" IVar="4" Cut="1.9429879188537598e+00" cType="1" res="1.1506965383887291e-03" rms="1.1405258625745773e-01" purity="4.9449157714843750e-01" nType="0">
        <Node pos="l" depth="1" NCoef="0" IVar="0" Cut="8.4355764389038086e+00" cType="1" res="1.6155652701854706e-02" rms="1.1740593612194061e-01" purity="6.7349404096603394e-01" nType="0">
          <Node pos="l" depth="2" NCoef="0" IVar="14" Cut="4.1391482353210449e+00" cType="1" res="-1.5027973800897598e-02" rms="1.1508894711732864e-01" purity="2.6194244623184204e-01" nType="0">
            <Node pos="l" depth="3" NCoef="0" IVar="-1" Cut="0.0000000000000000e+00" cType="1" res="-3.7949547171592712e-02" rms="1.0097577422857285e-01" purity="2.7889013290405273e-02" nType="-99"/>
            <Node pos="r" depth="3" NCoef="0" IVar="-1" Cut="0.0000000000000000e+00" cType="1" res="2.1994445472955704e-02" rms="1.3546742498874664e-01" purity="7.9711145162582397e-01" nType="-99"/>
          </Node>
          <Node pos="r" depth="2" NCoef="0" IVar="16" Cut="5.2806725502014160e+00" cType="1" res="3.3048335462808609e-02" rms="1.1516871303319931e-01" purity="8.9643836021423340e-01" nType="0">
            <Node pos="l" depth="3" NCoef="0" IVar="-1" Cut="0.0000000000000000e+00" cType="1" res="3.9631869643926620e-02" rms="2.1461856365203857e-01" purity="5.4360496997833252e-01" nType="-99"/>
            <Node pos="r" depth="3" NCoef="0" IVar="-1" Cut="0.0000000000000000e+00" cType="1" res="4.4404897838830948e-02" rms="6.6496416926383972e-02" purity="9.8747467994689941e-01" nType="-99"/>
          </Node>
        </Node>
        <Node pos="r" depth="1" NCoef="0" IVar="9" Cut="6.0777826309204102e+00" cType="1" res="-3.2403990626335144e-02" rms="9.8198279738426208e-02" purity="9.4198971986770630e-02" nType="0">
          <Node pos="l" depth="2" NCoef="0" IVar="16" Cut="4.6460313796997070e+00" cType="1" res="-3.9941482245922089e-02" rms="8.3749398589134216e-02" purity="4.3916683644056320e-02" nType="0">
            <Node pos="l" depth="3" NCoef="0" IVar="-1" Cut="0.0000000000000000e+00" cType="1" res="-5.2191250026226044e-02" rms="4.9333732575178146e-02" purity="2.0964664872735739e-03" nType="-99"/>
            <Node pos="r" depth="3" NCoef="0" IVar="-1" Cut="0.0000000000000000e+00" cType="1" res="-5.5009480565786362e-02" rms="1.6246265172958374e-01" purity="2.3636804521083832e-01" nType="-99"/>
          </Node>
          <Node pos="r" depth="2" NCoef="0" IVar="15" Cut="2.9105863571166992e+00" cType="1" res="-1.9441038370132446e-02" rms="1.1789147555828094e-01" purity="1.8067432940006256e-01" nType="0">
            <Node pos="l" depth="3" NCoef="0" IVar="-1" Cut="0.0000000000000000e+00" cType="1" res="-4.8656191676855087e-02" rms="7.4865832924842834e-02" purity="1.3011110015213490e-02" nType="-99"/>
            <Node pos="r" depth="3" NCoef="0" IVar="-1" Cut="0.0000000000000000e+00" cType="1" res="1.0650973767042160e-02" rms="1.7434500157833099e-01" purity="5.4179328680038452e-01" nType="-99"/>
          </Node>
        </Node>
      </Node>
    </BinaryTree>
    <BinaryTree type="DecisionTree" boostWeight="1.0000000000000000e+00" itree="36">
      <Node pos="s" depth="0" NCoef="0" IVar="15" Cut="3.0907919406890869e+00" cType="1" res="2.2143102250993252e-03" rms="1.0992950946092606e-01" purity="5.1287066936492920e-01" nType="0">
        <Node pos="l" depth="1" NCoef="0" IVar="9" Cut="6.7293758392333984e+00" cType="1" res="-1.8879499286413193e-02" rms="1.0857825726270676e-01" purity="9.7580902278423309e-02" nType="0">
          <Node pos="l" depth="2" NCoef="0" IVar="11" Cut="6.7816872596740723e+00" cType="1" res="-2.2520473226904869e-02" rms="1.0027062892913818e-01" purity="7.4257150292396545e-02" nType="0">
            <Node pos="l" depth="3" NCoef="0" IVar="-1" Cut="0.0000000000000000e+00" cType="1" res="-4.2346350848674774e-02" rms="8.5953094065189362e-02" purity="3.2081570476293564e-02" nType="-99"/>
            <Node pos="r" depth="3" NCoef="0" IVar="-1" Cut="0.0000000000000000e+00" cType="1" res="-1.8093351973220706e-03" rms="1.3120524585247040e-01" purity="1.9682350754737854e-01" nType="-99"/>
          </Node>
          <Node pos="r" depth="2" NCoef="0" IVar="-1" Cut="0.0000000000000000e+00" cType="1" res="2.9666827991604805e-02" rms="1.8844993412494659e-01" purity="4.6304586529731750e-01" nType="-99"/>
        </Node>
        <Node pos="r" depth="1" NCoef="0" IVar="14" Cut="3.0024232864379883e+00" cType="1" res="1.9979860633611679e-02" rms="1.0790185630321503e-01" purity="8.6263447999954224e-01" nType="0">
          <Node pos="l" depth="2" NCoef="0" IVar="-1" Cut="0.0000000000000000e+00" cType="1" res="-3.0484797433018684e-02" rms="1.4808106422424316e-01" purity="8.8239096105098724e-02" nType="-99"/>
          <Node pos="r" depth="2" NCoef="0" IVar="3" Cut="1.7879214286804199e+00" cType="1" res="2.4000424891710281e-02" rms="1.0348089784383774e-01" purity="9.1310435533523560e-01" nType="0">
            <Node pos="l" depth="3" NCoef="0" IVar="-1" Cut="0.0000000000000000e+00" cType="1" res="4.1873019188642502e-02" rms="9.6599459648132324e-02" purity="9.5121055841445923e-01" nType="-99"/>
            <Node pos="r" depth="3" NCoef="0" IVar="-1" Cut="0.0000000000000000e+00" cType="1" res="-1.4016717672348022e-02" rms="1.8763533234596252e-01" purity="1.7024293541908264e-01" nType="-99"/>
          </Node>
        </Node>
      </Node>
    </BinaryTree>
    <BinaryTree type="DecisionTree" boostWeight="1.0000000000000000e+00" itree="37">
      <Node pos="s" depth="0" NCoef="0" IVar="16" Cut="4.1021571159362793e+00" cType="1" res="1.0361147578805685e-03" rms="1.0543510317802429e-01" purity="5.0974303483963013e-01" nType="0">
        <Node pos="l" depth="1" NCoef="0" IVar="12" Cut="8.0778236389160156e+00" cType="1" res="-2.4299573153257370e-02" rms="8.2624286413192749e-02" purity="2.8329303488135338e-02" nType="0">
          <Node pos="l" depth="2" NCoef="0" IVar="13" Cut="2.3933196067810059e+00" cType="1" res="-2.6525862514972687e-02" rms="7.4288666248321533e-02" purity="1.8218202516436577e-02" nType="0">
            <Node pos="l" depth="3" NCoef="0" IVar="-1" Cut="0.0000000000000000e+00" cType="1" res="-4.1513834148645401e-02" rms="6.9557704031467438e-02" purity="1.2422152794897556e-02" nType="-99"/>
            <Node pos="r" depth="3" NCoef="0" IVar="-1" Cut="0.0000000000000000e+00" cType="1" res="-3.8077302277088165e-02" rms="1.0463090986013412e-01" purity="6.8287290632724762e-02" nType="-99"/>
          </Node>
          <Node pos="r" depth="2" NCoef="0" IVar="-1" Cut="0.0000000000000000e+00" cType="1" res="-6.7710010334849358e-03" rms="1.3000868260860443e-01" purity="1.0895880311727524e-01" nType="-99"/>
        </Node>
        <Node pos="r" depth="1" NCoef="0" IVar="3" Cut="1.6484106779098511e+00" cType="1" res="1.5393311157822609e-02" rms="1.1391933262348175e-01" purity="7.8254997730255127e-01" nType="0">
          <Node pos="l" depth="2" NCoef="0" IVar="5" Cut="-3.3653419017791748e+00" cType="1" res="2.2297212854027748e-02" rms="1.0987973958253860e-01" purity="8.8621616363525391e-01" nType="0">
            <Node pos="l" depth="3" NCoef="0" IVar="-1" Cut="0.0000000000000000e+00" cType="1" res="4.3301969766616821e-02" rms="1.0245381295681000e-01" purity="9.4047880172729492e-01" nType="-99"/>
            <Node pos="r" depth="3" NCoef="0" IVar="-1" Cut="0.0000000000000000e+00" cType="1" res="-2.3500090464949608e-02" rms="1.5412129461765289e-01" purity="4.0432330965995789e-01" nType="-99"/>
          </Node>
          <Node pos="r" depth="2" NCoef="0" IVar="7" Cut="3.3038516044616699e+00" cType="1" res="-3.1559530645608902e-02" rms="1.2883049249649048e-01" purity="7.7525101602077484e-02" nType="0">
            <Node pos="l" depth="3" NCoef="0" IVar="-1" Cut="0.0000000000000000e+00" cType="1" res="-6.0783039778470993e-02" rms="8.7145835161209106e-02" purity="0.0000000000000000e+00" nType="-99"/>
            <Node pos="r" depth="3" NCoef="0" IVar="-1" Cut="0.0000000000000000e+00" cType="1" res="-1.3330699875950813e-02" rms="1.3955622911453247e-01" purity="1.1113788187503815e-01" nType="-99"/>
          </Node>
        </Node>
      </Node>
    </BinaryTree>
    <BinaryTree type="DecisionTree" boostWeight="1.0000000000000000e+00" itree="38">
      <Node pos="s" depth="0" NCoef="0" IVar="15" Cut="3.1315207481384277e+00" cType="1" res="1.8232282018288970e-03" rms="1.0508790612220764e-01" purity="5.0935494899749756e-01" nType="0">
        <Node pos="l" depth="1" NCoef="0" IVar="3" Cut="2.2645719349384308e-01" cType="1" res="-1.8231999129056931e-02" rms="9.8919138312339783e-02" purity="8.8305220007896423e-02" nType="0">
          <Node pos="l" depth="2" NCoef="0" IVar="15" Cut="2.3004150390625000e+00" cType="1" res="1.1533104814589024e-02" rms="1.7968311905860901e-01" purity="4.3523097038269043e-01" nType="0">
            <Node pos="l" depth="3" NCoef="0" IVar="-1" Cut="0.0000000000000000e+00" cType="1" res="-1.0001119226217270e-02" rms="1.6843533515930176e-01" purity="2.8587925434112549e-01" nType="-99"/>
            <Node pos="r" depth="3" NCoef="0" IVar="-1" Cut="0.0000000000000000e+00" cType="1" res="2.3135269060730934e-02" rms="1.8594837188720703e-01" purity="5.6329905986785889e-01" nType="-99"/>
          </Node>
          <Node pos="r" depth="2" NCoef="0" IVar="2" Cut="-1.2100166320800781e+01" cType="1" res="-2.2534720599651337e-02" rms="7.9910911619663239e-02" purity="3.8155041635036469e-02" nType="0">
            <Node pos="l" depth="3" NCoef="0" IVar="-1" Cut="0.0000000000000000e+00" cType="1" res="-2.2948486730456352e-03" rms="1.8203549087047577e-01" purity="4.4130754470825195e-01" nType="-99"/>
            <Node pos="r" depth="3" NCoef="0" IVar="-1" Cut="0.0000000000000000e+00" cType="1" res="-4.4204756617546082e-02" rms="6.7211620509624481e-02" purity="1.0412088595330715e-02" nType="-99"/>
          </Node>
        </Node>
        <Node pos="r" depth="1" NCoef="0" IVar="5" Cut="-3.1952426433563232e+00" cType="1" res="1.9022658467292786e-02" rms="1.0715399682521820e-01" purity="8.7044870853424072e-01" nType="0">
          <Node pos="l" depth="2" NCoef="0" IVar="16" Cut="5.4340739250183105e+00" cType="1" res="2.3631567135453224e-02" rms="1.0237040370702744e-01" purity="9.2026245594024658e-01" nType="0">
            <Node pos="l" depth="3" NCoef="0" IVar="-1" Cut="0.0000000000000000e+00" cType="1" res="3.3159065991640091e-02" rms="1.9018113613128662e-01" purity="6.1191427707672119e-01" nType="-99"/>
            <Node pos="r" depth="3" NCoef="0" IVar="-1" Cut="0.0000000000000000e+00" cType="1" res="3.9101097732782364e-02" rms="7.2028614580631256e-02" purity="9.8183339834213257e-01" nType="-99"/>
          </Node>
          <Node pos="r" depth="2" NCoef="0" IVar="-1" Cut="0.0000000000000000e+00" cType="1" res="-3.3855300396680832e-02" rms="1.4285725355148315e-01" purity="2.4973143637180328e-01" nType="-99"/>
        </Node>
      </Node>
    </BinaryTree>
    <BinaryTree type="DecisionTree" boostWeight="1.0000000000000000e+00" itree="39">
      <Node pos="s" depth="0" NCoef="0" IVar="14" Cut="3.8446631431579590e+00" cType="1" res="1.5665532555431128e-03" rms="1.0801699757575989e-01" purity="5.0212681293487549e-01" nType="0">
        <Node pos="l" depth="1" NCoef="0" IVar="9" Cut="6.6300077438354492e+00" cType="1" res="-1.7634484916925430e-02" rms="1.0546498000621796e-01" purity="6.0561556369066238e-02" nType="0">
          <Node pos="l" depth="2" NCoef="0" IVar="7" Cut="1.7655464410781860e+00" cType="1" res="-2.1240161731839180e-02" rms="9.8688542842864990e-02" purity="4.1852731257677078e-02" nType="0">
            <Node pos="l" depth="3" NCoef="0" IVar="-1" Cut="0.0000000000000000e+00" cType="1" res="-4.9364201724529266e-02" rms="1.0221397131681442e-01" purity="2.7547715231776237e-02" nType="-99"/>
            <Node pos="r" depth="3" NCoef="0" IVar="-1" Cut="0.0000000000000000e+00" cType="1" res="-2.7999758720397949e-02" rms="9.7689270973205566e-02" purity="4.4145099818706512e-02" nType="-99"/>
          </Node>
          <Node pos="r" depth="2" NCoef="0" IVar="-1" Cut="0.0000000000000000e+00" cType="1" res="2.3302203044295311e-02" rms="1.6456706821918488e-01" purity="3.0998128652572632e-01" nType="-99"/>
        </Node>
        <Node pos="r" depth="1" NCoef="0" IVar="5" Cut="-3.3550765514373779e+00" cType="1" res="1.5526961535215378e-02" rms="1.0770718008279800e-01" purity="8.2317358255386353e-01" nType="0">
          <Node pos="l" depth="2" NCoef="0" IVar="16" Cut="5.3083744049072266e+00" cType="1" res="2.1083083003759384e-02" rms="9.9677398800849915e-02" purity="9.0697681903839111e-01" nType="0">
            <Node pos="l" depth="3" NCoef="0" IVar="-1" Cut="0.0000000000000000e+00" cType="1" res="2.7390504255890846e-02" rms="1.9546431303024292e-01" purity="5.1356750726699829e-01" nType="-99"/>
            <Node pos="r" depth="3" NCoef="0" IVar="-1" Cut="0.0000000000000000e+00" cType="1" res="4.3214380741119385e-02" rms="6.0971416532993317e-02" purity="9.9236667156219482e-01" nType="-99"/>
          </Node>
          <Node pos="r" depth="2" NCoef="0" IVar="11" Cut="6.7435879707336426e+00" cType="1" res="-1.9990511238574982e-02" rms="1.4417740702629089e-01" purity="2.8746140003204346e-01" nType="0">
            <Node pos="l" depth="3" NCoef="0" IVar="-1" Cut="0.0000000000000000e+00" cType="1" res="-4.4457968324422836e-02" rms="1.1970116943120956e-01" purity="1.7410391569137573e-01" nType="-99"/>
            <Node pos="r" depth="3" NCoef="0" IVar="-1" Cut="0.0000000000000000e+00" cType="1" res="1.1368565261363983e-02" rms="1.7584317922592163e-01" purity="4.9202367663383484e-01" nType="-99"/>
          </Node>
        </Node>
      </Node>
    </BinaryTree>
    <BinaryTree type="DecisionTree" boostWeight="1.0000000000000000e+00" itree="40">
      <Node pos="s" depth="0" NCoef="0" IVar="14" Cut="3.9878613948822021e+00" cType="1" res="-1.0847111698240042e-03" rms="1.0102169960737228e-01" purity="4.9489265680313110e-01" nType="0">
        <Node pos="l" depth="1" NCoef="0" IVar="10" Cut="8.0479307174682617e+00" cType="1" res="-1.8524067476391792e-02" rms="9.5043629407882690e-02" purity="6.0705773532390594e-02" nType="0">
          <Node pos="l" depth="2" NCoef="0" IVar="7" Cut="2.0062203407287598e+00" cType="1" res="-2.1141517907381058e-02" rms="8.9991435408592224e-02" purity="4.1013304144144058e-02" nType="0">
            <Node pos="l" depth="3" NCoef="0" IVar="-1" Cut="0.0000000000000000e+00" cType="1" res="-5.4335348308086395e-02" rms="8.4525145590305328e-02" purity="2.0603308454155922e-02" nType="-99"/>
            <Node pos="r" depth="3" NCoef="0" IVar="-1" Cut="0.0000000000000000e+00" cType="1" res="-2.7847001329064369e-02" rms="9.0596385300159454e-02" purity="4.5260947197675705e-02" nType="-99"/>
          </Node>
          <Node pos="r" depth="2" NCoef="0" IVar="-1" Cut="0.0000000000000000e+00" cType="1" res="1.4182770624756813e-02" rms="1.4358885586261749e-01" purity="3.3467692136764526e-01" nType="-99"/>
        </Node>
        <Node pos="r" depth="1" NCoef="0" IVar="5" Cut="-3.0778496265411377e+00" cType="1" res="1.3432710431516171e-02" rms="1.0352373123168945e-01" purity="8.5633224248886108e-01" nType="0">
          <Node pos="l" depth="2" NCoef="0" IVar="15" Cut="2.2385792732238770e+00" cType="1" res="1.6984580084681511e-02" rms="1.0153514146804810e-01" purity="8.9657670259475708e-01" nType="0">
            <Node pos="l" depth="3" NCoef="0" IVar="-1" Cut="0.0000000000000000e+00" cType="1" res="-2.0927673205733299e-02" rms="1.3988652825355530e-01" purity="2.6158845424652100e-01" nType="-99"/>
            <Node pos="r" depth="3" NCoef="0" IVar="-1" Cut="0.0000000000000000e+00" cType="1" res="3.9068143814802170e-02" rms="9.7324766218662262e-02" purity="9.4487220048904419e-01" nType="-99"/>
          </Node>
          <Node pos="r" depth="2" NCoef="0" IVar="-1" Cut="0.0000000000000000e+00" cType="1" res="-5.2262879908084869e-02" rms="1.1743822693824768e-01" purity="1.7558246850967407e-01" nType="-99"/>
        </Node>
      </Node>
    </BinaryTree>
    <BinaryTree type="DecisionTree" boostWeight="1.0000000000000000e+00" itree="41">
      <Node pos="s" depth="0" NCoef="0" IVar="13" Cut="1.7715319395065308e+00" cType="1" res="3.4849616349674761e-04" rms="1.0632823407649994e-01" purity="4.9115735292434692e-01" nType="0">
        <Node pos="l" depth="1" NCoef="0" IVar="10" Cut="7.1113076210021973e+00" cType="1" res="-2.2276783362030983e-02" rms="9.1922454535961151e-02" purity="6.5619714558124542e-02" nType="0">
          <Node pos="l" depth="2" NCoef="0" IVar="16" Cut="4.3286452293395996e+00" cType="1" res="-3.5743229091167450e-02" rms="7.7259778976440430e-02" purity="9.7843343392014503e-03" nType="0">
            <Node pos="l" depth="3" NCoef="0" IVar="-1" Cut="0.0000000000000000e+00" cType="1" res="-5.3367331624031067e-02" rms="3.0430372804403305e-02" purity="0.0000000000000000e+00" nType="-99"/>
            <Node pos="r" depth="3" NCoef="0" IVar="-1" Cut="0.0000000000000000e+00" cType="1" res="-5.8925718069076538e-02" rms="1.3314457237720490e-01" purity="3.5496797412633896e-02" nType="-99"/>
          </Node>
          <Node pos="r" depth="2" NCoef="0" IVar="11" Cut="6.8611159324645996e+00" cType="1" res="-1.5958184376358986e-02" rms="9.7409851849079132e-02" purity="9.1818273067474365e-02" nType="0">
            <Node pos="l" depth="3" NCoef="0" IVar="-1" Cut="0.0000000000000000e+00" cType="1" res="-4.0265984833240509e-02" rms="7.1617193520069122e-02" purity="4.9937538802623749e-02" nType="-99"/>
            <Node pos="r" depth="3" NCoef="0" IVar="-1" Cut="0.0000000000000000e+00" cType="1" res="1.2247687205672264e-02" rms="1.6539551317691803e-01" purity="2.7279746532440186e-01" nType="-99"/>
          </Node>
        </Node>
        <Node pos="r" depth="1" NCoef="0" IVar="4" Cut="2.1976187229156494e+00" cType="1" res="1.1180434376001358e-02" rms="1.1095308512449265e-01" purity="6.9488513469696045e-01" nType="0">
          <Node pos="l" depth="2" NCoef="0" IVar="3" Cut="1.7032253742218018e+00" cType="1" res="1.8551694229245186e-02" rms="1.0954804718494415e-01" purity="8.0490517616271973e-01" nType="0">
            <Node pos="l" depth="3" NCoef="0" IVar="-1" Cut="0.0000000000000000e+00" cType="1" res="4.0770918130874634e-02" rms="1.0678874701261520e-01" purity="8.8190394639968872e-01" nType="-99"/>
            <Node pos="r" depth="3" NCoef="0" IVar="-1" Cut="0.0000000000000000e+00" cType="1" res="-1.4687069691717625e-02" rms="1.2820708751678467e-01" purity="8.9082486927509308e-02" nType="-99"/>
          </Node>
          <Node pos="r" depth="2" NCoef="0" IVar="11" Cut="6.5690498352050781e+00" cType="1" res="-2.6324953883886337e-02" rms="1.1047086864709854e-01" purity="1.3509669899940491e-01" nType="0">
            <Node pos="l" depth="3" NCoef="0" IVar="-1" Cut="0.0000000000000000e+00" cType="1" res="-5.6683599948883057e-02" rms="8.6593590676784515e-02" purity="5.8381281793117523e-02" nType="-99"/>
            <Node pos="r" depth="3" NCoef="0" IVar="-1" Cut="0.0000000000000000e+00" cType="1" res="-1.8325340002775192e-02" rms="1.3269300758838654e-01" purity="2.2736163437366486e-01" nType="-99"/>
          </Node>
        </Node>
      </Node>
    </BinaryTree>
    <BinaryTree type="DecisionTree" boostWeight="1.0000000000000000e+00" itree="42">
      <Node pos="s" depth="0" NCoef="0" IVar="13" Cut="2.1566762924194336e+00" cType="1" res="-9.9419627804309130e-04" rms="9.8777726292610168e-02" purity="4.9778783321380615e-01" nType="0">
        <Node pos="l" depth="1" NCoef="0" IVar="9" Cut="6.5314178466796875e+00" cType="1" res="-1.6710299998521805e-02" rms="9.9674947559833527e-02" purity="1.0160198807716370e-01" nType="0">
          <Node pos="l" depth="2" NCoef="0" IVar="7" Cut="2.0205750465393066e+00" cType="1" res="-2.1131094545125961e-02" rms="9.0148657560348511e-02" purity="7.2199471294879913e-02" nType="0">
            <Node pos="l" depth="3" NCoef="0" IVar="-1" Cut="0.0000000000000000e+00" cType="1" res="-5.8301810175180435e-02" rms="9.2310041189193726e-02" purity="2.5429600849747658e-02" nType="-99"/>
            <Node pos="r" depth="3" NCoef="0" IVar="-1" Cut="0.0000000000000000e+00" cType="1" res="-2.7940856292843819e-02" rms="8.9117012917995453e-02" purity="8.2017883658409119e-02" nType="-99"/>
          </Node>
          <Node pos="r" depth="2" NCoef="0" IVar="-1" Cut="0.0000000000000000e+00" cType="1" res="2.1516019478440285e-02" rms="1.5417782962322235e-01" purity="3.5239490866661072e-01" nType="-99"/>
        </Node>
        <Node pos="r" depth="1" NCoef="0" IVar="16" Cut="4.2664265632629395e+00" cType="1" res="1.2854672037065029e-02" rms="9.5868118107318878e-02" purity="8.4690266847610474e-01" nType="0">
          <Node pos="l" depth="2" NCoef="0" IVar="15" Cut="2.4573278427124023e+00" cType="1" res="-2.1708102896809578e-02" rms="1.2307317554950714e-01" purity="9.7769968211650848e-02" nType="0">
            <Node pos="l" depth="3" NCoef="0" IVar="-1" Cut="0.0000000000000000e+00" cType="1" res="-5.1658589392900467e-02" rms="6.7721784114837646e-02" purity="1.5765490010380745e-02" nType="-99"/>
            <Node pos="r" depth="3" NCoef="0" IVar="-1" Cut="0.0000000000000000e+00" cType="1" res="3.4071226764353923e-06" rms="1.6949528455734253e-01" purity="2.0957699418067932e-01" nType="-99"/>
          </Node>
          <Node pos="r" depth="2" NCoef="0" IVar="2" Cut="-1.1525667190551758e+01" cType="1" res="1.8440963700413704e-02" rms="8.9463457465171814e-02" purity="9.6798300743103027e-01" nType="0">
            <Node pos="l" depth="3" NCoef="0" IVar="-1" Cut="0.0000000000000000e+00" cType="1" res="4.1449788957834244e-02" rms="5.6351993232965469e-02" purity="9.9474269151687622e-01" nType="-99"/>
            <Node pos="r" depth="3" NCoef="0" IVar="-1" Cut="0.0000000000000000e+00" cType="1" res="4.5005124062299728e-02" rms="2.0926724374294281e-01" purity="7.5942885875701904e-01" nType="-99"/>
          </Node>
        </Node>
      </Node>
    </BinaryTree>
    <BinaryTree type="DecisionTree" boostWeight="1.0000000000000000e+00" itree="43">
      <Node pos="s" depth="0" NCoef="0" IVar="3" Cut="8.0424338579177856e-01" cType="1" res="6.2613579211756587e-04" rms="1.0124585777521133e-01" purity="5.0430560111999512e-01" nType="0">
        <Node pos="l" depth="1" NCoef="0" IVar="0" Cut="8.3152818679809570e+00" cType="1" res="1.3416322879493237e-02" rms="1.0184036940336227e-01" purity="8.3290797472000122e-01" nType="0">
          <Node pos="l" depth="2" NCoef="0" IVar="16" Cut="4.0668635368347168e+00" cType="1" res="-1.2573657557368279e-02" rms="1.1547154933214188e-01" purity="3.8694804906845093e-01" nType="0">
            <Node pos="l" depth="3" NCoef="0" IVar="-1" Cut="0.0000000000000000e+00" cType="1" res="-5.0819009542465210e-02" rms="6.3254222273826599e-02" purity="6.3422312960028648e-03" nType="-99"/>
            <Node pos="r" depth="3" NCoef="0" IVar="-1" Cut="0.0000000000000000e+00" cType="1" res="1.6369748860597610e-02" rms="1.4362458884716034e-01" purity="7.4153274297714233e-01" nType="-99"/>
          </Node>
          <Node pos="r" depth="2" NCoef="0" IVar="16" Cut="5.2235341072082520e+00" cType="1" res="2.0161280408501625e-02" rms="9.6860244870185852e-02" purity="9.4864416122436523e-01" nType="0">
            <Node pos="l" depth="3" NCoef="0" IVar="-1" Cut="0.0000000000000000e+00" cType="1" res="4.2620968073606491e-02" rms="2.1227179467678070e-01" purity="6.7825311422348022e-01" nType="-99"/>
            <Node pos="r" depth="3" NCoef="0" IVar="-1" Cut="0.0000000000000000e+00" cType="1" res="4.1911810636520386e-02" rms="5.1467392593622208e-02" purity="9.9607193470001221e-01" nType="-99"/>
          </Node>
        </Node>
        <Node pos="r" depth="1" NCoef="0" IVar="2" Cut="-1.2557125091552734e+01" cType="1" res="-1.3472780585289001e-02" rms="9.8683960735797882e-02" purity="1.4207968115806580e-01" nType="0">
          <Node pos="l" depth="2" NCoef="0" IVar="-1" Cut="0.0000000000000000e+00" cType="1" res="2.0912520587444305e-02" rms="1.3387905061244965e-01" purity="8.1685614585876465e-01" nType="-99"/>
          <Node pos="r" depth="2" NCoef="0" IVar="16" Cut="5.1761837005615234e+00" cType="1" res="-1.8752049654722214e-02" rms="9.0886823832988739e-02" purity="3.7322156131267548e-02" nType="0">
            <Node pos="l" depth="3" NCoef="0" IVar="-1" Cut="0.0000000000000000e+00" cType="1" res="-3.5914186388254166e-02" rms="7.5533300638198853e-02" purity="1.3061444275081158e-02" nType="-99"/>
            <Node pos="r" depth="3" NCoef="0" IVar="-1" Cut="0.0000000000000000e+00" cType="1" res="-3.4840922802686691e-02" rms="1.9227662682533264e-01" purity="3.2310858368873596e-01" nType="-99"/>
          </Node>
        </Node>
      </Node>
    </BinaryTree>
    <BinaryTree type="DecisionTree" boostWeight="1.0000000000000000e+00" itree="44">
      <Node pos="s" depth="0" NCoef="0" IVar="3" Cut="1.1162186861038208e+00" cType="1" res="2.4985109921544790e-03" rms="1.0463555902242661e-01" purity="5.0444066524505615e-01" nType="0">
        <Node pos="l" depth="1" NCoef="0" IVar="14" Cut="2.9272696971893311e+00" cType="1" res="1.3963121920824051e-02" rms="1.1110131442546844e-01" purity="7.8281068801879883e-01" nType="0">
          <Node pos="l" depth="2" NCoef="0" IVar="14" Cut="2.4935455322265625e+00" cType="1" res="-3.2152969390153885e-02" rms="1.1624426394701004e-01" purity="7.2866104543209076e-02" nType="0">
            <Node pos="l" depth="3" NCoef="0" IVar="-1" Cut="0.0000000000000000e+00" cType="1" res="-4.8510596156120300e-02" rms="1.1139051616191864e-01" purity="4.2977865785360336e-02" nType="-99"/>
            <Node pos="r" depth="3" NCoef="0" IVar="-1" Cut="0.0000000000000000e+00" cType="1" res="-2.1865615621209145e-02" rms="1.1996413022279739e-01" purity="1.0473060607910156e-01" nType="-99"/>
          </Node>
          <Node pos="r" depth="2" NCoef="0" IVar="2" Cut="-1.0831811904907227e+01" cType="1" res="1.8282806500792503e-02" rms="1.0961803793907166e-01" purity="8.4931105375289917e-01" nType="0">
            <Node pos="l" depth="3" NCoef="0" IVar="-1" Cut="0.0000000000000000e+00" cType="1" res="3.6434065550565720e-02" rms="6.2006983906030655e-02" purity="9.8506599664688110e-01" nType="-99"/>
            <Node pos="r" depth="3" NCoef="0" IVar="-1" Cut="0.0000000000000000e+00" cType="1" res="3.3138573169708252e-02" rms="2.1105113625526428e-01" purity="2.9440298676490784e-01" nType="-99"/>
          </Node>
        </Node>
        <Node pos="r" depth="1" NCoef="0" IVar="9" Cut="6.5575871467590332e+00" cType="1" res="-1.5234584920108318e-02" rms="9.0957380831241608e-02" purity="7.3866717517375946e-02" nType="0">
          <Node pos="l" depth="2" NCoef="0" IVar="16" Cut="4.6391706466674805e+00" cType="1" res="-1.9409386441111565e-02" rms="8.0286689102649689e-02" purity="4.4681798666715622e-02" nType="0">
            <Node pos="l" depth="3" NCoef="0" IVar="-1" Cut="0.0000000000000000e+00" cType="1" res="-4.6027809381484985e-02" rms="4.4266238808631897e-02" purity="3.3610065001994371e-03" nType="-99"/>
            <Node pos="r" depth="3" NCoef="0" IVar="-1" Cut="0.0000000000000000e+00" cType="1" res="-2.7770549058914185e-02" rms="1.6793499886989594e-01" purity="2.4769768118858337e-01" nType="-99"/>
          </Node>
          <Node pos="r" depth="2" NCoef="0" IVar="-1" Cut="0.0000000000000000e+00" cType="1" res="2.4961043149232864e-02" rms="1.5301363170146942e-01" purity="3.4166994690895081e-01" nType="-99"/>
        </Node>
      </Node>
    </BinaryTree>
    <BinaryTree type="DecisionTree" boostWeight="1.0000000000000000e+00" itree="45">
      <Node pos="s" depth="0" NCoef="0" IVar="0" Cut="8.7108745574951172e+00" cType="1" res="-2.3977516684681177e-04" rms="9.6588604152202606e-02" purity="4.9837866425514221e-01" nType="0">
        <Node pos="l" depth="1" NCoef="0" IVar="15" Cut="3.5678193569183350e+00" cType="1" res="-1.0151439346373081e-02" rms="9.1135591268539429e-02" purity="2.3099313676357269e-01" nType="0">
          <Node pos="l" depth="2" NCoef="0" IVar="0" Cut="7.5805282592773438e+00" cType="1" res="-1.6792858019471169e-02" rms="7.2671800851821899e-02" purity="4.1254676878452301e-02" nType="0">
            <Node pos="l" depth="3" NCoef="0" IVar="-1" Cut="0.0000000000000000e+00" cType="1" res="-5.6224599480628967e-02" rms="4.9715869128704071e-02" purity="2.4308110587298870e-03" nType="-99"/>
            <Node pos="r" depth="3" NCoef="0" IVar="-1" Cut="0.0000000000000000e+00" cType="1" res="-3.0506605282425880e-02" rms="7.5738072395324707e-02" purity="4.7976214438676834e-02" nType="-99"/>
          </Node>
          <Node pos="r" depth="2" NCoef="0" IVar="10" Cut="6.9884848594665527e+00" cType="1" res="1.0203731246292591e-02" rms="1.3048344850540161e-01" purity="8.1251925230026245e-01" nType="0">
            <Node pos="l" depth="3" NCoef="0" IVar="-1" Cut="0.0000000000000000e+00" cType="1" res="-3.8213677704334259e-02" rms="1.1868123710155487e-01" purity="5.7047778367996216e-01" nType="-99"/>
            <Node pos="r" depth="3" NCoef="0" IVar="-1" Cut="0.0000000000000000e+00" cType="1" res="3.2116267830133438e-02" rms="1.3128837943077087e-01" purity="8.7319606542587280e-01" nType="-99"/>
          </Node>
        </Node>
        <Node pos="r" depth="1" NCoef="0" IVar="4" Cut="1.6810057163238525e+00" cType="1" res="1.5648368746042252e-02" rms="1.0276357084512711e-01" purity="9.2699092626571655e-01" nType="0">
          <Node pos="l" depth="2" NCoef="0" IVar="-1" Cut="0.0000000000000000e+00" cType="1" res="4.7720205038785934e-02" rms="9.3078427016735077e-02" purity="9.7371995449066162e-01" nType="-99"/>
          <Node pos="r" depth="2" NCoef="0" IVar="-1" Cut="0.0000000000000000e+00" cType="1" res="-1.6853330656886101e-02" rms="1.4201241731643677e-01" purity="6.6576665639877319e-01" nType="-99"/>
        </Node>
      </Node>
    </BinaryTree>
    <BinaryTree type="DecisionTree" boostWeight="1.0000000000000000e+00" itree="46">
      <Node pos="s" depth="0" NCoef="0" IVar="0" Cut="8.7668638229370117e+00" cType="1" res="-9.8939018789678812e-04" rms="9.0843744575977325e-02" purity="4.9950188398361206e-01" nType="0">
        <Node pos="l" depth="1" NCoef="0" IVar="13" Cut="2.5292036533355713e+00" cType="1" res="-9.9005904048681259e-03" rms="8.8519066572189331e-02" purity="2.4283370375633240e-01" nType="0">
          <Node pos="l" depth="2" NCoef="0" IVar="3" Cut="1.3051192276179790e-02" cType="1" res="-1.5791818499565125e-02" rms="8.4384888410568237e-02" purity="6.2135927379131317e-02" nType="0">
            <Node pos="l" depth="3" NCoef="0" IVar="-1" Cut="0.0000000000000000e+00" cType="1" res="8.4099546074867249e-03" rms="1.7491306364536285e-01" purity="4.1330364346504211e-01" nType="-99"/>
            <Node pos="r" depth="3" NCoef="0" IVar="-1" Cut="0.0000000000000000e+00" cType="1" res="-4.1642192751169205e-02" rms="7.0206612348556519e-02" purity="3.0288714915513992e-02" nType="-99"/>
          </Node>
          <Node pos="r" depth="2" NCoef="0" IVar="4" Cut="1.9183269739151001e+00" cType="1" res="8.5430247709155083e-03" rms="9.8105400800704956e-02" purity="8.0854260921478271e-01" nType="0">
            <Node pos="l" depth="3" NCoef="0" IVar="-1" Cut="0.0000000000000000e+00" cType="1" res="3.1395699828863144e-02" rms="9.0354926884174347e-02" purity="9.1352581977844238e-01" nType="-99"/>
            <Node pos="r" depth="3" NCoef="0" IVar="-1" Cut="0.0000000000000000e+00" cType="1" res="-2.8519973158836365e-02" rms="1.2472203373908997e-01" purity="2.8138107061386108e-01" nType="-99"/>
          </Node>
        </Node>
        <Node pos="r" depth="1" NCoef="0" IVar="9" Cut="5.9183835983276367e+00" cType="1" res="1.4399388805031776e-02" rms="9.2729121446609497e-02" purity="9.4274300336837769e-01" nType="0">
          <Node pos="l" depth="2" NCoef="0" IVar="-1" Cut="0.0000000000000000e+00" cType="1" res="-1.7959732795134187e-03" rms="1.3375544548034668e-01" purity="8.2590800523757935e-01" nType="-99"/>
          <Node pos="r" depth="2" NCoef="0" IVar="-1" Cut="0.0000000000000000e+00" cType="1" res="4.4003456830978394e-02" rms="7.6507620513439178e-02" purity="9.7612804174423218e-01" nType="-99"/>
        </Node>
      </Node>
    </BinaryTree>
    <BinaryTree type="DecisionTree" boostWeight="1.0000000000000000e+00" itree="47">
      <Node pos="s" depth="0" NCoef="0" IVar="15" Cut="2.6646754741668701e+00" cType="1" res="2.0715219434350729e-03" rms="1.0334367305040359e-01" purity="4.9868461489677429e-01" nType="0">
        <Node pos="l" depth="1" NCoef="0" IVar="9" Cut="6.6300077438354492e+00" cType="1" res="-1.2607681564986706e-02" rms="8.7947823107242584e-02" purity="6.1871591955423355e-02" nType="0">
          <Node pos="l" depth="2" NCoef="0" IVar="8" Cut="5.9213936328887939e-01" cType="1" res="-1.5007724054157734e-02" rms="7.4863716959953308e-02" purity="4.1073571890592575e-02" nType="0">
            <Node pos="l" depth="3" NCoef="0" IVar="-1" Cut="0.0000000000000000e+00" cType="1" res="-2.3699194192886353e-02" rms="8.9777365326881409e-02" purity="6.2784612178802490e-02" nType="-99"/>
            <Node pos="r" depth="3" NCoef="0" IVar="-1" Cut="0.0000000000000000e+00" cType="1" res="-5.2824359387159348e-02" rms="4.7092176973819733e-02" purity="1.1540973559021950e-02" nType="-99"/>
          </Node>
          <Node pos="r" depth="2" NCoef="0" IVar="-1" Cut="0.0000000000000000e+00" cType="1" res="1.5129468403756618e-02" rms="1.7458163201808929e-01" purity="2.9139524698257446e-01" nType="-99"/>
        </Node>
        <Node pos="r" depth="1" NCoef="0" IVar="2" Cut="-9.1102437973022461e+00" cType="1" res="1.0720773600041866e-02" rms="1.1051445454359055e-01" purity="7.5606274604797363e-01" nType="0">
          <Node pos="l" depth="2" NCoef="0" IVar="2" Cut="-1.0368857383728027e+01" cType="1" res="1.5087759122252464e-02" rms="1.0839971899986267e-01" purity="9.0025985240936279e-01" nType="0">
            <Node pos="l" depth="3" NCoef="0" IVar="-1" Cut="0.0000000000000000e+00" cType="1" res="2.4591136723756790e-02" rms="8.1857331097126007e-02" purity="9.5093798637390137e-01" nType="-99"/>
            <Node pos="r" depth="3" NCoef="0" IVar="-1" Cut="0.0000000000000000e+00" cType="1" res="4.5273587107658386e-02" rms="2.3860143125057220e-01" purity="4.1324624419212341e-01" nType="-99"/>
          </Node>
          <Node pos="r" depth="2" NCoef="0" IVar="9" Cut="6.1169209480285645e+00" cType="1" res="-1.1259353719651699e-02" rms="1.1817127466201782e-01" purity="3.0282588675618172e-02" nType="0">
            <Node pos="l" depth="3" NCoef="0" IVar="-1" Cut="0.0000000000000000e+00" cType="1" res="-4.5556697994470596e-02" rms="8.1063695251941681e-02" purity="4.6537984162569046e-03" nType="-99"/>
            <Node pos="r" depth="3" NCoef="0" IVar="-1" Cut="0.0000000000000000e+00" cType="1" res="1.3184653595089912e-02" rms="1.7107629776000977e-01" purity="8.6003355681896210e-02" nType="-99"/>
          </Node>
        </Node>
      </Node>
    </BinaryTree>
    <BinaryTree type="DecisionTree" boostWeight="1.0000000000000000e+00" itree="48">
      <Node pos="s" depth="0" NCoef="0" IVar="3" Cut="9.9427652359008789e-01" cType="1" res="3.7247533327899873e-04" rms="9.8239518702030182e-02" purity="5.0092983245849609e-01" nType="0">
        <Node pos="l" depth="1" NCoef="0" IVar="5" Cut="-3.1148929595947266e+00" cType="1" res="9.6179014071822166e-03" rms="1.0247518867254257e-01" purity="8.0457854270935059e-01" nType="0">
          <Node pos="l" depth="2" NCoef="0" IVar="0" Cut="7.9196887016296387e+00" cType="1" res="1.2698629871010780e-02" rms="1.0117135941982269e-01" purity="8.6050009727478027e-01" nType="0">
            <Node pos="l" depth="3" NCoef="0" IVar="-1" Cut="0.0000000000000000e+00" cType="1" res="-2.8115659952163696e-02" rms="1.3030427694320679e-01" purity="2.3162455856800079e-01" nType="-99"/>
            <Node pos="r" depth="3" NCoef="0" IVar="-1" Cut="0.0000000000000000e+00" cType="1" res="3.5831939429044724e-02" rms="9.7966954112052917e-02" purity="9.1033869981765747e-01" nType="-99"/>
          </Node>
          <Node pos="r" depth="2" NCoef="0" IVar="-1" Cut="0.0000000000000000e+00" cType="1" res="-3.7663150578737259e-02" rms="1.1044870316982269e-01" purity="1.4793764054775238e-01" nType="-99"/>
        </Node>
        <Node pos="r" depth="1" NCoef="0" IVar="7" Cut="4.0337648391723633e+00" cType="1" res="-1.2033623643219471e-02" rms="9.0783216059207916e-02" purity="9.3474842607975006e-02" nType="0">
          <Node pos="l" depth="2" NCoef="0" IVar="16" Cut="4.6413588523864746e+00" cType="1" res="-1.6685873270034790e-02" rms="7.1126215159893036e-02" purity="1.7582472413778305e-02" nType="0">
            <Node pos="l" depth="3" NCoef="0" IVar="-1" Cut="0.0000000000000000e+00" cType="1" res="-4.3553754687309265e-02" rms="4.7690659761428833e-02" purity="5.4312609136104584e-03" nType="-99"/>
            <Node pos="r" depth="3" NCoef="0" IVar="-1" Cut="0.0000000000000000e+00" cType="1" res="-3.7248786538839340e-02" rms="1.6978511214256287e-01" purity="1.2602965533733368e-01" nType="-99"/>
          </Node>
          <Node pos="r" depth="2" NCoef="0" IVar="15" Cut="2.5105245113372803e+00" cType="1" res="6.2830736860632896e-03" rms="1.4265877008438110e-01" purity="3.9227604866027832e-01" nType="0">
            <Node pos="l" depth="3" NCoef="0" IVar="-1" Cut="0.0000000000000000e+00" cType="1" res="-5.4854519665241241e-02" rms="6.1585992574691772e-02" purity="1.2404206208884716e-02" nType="-99"/>
            <Node pos="r" depth="3" NCoef="0" IVar="-1" Cut="0.0000000000000000e+00" cType="1" res="2.4085165932774544e-02" rms="1.6500651836395264e-01" purity="5.6297785043716431e-01" nType="-99"/>
          </Node>
        </Node>
      </Node>
    </BinaryTree>
    <BinaryTree type="DecisionTree" boostWeight="1.0000000000000000e+00" itree="49">
      <Node pos="s" depth="0" NCoef="0" IVar="13" Cut="1.8553007841110229e+00" cType="1" res="1.2673927703872323e-03" rms="9.9899277091026306e-02" purity="4.9820086359977722e-01" nType="0">
        <Node pos="l" depth="1" NCoef="0" IVar="10" Cut="6.5192275047302246e+00" cType="1" res="-1.4205865561962128e-02" rms="8.5790149867534637e-02" purity="7.3901228606700897e-02" nType="0">
          <Node pos="l" depth="2" NCoef="0" IVar="-1" Cut="0.0000000000000000e+00" cType="1" res="-6.6542319953441620e-02" rms="9.0086683630943298e-02" purity="0.0000000000000000e+00" nType="-99"/>
          <Node pos="r" depth="2" NCoef="0" IVar="15" Cut="3.6997663974761963e+00" cType="1" res="-1.2015715241432190e-02" rms="8.5052423179149628e-02" purity="8.0520898103713989e-02" nType="0">
            <Node pos="l" depth="3" NCoef="0" IVar="-1" Cut="0.0000000000000000e+00" cType="1" res="-3.5544537007808685e-02" rms="6.3969075679779053e-02" purity="2.6023218408226967e-02" nType="-99"/>
            <Node pos="r" depth="3" NCoef="0" IVar="-1" Cut="0.0000000000000000e+00" cType="1" res="4.0107429958879948e-03" rms="1.9039177894592285e-01" purity="5.8944731950759888e-01" nType="-99"/>
          </Node>
        </Node>
        <Node pos="r" depth="1" NCoef="0" IVar="4" Cut="2.1975290775299072e+00" cType="1" res="1.0048110038042068e-02" rms="1.0608317703008652e-01" purity="7.3898112773895264e-01" nType="0">
          <Node pos="l" depth="2" NCoef="0" IVar="14" Cut="5.2728648185729980e+00" cType="1" res="1.3947763480246067e-02" rms="1.0314442217350006e-01" purity="8.3666038513183594e-01" nType="0">
            <Node pos="l" depth="3" NCoef="0" IVar="-1" Cut="0.0000000000000000e+00" cType="1" res="2.9367098584771156e-02" rms="1.6192263364791870e-01" purity="5.4444169998168945e-01" nType="-99"/>
            <Node pos="r" depth="3" NCoef="0" IVar="-1" Cut="0.0000000000000000e+00" cType="1" res="3.9527002722024918e-02" rms="4.5696932822465897e-02" purity="9.9544757604598999e-01" nType="-99"/>
          </Node>
          <Node pos="r" depth="2" NCoef="0" IVar="11" Cut="6.5981702804565430e+00" cType="1" res="-1.1931873857975006e-02" rms="1.1895566433668137e-01" purity="1.8842250108718872e-01" nType="0">
            <Node pos="l" depth="3" NCoef="0" IVar="-1" Cut="0.0000000000000000e+00" cType="1" res="-4.4999968260526657e-02" rms="1.0101041942834854e-01" purity="8.1663109362125397e-02" nType="-99"/>
            <Node pos="r" depth="3" NCoef="0" IVar="-1" Cut="0.0000000000000000e+00" cType="1" res="1.9958487246185541e-03" rms="1.3657332956790924e-01" purity="3.1910070776939392e-01" nType="-99"/>
          </Node>
        </Node>
      </Node>
    </BinaryTree>
    <BinaryTree type="DecisionTree" boostWeight="1.0000000000000000e+00" itree="50">
      <Node pos="s" depth="0" NCoef="0" IVar="4" Cut="1.7147222757339478e+00" cType="1" res="1.1641316814348102e-03" rms="9.6422687172889709e-02" purity="5.0912785530090332e-01" nType="0">
        <Node pos="l" depth="1" NCoef="0" IVar="0" Cut="8.4295721054077148e+00" cType="1" res="9.0823294594883919e-03" rms="9.9167719483375549e-02" purity="7.1877872943878174e-01" nType="0">
          <Node pos="l" depth="2" NCoef="0" IVar="15" Cut="3.0405781269073486e+00" cType="1" res="-3.5518752411007881e-03" rms="1.0824017971754074e-01" purity="3.0321118235588074e-01" nType="0">
            <Node pos="l" depth="3" NCoef="0" IVar="-1" Cut="0.0000000000000000e+00" cType="1" res="-3.3090673387050629e-02" rms="8.3186171948909760e-02" purity="4.2898207902908325e-02" nType="-99"/>
            <Node pos="r" depth="3" NCoef="0" IVar="-1" Cut="0.0000000000000000e+00" cType="1" res="2.3777516558766365e-02" rms="1.3928565382957458e-01" purity="7.5429606437683105e-01" nType="-99"/>
          </Node>
          <Node pos="r" depth="2" NCoef="0" IVar="2" Cut="-1.1532865524291992e+01" cType="1" res="1.5032906085252762e-02" rms="9.4007365405559540e-02" purity="9.1450661420822144e-01" nType="0">
            <Node pos="l" depth="3" NCoef="0" IVar="-1" Cut="0.0000000000000000e+00" cType="1" res="3.5774491727352142e-02" rms="6.0674101114273071e-02" purity="9.8162955045700073e-01" nType="-99"/>
            <Node pos="r" depth="3" NCoef="0" IVar="-1" Cut="0.0000000000000000e+00" cType="1" res="3.7563852965831757e-02" rms="1.9069015979766846e-01" purity="5.4461801052093506e-01" nType="-99"/>
          </Node>
        </Node>
        <Node pos="r" depth="1" NCoef="0" IVar="9" Cut="6.0768494606018066e+00" cType="1" res="-1.2894501909613609e-02" rms="8.9638769626617432e-02" purity="1.3689601421356201e-01" nType="0">
          <Node pos="l" depth="2" NCoef="0" IVar="2" Cut="-1.0101481437683105e+01" cType="1" res="-1.7784615978598595e-02" rms="7.7924080193042755e-02" purity="7.4432954192161560e-02" nType="0">
            <Node pos="l" depth="3" NCoef="0" IVar="-1" Cut="0.0000000000000000e+00" cType="1" res="-4.5911055058240891e-02" rms="1.5796577930450439e-01" purity="4.3185472488403320e-01" nType="-99"/>
            <Node pos="r" depth="3" NCoef="0" IVar="-1" Cut="0.0000000000000000e+00" cType="1" res="-4.3341614305973053e-02" rms="5.1122117787599564e-02" purity="1.0327400639653206e-02" nType="-99"/>
          </Node>
          <Node pos="r" depth="2" NCoef="0" IVar="14" Cut="3.8537991046905518e+00" cType="1" res="-4.8050349578261375e-03" rms="1.0572282224893570e-01" purity="2.4022549390792847e-01" nType="0">
            <Node pos="l" depth="3" NCoef="0" IVar="-1" Cut="0.0000000000000000e+00" cType="1" res="-3.9703708142042160e-02" rms="4.4343691319227219e-02" purity="1.2137006036937237e-02" nType="-99"/>
            <Node pos="r" depth="3" NCoef="0" IVar="-1" Cut="0.0000000000000000e+00" cType="1" res="1.6853684559464455e-02" rms="1.5628057718276978e-01" purity="5.7778805494308472e-01" nType="-99"/>
          </Node>
        </Node>
      </Node>
    </BinaryTree>
    <BinaryTree type="DecisionTree" boostWeight="1.0000000000000000e+00" itree="51">
      <Node pos="s" depth="0" NCoef="0" IVar="0" Cut="8.7668638229370117e+00" cType="1" res="-1.4025100972503424e-04" rms="9.3074969947338104e-02" purity="5.0088816881179810e-01" nType="0">
        <Node pos="l" depth="1" NCoef="0" IVar="13" Cut="2.3242998123168945e+00" cType="1" res="-6.7317592911422253e-03" rms="9.1942436993122101e-02" purity="2.4406529963016510e-01" nType="0">
          <Node pos="l" depth="2" NCoef="0" IVar="10" Cut="6.5470099449157715e+00" cType="1" res="-1.1730147525668144e-02" rms="8.3728529512882233e-02" purity="4.3575372546911240e-02" nType="0">
            <Node pos="l" depth="3" NCoef="0" IVar="-1" Cut="0.0000000000000000e+00" cType="1" res="-6.3593395054340363e-02" rms="7.7902495861053467e-02" purity="1.4043826609849930e-02" nType="-99"/>
            <Node pos="r" depth="3" NCoef="0" IVar="-1" Cut="0.0000000000000000e+00" cType="1" res="-2.5323569774627686e-02" rms="8.4030345082283020e-02" purity="4.6127963811159134e-02" nType="-99"/>
          </Node>
          <Node pos="r" depth="2" NCoef="0" IVar="3" Cut="1.4125715494155884e+00" cType="1" res="5.2804034203290939e-03" rms="1.0824405401945114e-01" purity="7.2588413953781128e-01" nType="0">
            <Node pos="l" depth="3" NCoef="0" IVar="-1" Cut="0.0000000000000000e+00" cType="1" res="2.6765041053295135e-02" rms="1.0555274784564972e-01" purity="8.6196857690811157e-01" nType="-99"/>
            <Node pos="r" depth="3" NCoef="0" IVar="-1" Cut="0.0000000000000000e+00" cType="1" res="-3.7927515804767609e-02" rms="1.1521532386541367e-01" purity="6.7895628511905670e-02" nType="-99"/>
          </Node>
        </Node>
        <Node pos="r" depth="1" NCoef="0" IVar="16" Cut="4.8495664596557617e+00" cType="1" res="1.1184657923877239e-02" rms="9.3915164470672607e-02" purity="9.4213694334030151e-01" nType="0">
          <Node pos="l" depth="2" NCoef="0" IVar="-1" Cut="0.0000000000000000e+00" cType="1" res="2.3715414106845856e-02" rms="2.1575471758842468e-01" purity="5.7842236757278442e-01" nType="-99"/>
          <Node pos="r" depth="2" NCoef="0" IVar="-1" Cut="0.0000000000000000e+00" cType="1" res="2.9940223321318626e-02" rms="6.6256336867809296e-02" purity="9.8395484685897827e-01" nType="-99"/>
        </Node>
      </Node>
    </BinaryTree>
    <BinaryTree type="DecisionTree" boostWeight="1.0000000000000000e+00" itree="52">
      <Node pos="s" depth="0" NCoef="0" IVar="0" Cut="8.2762670516967773e+00" cType="1" res="2.6749545941129327e-04" rms="9.5072478055953979e-02" purity="4.9544650316238403e-01" nType="0">
        <Node pos="l" depth="1" NCoef="0" IVar="0" Cut="7.5197982788085938e+00" cType="1" res="-1.1417504400014877e-02" rms="7.4720919132232666e-02" purity="1.2062887847423553e-01" nType="0">
          <Node pos="l" depth="2" NCoef="0" IVar="3" Cut="1.3210394382476807e+00" cType="1" res="-2.2546995431184769e-02" rms="5.5289488285779953e-02" purity="2.3768465965986252e-02" nType="0">
            <Node pos="l" depth="3" NCoef="0" IVar="-1" Cut="0.0000000000000000e+00" cType="1" res="-5.8160897344350815e-02" rms="7.2755850851535797e-02" purity="4.2500272393226624e-02" nType="-99"/>
            <Node pos="r" depth="3" NCoef="0" IVar="-1" Cut="0.0000000000000000e+00" cType="1" res="-4.0711168199777603e-02" rms="3.2328926026821136e-02" purity="9.3480609357357025e-03" nType="-99"/>
          </Node>
          <Node pos="r" depth="2" NCoef="0" IVar="13" Cut="2.3185932636260986e+00" cType="1" res="-8.9416261762380600e-03" rms="7.8176282346248627e-02" purity="1.4217653870582581e-01" nType="0">
            <Node pos="l" depth="3" NCoef="0" IVar="-1" Cut="0.0000000000000000e+00" cType="1" res="-4.2121417820453644e-02" rms="5.7616442441940308e-02" purity="1.9740492105484009e-02" nType="-99"/>
            <Node pos="r" depth="3" NCoef="0" IVar="-1" Cut="0.0000000000000000e+00" cType="1" res="9.0229632332921028e-03" rms="1.2417306751012802e-01" purity="5.6101071834564209e-01" nType="-99"/>
          </Node>
        </Node>
        <Node pos="r" depth="1" NCoef="0" IVar="4" Cut="1.6497933864593506e+00" cType="1" res="6.5412200056016445e-03" rms="1.0383357852697372e-01" purity="6.9668757915496826e-01" nType="0">
          <Node pos="l" depth="2" NCoef="0" IVar="16" Cut="4.7998118400573730e+00" cType="1" res="1.2571880593895912e-02" rms="1.0100429505109787e-01" purity="8.6377978324890137e-01" nType="0">
            <Node pos="l" depth="3" NCoef="0" IVar="-1" Cut="0.0000000000000000e+00" cType="1" res="3.2749567180871964e-02" rms="1.9019018113613129e-01" purity="3.2756364345550537e-01" nType="-99"/>
            <Node pos="r" depth="3" NCoef="0" IVar="-1" Cut="0.0000000000000000e+00" cType="1" res="3.1046748161315918e-02" rms="6.7282237112522125e-02" purity="9.7850048542022705e-01" nType="-99"/>
          </Node>
          <Node pos="r" depth="2" NCoef="0" IVar="13" Cut="2.1399013996124268e+00" cType="1" res="-8.5992673411965370e-03" rms="1.0915981978178024e-01" purity="2.7718850970268250e-01" nType="0">
            <Node pos="l" depth="3" NCoef="0" IVar="-1" Cut="0.0000000000000000e+00" cType="1" res="-4.3147444725036621e-02" rms="7.9769387841224670e-02" purity="2.8578044846653938e-02" nType="-99"/>
            <Node pos="r" depth="3" NCoef="0" IVar="-1" Cut="0.0000000000000000e+00" cType="1" res="1.5344835817813873e-02" rms="1.4468707144260406e-01" purity="7.0773869752883911e-01" nType="-99"/>
          </Node>
        </Node>
      </Node>
    </BinaryTree>
    <BinaryTree type="DecisionTree" boostWeight="1.0000000000000000e+00" itree="53">
      <Node pos="s" depth="0" NCoef="0" IVar="3" Cut="8.1963968276977539e-01" cType="1" res="5.6271045468747616e-04" rms="9.3413062393665314e-02" purity="5.0152218341827393e-01" nType="0">
        <Node pos="l" depth="1" NCoef="0" IVar="14" Cut="3.0039753913879395e+00" cType="1" res="8.4393648430705070e-03" rms="9.5072582364082336e-02" purity="8.2896292209625244e-01" nType="0">
          <Node pos="l" depth="2" NCoef="0" IVar="-1" Cut="0.0000000000000000e+00" cType="1" res="-3.0021969228982925e-02" rms="1.1425782740116119e-01" purity="9.1468587517738342e-02" nType="-99"/>
          <Node pos="r" depth="2" NCoef="0" IVar="2" Cut="-1.1290486335754395e+01" cType="1" res="1.0949578136205673e-02" rms="9.2947743833065033e-02" purity="8.8628327846527100e-01" nType="0">
            <Node pos="l" depth="3" NCoef="0" IVar="-1" Cut="0.0000000000000000e+00" cType="1" res="3.4716449677944183e-02" rms="5.0519488751888275e-02" purity="9.9257802963256836e-01" nType="-99"/>
            <Node pos="r" depth="3" NCoef="0" IVar="-1" Cut="0.0000000000000000e+00" cType="1" res="2.6730287820100784e-02" rms="1.8579311668872833e-01" purity="4.2694610357284546e-01" nType="-99"/>
          </Node>
        </Node>
        <Node pos="r" depth="1" NCoef="0" IVar="15" Cut="4.0041179656982422e+00" cType="1" res="-8.3411149680614471e-03" rms="9.0680778026580811e-02" purity="1.3138090074062347e-01" nType="0">
          <Node pos="l" depth="2" NCoef="0" IVar="13" Cut="2.3971023559570312e+00" cType="1" res="-1.1353312060236931e-02" rms="6.9302380084991455e-02" purity="3.1211283057928085e-02" nType="0">
            <Node pos="l" depth="3" NCoef="0" IVar="-1" Cut="0.0000000000000000e+00" cType="1" res="-3.4831564873456955e-02" rms="5.9510130435228348e-02" purity="1.2322351336479187e-02" nType="-99"/>
            <Node pos="r" depth="3" NCoef="0" IVar="-1" Cut="0.0000000000000000e+00" cType="1" res="-3.4458726644515991e-02" rms="1.2603731453418732e-01" purity="2.0092140138149261e-01" nType="-99"/>
          </Node>
          <Node pos="r" depth="2" NCoef="0" IVar="-1" Cut="0.0000000000000000e+00" cType="1" res="1.0732144117355347e-02" rms="1.7216549813747406e-01" purity="7.7120447158813477e-01" nType="-99"/>
        </Node>
      </Node>
    </BinaryTree>
    <BinaryTree type="DecisionTree" boostWeight="1.0000000000000000e+00" itree="54">
      <Node pos="s" depth="0" NCoef="0" IVar="15" Cut="2.6646754741668701e+00" cType="1" res="8.7055098265409470e-04" rms="9.6100650727748871e-02" purity="4.9870440363883972e-01" nType="0">
        <Node pos="l" depth="1" NCoef="0" IVar="11" Cut="6.9740147590637207e+00" cType="1" res="-9.7949169576168060e-03" rms="8.0563865602016449e-02" purity="5.5792167782783508e-02" nType="0">
          <Node pos="l" depth="2" NCoef="0" IVar="2" Cut="-1.0944433212280273e+01" cType="1" res="-1.1800535023212433e-02" rms="7.3459722101688385e-02" purity="2.7245325967669487e-02" nType="0">
            <Node pos="l" depth="3" NCoef="0" IVar="-1" Cut="0.0000000000000000e+00" cType="1" res="-5.0694379955530167e-02" rms="1.1817082762718201e-01" purity="1.5441977977752686e-01" nType="-99"/>
            <Node pos="r" depth="3" NCoef="0" IVar="-1" Cut="0.0000000000000000e+00" cType="1" res="-3.0594512820243835e-02" rms="6.5562732517719269e-02" purity="1.2296285480260849e-02" nType="-99"/>
          </Node>
          <Node pos="r" depth="2" NCoef="0" IVar="-1" Cut="0.0000000000000000e+00" cType="1" res="5.1426202990114689e-03" rms="1.1555133014917374e-01" purity="2.3984348773956299e-01" nType="-99"/>
        </Node>
        <Node pos="r" depth="1" NCoef="0" IVar="0" Cut="7.6389312744140625e+00" cType="1" res="7.0534264668822289e-03" rms="1.0354878753423691e-01" purity="7.5546497106552124e-01" nType="0">
          <Node pos="l" depth="2" NCoef="0" IVar="-1" Cut="0.0000000000000000e+00" cType="1" res="-5.5357705801725388e-02" rms="8.4344193339347839e-02" purity="8.4179535508155823e-02" nType="-99"/>
          <Node pos="r" depth="2" NCoef="0" IVar="10" Cut="6.5762400627136230e+00" cType="1" res="8.8444212451577187e-03" rms="1.0390426218509674e-01" purity="7.8387862443923950e-01" nType="0">
            <Node pos="l" depth="3" NCoef="0" IVar="-1" Cut="0.0000000000000000e+00" cType="1" res="-4.5562937855720520e-02" rms="1.2089614570140839e-01" purity="2.9710397124290466e-01" nType="-99"/>
            <Node pos="r" depth="3" NCoef="0" IVar="-1" Cut="0.0000000000000000e+00" cType="1" res="2.7917021885514259e-02" rms="1.0251577198505402e-01" purity="8.0939906835556030e-01" nType="-99"/>
          </Node>
        </Node>
      </Node>
    </BinaryTree>
    <BinaryTree type="DecisionTree" boostWeight="1.0000000000000000e+00" itree="55">
      <Node pos="s" depth="0" NCoef="0" IVar="14" Cut="3.2077181339263916e+00" cType="1" res="-5.6357670109719038e-04" rms="9.2182829976081848e-02" purity="4.9785161018371582e-01" nType="0">
        <Node pos="l" depth="1" NCoef="0" IVar="16" Cut="4.6622080802917480e+00" cType="1" res="-1.3255051337182522e-02" rms="6.3651330769062042e-02" purity="2.2703949362039566e-02" nType="0">
          <Node pos="l" depth="2" NCoef="0" IVar="3" Cut="1.1038775444030762e+00" cType="1" res="-1.0834695771336555e-02" rms="4.4359140098094940e-02" purity="7.1773589588701725e-03" nType="0">
            <Node pos="l" depth="3" NCoef="0" IVar="-1" Cut="0.0000000000000000e+00" cType="1" res="-3.3060956746339798e-02" rms="8.1737875938415527e-02" purity="2.5684697553515434e-02" nType="-99"/>
            <Node pos="r" depth="3" NCoef="0" IVar="-1" Cut="0.0000000000000000e+00" cType="1" res="-5.1149144768714905e-02" rms="1.0859656147658825e-02" purity="0.0000000000000000e+00" nType="-99"/>
          </Node>
          <Node pos="r" depth="2" NCoef="0" IVar="-1" Cut="0.0000000000000000e+00" cType="1" res="-3.4374095499515533e-02" rms="1.3709372282028198e-01" purity="1.3516525924205780e-01" nType="-99"/>
        </Node>
        <Node pos="r" depth="1" NCoef="0" IVar="0" Cut="7.9196887016296387e+00" cType="1" res="3.9850347675383091e-03" rms="1.0006379336118698e-01" purity="6.6814398765563965e-01" nType="0">
          <Node pos="l" depth="2" NCoef="0" IVar="0" Cut="7.4298062324523926e+00" cType="1" res="-1.7811678349971771e-02" rms="7.2154194116592407e-02" purity="9.4097465276718140e-02" nType="0">
            <Node pos="l" depth="3" NCoef="0" IVar="-1" Cut="0.0000000000000000e+00" cType="1" res="-5.2949655801057816e-02" rms="6.5205238759517670e-02" purity="3.0205370858311653e-02" nType="-99"/>
            <Node pos="r" depth="3" NCoef="0" IVar="-1" Cut="0.0000000000000000e+00" cType="1" res="-3.2254073768854141e-02" rms="7.4992634356021881e-02" purity="1.2576785683631897e-01" nType="-99"/>
          </Node>
          <Node pos="r" depth="2" NCoef="0" IVar="3" Cut="1.7759941816329956e+00" cType="1" res="6.7590121179819107e-03" rms="1.0274391621351242e-01" purity="7.4120056629180908e-01" nType="0">
            <Node pos="l" depth="3" NCoef="0" IVar="-1" Cut="0.0000000000000000e+00" cType="1" res="2.7913706377148628e-02" rms="1.0330770909786224e-01" purity="8.4417515993118286e-01" nType="-99"/>
            <Node pos="r" depth="3" NCoef="0" IVar="-1" Cut="0.0000000000000000e+00" cType="1" res="-2.9974978417158127e-02" rms="9.5828667283058167e-02" purity="5.2865486592054367e-02" nType="-99"/>
          </Node>
        </Node>
      </Node>
    </BinaryTree>
    <BinaryTree type="DecisionTree" boostWeight="1.0000000000000000e+00" itree="56">
      <Node pos="s" depth="0" NCoef="0" IVar="13" Cut="1.7877432107925415e+00" cType="1" res="6.9797842297703028e-04" rms="9.2072166502475739e-02" purity="4.9857121706008911e-01" nType="0">
        <Node pos="l" depth="1" NCoef="0" IVar="1" Cut="3.2923908233642578e+00" cType="1" res="-1.0245401412248611e-02" rms="7.8703671693801880e-02" purity="6.6718645393848419e-02" nType="0">
          <Node pos="l" depth="2" NCoef="0" IVar="-1" Cut="0.0000000000000000e+00" cType="1" res="6.2113879248499870e-03" rms="1.2987866997718811e-01" purity="2.2062194347381592e-01" nType="-99"/>
          <Node pos="r" depth="2" NCoef="0" IVar="15" Cut="3.3142256736755371e+00" cType="1" res="-1.2593072839081287e-02" rms="6.6997118294239044e-02" purity="4.2715072631835938e-02" nType="0">
            <Node pos="l" depth="3" NCoef="0" IVar="-1" Cut="0.0000000000000000e+00" cType="1" res="-4.1746500879526138e-02" rms="4.8336766660213470e-02" purity="8.8988505303859711e-03" nType="-99"/>
            <Node pos="r" depth="3" NCoef="0" IVar="-1" Cut="0.0000000000000000e+00" cType="1" res="-3.1691428273916245e-02" rms="1.3473412394523621e-01" purity="2.6254329085350037e-01" nType="-99"/>
          </Node>
        </Node>
        <Node pos="r" depth="1" NCoef="0" IVar="16" Cut="4.2617540359497070e+00" cType="1" res="6.0226893983781338e-03" rms="9.7475670278072357e-02" purity="7.0869743824005127e-01" nType="0">
          <Node pos="l" depth="2" NCoef="0" IVar="4" Cut="1.1763678789138794e+00" cType="1" res="-7.6215476728975773e-03" rms="1.0211962461471558e-01" purity="6.5716840326786041e-02" nType="0">
            <Node pos="l" depth="3" NCoef="0" IVar="-1" Cut="0.0000000000000000e+00" cType="1" res="1.0235019028186798e-02" rms="1.6868454217910767e-01" purity="1.9400373101234436e-01" nType="-99"/>
            <Node pos="r" depth="3" NCoef="0" IVar="-1" Cut="0.0000000000000000e+00" cType="1" res="-3.6928880959749222e-02" rms="6.2492933124303818e-02" purity="2.0231248810887337e-02" nType="-99"/>
          </Node>
          <Node pos="r" depth="2" NCoef="0" IVar="16" Cut="4.6002364158630371e+00" cType="1" res="1.0590028949081898e-02" rms="9.5436096191406250e-02" purity="9.2393195629119873e-01" nType="0">
            <Node pos="l" depth="3" NCoef="0" IVar="-1" Cut="0.0000000000000000e+00" cType="1" res="5.7175051420927048e-02" rms="2.4625822901725769e-01" purity="3.8244503736495972e-01" nType="-99"/>
            <Node pos="r" depth="3" NCoef="0" IVar="-1" Cut="0.0000000000000000e+00" cType="1" res="2.6919133961200714e-02" rms="7.6463431119918823e-02" purity="9.5644849538803101e-01" nType="-99"/>
          </Node>
        </Node>
      </Node>
    </BinaryTree>
    <BinaryTree type="DecisionTree" boostWeight="1.0000000000000000e+00" itree="57">
      <Node pos="s" depth="0" NCoef="0" IVar="16" Cut="4.1044917106628418e+00" cType="1" res="3.7661840906366706e-04" rms="9.0625219047069550e-02" purity="5.0219535827636719e-01" nType="0">
        <Node pos="l" depth="1" NCoef="0" IVar="6" Cut="7.6628198623657227e+00" cType="1" res="-9.3020861968398094e-03" rms="6.9377280771732330e-02" purity="2.6227040216326714e-02" nType="0">
          <Node pos="l" depth="2" NCoef="0" IVar="3" Cut="6.4805096387863159e-01" cType="1" res="-1.3042278587818146e-02" rms="4.4684991240501404e-02" purity="5.2623096853494644e-03" nType="0">
            <Node pos="l" depth="3" NCoef="0" IVar="-1" Cut="0.0000000000000000e+00" cType="1" res="-4.5548401772975922e-02" rms="8.0543816089630127e-02" purity="2.2937912493944168e-02" nType="-99"/>
            <Node pos="r" depth="3" NCoef="0" IVar="-1" Cut="0.0000000000000000e+00" cType="1" res="-4.7109793871641159e-02" rms="2.8887931257486343e-02" purity="1.0843588970601559e-03" nType="-99"/>
          </Node>
          <Node pos="r" depth="2" NCoef="0" IVar="2" Cut="-1.0370756149291992e+01" cType="1" res="-5.3213071078062057e-03" rms="8.8204860687255859e-02" purity="4.8540320247411728e-02" nType="0">
            <Node pos="l" depth="3" NCoef="0" IVar="-1" Cut="0.0000000000000000e+00" cType="1" res="1.7754297703504562e-02" rms="1.8674592673778534e-01" purity="2.3955512046813965e-01" nType="-99"/>
            <Node pos="r" depth="3" NCoef="0" IVar="-1" Cut="0.0000000000000000e+00" cType="1" res="-3.3544994890689850e-02" rms="5.0267260521650314e-02" purity="1.2220541015267372e-02" nType="-99"/>
          </Node>
        </Node>
        <Node pos="r" depth="1" NCoef="0" IVar="3" Cut="1.7246075868606567e+00" cType="1" res="5.9651201590895653e-03" rms="1.0045205801725388e-01" purity="7.7702033519744873e-01" nType="0">
          <Node pos="l" depth="2" NCoef="0" IVar="2" Cut="-1.0832170486450195e+01" cType="1" res="8.5289217531681061e-03" rms="9.8256766796112061e-02" purity="8.7353414297103882e-01" nType="0">
            <Node pos="l" depth="3" NCoef="0" IVar="-1" Cut="0.0000000000000000e+00" cType="1" res="2.5074800476431847e-02" rms="6.6446952521800995e-02" purity="9.8377960920333862e-01" nType="-99"/>
            <Node pos="r" depth="3" NCoef="0" IVar="-1" Cut="0.0000000000000000e+00" cType="1" res="2.3847753182053566e-02" rms="1.8745408952236176e-01" purity="3.3090692758560181e-01" nType="-99"/>
          </Node>
          <Node pos="r" depth="2" NCoef="0" IVar="10" Cut="7.3076009750366211e+00" cType="1" res="-1.2564389966428280e-02" rms="1.1336893588304520e-01" purity="7.9480692744255066e-02" nType="0">
            <Node pos="l" depth="3" NCoef="0" IVar="-1" Cut="0.0000000000000000e+00" cType="1" res="-5.4138313978910446e-02" rms="7.0447802543640137e-02" purity="1.3527520932257175e-02" nType="-99"/>
            <Node pos="r" depth="3" NCoef="0" IVar="-1" Cut="0.0000000000000000e+00" cType="1" res="1.3830676907673478e-03" rms="1.4014436304569244e-01" purity="1.3948617875576019e-01" nType="-99"/>
          </Node>
        </Node>
      </Node>
    </BinaryTree>
    <BinaryTree type="DecisionTree" boostWeight="1.0000000000000000e+00" itree="58">
      <Node pos="s" depth="0" NCoef="0" IVar="9" Cut="6.2669205665588379e+00" cType="1" res="4.9948744708672166e-04" rms="9.3567855656147003e-02" purity="4.9422109127044678e-01" nType="0">
        <Node pos="l" depth="1" NCoef="0" IVar="7" Cut="1.9230364561080933e+00" cType="1" res="-5.5572651326656342e-03" rms="9.3530535697937012e-02" purity="3.3881324529647827e-01" nType="0">
          <Node pos="l" depth="2" NCoef="0" IVar="15" Cut="2.4838745594024658e+00" cType="1" res="-2.7531728148460388e-02" rms="1.0317944735288620e-01" purity="5.2790123969316483e-02" nType="0">
            <Node pos="l" depth="3" NCoef="0" IVar="-1" Cut="0.0000000000000000e+00" cType="1" res="-3.9335157722234726e-02" rms="6.6159255802631378e-02" purity="8.0745415762066841e-03" nType="-99"/>
            <Node pos="r" depth="3" NCoef="0" IVar="-1" Cut="0.0000000000000000e+00" cType="1" res="-5.9493526816368103e-02" rms="1.3738797605037689e-01" purity="1.1830641329288483e-01" nType="-99"/>
          </Node>
          <Node pos="r" depth="2" NCoef="0" IVar="16" Cut="5.4182381629943848e+00" cType="1" res="-2.6487919967621565e-03" rms="9.1784380376338959e-02" purity="3.7667039036750793e-01" nType="0">
            <Node pos="l" depth="3" NCoef="0" IVar="-1" Cut="0.0000000000000000e+00" cType="1" res="-2.5364112108945847e-02" rms="8.2545459270477295e-02" purity="6.1911158263683319e-02" nType="-99"/>
            <Node pos="r" depth="3" NCoef="0" IVar="-1" Cut="0.0000000000000000e+00" cType="1" res="2.5704178959131241e-02" rms="1.0526650398969650e-01" purity="9.3925434350967407e-01" nType="-99"/>
          </Node>
        </Node>
        <Node pos="r" depth="1" NCoef="0" IVar="0" Cut="8.0702886581420898e+00" cType="1" res="9.5446929335594177e-03" rms="9.2891171574592590e-02" purity="7.2630852460861206e-01" nType="0">
          <Node pos="l" depth="2" NCoef="0" IVar="3" Cut="1.1986217498779297e+00" cType="1" res="-1.4110526069998741e-02" rms="6.6777929663658142e-02" purity="8.1503167748451233e-02" nType="0">
            <Node pos="l" depth="3" NCoef="0" IVar="-1" Cut="0.0000000000000000e+00" cType="1" res="-4.2639035731554031e-02" rms="7.7565006911754608e-02" purity="1.7027474939823151e-01" nType="-99"/>
            <Node pos="r" depth="3" NCoef="0" IVar="-1" Cut="0.0000000000000000e+00" cType="1" res="-2.3970980197191238e-02" rms="5.5889386683702469e-02" purity="1.3894474133849144e-02" nType="-99"/>
          </Node>
          <Node pos="r" depth="2" NCoef="0" IVar="7" Cut="3.9566850662231445e+00" cType="1" res="1.4027534984052181e-02" rms="9.6399053931236267e-02" purity="8.4850400686264038e-01" nType="0">
            <Node pos="l" depth="3" NCoef="0" IVar="-1" Cut="0.0000000000000000e+00" cType="1" res="4.6557608991861343e-02" rms="1.6382852196693420e-01" purity="5.1308286190032959e-01" nType="-99"/>
            <Node pos="r" depth="3" NCoef="0" IVar="-1" Cut="0.0000000000000000e+00" cType="1" res="3.8197774440050125e-02" rms="4.7910068184137344e-02" purity="9.7873145341873169e-01" nType="-99"/>
          </Node>
        </Node>
      </Node>
    </BinaryTree>
    <BinaryTree type="DecisionTree" boostWeight="1.0000000000000000e+00" itree="59">
      <Node pos="s" depth="0" NCoef="0" IVar="9" Cut="6.4973258972167969e+00" cType="1" res="2.4491426302120090e-04" rms="8.9858002960681915e-02" purity="5.1070559024810791e-01" nType="0">
        <Node pos="l" depth="1" NCoef="0" IVar="13" Cut="2.3243370056152344e+00" cType="1" res="-3.5339223686605692e-03" rms="9.1732278466224670e-02" purity="3.8708034157752991e-01" nType="0">
          <Node pos="l" depth="2" NCoef="0" IVar="7" Cut="1.1716068983078003e+00" cType="1" res="-9.0960403904318810e-03" rms="8.8905245065689087e-02" purity="8.3598203957080841e-02" nType="0">
            <Node pos="l" depth="3" NCoef="0" IVar="-1" Cut="0.0000000000000000e+00" cType="1" res="-5.8365676552057266e-02" rms="9.3253135681152344e-02" purity="2.5071805343031883e-02" nType="-99"/>
            <Node pos="r" depth="3" NCoef="0" IVar="-1" Cut="0.0000000000000000e+00" cType="1" res="-1.9886463880538940e-02" rms="8.8218502700328827e-02" purity="8.9394837617874146e-02" nType="-99"/>
          </Node>
          <Node pos="r" depth="2" NCoef="0" IVar="4" Cut="2.2514216899871826e+00" cType="1" res="4.9226819537580013e-03" rms="9.5250606536865234e-02" purity="8.4849238395690918e-01" nType="0">
            <Node pos="l" depth="3" NCoef="0" IVar="-1" Cut="0.0000000000000000e+00" cType="1" res="2.6026783511042595e-02" rms="8.5221804678440094e-02" purity="9.1270875930786133e-01" nType="-99"/>
            <Node pos="r" depth="3" NCoef="0" IVar="-1" Cut="0.0000000000000000e+00" cType="1" res="-2.4660125374794006e-02" rms="1.5811333060264587e-01" purity="2.6545304059982300e-01" nType="-99"/>
          </Node>
        </Node>
        <Node pos="r" depth="1" NCoef="0" IVar="13" Cut="2.5099477767944336e+00" cType="1" res="9.8469359800219536e-03" rms="8.4149561822414398e-02" purity="8.2483726739883423e-01" nType="0">
          <Node pos="l" depth="2" NCoef="0" IVar="1" Cut="3.7477014064788818e+00" cType="1" res="2.1521335467696190e-02" rms="1.3652083277702332e-01" purity="4.5605027675628662e-01" nType="0">
            <Node pos="l" depth="3" NCoef="0" IVar="-1" Cut="0.0000000000000000e+00" cType="1" res="4.9444228410720825e-02" rms="1.6823478043079376e-01" purity="6.2369197607040405e-01" nType="-99"/>
            <Node pos="r" depth="3" NCoef="0" IVar="-1" Cut="0.0000000000000000e+00" cType="1" res="3.1770756468176842e-03" rms="8.9101716876029968e-02" purity="2.8418317437171936e-01" nType="-99"/>
          </Node>
          <Node pos="r" depth="2" NCoef="0" IVar="-1" Cut="0.0000000000000000e+00" cType="1" res="2.8575733304023743e-02" rms="5.0196759402751923e-02" purity="9.6805179119110107e-01" nType="-99"/>
        </Node>
      </Node>
    </BinaryTree>
    <BinaryTree type="DecisionTree" boostWeight="1.0000000000000000e+00" itree="60">
      <Node pos="s" depth="0" NCoef="0" IVar="5" Cut="-4.0999989509582520e+00" cType="1" res="6.1066646594554186e-04" rms="9.0163685381412506e-02" purity="4.9773830175399780e-01" nType="0">
        <Node pos="l" depth="1" NCoef="0" IVar="14" Cut="4.1768074035644531e+00" cType="1" res="1.0489283129572868e-02" rms="9.4112649559974670e-02" purity="8.4237569570541382e-01" nType="0">
          <Node pos="l" depth="2" NCoef="0" IVar="16" Cut="4.1224360466003418e+00" cType="1" res="2.5767916813492775e-02" rms="1.6766628623008728e-01" purity="3.7319913506507874e-01" nType="0">
            <Node pos="l" depth="3" NCoef="0" IVar="-1" Cut="0.0000000000000000e+00" cType="1" res="-1.0050710290670395e-02" rms="1.1206178367137909e-01" purity="5.9506062418222427e-02" nType="-99"/>
            <Node pos="r" depth="3" NCoef="0" IVar="-1" Cut="0.0000000000000000e+00" cType="1" res="4.6903587877750397e-02" rms="2.0503309369087219e-01" purity="6.9553858041763306e-01" nType="-99"/>
          </Node>
          <Node pos="r" depth="2" NCoef="0" IVar="-1" Cut="0.0000000000000000e+00" cType="1" res="3.2787688076496124e-02" rms="5.5118978023529053e-02" purity="9.8197191953659058e-01" nType="-99"/>
        </Node>
        <Node pos="r" depth="1" NCoef="0" IVar="14" Cut="4.6666841506958008e+00" cType="1" res="-5.6456290185451508e-03" rms="8.6992420256137848e-02" purity="2.7947363257408142e-01" nType="0">
          <Node pos="l" depth="2" NCoef="0" IVar="15" Cut="2.8496205806732178e+00" cType="1" res="-9.6301399171352386e-03" rms="7.7339455485343933e-02" purity="3.9917778223752975e-02" nType="0">
            <Node pos="l" depth="3" NCoef="0" IVar="-1" Cut="0.0000000000000000e+00" cType="1" res="-3.0018197372555733e-02" rms="6.5947934985160828e-02" purity="9.2158643528819084e-03" nType="-99"/>
            <Node pos="r" depth="3" NCoef="0" IVar="-1" Cut="0.0000000000000000e+00" cType="1" res="-2.8754461556673050e-02" rms="1.0295008867979050e-01" purity="1.2846003472805023e-01" nType="-99"/>
          </Node>
          <Node pos="r" depth="2" NCoef="0" IVar="-1" Cut="0.0000000000000000e+00" cType="1" res="1.1376245878636837e-02" rms="1.0724311321973801e-01" purity="8.9550268650054932e-01" nType="-99"/>
        </Node>
      </Node>
    </BinaryTree>
    <BinaryTree type="DecisionTree" boostWeight="1.0000000000000000e+00" itree="61">
      <Node pos="s" depth="0" NCoef="0" IVar="4" Cut="1.9429795742034912e+00" cType="1" res="5.5288261501118541e-04" rms="9.2627272009849548e-02" purity="5.0038981437683105e-01" nType="0">
        <Node pos="l" depth="1" NCoef="0" IVar="14" Cut="3.2595067024230957e+00" cType="1" res="4.6612275764346123e-03" rms="9.5119006931781769e-02" purity="6.7655044794082642e-01" nType="0">
          <Node pos="l" depth="2" NCoef="0" IVar="10" Cut="6.9406971931457520e+00" cType="1" res="-1.1723230592906475e-02" rms="7.4536755681037903e-02" purity="4.7991205006837845e-02" nType="0">
            <Node pos="l" depth="3" NCoef="0" IVar="-1" Cut="0.0000000000000000e+00" cType="1" res="-6.2699183821678162e-02" rms="6.5644554793834686e-02" purity="0.0000000000000000e+00" nType="-99"/>
            <Node pos="r" depth="3" NCoef="0" IVar="-1" Cut="0.0000000000000000e+00" cType="1" res="-1.9920999184250832e-02" rms="7.6640747487545013e-02" purity="6.2600612640380859e-02" nType="-99"/>
          </Node>
          <Node pos="r" depth="2" NCoef="0" IVar="2" Cut="-1.0831873893737793e+01" cType="1" res="8.6257252842187881e-03" rms="9.9054917693138123e-02" purity="8.2864099740982056e-01" nType="0">
            <Node pos="l" depth="3" NCoef="0" IVar="-1" Cut="0.0000000000000000e+00" cType="1" res="2.4509821087121964e-02" rms="7.4475288391113281e-02" purity="9.6155285835266113e-01" nType="-99"/>
            <Node pos="r" depth="3" NCoef="0" IVar="-1" Cut="0.0000000000000000e+00" cType="1" res="2.8322856873273849e-02" rms="1.6767922043800354e-01" purity="2.5137135386466980e-01" nType="-99"/>
          </Node>
        </Node>
        <Node pos="r" depth="1" NCoef="0" IVar="9" Cut="6.0777826309204102e+00" cType="1" res="-8.7194126099348068e-03" rms="8.6022749543190002e-02" purity="1.0280566662549973e-01" nType="0">
          <Node pos="l" depth="2" NCoef="0" IVar="2" Cut="-1.0155302047729492e+01" cType="1" res="-1.3362392783164978e-02" rms="7.1723878383636475e-02" purity="5.3693644702434540e-02" nType="0">
            <Node pos="l" depth="3" NCoef="0" IVar="-1" Cut="0.0000000000000000e+00" cType="1" res="-5.6066080927848816e-02" rms="1.7184542119503021e-01" purity="3.7092077732086182e-01" nType="-99"/>
            <Node pos="r" depth="3" NCoef="0" IVar="-1" Cut="0.0000000000000000e+00" cType="1" res="-4.4468495994806290e-02" rms="3.7932690232992172e-02" purity="6.8469862453639507e-03" nType="-99"/>
          </Node>
          <Node pos="r" depth="2" NCoef="0" IVar="16" Cut="4.1210184097290039e+00" cType="1" res="-6.4661353826522827e-04" rms="1.0592023283243179e-01" purity="1.8819727003574371e-01" nType="0">
            <Node pos="l" depth="3" NCoef="0" IVar="-1" Cut="0.0000000000000000e+00" cType="1" res="-4.4852133840322495e-02" rms="5.6637153029441833e-02" purity="2.3564689327031374e-03" nType="-99"/>
            <Node pos="r" depth="3" NCoef="0" IVar="-1" Cut="0.0000000000000000e+00" cType="1" res="2.5608386844396591e-02" rms="1.5601280331611633e-01" purity="5.0307428836822510e-01" nType="-99"/>
          </Node>
        </Node>
      </Node>
    </BinaryTree>
    <BinaryTree type="DecisionTree" boostWeight="1.0000000000000000e+00" itree="62">
      <Node pos="s" depth="0" NCoef="0" IVar="15" Cut="3.1315207481384277e+00" cType="1" res="-4.6862169983796775e-04" rms="8.7666161358356476e-02" purity="5.0145262479782104e-01" nType="0">
        <Node pos="l" depth="1" NCoef="0" IVar="11" Cut="6.9747071266174316e+00" cType="1" res="-6.3244146294891834e-03" rms="8.3069965243339539e-02" purity="7.9524442553520203e-02" nType="0">
          <Node pos="l" depth="2" NCoef="0" IVar="2" Cut="-1.1063347816467285e+01" cType="1" res="-8.7462421506643295e-03" rms="7.3066115379333496e-02" purity="4.8005178570747375e-02" nType="0">
            <Node pos="l" depth="3" NCoef="0" IVar="-1" Cut="0.0000000000000000e+00" cType="1" res="-3.3293612301349640e-02" rms="1.2652088701725006e-01" purity="2.9269713163375854e-01" nType="-99"/>
            <Node pos="r" depth="3" NCoef="0" IVar="-1" Cut="0.0000000000000000e+00" cType="1" res="-2.8806008398532867e-02" rms="6.2822654843330383e-02" purity="1.6767064109444618e-02" nType="-99"/>
          </Node>
          <Node pos="r" depth="2" NCoef="0" IVar="2" Cut="-9.1890392303466797e+00" cType="1" res="7.0857941173017025e-03" rms="1.2384364008903503e-01" purity="2.5405377149581909e-01" nType="0">
            <Node pos="l" depth="3" NCoef="0" IVar="-1" Cut="0.0000000000000000e+00" cType="1" res="3.6391984671354294e-02" rms="1.7472988367080688e-01" purity="5.4282474517822266e-01" nType="-99"/>
            <Node pos="r" depth="3" NCoef="0" IVar="-1" Cut="0.0000000000000000e+00" cType="1" res="-4.1792150586843491e-02" rms="3.9154756814241409e-02" purity="4.3861609883606434e-03" nType="-99"/>
          </Node>
        </Node>
        <Node pos="r" depth="1" NCoef="0" IVar="9" Cut="5.6564259529113770e+00" cType="1" res="4.6079307794570923e-03" rms="9.1160126030445099e-02" purity="8.6723411083221436e-01" nType="0">
          <Node pos="l" depth="2" NCoef="0" IVar="10" Cut="7.1333503723144531e+00" cType="1" res="-9.1776642948389053e-03" rms="1.0546931624412537e-01" purity="7.0339596271514893e-01" nType="0">
            <Node pos="l" depth="3" NCoef="0" IVar="-1" Cut="0.0000000000000000e+00" cType="1" res="-5.7729635387659073e-02" rms="1.1929129809141159e-01" purity="4.6952071785926819e-01" nType="-99"/>
            <Node pos="r" depth="3" NCoef="0" IVar="-1" Cut="0.0000000000000000e+00" cType="1" res="-3.3080468419939280e-03" rms="9.8447069525718689e-02" purity="7.9455918073654175e-01" nType="-99"/>
          </Node>
          <Node pos="r" depth="2" NCoef="0" IVar="2" Cut="-1.0351635932922363e+01" cType="1" res="7.9314038157463074e-03" rms="8.7034441530704498e-02" purity="9.0673273801803589e-01" nType="0">
            <Node pos="l" depth="3" NCoef="0" IVar="-1" Cut="0.0000000000000000e+00" cType="1" res="2.4556426331400871e-02" rms="6.1502348631620407e-02" purity="9.8417741060256958e-01" nType="-99"/>
            <Node pos="r" depth="3" NCoef="0" IVar="-1" Cut="0.0000000000000000e+00" cType="1" res="3.3741205930709839e-02" rms="1.8956397473812103e-01" purity="3.1004956364631653e-01" nType="-99"/>
          </Node>
        </Node>
      </Node>
    </BinaryTree>
    <BinaryTree type="DecisionTree" boostWeight="1.0000000000000000e+00" itree="63">
      <Node pos="s" depth="0" NCoef="0" IVar="3" Cut="5.0457650423049927e-01" cType="1" res="9.2402484733611345e-04" rms="9.2717856168746948e-02" purity="5.0022029876708984e-01" nType="0">
        <Node pos="l" depth="1" NCoef="0" IVar="2" Cut="-1.0832181930541992e+01" cType="1" res="8.7201427668333054e-03" rms="9.3986690044403076e-02" purity="8.6861550807952881e-01" nType="0">
          <Node pos="l" depth="2" NCoef="0" IVar="-1" Cut="0.0000000000000000e+00" cType="1" res="2.4986125528812408e-02" rms="5.2306570112705231e-02" purity="9.8836970329284668e-01" nType="-99"/>
          <Node pos="r" depth="2" NCoef="0" IVar="14" Cut="3.3667964935302734e+00" cType="1" res="3.0066654086112976e-02" rms="1.8872380256652832e-01" purity="3.3165341615676880e-01" nType="0">
            <Node pos="l" depth="3" NCoef="0" IVar="-1" Cut="0.0000000000000000e+00" cType="1" res="-1.4721752377226949e-03" rms="1.3917611539363861e-01" purity="9.2029541730880737e-02" nType="-99"/>
            <Node pos="r" depth="3" NCoef="0" IVar="-1" Cut="0.0000000000000000e+00" cType="1" res="4.8081167042255402e-02" rms="2.1563924849033356e-01" purity="5.1091414690017700e-01" nType="-99"/>
          </Node>
        </Node>
        <Node pos="r" depth="1" NCoef="0" IVar="9" Cut="6.2490329742431641e+00" cType="1" res="-5.2332142367959023e-03" rms="9.1233707964420319e-02" purity="2.0926818251609802e-01" nType="0">
          <Node pos="l" depth="2" NCoef="0" IVar="16" Cut="4.6391706466674805e+00" cType="1" res="-9.8254578188061714e-03" rms="8.5825450718402863e-02" purity="1.1957162618637085e-01" nType="0">
            <Node pos="l" depth="3" NCoef="0" IVar="-1" Cut="0.0000000000000000e+00" cType="1" res="-3.3666238188743591e-02" rms="5.6659352034330368e-02" purity="1.0429587215185165e-02" nType="-99"/>
            <Node pos="r" depth="3" NCoef="0" IVar="-1" Cut="0.0000000000000000e+00" cType="1" res="-3.1846396625041962e-02" rms="1.4593914151191711e-01" purity="4.9005094170570374e-01" nType="-99"/>
          </Node>
          <Node pos="r" depth="2" NCoef="0" IVar="1" Cut="3.7477014064788818e+00" cType="1" res="5.6917252950370312e-03" rms="1.0213790088891983e-01" purity="4.2265611886978149e-01" nType="0">
            <Node pos="l" depth="3" NCoef="0" IVar="-1" Cut="0.0000000000000000e+00" cType="1" res="3.3786699175834656e-02" rms="1.2250303477048874e-01" purity="6.0304576158523560e-01" nType="-99"/>
            <Node pos="r" depth="3" NCoef="0" IVar="-1" Cut="0.0000000000000000e+00" cType="1" res="-2.1946705877780914e-02" rms="7.1410439908504486e-02" purity="2.2309119999408722e-01" nType="-99"/>
          </Node>
        </Node>
      </Node>
    </BinaryTree>
    <BinaryTree type="DecisionTree" boostWeight="1.0000000000000000e+00" itree="64">
      <Node pos="s" depth="0" NCoef="0" IVar="7" Cut="9.2822027206420898e-01" cType="1" res="-2.4274339375551790e-04" rms="9.0201482176780701e-02" purity="4.9168080091476440e-01" nType="0">
        <Node pos="l" depth="1" NCoef="0" IVar="-1" Cut="0.0000000000000000e+00" cType="1" res="-5.7821478694677353e-02" rms="9.8407916724681854e-02" purity="1.1925038695335388e-01" nType="-99"/>
        <Node pos="r" depth="1" NCoef="0" IVar="4" Cut="1.7147222757339478e+00" cType="1" res="1.1114830849692225e-03" rms="8.9560881257057190e-02" purity="5.0995516777038574e-01" nType="0">
          <Node pos="l" depth="2" NCoef="0" IVar="0" Cut="8.0503063201904297e+00" cType="1" res="5.5388240143656731e-03" rms="9.2082977294921875e-02" purity="7.2528076171875000e-01" nType="0">
            <Node pos="l" depth="3" NCoef="0" IVar="-1" Cut="0.0000000000000000e+00" cType="1" res="-2.6574077084660530e-02" rms="7.6349750161170959e-02" purity="1.7370286583900452e-01" nType="-99"/>
            <Node pos="r" depth="3" NCoef="0" IVar="-1" Cut="0.0000000000000000e+00" cType="1" res="2.8324941173195839e-02" rms="9.4283245503902435e-02" purity="8.2085812091827393e-01" nType="-99"/>
          </Node>
          <Node pos="r" depth="2" NCoef="0" IVar="4" Cut="2.5742454528808594e+00" cType="1" res="-6.6202976740896702e-03" rms="8.4422066807746887e-02" purity="1.3391679525375366e-01" nType="0">
            <Node pos="l" depth="3" NCoef="0" IVar="-1" Cut="0.0000000000000000e+00" cType="1" res="-9.1808484867215157e-03" rms="9.5966286957263947e-02" purity="2.0475876331329346e-01" nType="-99"/>
            <Node pos="r" depth="3" NCoef="0" IVar="-1" Cut="0.0000000000000000e+00" cType="1" res="-4.3827321380376816e-02" rms="6.4362332224845886e-02" purity="3.4033559262752533e-02" nType="-99"/>
          </Node>
        </Node>
      </Node>
    </BinaryTree>
    <BinaryTree type="DecisionTree" boostWeight="1.0000000000000000e+00" itree="65">
      <Node pos="s" depth="0" NCoef="0" IVar="3" Cut="8.9720952510833740e-01" cType="1" res="2.7094836696051061e-04" rms="8.7852358818054199e-02" purity="5.0087767839431763e-01" nType="0">
        <Node pos="l" depth="1" NCoef="0" IVar="2" Cut="-1.1529141426086426e+01" cType="1" res="6.9038425572216511e-03" rms="9.6241421997547150e-02" purity="8.1853300333023071e-01" nType="0">
          <Node pos="l" depth="2" NCoef="0" IVar="-1" Cut="0.0000000000000000e+00" cType="1" res="2.2581903263926506e-02" rms="5.3194794803857803e-02" purity="9.8817205429077148e-01" nType="-99"/>
          <Node pos="r" depth="2" NCoef="0" IVar="2" Cut="-8.0080184936523438e+00" cType="1" res="1.7081681638956070e-02" rms="1.6372109949588776e-01" purity="3.5219800472259521e-01" nType="0">
            <Node pos="l" depth="3" NCoef="0" IVar="-1" Cut="0.0000000000000000e+00" cType="1" res="3.2502058893442154e-02" rms="1.9199202954769135e-01" purity="5.0855362415313721e-01" nType="-99"/>
            <Node pos="r" depth="3" NCoef="0" IVar="-1" Cut="0.0000000000000000e+00" cType="1" res="-4.0304366499185562e-02" rms="5.5427372455596924e-02" purity="7.2847139090299606e-03" nType="-99"/>
          </Node>
        </Node>
        <Node pos="r" depth="1" NCoef="0" IVar="9" Cut="6.6760315895080566e+00" cType="1" res="-7.8125447034835815e-03" rms="7.5610525906085968e-02" purity="1.1375180631875992e-01" nType="0">
          <Node pos="l" depth="2" NCoef="0" IVar="14" Cut="4.1670403480529785e+00" cType="1" res="-9.1413501650094986e-03" rms="7.2140380740165710e-02" purity="8.1439949572086334e-02" nType="0">
            <Node pos="l" depth="3" NCoef="0" IVar="-1" Cut="0.0000000000000000e+00" cType="1" res="-3.4298550337553024e-02" rms="5.3747259080410004e-02" purity="9.2298109084367752e-03" nType="-99"/>
            <Node pos="r" depth="3" NCoef="0" IVar="-1" Cut="0.0000000000000000e+00" cType="1" res="-3.3070452511310577e-02" rms="1.2542599439620972e-01" purity="4.1445803642272949e-01" nType="-99"/>
          </Node>
          <Node pos="r" depth="2" NCoef="0" IVar="-1" Cut="0.0000000000000000e+00" cType="1" res="1.4017418026924133e-02" rms="1.0844577103853226e-01" purity="5.1298224925994873e-01" nType="-99"/>
        </Node>
      </Node>
    </BinaryTree>
    <BinaryTree type="DecisionTree" boostWeight="1.0000000000000000e+00" itree="66">
      <Node pos="s" depth="0" NCoef="0" IVar="15" Cut="2.6952221393585205e+00" cType="1" res="-4.5005758875049651e-04" rms="8.1824459135532379e-02" purity="5.0348967313766479e-01" nType="0">
        <Node pos="l" depth="1" NCoef="0" IVar="11" Cut="6.9961481094360352e+00" cType="1" res="-7.5382739305496216e-03" rms="6.5848104655742645e-02" purity="5.8596890419721603e-02" nType="0">
          <Node pos="l" depth="2" NCoef="0" IVar="3" Cut="6.6719442605972290e-01" cType="1" res="-8.9652650058269501e-03" rms="5.6341901421546936e-02" purity="3.4829273819923401e-02" nType="0">
            <Node pos="l" depth="3" NCoef="0" IVar="-1" Cut="0.0000000000000000e+00" cType="1" res="-3.1483184546232224e-02" rms="1.0059453547000885e-01" purity="1.6073401272296906e-01" nType="-99"/>
            <Node pos="r" depth="3" NCoef="0" IVar="-1" Cut="0.0000000000000000e+00" cType="1" res="-4.0877815335988998e-02" rms="4.2300652712583542e-02" purity="1.0255938395857811e-02" nType="-99"/>
          </Node>
          <Node pos="r" depth="2" NCoef="0" IVar="-1" Cut="0.0000000000000000e+00" cType="1" res="5.8075757697224617e-03" rms="1.1263120919466019e-01" purity="2.3196986317634583e-01" nType="-99"/>
        </Node>
        <Node pos="r" depth="1" NCoef="0" IVar="9" Cut="6.0768957138061523e+00" cType="1" res="3.7617315538227558e-03" rms="8.9719101786613464e-02" purity="7.6784318685531616e-01" nType="0">
          <Node pos="l" depth="2" NCoef="0" IVar="3" Cut="4.8658251762390137e-01" cType="1" res="-5.4081827402114868e-03" rms="9.5898926258087158e-02" purity="6.0164254903793335e-01" nType="0">
            <Node pos="l" depth="3" NCoef="0" IVar="-1" Cut="0.0000000000000000e+00" cType="1" res="1.8335508182644844e-02" rms="8.1913784146308899e-02" purity="9.1756087541580200e-01" nType="-99"/>
            <Node pos="r" depth="3" NCoef="0" IVar="-1" Cut="0.0000000000000000e+00" cType="1" res="-3.4055221825838089e-02" rms="1.0616172850131989e-01" purity="3.1240829825401306e-01" nType="-99"/>
          </Node>
          <Node pos="r" depth="2" NCoef="0" IVar="2" Cut="-1.0560420036315918e+01" cType="1" res="1.0155172087252140e-02" rms="8.4559105336666107e-02" purity="8.8372147083282471e-01" nType="0">
            <Node pos="l" depth="3" NCoef="0" IVar="-1" Cut="0.0000000000000000e+00" cType="1" res="3.6824058741331100e-02" rms="5.5880881845951080e-02" purity="9.8646128177642822e-01" nType="-99"/>
            <Node pos="r" depth="3" NCoef="0" IVar="-1" Cut="0.0000000000000000e+00" cType="1" res="3.5910118371248245e-02" rms="1.7393854260444641e-01" purity="2.7788209915161133e-01" nType="-99"/>
          </Node>
        </Node>
      </Node>
    </BinaryTree>
    <BinaryTree type="DecisionTree" boostWeight="1.0000000000000000e+00" itree="67">
      <Node pos="s" depth="0" NCoef="0" IVar="14" Cut="3.4369583129882812e+00" cType="1" res="6.1713455943390727e-04" rms="8.7746739387512207e-02" purity="4.9943739175796509e-01" nType="0">
        <Node pos="l" depth="1" NCoef="0" IVar="3" Cut="2.8974658250808716e-01" cType="1" res="-6.3474215567111969e-03" rms="6.7254722118377686e-02" purity="3.1723428517580032e-02" nType="0">
          <Node pos="l" depth="2" NCoef="0" IVar="-1" Cut="0.0000000000000000e+00" cType="1" res="6.9428374990820885e-03" rms="1.5678016841411591e-01" purity="2.2835022211074829e-01" nType="-99"/>
          <Node pos="r" depth="2" NCoef="0" IVar="16" Cut="4.6413588523864746e+00" cType="1" res="-7.7371108345687389e-03" rms="4.8061355948448181e-02" purity="1.0217375122010708e-02" nType="0">
            <Node pos="l" depth="3" NCoef="0" IVar="-1" Cut="0.0000000000000000e+00" cType="1" res="-4.1156135499477386e-02" rms="2.9414333403110504e-02" purity="1.9282824359834194e-03" nType="-99"/>
            <Node pos="r" depth="3" NCoef="0" IVar="-1" Cut="0.0000000000000000e+00" cType="1" res="-3.6711115390062332e-02" rms="1.1363552510738373e-01" purity="7.2845108807086945e-02" nType="-99"/>
          </Node>
        </Node>
        <Node pos="r" depth="1" NCoef="0" IVar="0" Cut="7.5957040786743164e+00" cType="1" res="3.9694020524621010e-03" rms="9.5884084701538086e-02" purity="7.2456336021423340e-01" nType="0">
          <Node pos="l" depth="2" NCoef="0" IVar="-1" Cut="0.0000000000000000e+00" cType="1" res="-4.8028461635112762e-02" rms="6.2547557055950165e-02" purity="7.4476875364780426e-02" nType="-99"/>
          <Node pos="r" depth="2" NCoef="0" IVar="15" Cut="1.8190430402755737e+00" cType="1" res="5.1095043309032917e-03" rms="9.7067318856716156e-02" purity="7.5612050294876099e-01" nType="0">
            <Node pos="l" depth="3" NCoef="0" IVar="-1" Cut="0.0000000000000000e+00" cType="1" res="-3.3797677606344223e-02" rms="8.8248737156391144e-02" purity="8.2057647407054901e-02" nType="-99"/>
            <Node pos="r" depth="3" NCoef="0" IVar="-1" Cut="0.0000000000000000e+00" cType="1" res="2.2692462429404259e-02" rms="9.7663626074790955e-02" purity="8.1618916988372803e-01" nType="-99"/>
          </Node>
        </Node>
      </Node>
    </BinaryTree>
    <BinaryTree type="DecisionTree" boostWeight="1.0000000000000000e+00" itree="68">
      <Node pos="s" depth="0" NCoef="0" IVar="4" Cut="1.6734985113143921e+00" cType="1" res="1.5370331238955259e-03" rms="8.8338933885097504e-02" purity="5.0116485357284546e-01" nType="0">
        <Node pos="l" depth="1" NCoef="0" IVar="15" Cut="1.8124427795410156e+00" cType="1" res="6.0945432633161545e-03" rms="9.3330323696136475e-02" purity="7.1605330705642700e-01" nType="0">
          <Node pos="l" depth="2" NCoef="0" IVar="2" Cut="-9.1898565292358398e+00" cType="1" res="-1.2598160654306412e-02" rms="6.9465495645999908e-02" purity="6.5716080367565155e-02" nType="0">
            <Node pos="l" depth="3" NCoef="0" IVar="-1" Cut="0.0000000000000000e+00" cType="1" res="-3.3502507954835892e-02" rms="9.2521339654922485e-02" purity="1.1986266821622849e-01" nType="-99"/>
            <Node pos="r" depth="3" NCoef="0" IVar="-1" Cut="0.0000000000000000e+00" cType="1" res="-5.2057713270187378e-02" rms="1.6082165762782097e-02" purity="0.0000000000000000e+00" nType="-99"/>
          </Node>
          <Node pos="r" depth="2" NCoef="0" IVar="7" Cut="3.5055384635925293e+00" cType="1" res="8.0316234380006790e-03" rms="9.5253296196460724e-02" purity="7.8344625234603882e-01" nType="0">
            <Node pos="l" depth="3" NCoef="0" IVar="-1" Cut="0.0000000000000000e+00" cType="1" res="2.6529135182499886e-02" rms="1.5863375365734100e-01" purity="4.1636794805526733e-01" nType="-99"/>
            <Node pos="r" depth="3" NCoef="0" IVar="-1" Cut="0.0000000000000000e+00" cType="1" res="2.4302329868078232e-02" rms="6.0117334127426147e-02" purity="9.0694105625152588e-01" nType="-99"/>
          </Node>
        </Node>
        <Node pos="r" depth="1" NCoef="0" IVar="9" Cut="6.0768494606018066e+00" cType="1" res="-5.9574996121227741e-03" rms="7.8881531953811646e-02" purity="1.4779457449913025e-01" nType="0">
          <Node pos="l" depth="2" NCoef="0" IVar="2" Cut="-9.6140594482421875e+00" cType="1" res="-8.6244652047753334e-03" rms="7.2424985468387604e-02" purity="6.8602390587329865e-02" nType="0">
            <Node pos="l" depth="3" NCoef="0" IVar="-1" Cut="0.0000000000000000e+00" cType="1" res="-4.5753747224807739e-02" rms="1.2708508968353271e-01" purity="3.0937337875366211e-01" nType="-99"/>
            <Node pos="r" depth="3" NCoef="0" IVar="-1" Cut="0.0000000000000000e+00" cType="1" res="-3.0204337090253830e-02" rms="4.9039863049983978e-02" purity="7.3244427330791950e-03" nType="-99"/>
          </Node>
          <Node pos="r" depth="2" NCoef="0" IVar="2" Cut="-9.2791481018066406e+00" cType="1" res="-1.8810483161360025e-03" rms="8.7681382894515991e-02" purity="2.6883965730667114e-01" nType="0">
            <Node pos="l" depth="3" NCoef="0" IVar="-1" Cut="0.0000000000000000e+00" cType="1" res="2.2912826389074326e-02" rms="1.2719018757343292e-01" purity="6.9941282272338867e-01" nType="-99"/>
            <Node pos="r" depth="3" NCoef="0" IVar="-1" Cut="0.0000000000000000e+00" cType="1" res="-3.2403428107500076e-02" rms="4.9950741231441498e-02" purity="1.2458203360438347e-02" nType="-99"/>
          </Node>
        </Node>
      </Node>
    </BinaryTree>
    <BinaryTree type="DecisionTree" boostWeight="1.0000000000000000e+00" itree="69">
      <Node pos="s" depth="0" NCoef="0" IVar="0" Cut="8.4355764389038086e+00" cType="1" res="5.2773673087358475e-04" rms="8.3974443376064301e-02" purity="5.0426787137985229e-01" nType="0">
        <Node pos="l" depth="1" NCoef="0" IVar="16" Cut="5.1761837005615234e+00" cType="1" res="-4.4515999034047127e-03" rms="7.3527149856090546e-02" purity="1.5266416966915131e-01" nType="0">
          <Node pos="l" depth="2" NCoef="0" IVar="3" Cut="6.6719621419906616e-01" cType="1" res="-7.2369496338069439e-03" rms="5.8576148003339767e-02" purity="1.7051659524440765e-02" nType="0">
            <Node pos="l" depth="3" NCoef="0" IVar="-1" Cut="0.0000000000000000e+00" cType="1" res="-2.9501317068934441e-02" rms="1.0911328345537186e-01" purity="7.3567904531955719e-02" nType="-99"/>
            <Node pos="r" depth="3" NCoef="0" IVar="-1" Cut="0.0000000000000000e+00" cType="1" res="-3.5547707229852676e-02" rms="4.0444541722536087e-02" purity="5.2826930768787861e-03" nType="-99"/>
          </Node>
          <Node pos="r" depth="2" NCoef="0" IVar="-1" Cut="0.0000000000000000e+00" cType="1" res="1.9232340157032013e-02" rms="1.2159745395183563e-01" purity="8.1186825037002563e-01" nType="-99"/>
        </Node>
        <Node pos="r" depth="1" NCoef="0" IVar="9" Cut="5.2617573738098145e+00" cType="1" res="4.7030760906636715e-03" rms="9.1614738106727600e-02" purity="7.9909920692443848e-01" nType="0">
          <Node pos="l" depth="2" NCoef="0" IVar="-1" Cut="0.0000000000000000e+00" cType="1" res="-4.1406914591789246e-02" rms="9.0480059385299683e-02" purity="4.8631724715232849e-01" nType="-99"/>
          <Node pos="r" depth="2" NCoef="0" IVar="4" Cut="2.6958396434783936e+00" cType="1" res="6.4629008993506432e-03" rms="9.1518409550189972e-02" purity="8.2793480157852173e-01" nType="0">
            <Node pos="l" depth="3" NCoef="0" IVar="-1" Cut="0.0000000000000000e+00" cType="1" res="2.6983056217432022e-02" rms="8.9784868061542511e-02" purity="8.6802387237548828e-01" nType="-99"/>
            <Node pos="r" depth="3" NCoef="0" IVar="-1" Cut="0.0000000000000000e+00" cType="1" res="-3.5535011440515518e-02" rms="1.1619525402784348e-01" purity="1.0158833116292953e-01" nType="-99"/>
          </Node>
        </Node>
      </Node>
    </BinaryTree>
    <BinaryTree type="DecisionTree" boostWeight="1.0000000000000000e+00" itree="70">
      <Node pos="s" depth="0" NCoef="0" IVar="16" Cut="4.1044917106628418e+00" cType="1" res="6.8108941195532680e-04" rms="9.2088714241981506e-02" purity="5.0116944313049316e-01" nType="0">
        <Node pos="l" depth="1" NCoef="0" IVar="3" Cut="9.6535354852676392e-02" cType="1" res="-5.4887137375771999e-03" rms="7.1448981761932373e-02" purity="2.9322065412998199e-02" nType="0">
          <Node pos="l" depth="2" NCoef="0" IVar="-1" Cut="0.0000000000000000e+00" cType="1" res="-2.5529995560646057e-02" rms="1.0898569226264954e-01" purity="1.7035661637783051e-01" nType="-99"/>
          <Node pos="r" depth="2" NCoef="0" IVar="2" Cut="-1.1063325881958008e+01" cType="1" res="-4.0339920669794083e-03" rms="6.6730298101902008e-02" purity="1.6264814883470535e-02" nType="0">
            <Node pos="l" depth="3" NCoef="0" IVar="-1" Cut="0.0000000000000000e+00" cType="1" res="-3.4208398312330246e-02" rms="9.5888763666152954e-02" purity="9.1479361057281494e-02" nType="-99"/>
            <Node pos="r" depth="3" NCoef="0" IVar="-1" Cut="0.0000000000000000e+00" cType="1" res="-1.7935391515493393e-02" rms="6.3121266663074493e-02" purity="9.1692805290222168e-03" nType="-99"/>
          </Node>
        </Node>
        <Node pos="r" depth="1" NCoef="0" IVar="10" Cut="6.7168207168579102e+00" cType="1" res="4.2735342867672443e-03" rms="1.0203242301940918e-01" purity="7.7590847015380859e-01" nType="0">
          <Node pos="l" depth="2" NCoef="0" IVar="-1" Cut="0.0000000000000000e+00" cType="1" res="-3.7580199539661407e-02" rms="1.2072264403104782e-01" purity="4.0368533134460449e-01" nType="-99"/>
          <Node pos="r" depth="2" NCoef="0" IVar="11" Cut="6.5046358108520508e+00" cType="1" res="5.9575447812676430e-03" rms="1.0027752071619034e-01" purity="8.0404222011566162e-01" nType="0">
            <Node pos="l" depth="3" NCoef="0" IVar="-1" Cut="0.0000000000000000e+00" cType="1" res="-9.5077725127339363e-03" rms="9.8005197942256927e-02" purity="6.1173409223556519e-01" nType="-99"/>
            <Node pos="r" depth="3" NCoef="0" IVar="-1" Cut="0.0000000000000000e+00" cType="1" res="3.8892671465873718e-02" rms="1.0098339617252350e-01" purity="8.8617199659347534e-01" nType="-99"/>
          </Node>
        </Node>
      </Node>
    </BinaryTree>
    <BinaryTree type="DecisionTree" boostWeight="1.0000000000000000e+00" itree="71">
      <Node pos="s" depth="0" NCoef="0" IVar="3" Cut="1.3213584423065186e+00" cType="1" res="4.5762481749989092e-04" rms="9.1550014913082123e-02" purity="4.9336731433868408e-01" nType="0">
        <Node pos="l" depth="1" NCoef="0" IVar="15" Cut="1.8190430402755737e+00" cType="1" res="3.5160260740667582e-03" rms="9.7616769373416901e-02" purity="7.3290038108825684e-01" nType="0">
          <Node pos="l" depth="2" NCoef="0" IVar="16" Cut="3.8366019725799561e+00" cType="1" res="-1.5791932120919228e-02" rms="7.1918204426765442e-02" purity="5.3633067756891251e-02" nType="0">
            <Node pos="l" depth="3" NCoef="0" IVar="-1" Cut="0.0000000000000000e+00" cType="1" res="-3.5864833742380142e-02" rms="5.2689038217067719e-02" purity="1.9512232393026352e-02" nType="-99"/>
            <Node pos="r" depth="3" NCoef="0" IVar="-1" Cut="0.0000000000000000e+00" cType="1" res="-4.8594292253255844e-02" rms="8.5805170238018036e-02" purity="8.5774376988410950e-02" nType="-99"/>
          </Node>
          <Node pos="r" depth="2" NCoef="0" IVar="2" Cut="-1.0350370407104492e+01" cType="1" res="5.2360761910676956e-03" rms="9.9403165280818939e-02" purity="7.9341292381286621e-01" nType="0">
            <Node pos="l" depth="3" NCoef="0" IVar="-1" Cut="0.0000000000000000e+00" cType="1" res="1.2591517530381680e-02" rms="7.1628034114837646e-02" purity="9.6860641241073608e-01" nType="-99"/>
            <Node pos="r" depth="3" NCoef="0" IVar="-1" Cut="0.0000000000000000e+00" cType="1" res="2.4384763091802597e-02" rms="1.6287508606910706e-01" purity="1.7347878217697144e-01" nType="-99"/>
          </Node>
        </Node>
        <Node pos="r" depth="1" NCoef="0" IVar="1" Cut="3.4491250514984131e+00" cType="1" res="-5.2346456795930862e-03" rms="7.8712388873100281e-02" purity="4.7550261020660400e-02" nType="0">
          <Node pos="l" depth="2" NCoef="0" IVar="16" Cut="4.3048324584960938e+00" cType="1" res="4.2474847286939621e-03" rms="1.2309809029102325e-01" purity="1.2478923052549362e-01" nType="0">
            <Node pos="l" depth="3" NCoef="0" IVar="-1" Cut="0.0000000000000000e+00" cType="1" res="-5.5011253803968430e-02" rms="2.8868170455098152e-02" purity="0.0000000000000000e+00" nType="-99"/>
            <Node pos="r" depth="3" NCoef="0" IVar="-1" Cut="0.0000000000000000e+00" cType="1" res="2.8927117586135864e-02" rms="1.9529241323471069e-01" purity="3.3335283398628235e-01" nType="-99"/>
          </Node>
          <Node pos="r" depth="2" NCoef="0" IVar="16" Cut="4.6297068595886230e+00" cType="1" res="-7.6646432280540466e-03" rms="6.2218517065048218e-02" purity="2.7756128460168839e-02" nType="0">
            <Node pos="l" depth="3" NCoef="0" IVar="-1" Cut="0.0000000000000000e+00" cType="1" res="-3.8037739694118500e-02" rms="4.0106363594532013e-02" purity="2.8145618271082640e-03" nType="-99"/>
            <Node pos="r" depth="3" NCoef="0" IVar="-1" Cut="0.0000000000000000e+00" cType="1" res="-3.5974055528640747e-02" rms="1.3069318234920502e-01" purity="1.7788240313529968e-01" nType="-99"/>
          </Node>
        </Node>
      </Node>
    </BinaryTree>
    <BinaryTree type="DecisionTree" boostWeight="1.0000000000000000e+00" itree="72">
      <Node pos="s" depth="0" NCoef="0" IVar="11" Cut="6.4703111648559570e+00" cType="1" res="5.3534936159849167e-04" rms="8.5326306521892548e-02" purity="5.0293087959289551e-01" nType="0">
        <Node pos="l" depth="1" NCoef="0" IVar="1" Cut="3.2021613121032715e+00" cType="1" res="-5.5264262482523918e-03" rms="7.7833816409111023e-02" purity="2.8391027450561523e-01" nType="0">
          <Node pos="l" depth="2" NCoef="0" IVar="-1" Cut="0.0000000000000000e+00" cType="1" res="1.1862883344292641e-02" rms="1.1317463219165802e-01" purity="5.5279785394668579e-01" nType="-99"/>
          <Node pos="r" depth="2" NCoef="0" IVar="11" Cut="6.1088409423828125e+00" cType="1" res="-7.0416624657809734e-03" rms="7.0943385362625122e-02" purity="2.4378025531768799e-01" nType="0">
            <Node pos="l" depth="3" NCoef="0" IVar="-1" Cut="0.0000000000000000e+00" cType="1" res="-3.7913803011178970e-02" rms="6.9947294890880585e-02" purity="2.2545038163661957e-01" nType="-99"/>
            <Node pos="r" depth="3" NCoef="0" IVar="-1" Cut="0.0000000000000000e+00" cType="1" res="-1.8938394263386726e-02" rms="7.1825221180915833e-02" purity="2.6180434226989746e-01" nType="-99"/>
          </Node>
        </Node>
        <Node pos="r" depth="1" NCoef="0" IVar="14" Cut="3.2117991447448730e+00" cType="1" res="3.9229420945048332e-03" rms="8.9060328900814056e-02" purity="6.2532949447631836e-01" nType="0">
          <Node pos="l" depth="2" NCoef="0" IVar="2" Cut="-9.9979724884033203e+00" cType="1" res="-7.0612458512187004e-03" rms="6.5296128392219543e-02" purity="4.0201805531978607e-02" nType="0">
            <Node pos="l" depth="3" NCoef="0" IVar="-1" Cut="0.0000000000000000e+00" cType="1" res="-3.7707537412643433e-02" rms="9.8004765808582306e-02" purity="1.3184402883052826e-01" nType="-99"/>
            <Node pos="r" depth="3" NCoef="0" IVar="-1" Cut="0.0000000000000000e+00" cType="1" res="-1.6843970865011215e-02" rms="5.2575998008251190e-02" purity="1.5470055863261223e-02" nType="-99"/>
          </Node>
          <Node pos="r" depth="2" NCoef="0" IVar="10" Cut="6.9857268333435059e+00" cType="1" res="6.8862484768033028e-03" rms="9.4233773648738861e-02" purity="7.8318476676940918e-01" nType="0">
            <Node pos="l" depth="3" NCoef="0" IVar="-1" Cut="0.0000000000000000e+00" cType="1" res="-2.4995330721139908e-02" rms="8.6481094360351562e-02" purity="5.5730354785919189e-01" nType="-99"/>
            <Node pos="r" depth="3" NCoef="0" IVar="-1" Cut="0.0000000000000000e+00" cType="1" res="3.3809535205364227e-02" rms="9.5054551959037781e-02" purity="8.1476575136184692e-01" nType="-99"/>
          </Node>
        </Node>
      </Node>
    </BinaryTree>
    <BinaryTree type="DecisionTree" boostWeight="1.0000000000000000e+00" itree="73">
      <Node pos="s" depth="0" NCoef="0" IVar="14" Cut="3.4847643375396729e+00" cType="1" res="-7.1454542921856046e-04" rms="8.5665002465248108e-02" purity="4.8932132124900818e-01" nType="0">
        <Node pos="l" depth="1" NCoef="0" IVar="7" Cut="1.7034245729446411e+00" cType="1" res="-6.4224596135318279e-03" rms="5.7861089706420898e-02" purity="3.5057883709669113e-02" nType="0">
          <Node pos="l" depth="2" NCoef="0" IVar="-1" Cut="0.0000000000000000e+00" cType="1" res="-6.2132541090250015e-02" rms="6.4943604171276093e-02" purity="8.1061245873570442e-03" nType="-99"/>
          <Node pos="r" depth="2" NCoef="0" IVar="16" Cut="4.4949789047241211e+00" cType="1" res="-4.8226020298898220e-03" rms="5.6623630225658417e-02" purity="3.8796845823526382e-02" nType="0">
            <Node pos="l" depth="3" NCoef="0" IVar="-1" Cut="0.0000000000000000e+00" cType="1" res="-4.0283959358930588e-02" rms="3.0938964337110519e-02" purity="5.3465366363525391e-03" nType="-99"/>
            <Node pos="r" depth="3" NCoef="0" IVar="-1" Cut="0.0000000000000000e+00" cType="1" res="4.1484571993350983e-03" rms="1.2275639921426773e-01" purity="2.1615920960903168e-01" nType="-99"/>
          </Node>
        </Node>
        <Node pos="r" depth="1" NCoef="0" IVar="3" Cut="9.2380547523498535e-01" cType="1" res="2.2877934388816357e-03" rms="9.7012236714363098e-02" purity="7.2826194763183594e-01" nType="0">
          <Node pos="l" depth="2" NCoef="0" IVar="2" Cut="-1.0831811904907227e+01" cType="1" res="5.3256391547620296e-03" rms="8.7568007409572601e-02" purity="9.2043799161911011e-01" nType="0">
            <Node pos="l" depth="3" NCoef="0" IVar="-1" Cut="0.0000000000000000e+00" cType="1" res="1.1788155883550644e-02" rms="5.3199879825115204e-02" purity="9.9193012714385986e-01" nType="-99"/>
            <Node pos="r" depth="3" NCoef="0" IVar="-1" Cut="0.0000000000000000e+00" cType="1" res="3.5635333508253098e-02" rms="2.0092608034610748e-01" purity="4.2314258217811584e-01" nType="-99"/>
          </Node>
          <Node pos="r" depth="2" NCoef="0" IVar="4" Cut="8.7148350477218628e-01" cType="1" res="-5.4410402663052082e-03" rms="1.1731677502393723e-01" purity="2.3933103680610657e-01" nType="0">
            <Node pos="l" depth="3" NCoef="0" IVar="-1" Cut="0.0000000000000000e+00" cType="1" res="1.3605513609945774e-02" rms="1.6678351163864136e-01" purity="5.6457930803298950e-01" nType="-99"/>
            <Node pos="r" depth="3" NCoef="0" IVar="-1" Cut="0.0000000000000000e+00" cType="1" res="-2.9351837933063507e-02" rms="9.4673238694667816e-02" purity="1.3028645515441895e-01" nType="-99"/>
          </Node>
        </Node>
      </Node>
    </BinaryTree>
    <BinaryTree type="DecisionTree" boostWeight="1.0000000000000000e+00" itree="74">
      <Node pos="s" depth="0" NCoef="0" IVar="7" Cut="1.4832298755645752e+00" cType="1" res="5.5405247258022428e-04" rms="8.6925901472568512e-02" purity="4.9985608458518982e-01" nType="0">
        <Node pos="l" depth="1" NCoef="0" IVar="6" Cut="7.7462215423583984e+00" cType="1" res="-1.5355305746197701e-02" rms="9.4947263598442078e-02" purity="1.5119644999504089e-01" nType="0">
          <Node pos="l" depth="2" NCoef="0" IVar="-1" Cut="0.0000000000000000e+00" cType="1" res="-1.1938426643610001e-02" rms="6.9890007376670837e-02" purity="7.4337050318717957e-02" nType="-99"/>
          <Node pos="r" depth="2" NCoef="0" IVar="-1" Cut="0.0000000000000000e+00" cType="1" res="-5.8315109461545944e-02" rms="1.1315839737653732e-01" purity="2.2595573961734772e-01" nType="-99"/>
        </Node>
        <Node pos="r" depth="1" NCoef="0" IVar="3" Cut="1.6484315395355225e+00" cType="1" res="1.8041813746094704e-03" rms="8.6139567196369171e-02" purity="5.2725315093994141e-01" nType="0">
          <Node pos="l" depth="2" NCoef="0" IVar="9" Cut="6.0768494606018066e+00" cType="1" res="4.2176456190645695e-03" rms="9.3418210744857788e-02" purity="6.8658965826034546e-01" nType="0">
            <Node pos="l" depth="3" NCoef="0" IVar="-1" Cut="0.0000000000000000e+00" cType="1" res="-1.6609221929684281e-03" rms="9.2147849500179291e-02" purity="5.4338830709457397e-01" nType="-99"/>
            <Node pos="r" depth="3" NCoef="0" IVar="-1" Cut="0.0000000000000000e+00" cType="1" res="3.3690962940454483e-02" rms="9.4237461686134338e-02" purity="7.9863005876541138e-01" nType="-99"/>
          </Node>
          <Node pos="r" depth="2" NCoef="0" IVar="16" Cut="4.1580691337585449e+00" cType="1" res="-5.7432195171713829e-03" rms="5.7077016681432724e-02" purity="2.8974812477827072e-02" nType="0">
            <Node pos="l" depth="3" NCoef="0" IVar="-1" Cut="0.0000000000000000e+00" cType="1" res="-4.2039785534143448e-02" rms="2.8340650722384453e-02" purity="1.0828350204974413e-03" nType="-99"/>
            <Node pos="r" depth="3" NCoef="0" IVar="-1" Cut="0.0000000000000000e+00" cType="1" res="-1.9973192363977432e-02" rms="9.2747971415519714e-02" purity="8.9941896498203278e-02" nType="-99"/>
          </Node>
        </Node>
      </Node>
    </BinaryTree>
    <BinaryTree type="DecisionTree" boostWeight="1.0000000000000000e+00" itree="75">
      <Node pos="s" depth="0" NCoef="0" IVar="11" Cut="6.3784184455871582e+00" cType="1" res="-2.9587766039185226e-04" rms="8.1604644656181335e-02" purity="5.0048953294754028e-01" nType="0">
        <Node pos="l" depth="1" NCoef="0" IVar="1" Cut="3.2913868427276611e+00" cType="1" res="-5.8045517653226852e-03" rms="7.8470289707183838e-02" purity="2.7469965815544128e-01" nType="0">
          <Node pos="l" depth="2" NCoef="0" IVar="12" Cut="7.8142800331115723e+00" cType="1" res="2.7149680536240339e-03" rms="1.1409780383110046e-01" purity="5.1969742774963379e-01" nType="0">
            <Node pos="l" depth="3" NCoef="0" IVar="-1" Cut="0.0000000000000000e+00" cType="1" res="-2.3139355704188347e-02" rms="9.1039188206195831e-02" purity="4.4965076446533203e-01" nType="-99"/>
            <Node pos="r" depth="3" NCoef="0" IVar="-1" Cut="0.0000000000000000e+00" cType="1" res="2.6924258098006248e-02" rms="1.3006067276000977e-01" purity="5.7927286624908447e-01" nType="-99"/>
          </Node>
          <Node pos="r" depth="2" NCoef="0" IVar="2" Cut="-8.9210109710693359e+00" cType="1" res="-7.6053598895668983e-03" rms="6.8474955856800079e-02" purity="2.2291338443756104e-01" nType="0">
            <Node pos="l" depth="3" NCoef="0" IVar="-1" Cut="0.0000000000000000e+00" cType="1" res="-3.4528024494647980e-02" rms="8.5252560675144196e-02" purity="4.1116476058959961e-01" nType="-99"/>
            <Node pos="r" depth="3" NCoef="0" IVar="-1" Cut="0.0000000000000000e+00" cType="1" res="-3.4139163792133331e-02" rms="4.0593065321445465e-02" purity="2.7871511410921812e-03" nType="-99"/>
          </Node>
        </Node>
        <Node pos="r" depth="1" NCoef="0" IVar="3" Cut="1.7404305934906006e+00" cType="1" res="2.2227030713111162e-03" rms="8.2876376807689667e-02" purity="6.0372132062911987e-01" nType="0">
          <Node pos="l" depth="2" NCoef="0" IVar="14" Cut="3.2711541652679443e+00" cType="1" res="4.3470584787428379e-03" rms="8.8037811219692230e-02" purity="7.2506946325302124e-01" nType="0">
            <Node pos="l" depth="3" NCoef="0" IVar="-1" Cut="0.0000000000000000e+00" cType="1" res="-1.6847819089889526e-02" rms="8.0947183072566986e-02" purity="5.4454725235700607e-02" nType="-99"/>
            <Node pos="r" depth="3" NCoef="0" IVar="-1" Cut="0.0000000000000000e+00" cType="1" res="2.6118364185094833e-02" rms="8.9305721223354340e-02" purity="8.6534875631332397e-01" nType="-99"/>
          </Node>
          <Node pos="r" depth="2" NCoef="0" IVar="4" Cut="1.2064876556396484e+00" cType="1" res="-7.6965000480413437e-03" rms="5.1283221691846848e-02" purity="3.7113215774297714e-02" nType="0">
            <Node pos="l" depth="3" NCoef="0" IVar="-1" Cut="0.0000000000000000e+00" cType="1" res="-4.4701535254716873e-02" rms="6.8672277033329010e-02" purity="5.6681726127862930e-02" nType="-99"/>
            <Node pos="r" depth="3" NCoef="0" IVar="-1" Cut="0.0000000000000000e+00" cType="1" res="-2.5673951953649521e-02" rms="4.3991025537252426e-02" purity="3.0848516151309013e-02" nType="-99"/>
          </Node>
        </Node>
      </Node>
    </BinaryTree>
    <BinaryTree type="DecisionTree" boostWeight="1.0000000000000000e+00" itree="76">
      <Node pos="s" depth="0" NCoef="0" IVar="9" Cut="5.9185132980346680e+00" cType="1" res="2.9352173442021012e-04" rms="8.5944086313247681e-02" purity="4.9078324437141418e-01" nType="0">
        <Node pos="l" depth="1" NCoef="0" IVar="4" Cut="-2.4820692837238312e-01" cType="1" res="-4.3758321553468704e-03" rms="8.3832055330276489e-02" purity="3.1289139389991760e-01" nType="0">
          <Node pos="l" depth="2" NCoef="0" IVar="-1" Cut="0.0000000000000000e+00" cType="1" res="1.9520465284585953e-02" rms="1.0236580669879913e-01" purity="7.2451132535934448e-01" nType="-99"/>
          <Node pos="r" depth="2" NCoef="0" IVar="3" Cut="3.9593458175659180e-01" cType="1" res="-6.3167843036353588e-03" rms="8.0326862633228302e-02" purity="2.4753764271736145e-01" nType="0">
            <Node pos="l" depth="3" NCoef="0" IVar="-1" Cut="0.0000000000000000e+00" cType="1" res="5.1275035366415977e-03" rms="1.0893865674734116e-01" purity="7.5423431396484375e-01" nType="-99"/>
            <Node pos="r" depth="3" NCoef="0" IVar="-1" Cut="0.0000000000000000e+00" cType="1" res="-4.0625669062137604e-02" rms="7.0256412029266357e-02" purity="1.0775274783372879e-01" nType="-99"/>
          </Node>
        </Node>
        <Node pos="r" depth="1" NCoef="0" IVar="2" Cut="-8.3686733245849609e+00" cType="1" res="3.4646152053028345e-03" rms="8.7206877768039703e-02" purity="6.1159473657608032e-01" nType="0">
          <Node pos="l" depth="2" NCoef="0" IVar="2" Cut="-1.0351505279541016e+01" cType="1" res="6.0706301592290401e-03" rms="9.3708641827106476e-02" purity="7.6429915428161621e-01" nType="0">
            <Node pos="l" depth="3" NCoef="0" IVar="-1" Cut="0.0000000000000000e+00" cType="1" res="1.0027495212852955e-02" rms="6.3830338418483734e-02" purity="9.2109006643295288e-01" nType="-99"/>
            <Node pos="r" depth="3" NCoef="0" IVar="-1" Cut="0.0000000000000000e+00" cType="1" res="3.4920223057270050e-02" rms="1.6092739999294281e-01" purity="1.8279667198657990e-01" nType="-99"/>
          </Node>
          <Node pos="r" depth="2" NCoef="0" IVar="3" Cut="9.6651184558868408e-01" cType="1" res="-6.8762386217713356e-03" rms="5.2949354052543640e-02" purity="5.6529236026108265e-03" nType="0">
            <Node pos="l" depth="3" NCoef="0" IVar="-1" Cut="0.0000000000000000e+00" cType="1" res="-5.6306477636098862e-02" rms="4.3057426810264587e-02" purity="0.0000000000000000e+00" nType="-99"/>
            <Node pos="r" depth="3" NCoef="0" IVar="-1" Cut="0.0000000000000000e+00" cType="1" res="-1.0946924798190594e-02" rms="5.5571630597114563e-02" purity="7.9501057043671608e-03" nType="-99"/>
          </Node>
        </Node>
      </Node>
    </BinaryTree>
    <BinaryTree type="DecisionTree" boostWeight="1.0000000000000000e+00" itree="77">
      <Node pos="s" depth="0" NCoef="0" IVar="8" Cut="1.4470888376235962e+00" cType="1" res="1.3747084885835648e-03" rms="8.6607098579406738e-02" purity="4.9093821644783020e-01" nType="0">
        <Node pos="l" depth="1" NCoef="0" IVar="16" Cut="4.1021571159362793e+00" cType="1" res="3.0569497030228376e-03" rms="8.9147768914699554e-02" purity="5.3979688882827759e-01" nType="0">
          <Node pos="l" depth="2" NCoef="0" IVar="14" Cut="4.0055480003356934e+00" cType="1" res="-2.7744669932872057e-03" rms="7.5031429529190063e-02" purity="3.5316467285156250e-02" nType="0">
            <Node pos="l" depth="3" NCoef="0" IVar="-1" Cut="0.0000000000000000e+00" cType="1" res="-3.3974785357713699e-02" rms="4.5720446854829788e-02" purity="7.4354698881506920e-03" nType="-99"/>
            <Node pos="r" depth="3" NCoef="0" IVar="-1" Cut="0.0000000000000000e+00" cType="1" res="2.0295359194278717e-02" rms="1.5603365004062653e-01" purity="1.8467587232589722e-01" nType="-99"/>
          </Node>
          <Node pos="r" depth="2" NCoef="0" IVar="7" Cut="2.3734862804412842e+00" cType="1" res="6.1094420962035656e-03" rms="9.5568686723709106e-02" purity="8.0387037992477417e-01" nType="0">
            <Node pos="l" depth="3" NCoef="0" IVar="-1" Cut="0.0000000000000000e+00" cType="1" res="-2.4006443098187447e-02" rms="1.2688994407653809e-01" purity="4.2535895109176636e-01" nType="-99"/>
            <Node pos="r" depth="3" NCoef="0" IVar="-1" Cut="0.0000000000000000e+00" cType="1" res="3.0056679621338844e-02" rms="9.2595480382442474e-02" purity="8.3209711313247681e-01" nType="-99"/>
          </Node>
        </Node>
        <Node pos="r" depth="1" NCoef="0" IVar="2" Cut="-8.2929811477661133e+00" cType="1" res="-9.4829788431525230e-03" rms="6.6951915621757507e-02" purity="1.7559006810188293e-01" nType="0">
          <Node pos="l" depth="2" NCoef="0" IVar="11" Cut="6.5626549720764160e+00" cType="1" res="-1.3443191535770893e-02" rms="7.6894655823707581e-02" purity="2.6462274789810181e-01" nType="0">
            <Node pos="l" depth="3" NCoef="0" IVar="-1" Cut="0.0000000000000000e+00" cType="1" res="-6.6675394773483276e-02" rms="8.3575785160064697e-02" purity="1.1196608096361160e-01" nType="-99"/>
            <Node pos="r" depth="3" NCoef="0" IVar="-1" Cut="0.0000000000000000e+00" cType="1" res="-3.0302884057164192e-02" rms="6.8463698029518127e-02" purity="4.3089273571968079e-01" nType="-99"/>
          </Node>
          <Node pos="r" depth="2" NCoef="0" IVar="-1" Cut="0.0000000000000000e+00" cType="1" res="-1.3608107343316078e-02" rms="4.1864868253469467e-02" purity="1.0803907178342342e-02" nType="-99"/>
        </Node>
      </Node>
    </BinaryTree>
    <BinaryTree type="DecisionTree" boostWeight="1.0000000000000000e+00" itree="78">
      <Node pos="s" depth="0" NCoef="0" IVar="15" Cut="2.2589235305786133e+00" cType="1" res="4.3892855501326267e-06" rms="8.2533851265907288e-02" purity="5.0068521499633789e-01" nType="0">
        <Node pos="l" depth="1" NCoef="0" IVar="14" Cut="3.9497482776641846e+00" cType="1" res="-5.9396112337708473e-03" rms="5.8336015790700912e-02" purity="3.9577655494213104e-02" nType="0">
          <Node pos="l" depth="2" NCoef="0" IVar="4" Cut="1.2064349651336670e+00" cType="1" res="-4.3282075785100460e-03" rms="4.5661859214305878e-02" purity="6.6571147181093693e-03" nType="0">
            <Node pos="l" depth="3" NCoef="0" IVar="-1" Cut="0.0000000000000000e+00" cType="1" res="-3.0033262446522713e-02" rms="6.0383599251508713e-02" purity="1.4612467959523201e-02" nType="-99"/>
            <Node pos="r" depth="3" NCoef="0" IVar="-1" Cut="0.0000000000000000e+00" cType="1" res="-3.0242778360843658e-02" rms="3.9368022233247757e-02" purity="3.9613237604498863e-03" nType="-99"/>
          </Node>
          <Node pos="r" depth="2" NCoef="0" IVar="2" Cut="-8.8673162460327148e+00" cType="1" res="-1.2840843759477139e-02" rms="9.4812273979187012e-02" purity="1.8056800961494446e-01" nType="0">
            <Node pos="l" depth="3" NCoef="0" IVar="-1" Cut="0.0000000000000000e+00" cType="1" res="-3.2600484788417816e-02" rms="1.2232558429241180e-01" purity="3.5661464929580688e-01" nType="-99"/>
            <Node pos="r" depth="3" NCoef="0" IVar="-1" Cut="0.0000000000000000e+00" cType="1" res="-2.6343096047639847e-02" rms="5.4451171308755875e-02" purity="6.3036489300429821e-03" nType="-99"/>
          </Node>
        </Node>
        <Node pos="r" depth="1" NCoef="0" IVar="4" Cut="2.4667582511901855e+00" cType="1" res="2.2746548056602478e-03" rms="8.9972950518131256e-02" purity="6.7680168151855469e-01" nType="0">
          <Node pos="l" depth="2" NCoef="0" IVar="0" Cut="7.6710405349731445e+00" cType="1" res="3.7512800190597773e-03" rms="8.7491743266582489e-02" purity="7.6009392738342285e-01" nType="0">
            <Node pos="l" depth="3" NCoef="0" IVar="-1" Cut="0.0000000000000000e+00" cType="1" res="-2.8810419142246246e-02" rms="7.0024438202381134e-02" purity="1.3136327266693115e-01" nType="-99"/>
            <Node pos="r" depth="3" NCoef="0" IVar="-1" Cut="0.0000000000000000e+00" cType="1" res="1.9034251570701599e-02" rms="8.8302493095397949e-02" purity="7.9578912258148193e-01" nType="-99"/>
          </Node>
          <Node pos="r" depth="2" NCoef="0" IVar="2" Cut="-8.7626113891601562e+00" cType="1" res="-8.1816371530294418e-03" rms="1.0530147701501846e-01" purity="8.6991757154464722e-02" nType="0">
            <Node pos="l" depth="3" NCoef="0" IVar="-1" Cut="0.0000000000000000e+00" cType="1" res="-5.3867910057306290e-02" rms="1.3690285384654999e-01" purity="2.5553116202354431e-01" nType="-99"/>
            <Node pos="r" depth="3" NCoef="0" IVar="-1" Cut="0.0000000000000000e+00" cType="1" res="-4.6436637639999390e-03" rms="8.7012082338333130e-02" purity="1.3300789520144463e-02" nType="-99"/>
          </Node>
        </Node>
      </Node>
    </BinaryTree>
    <BinaryTree type="DecisionTree" boostWeight="1.0000000000000000e+00" itree="79">
      <Node pos="s" depth="0" NCoef="0" IVar="1" Cut="4.4257974624633789e+00" cType="1" res="1.4734126161783934e-03" rms="8.7775826454162598e-02" purity="5.0179076194763184e-01" nType="0">
        <Node pos="l" depth="1" NCoef="0" IVar="7" Cut="8.5700768232345581e-01" cType="1" res="2.8791972436010838e-03" rms="9.1032400727272034e-02" purity="5.5231738090515137e-01" nType="0">
          <Node pos="l" depth="2" NCoef="0" IVar="-1" Cut="0.0000000000000000e+00" cType="1" res="-3.6090072244405746e-02" rms="1.0157792270183563e-01" purity="1.9033947587013245e-01" nType="-99"/>
          <Node pos="r" depth="2" NCoef="0" IVar="8" Cut="1.3746128082275391e+00" cType="1" res="3.6393040791153908e-03" rms="9.0487040579319000e-02" purity="5.6738215684890747e-01" nType="0">
            <Node pos="l" depth="3" NCoef="0" IVar="-1" Cut="0.0000000000000000e+00" cType="1" res="2.0998092368245125e-02" rms="9.2706218361854553e-02" purity="6.1431753635406494e-01" nType="-99"/>
            <Node pos="r" depth="3" NCoef="0" IVar="-1" Cut="0.0000000000000000e+00" cType="1" res="-2.5444997474551201e-02" rms="7.3470801115036011e-02" purity="2.5834351778030396e-01" nType="-99"/>
          </Node>
        </Node>
        <Node pos="r" depth="1" NCoef="0" IVar="16" Cut="4.1685919761657715e+00" cType="1" res="-8.4801474586129189e-03" rms="5.8894589543342590e-02" purity="1.4404095709323883e-01" nType="0">
          <Node pos="l" depth="2" NCoef="0" IVar="13" Cut="1.8616399765014648e+00" cType="1" res="-5.7225180789828300e-03" rms="3.5793159157037735e-02" purity="9.6634058281779289e-03" nType="0">
            <Node pos="l" depth="3" NCoef="0" IVar="-1" Cut="0.0000000000000000e+00" cType="1" res="-2.7753163129091263e-02" rms="2.4365421384572983e-02" purity="5.6473459117114544e-03" nType="-99"/>
            <Node pos="r" depth="3" NCoef="0" IVar="-1" Cut="0.0000000000000000e+00" cType="1" res="-4.5381300151348114e-02" rms="5.2059497684240341e-02" purity="1.8374782055616379e-02" nType="-99"/>
          </Node>
          <Node pos="r" depth="2" NCoef="0" IVar="-1" Cut="0.0000000000000000e+00" cType="1" res="-3.9149425923824310e-02" rms="9.1824568808078766e-02" purity="4.5247182250022888e-01" nType="-99"/>
        </Node>
      </Node>
    </BinaryTree>
    <BinaryTree type="DecisionTree" boostWeight="1.0000000000000000e+00" itree="80">
      <Node pos="s" depth="0" NCoef="0" IVar="14" Cut="4.0483117103576660e+00" cType="1" res="1.9746199541259557e-04" rms="8.5248574614524841e-02" purity="5.0705641508102417e-01" nType="0">
        <Node pos="l" depth="1" NCoef="0" IVar="16" Cut="4.4885754585266113e+00" cType="1" res="-3.6511244252324104e-03" rms="7.7061779797077179e-02" purity="6.1332419514656067e-02" nType="0">
          <Node pos="l" depth="2" NCoef="0" IVar="3" Cut="8.0424338579177856e-01" cType="1" res="-6.2188995070755482e-03" rms="4.2944062501192093e-02" purity="1.0079982690513134e-02" nType="0">
            <Node pos="l" depth="3" NCoef="0" IVar="-1" Cut="0.0000000000000000e+00" cType="1" res="-3.4607641398906708e-02" rms="7.8168086707592010e-02" purity="4.5844085514545441e-02" nType="-99"/>
            <Node pos="r" depth="3" NCoef="0" IVar="-1" Cut="0.0000000000000000e+00" cType="1" res="-4.1350848972797394e-02" rms="2.7075642719864845e-02" purity="1.0966863483190536e-03" nType="-99"/>
          </Node>
          <Node pos="r" depth="2" NCoef="0" IVar="9" Cut="5.8476915359497070e+00" cType="1" res="8.3053158596158028e-03" rms="1.5757361054420471e-01" purity="2.9998135566711426e-01" nType="0">
            <Node pos="l" depth="3" NCoef="0" IVar="-1" Cut="0.0000000000000000e+00" cType="1" res="-1.6978839412331581e-02" rms="1.4594164490699768e-01" purity="1.3977241516113281e-01" nType="-99"/>
            <Node pos="r" depth="3" NCoef="0" IVar="-1" Cut="0.0000000000000000e+00" cType="1" res="3.1068611890077591e-02" rms="1.6620731353759766e-01" purity="4.5790165662765503e-01" nType="-99"/>
          </Node>
        </Node>
        <Node pos="r" depth="1" NCoef="0" IVar="15" Cut="3.1172108650207520e+00" cType="1" res="3.3951147925108671e-03" rms="9.1371990740299225e-02" purity="8.7739259004592896e-01" nType="0">
          <Node pos="l" depth="2" NCoef="0" IVar="15" Cut="2.1277914047241211e+00" cType="1" res="1.6383768990635872e-02" rms="1.6967983543872833e-01" purity="4.1214209794998169e-01" nType="0">
            <Node pos="l" depth="3" NCoef="0" IVar="-1" Cut="0.0000000000000000e+00" cType="1" res="-3.2758358865976334e-02" rms="9.2648699879646301e-02" purity="1.8740689754486084e-01" nType="-99"/>
            <Node pos="r" depth="3" NCoef="0" IVar="-1" Cut="0.0000000000000000e+00" cType="1" res="5.8243960142135620e-02" rms="2.0534710586071014e-01" purity="5.7414257526397705e-01" nType="-99"/>
          </Node>
          <Node pos="r" depth="2" NCoef="0" IVar="13" Cut="2.7932496070861816e+00" cType="1" res="7.7221007086336613e-04" rms="6.4651310443878174e-02" purity="9.7134441137313843e-01" nType="0">
            <Node pos="l" depth="3" NCoef="0" IVar="-1" Cut="0.0000000000000000e+00" cType="1" res="-1.4497092925012112e-02" rms="1.1570926755666733e-01" purity="8.5872292518615723e-01" nType="-99"/>
            <Node pos="r" depth="3" NCoef="0" IVar="-1" Cut="0.0000000000000000e+00" cType="1" res="2.4594297632575035e-02" rms="4.6456012874841690e-02" purity="9.9592477083206177e-01" nType="-99"/>
          </Node>
        </Node>
      </Node>
    </BinaryTree>
    <BinaryTree type="DecisionTree" boostWeight="1.0000000000000000e+00" itree="81">
      <Node pos="s" depth="0" NCoef="0" IVar="0" Cut="8.7668638229370117e+00" cType="1" res="7.9216883750632405e-04" rms="8.7690919637680054e-02" purity="5.0168532133102417e-01" nType="0">
        <Node pos="l" depth="1" NCoef="0" IVar="15" Cut="4.0041337013244629e+00" cType="1" res="-1.8430543132126331e-03" rms="8.3257317543029785e-02" purity="2.3854154348373413e-01" nType="0">
          <Node pos="l" depth="2" NCoef="0" IVar="12" Cut="7.3694477081298828e+00" cType="1" res="-3.8271471858024597e-03" rms="7.4963673949241638e-02" purity="6.8412423133850098e-02" nType="0">
            <Node pos="l" depth="3" NCoef="0" IVar="-1" Cut="0.0000000000000000e+00" cType="1" res="-4.2598105967044830e-02" rms="5.8146055787801743e-02" purity="4.9031604081392288e-02" nType="-99"/>
            <Node pos="r" depth="3" NCoef="0" IVar="-1" Cut="0.0000000000000000e+00" cType="1" res="-5.0435834564268589e-03" rms="8.1974729895591736e-02" purity="7.8110270202159882e-02" nType="-99"/>
          </Node>
          <Node pos="r" depth="2" NCoef="0" IVar="-1" Cut="0.0000000000000000e+00" cType="1" res="1.7244152724742889e-02" rms="1.0931293666362762e-01" purity="8.9872682094573975e-01" nType="-99"/>
        </Node>
        <Node pos="r" depth="1" NCoef="0" IVar="2" Cut="-1.0350989341735840e+01" cType="1" res="5.2120685577392578e-03" rms="9.4497203826904297e-02" purity="9.4304043054580688e-01" nType="0">
          <Node pos="l" depth="2" NCoef="0" IVar="-1" Cut="0.0000000000000000e+00" cType="1" res="1.1884340085089207e-02" rms="7.6981738209724426e-02" purity="9.8018056154251099e-01" nType="-99"/>
          <Node pos="r" depth="2" NCoef="0" IVar="-1" Cut="0.0000000000000000e+00" cType="1" res="4.4322211295366287e-02" rms="2.1623624861240387e-01" purity="4.4712349772453308e-01" nType="-99"/>
        </Node>
      </Node>
    </BinaryTree>
    <BinaryTree type="DecisionTree" boostWeight="1.0000000000000000e+00" itree="82">
      <Node pos="s" depth="0" NCoef="0" IVar="4" Cut="2.4667665958404541e+00" cType="1" res="1.1377133196219802e-03" rms="8.9104354381561279e-02" purity="4.9923264980316162e-01" nType="0">
        <Node pos="l" depth="1" NCoef="0" IVar="1" Cut="4.3893342018127441e+00" cType="1" res="2.8543467633426189e-03" rms="9.2943459749221802e-02" purity="5.9617376327514648e-01" nType="0">
          <Node pos="l" depth="2" NCoef="0" IVar="3" Cut="2.0135574340820312e+00" cType="1" res="4.3561579659581184e-03" rms="9.5985747873783112e-02" purity="6.4491528272628784e-01" nType="0">
            <Node pos="l" depth="3" NCoef="0" IVar="-1" Cut="0.0000000000000000e+00" cType="1" res="2.2668553516268730e-02" rms="9.8722971975803375e-02" purity="7.0400756597518921e-01" nType="-99"/>
            <Node pos="r" depth="3" NCoef="0" IVar="-1" Cut="0.0000000000000000e+00" cType="1" res="-3.6923404783010483e-02" rms="5.7767249643802643e-02" purity="1.3453231193125248e-02" nType="-99"/>
          </Node>
          <Node pos="r" depth="2" NCoef="0" IVar="16" Cut="4.1044917106628418e+00" cType="1" res="-9.2713600024580956e-03" rms="6.1906848102807999e-02" purity="2.0263192057609558e-01" nType="0">
            <Node pos="l" depth="3" NCoef="0" IVar="-1" Cut="0.0000000000000000e+00" cType="1" res="-4.2357251048088074e-02" rms="2.8972603380680084e-02" purity="8.7513942271471024e-03" nType="-99"/>
            <Node pos="r" depth="3" NCoef="0" IVar="-1" Cut="0.0000000000000000e+00" cType="1" res="-4.3636858463287354e-02" rms="9.5093771815299988e-02" purity="5.4325902462005615e-01" nType="-99"/>
          </Node>
        </Node>
        <Node pos="r" depth="1" NCoef="0" IVar="14" Cut="4.0140652656555176e+00" cType="1" res="-6.8425796926021576e-03" rms="6.7920148372650146e-02" purity="4.8572596162557602e-02" nType="0">
          <Node pos="l" depth="2" NCoef="0" IVar="3" Cut="8.1963968276977539e-01" cType="1" res="-2.9109392780810595e-03" rms="4.5502424240112305e-02" purity="6.0853590257465839e-03" nType="0">
            <Node pos="l" depth="3" NCoef="0" IVar="-1" Cut="0.0000000000000000e+00" cType="1" res="-3.0108265578746796e-02" rms="5.4225999861955643e-02" purity="1.9812408834695816e-02" nType="-99"/>
            <Node pos="r" depth="3" NCoef="0" IVar="-1" Cut="0.0000000000000000e+00" cType="1" res="-1.6628751531243324e-02" rms="4.3127607554197311e-02" purity="2.9840774368494749e-03" nType="-99"/>
          </Node>
          <Node pos="r" depth="2" NCoef="0" IVar="-1" Cut="0.0000000000000000e+00" cType="1" res="-4.9540393054485321e-02" rms="1.1622021347284317e-01" purity="2.0146225392818451e-01" nType="-99"/>
        </Node>
      </Node>
    </BinaryTree>
    <BinaryTree type="DecisionTree" boostWeight="1.0000000000000000e+00" itree="83">
      <Node pos="s" depth="0" NCoef="0" IVar="0" Cut="7.8911256790161133e+00" cType="1" res="1.2116127181798220e-03" rms="9.0304158627986908e-02" purity="4.8975080251693726e-01" nType="0">
        <Node pos="l" depth="1" NCoef="0" IVar="3" Cut="6.6720384359359741e-01" cType="1" res="-7.2407745756208897e-03" rms="5.4475247859954834e-02" purity="4.8315118998289108e-02" nType="0">
          <Node pos="l" depth="2" NCoef="0" IVar="-1" Cut="0.0000000000000000e+00" cType="1" res="-3.8151953369379044e-02" rms="8.9014664292335510e-02" purity="1.6742856800556183e-01" nType="-99"/>
          <Node pos="r" depth="2" NCoef="0" IVar="15" Cut="2.5430831909179688e+00" cType="1" res="-3.9331568405032158e-03" rms="3.6781758069992065e-02" purity="1.0602064430713654e-02" nType="0">
            <Node pos="l" depth="3" NCoef="0" IVar="-1" Cut="0.0000000000000000e+00" cType="1" res="-2.1986803039908409e-02" rms="3.0520439147949219e-02" purity="2.2262332495301962e-03" nType="-99"/>
            <Node pos="r" depth="3" NCoef="0" IVar="-1" Cut="0.0000000000000000e+00" cType="1" res="-4.6382814645767212e-02" rms="4.6976003795862198e-02" purity="2.8427995741367340e-02" nType="-99"/>
          </Node>
        </Node>
        <Node pos="r" depth="1" NCoef="0" IVar="4" Cut="2.6321094036102295e+00" cType="1" res="2.6772376149892807e-03" rms="9.5077700912952423e-02" purity="5.6629478931427002e-01" nType="0">
          <Node pos="l" depth="2" NCoef="0" IVar="3" Cut="1.7032232284545898e+00" cType="1" res="4.0557244792580605e-03" rms="9.7874194383621216e-02" purity="6.4161831140518188e-01" nType="0">
            <Node pos="l" depth="3" NCoef="0" IVar="-1" Cut="0.0000000000000000e+00" cType="1" res="2.3066693916916847e-02" rms="1.0184977203607559e-01" purity="7.7328312397003174e-01" nType="-99"/>
            <Node pos="r" depth="3" NCoef="0" IVar="-1" Cut="0.0000000000000000e+00" cType="1" res="-2.0394651219248772e-02" rms="7.6260000467300415e-02" purity="3.4659016877412796e-02" nType="-99"/>
          </Node>
          <Node pos="r" depth="2" NCoef="0" IVar="3" Cut="1.2672469615936279e+00" cType="1" res="-6.6904383711516857e-03" rms="7.2610318660736084e-02" purity="5.4424695670604706e-02" nType="0">
            <Node pos="l" depth="3" NCoef="0" IVar="-1" Cut="0.0000000000000000e+00" cType="1" res="-4.2284801602363586e-02" rms="1.0601544380187988e-01" purity="1.3179002702236176e-01" nType="-99"/>
            <Node pos="r" depth="3" NCoef="0" IVar="-1" Cut="0.0000000000000000e+00" cType="1" res="-1.5236713923513889e-02" rms="4.9261327832937241e-02" purity="1.8255710601806641e-02" nType="-99"/>
          </Node>
        </Node>
      </Node>
    </BinaryTree>
    <BinaryTree type="DecisionTree" boostWeight="1.0000000000000000e+00" itree="84">
      <Node pos="s" depth="0" NCoef="0" IVar="9" Cut="5.8338522911071777e+00" cType="1" res="7.5549956818576902e-05" rms="8.3648167550563812e-02" purity="4.9373236298561096e-01" nType="0">
        <Node pos="l" depth="1" NCoef="0" IVar="7" Cut="1.7796300649642944e+00" cType="1" res="-5.5427541956305504e-03" rms="7.9770617187023163e-02" purity="3.0892771482467651e-01" nType="0">
          <Node pos="l" depth="2" NCoef="0" IVar="-1" Cut="0.0000000000000000e+00" cType="1" res="-7.1389071643352509e-02" rms="8.4866285324096680e-02" purity="9.1169159859418869e-03" nType="-99"/>
          <Node pos="r" depth="2" NCoef="0" IVar="5" Cut="-4.3049774169921875e+00" cType="1" res="-3.7855526898056269e-03" rms="7.8961782157421112e-02" purity="3.4437286853790283e-01" nType="0">
            <Node pos="l" depth="3" NCoef="0" IVar="-1" Cut="0.0000000000000000e+00" cType="1" res="1.2100364081561565e-02" rms="6.6945441067218781e-02" purity="7.8896111249923706e-01" nType="-99"/>
            <Node pos="r" depth="3" NCoef="0" IVar="-1" Cut="0.0000000000000000e+00" cType="1" res="-2.8076117858290672e-02" rms="8.2158021628856659e-02" purity="2.0885114371776581e-01" nType="-99"/>
          </Node>
        </Node>
        <Node pos="r" depth="1" NCoef="0" IVar="2" Cut="-7.7684378623962402e+00" cType="1" res="3.1103834044188261e-03" rms="8.5516318678855896e-02" purity="5.9355813264846802e-01" nType="0">
          <Node pos="l" depth="2" NCoef="0" IVar="3" Cut="1.7505881786346436e+00" cType="1" res="4.7383978962898254e-03" rms="9.1129034757614136e-02" purity="6.8252456188201904e-01" nType="0">
            <Node pos="l" depth="3" NCoef="0" IVar="-1" Cut="0.0000000000000000e+00" cType="1" res="2.7105005457997322e-02" rms="9.4770118594169617e-02" purity="7.9018920660018921e-01" nType="-99"/>
            <Node pos="r" depth="3" NCoef="0" IVar="-1" Cut="0.0000000000000000e+00" cType="1" res="-3.2531265169382095e-02" rms="6.3599467277526855e-02" purity="2.9606355354189873e-02" nType="-99"/>
          </Node>
          <Node pos="r" depth="2" NCoef="0" IVar="3" Cut="1.2303966283798218e+00" cType="1" res="-7.7512585557997227e-03" rms="2.3720225319266319e-02" purity="0.0000000000000000e+00" nType="0">
            <Node pos="l" depth="3" NCoef="0" IVar="-1" Cut="0.0000000000000000e+00" cType="1" res="-5.5794965475797653e-02" rms="3.5153087228536606e-02" purity="0.0000000000000000e+00" nType="-99"/>
            <Node pos="r" depth="3" NCoef="0" IVar="-1" Cut="0.0000000000000000e+00" cType="1" res="-5.1570694893598557e-02" rms="1.0324464179575443e-02" purity="0.0000000000000000e+00" nType="-99"/>
          </Node>
        </Node>
      </Node>
    </BinaryTree>
    <BinaryTree type="DecisionTree" boostWeight="1.0000000000000000e+00" itree="85">
      <Node pos="s" depth="0" NCoef="0" IVar="15" Cut="3.0141482353210449e+00" cType="1" res="1.0291039943695068e-03" rms="8.5359171032905579e-02" purity="4.9688249826431274e-01" nType="0">
        <Node pos="l" depth="1" NCoef="0" IVar="13" Cut="2.6993265151977539e+00" cType="1" res="-3.6750214640051126e-03" rms="6.8693570792675018e-02" purity="8.5664570331573486e-02" nType="0">
          <Node pos="l" depth="2" NCoef="0" IVar="3" Cut="1.1039016246795654e+00" cType="1" res="-5.7447208091616631e-03" rms="4.9565210938453674e-02" purity="2.9152831062674522e-02" nType="0">
            <Node pos="l" depth="3" NCoef="0" IVar="-1" Cut="0.0000000000000000e+00" cType="1" res="-3.3130109310150146e-02" rms="7.2379775345325470e-02" purity="9.7337886691093445e-02" nType="-99"/>
            <Node pos="r" depth="3" NCoef="0" IVar="-1" Cut="0.0000000000000000e+00" cType="1" res="-3.6317005753517151e-02" rms="3.6858011037111282e-02" purity="2.8451273683458567e-03" nType="-99"/>
          </Node>
          <Node pos="r" depth="2" NCoef="0" IVar="-1" Cut="0.0000000000000000e+00" cType="1" res="2.5810495018959045e-02" rms="1.6233937442302704e-01" purity="6.3740271329879761e-01" nType="-99"/>
        </Node>
        <Node pos="r" depth="1" NCoef="0" IVar="16" Cut="5.3306941986083984e+00" cType="1" res="4.8864781856536865e-03" rms="9.6738882362842560e-02" purity="8.3408039808273315e-01" nType="0">
          <Node pos="l" depth="2" NCoef="0" IVar="1" Cut="3.9339511394500732e+00" cType="1" res="2.1098816767334938e-02" rms="1.6445222496986389e-01" purity="3.7672144174575806e-01" nType="0">
            <Node pos="l" depth="3" NCoef="0" IVar="-1" Cut="0.0000000000000000e+00" cType="1" res="4.6111486852169037e-02" rms="1.8865132331848145e-01" purity="4.7518104314804077e-01" nType="-99"/>
            <Node pos="r" depth="3" NCoef="0" IVar="-1" Cut="0.0000000000000000e+00" cType="1" res="-2.0432000979781151e-02" rms="9.4504535198211670e-02" purity="1.8380820751190186e-01" nType="-99"/>
          </Node>
          <Node pos="r" depth="2" NCoef="0" IVar="7" Cut="4.2879180908203125e+00" cType="1" res="1.4754632138647139e-04" rms="6.3948415219783783e-02" purity="9.6776825189590454e-01" nType="0">
            <Node pos="l" depth="3" NCoef="0" IVar="-1" Cut="0.0000000000000000e+00" cType="1" res="-1.9647547975182533e-02" rms="1.1905861645936966e-01" purity="8.3600467443466187e-01" nType="-99"/>
            <Node pos="r" depth="3" NCoef="0" IVar="-1" Cut="0.0000000000000000e+00" cType="1" res="2.0496208220720291e-02" rms="4.6177335083484650e-02" purity="9.9313944578170776e-01" nType="-99"/>
          </Node>
        </Node>
      </Node>
    </BinaryTree>
    <BinaryTree type="DecisionTree" boostWeight="1.0000000000000000e+00" itree="86">
      <Node pos="s" depth="0" NCoef="0" IVar="3" Cut="5.2303719520568848e-01" cType="1" res="2.5595212355256081e-04" rms="8.3357229828834534e-02" purity="5.0352430343627930e-01" nType="0">
        <Node pos="l" depth="1" NCoef="0" IVar="13" Cut="2.5908052921295166e+00" cType="1" res="3.9006657898426056e-03" rms="8.4876388311386108e-02" purity="8.6391371488571167e-01" nType="0">
          <Node pos="l" depth="2" NCoef="0" IVar="6" Cut="7.8603935241699219e+00" cType="1" res="1.3544060289859772e-02" rms="1.4489136636257172e-01" purity="5.6108105182647705e-01" nType="0">
            <Node pos="l" depth="3" NCoef="0" IVar="-1" Cut="0.0000000000000000e+00" cType="1" res="-7.8491382300853729e-03" rms="1.1647437512874603e-01" purity="2.9585257172584534e-01" nType="-99"/>
            <Node pos="r" depth="3" NCoef="0" IVar="-1" Cut="0.0000000000000000e+00" cType="1" res="4.5538689941167831e-02" rms="1.6273766756057739e-01" purity="7.7342444658279419e-01" nType="-99"/>
          </Node>
          <Node pos="r" depth="2" NCoef="0" IVar="-1" Cut="0.0000000000000000e+00" cType="1" res="2.3051302414387465e-03" rms="4.2683027684688568e-02" purity="9.8101669549942017e-01" nType="-99"/>
        </Node>
        <Node pos="r" depth="1" NCoef="0" IVar="7" Cut="9.2822027206420898e-01" cType="1" res="-2.6386333629488945e-03" rms="8.2015402615070343e-02" purity="2.1730758249759674e-01" nType="0">
          <Node pos="l" depth="2" NCoef="0" IVar="-1" Cut="0.0000000000000000e+00" cType="1" res="-5.7237897068262100e-02" rms="6.7554026842117310e-02" purity="2.2899456322193146e-02" nType="-99"/>
          <Node pos="r" depth="2" NCoef="0" IVar="13" Cut="1.8553007841110229e+00" cType="1" res="-1.8569822423160076e-03" rms="8.2868903875350952e-02" purity="2.3080228269100189e-01" nType="0">
            <Node pos="l" depth="3" NCoef="0" IVar="-1" Cut="0.0000000000000000e+00" cType="1" res="-3.2366558909416199e-02" rms="5.8427806943655014e-02" purity="1.2081782333552837e-02" nType="-99"/>
            <Node pos="r" depth="3" NCoef="0" IVar="-1" Cut="0.0000000000000000e+00" cType="1" res="4.1406368836760521e-03" rms="1.0337027907371521e-01" purity="4.7377312183380127e-01" nType="-99"/>
          </Node>
        </Node>
      </Node>
    </BinaryTree>
    <BinaryTree type="DecisionTree" boostWeight="1.0000000000000000e+00" itree="87">
      <Node pos="s" depth="0" NCoef="0" IVar="8" Cut="5.9191673994064331e-01" cType="1" res="7.1055535227060318e-04" rms="8.3394214510917664e-02" purity="5.0295591354370117e-01" nType="0">
        <Node pos="l" depth="1" NCoef="0" IVar="9" Cut="5.2282829284667969e+00" cType="1" res="2.7529045473784208e-03" rms="8.7384670972824097e-02" purity="5.7976931333541870e-01" nType="0">
          <Node pos="l" depth="2" NCoef="0" IVar="16" Cut="4.1865439414978027e+00" cType="1" res="-9.7895544022321701e-03" rms="6.9892615079879761e-02" purity="2.9506334662437439e-01" nType="0">
            <Node pos="l" depth="3" NCoef="0" IVar="-1" Cut="0.0000000000000000e+00" cType="1" res="-6.2611892819404602e-02" rms="3.6436896771192551e-02" purity="0.0000000000000000e+00" nType="-99"/>
            <Node pos="r" depth="3" NCoef="0" IVar="-1" Cut="0.0000000000000000e+00" cType="1" res="-4.0695186704397202e-02" rms="9.0511083602905273e-02" purity="5.7070571184158325e-01" nType="-99"/>
          </Node>
          <Node pos="r" depth="2" NCoef="0" IVar="13" Cut="1.7592666149139404e+00" cType="1" res="3.8789208047091961e-03" rms="8.8699907064437866e-02" purity="6.0532915592193604e-01" nType="0">
            <Node pos="l" depth="3" NCoef="0" IVar="-1" Cut="0.0000000000000000e+00" cType="1" res="-6.9551323540508747e-03" rms="8.8088594377040863e-02" purity="1.0216396301984787e-01" nType="-99"/>
            <Node pos="r" depth="3" NCoef="0" IVar="-1" Cut="0.0000000000000000e+00" cType="1" res="2.5735516101121902e-02" rms="8.8816002011299133e-02" purity="7.6989060640335083e-01" nType="-99"/>
          </Node>
        </Node>
        <Node pos="r" depth="1" NCoef="0" IVar="16" Cut="5.0187091827392578e+00" cType="1" res="-3.8340741302818060e-03" rms="7.3540598154067993e-02" purity="3.3203092217445374e-01" nType="0">
          <Node pos="l" depth="2" NCoef="0" IVar="3" Cut="6.6721200942993164e-01" cType="1" res="-6.4534116536378860e-03" rms="6.0757156461477280e-02" purity="3.9988674223423004e-02" nType="0">
            <Node pos="l" depth="3" NCoef="0" IVar="-1" Cut="0.0000000000000000e+00" cType="1" res="-3.3010933548212051e-02" rms="1.0799556970596313e-01" purity="2.1722985804080963e-01" nType="-99"/>
            <Node pos="r" depth="3" NCoef="0" IVar="-1" Cut="0.0000000000000000e+00" cType="1" res="-3.2095272094011307e-02" rms="4.7961767762899399e-02" purity="9.5619326457381248e-03" nType="-99"/>
          </Node>
          <Node pos="r" depth="2" NCoef="0" IVar="-1" Cut="0.0000000000000000e+00" cType="1" res="5.4186619818210602e-03" rms="9.2989884316921234e-02" purity="8.8947892189025879e-01" nType="-99"/>
        </Node>
      </Node>
    </BinaryTree>
    <BinaryTree type="DecisionTree" boostWeight="1.0000000000000000e+00" itree="88">
      <Node pos="s" depth="0" NCoef="0" IVar="4" Cut="1.7147138118743896e+00" cType="1" res="1.3823088374920189e-04" rms="8.0456316471099854e-02" purity="5.0072407722473145e-01" nType="0">
        <Node pos="l" depth="1" NCoef="0" IVar="8" Cut="4.4718742370605469e-01" cType="1" res="2.6627918705344200e-03" rms="8.3953529596328735e-02" purity="7.1084743738174438e-01" nType="0">
          <Node pos="l" depth="2" NCoef="0" IVar="2" Cut="-8.4483938217163086e+00" cType="1" res="5.1979026757180691e-03" rms="8.8854826986789703e-02" purity="7.6979982852935791e-01" nType="0">
            <Node pos="l" depth="3" NCoef="0" IVar="-1" Cut="0.0000000000000000e+00" cType="1" res="2.7360748499631882e-02" rms="9.1678917407989502e-02" purity="8.2688415050506592e-01" nType="-99"/>
            <Node pos="r" depth="3" NCoef="0" IVar="-1" Cut="0.0000000000000000e+00" cType="1" res="-5.5258713662624359e-02" rms="2.8201347216963768e-02" purity="0.0000000000000000e+00" nType="-99"/>
          </Node>
          <Node pos="r" depth="2" NCoef="0" IVar="3" Cut="1.0380963087081909e+00" cType="1" res="-3.4621302038431168e-03" rms="7.0347756147384644e-02" purity="5.6841623783111572e-01" nType="0">
            <Node pos="l" depth="3" NCoef="0" IVar="-1" Cut="0.0000000000000000e+00" cType="1" res="1.9603967666625977e-03" rms="7.4378572404384613e-02" purity="8.5477441549301147e-01" nType="-99"/>
            <Node pos="r" depth="3" NCoef="0" IVar="-1" Cut="0.0000000000000000e+00" cType="1" res="-4.2739290744066238e-02" rms="6.2889397144317627e-02" purity="1.1136956512928009e-01" nType="-99"/>
          </Node>
        </Node>
        <Node pos="r" depth="1" NCoef="0" IVar="14" Cut="4.5860667228698730e+00" cType="1" res="-4.2337970808148384e-03" rms="7.3805995285511017e-02" purity="1.3683298230171204e-01" nType="0">
          <Node pos="l" depth="2" NCoef="0" IVar="14" Cut="3.9844439029693604e+00" cType="1" res="-2.7605835348367691e-03" rms="5.8656308799982071e-02" purity="2.2261913865804672e-02" nType="0">
            <Node pos="l" depth="3" NCoef="0" IVar="-1" Cut="0.0000000000000000e+00" cType="1" res="-3.4014608711004257e-02" rms="3.7725154310464859e-02" purity="1.0102304629981518e-02" nType="-99"/>
            <Node pos="r" depth="3" NCoef="0" IVar="-1" Cut="0.0000000000000000e+00" cType="1" res="1.6880065202713013e-02" rms="1.2544715404510498e-01" purity="9.6931807696819305e-02" nType="-99"/>
          </Node>
          <Node pos="r" depth="2" NCoef="0" IVar="-1" Cut="0.0000000000000000e+00" cType="1" res="-2.8848588466644287e-02" rms="1.2448670715093613e-01" purity="7.1436375379562378e-01" nType="-99"/>
        </Node>
      </Node>
    </BinaryTree>
    <BinaryTree type="DecisionTree" boostWeight="1.0000000000000000e+00" itree="89">
      <Node pos="s" depth="0" NCoef="0" IVar="10" Cut="6.6547369956970215e+00" cType="1" res="-2.1828178432770073e-05" rms="7.9902343451976776e-02" purity="4.9955579638481140e-01" nType="0">
        <Node pos="l" depth="1" NCoef="0" IVar="15" Cut="3.2906696796417236e+00" cType="1" res="-1.0522104799747467e-02" rms="6.7504756152629852e-02" purity="2.0815978944301605e-01" nType="0">
          <Node pos="l" depth="2" NCoef="0" IVar="-1" Cut="0.0000000000000000e+00" cType="1" res="-4.0782500058412552e-02" rms="3.5351067781448364e-02" purity="4.0031727403402328e-02" nType="-99"/>
          <Node pos="r" depth="2" NCoef="0" IVar="-1" Cut="0.0000000000000000e+00" cType="1" res="-4.4618491083383560e-02" rms="9.9127911031246185e-02" purity="4.8135003447532654e-01" nType="-99"/>
        </Node>
        <Node pos="r" depth="1" NCoef="0" IVar="4" Cut="1.9429795742034912e+00" cType="1" res="7.3920213617384434e-04" rms="8.0673821270465851e-02" purity="5.2067536115646362e-01" nType="0">
          <Node pos="l" depth="2" NCoef="0" IVar="7" Cut="2.4557056427001953e+00" cType="1" res="2.6351131964474916e-03" rms="8.2992263138294220e-02" purity="6.9580590724945068e-01" nType="0">
            <Node pos="l" depth="3" NCoef="0" IVar="-1" Cut="0.0000000000000000e+00" cType="1" res="-1.7382906749844551e-02" rms="1.1136946082115173e-01" purity="2.2641627490520477e-01" nType="-99"/>
            <Node pos="r" depth="3" NCoef="0" IVar="-1" Cut="0.0000000000000000e+00" cType="1" res="2.0521365106105804e-02" rms="7.7627137303352356e-02" purity="7.6785820722579956e-01" nType="-99"/>
          </Node>
          <Node pos="r" depth="2" NCoef="0" IVar="3" Cut="5.0456166267395020e-01" cType="1" res="-3.7568537518382072e-03" rms="7.4697263538837433e-02" purity="1.0536213964223862e-01" nType="0">
            <Node pos="l" depth="3" NCoef="0" IVar="-1" Cut="0.0000000000000000e+00" cType="1" res="-3.4688595682382584e-02" rms="9.7069583833217621e-02" purity="3.7568220496177673e-01" nType="-99"/>
            <Node pos="r" depth="3" NCoef="0" IVar="-1" Cut="0.0000000000000000e+00" cType="1" res="-1.3133172877132893e-02" rms="6.8675965070724487e-02" purity="4.5813165605068207e-02" nType="-99"/>
          </Node>
        </Node>
      </Node>
    </BinaryTree>
    <BinaryTree type="DecisionTree" boostWeight="1.0000000000000000e+00" itree="90">
      <Node pos="s" depth="0" NCoef="0" IVar="2" Cut="-8.6290502548217773e+00" cType="1" res="1.0166305582970381e-04" rms="8.0140590667724609e-02" purity="5.0126045942306519e-01" nType="0">
        <Node pos="l" depth="1" NCoef="0" IVar="7" Cut="1.6325843334197998e+00" cType="1" res="1.8312765751034021e-03" rms="9.1193027794361115e-02" purity="6.9308567047119141e-01" nType="0">
          <Node pos="l" depth="2" NCoef="0" IVar="-1" Cut="0.0000000000000000e+00" cType="1" res="-2.8370959684252739e-02" rms="1.0806136578321457e-01" purity="2.2250908613204956e-01" nType="-99"/>
          <Node pos="r" depth="2" NCoef="0" IVar="11" Cut="5.7358074188232422e+00" cType="1" res="2.8357042465358973e-03" rms="8.9734211564064026e-02" purity="7.2799384593963623e-01" nType="0">
            <Node pos="l" depth="3" NCoef="0" IVar="-1" Cut="0.0000000000000000e+00" cType="1" res="-4.7028437256813049e-02" rms="7.9848766326904297e-02" purity="3.6072447896003723e-01" nType="-99"/>
            <Node pos="r" depth="3" NCoef="0" IVar="-1" Cut="0.0000000000000000e+00" cType="1" res="1.4723435044288635e-02" rms="9.0072512626647949e-02" purity="7.4341416358947754e-01" nType="-99"/>
          </Node>
        </Node>
        <Node pos="r" depth="1" NCoef="0" IVar="14" Cut="4.0494098663330078e+00" cType="1" res="-4.3751895427703857e-03" rms="3.8642987608909607e-02" purity="4.7490433789789677e-03" nType="0">
          <Node pos="l" depth="2" NCoef="0" IVar="12" Cut="7.8249883651733398e+00" cType="1" res="-3.1196060590445995e-03" rms="3.8231305778026581e-02" purity="4.7718295827507973e-03" nType="0">
            <Node pos="l" depth="3" NCoef="0" IVar="-1" Cut="0.0000000000000000e+00" cType="1" res="-4.8150707036256790e-02" rms="1.9301552325487137e-02" purity="1.8916440894827247e-03" nType="-99"/>
            <Node pos="r" depth="3" NCoef="0" IVar="-1" Cut="0.0000000000000000e+00" cType="1" res="5.2853878587484360e-03" rms="6.5205425024032593e-02" purity="1.2205199338495731e-02" nType="-99"/>
          </Node>
          <Node pos="r" depth="2" NCoef="0" IVar="-1" Cut="0.0000000000000000e+00" cType="1" res="-5.4125279188156128e-02" rms="4.0303282439708710e-02" purity="4.5954398810863495e-03" nType="-99"/>
        </Node>
      </Node>
    </BinaryTree>
    <BinaryTree type="DecisionTree" boostWeight="1.0000000000000000e+00" itree="91">
      <Node pos="s" depth="0" NCoef="0" IVar="11" Cut="6.1641802787780762e+00" cType="1" res="1.2740894453600049e-03" rms="8.6694858968257904e-02" purity="5.0213730335235596e-01" nType="0">
        <Node pos="l" depth="1" NCoef="0" IVar="2" Cut="-1.0219715118408203e+01" cType="1" res="-5.0330981612205505e-03" rms="8.3839409053325653e-02" purity="2.4968579411506653e-01" nType="0">
          <Node pos="l" depth="2" NCoef="0" IVar="6" Cut="7.6390843391418457e+00" cType="1" res="-1.0806895792484283e-02" rms="1.0466196388006210e-01" purity="6.5104609727859497e-01" nType="0">
            <Node pos="l" depth="3" NCoef="0" IVar="-1" Cut="0.0000000000000000e+00" cType="1" res="-2.4890553206205368e-02" rms="9.2992573976516724e-02" purity="5.6250989437103271e-01" nType="-99"/>
            <Node pos="r" depth="3" NCoef="0" IVar="-1" Cut="0.0000000000000000e+00" cType="1" res="-3.9469361305236816e-02" rms="1.1168238520622253e-01" purity="7.0960712432861328e-01" nType="-99"/>
          </Node>
          <Node pos="r" depth="2" NCoef="0" IVar="12" Cut="7.6339874267578125e+00" cType="1" res="-1.7089198809117079e-03" rms="6.8840377032756805e-02" purity="1.8608588725328445e-02" nType="0">
            <Node pos="l" depth="3" NCoef="0" IVar="-1" Cut="0.0000000000000000e+00" cType="1" res="1.8335442990064621e-02" rms="8.6813092231750488e-02" purity="2.3829199373722076e-02" nType="-99"/>
            <Node pos="r" depth="3" NCoef="0" IVar="-1" Cut="0.0000000000000000e+00" cType="1" res="-3.8241721689701080e-02" rms="4.9453135579824448e-02" purity="1.4401672407984734e-02" nType="-99"/>
          </Node>
        </Node>
        <Node pos="r" depth="1" NCoef="0" IVar="2" Cut="-9.2184495925903320e+00" cType="1" res="2.8136398177593946e-03" rms="8.7308533489704132e-02" purity="5.6375932693481445e-01" nType="0">
          <Node pos="l" depth="2" NCoef="0" IVar="2" Cut="-1.0538943290710449e+01" cType="1" res="5.5714286863803864e-03" rms="9.7857281565666199e-02" purity="8.0672162771224976e-01" nType="0">
            <Node pos="l" depth="3" NCoef="0" IVar="-1" Cut="0.0000000000000000e+00" cType="1" res="8.0326981842517853e-03" rms="7.3107376694679260e-02" purity="9.0683186054229736e-01" nType="-99"/>
            <Node pos="r" depth="3" NCoef="0" IVar="-1" Cut="0.0000000000000000e+00" cType="1" res="4.5670185238122940e-02" rms="1.8083375692367554e-01" purity="2.4416048824787140e-01" nType="-99"/>
          </Node>
          <Node pos="r" depth="2" NCoef="0" IVar="2" Cut="-8.8883333206176758e+00" cType="1" res="-3.3880039118230343e-03" rms="5.6344993412494659e-02" purity="1.7392143607139587e-02" nType="0">
            <Node pos="l" depth="3" NCoef="0" IVar="-1" Cut="0.0000000000000000e+00" cType="1" res="2.6704410091042519e-02" rms="1.2341760843992233e-01" purity="9.2276446521282196e-02" nType="-99"/>
            <Node pos="r" depth="3" NCoef="0" IVar="-1" Cut="0.0000000000000000e+00" cType="1" res="-3.5213235765695572e-02" rms="4.0914040058851242e-02" purity="8.2559473812580109e-03" nType="-99"/>
          </Node>
        </Node>
      </Node>
    </BinaryTree>
    <BinaryTree type="DecisionTree" boostWeight="1.0000000000000000e+00" itree="92">
      <Node pos="s" depth="0" NCoef="0" IVar="15" Cut="2.2589235305786133e+00" cType="1" res="5.2655342733487487e-04" rms="8.3180151879787445e-02" purity="5.0321263074874878e-01" nType="0">
        <Node pos="l" depth="1" NCoef="0" IVar="0" Cut="8.6398725509643555e+00" cType="1" res="-4.5045930892229080e-03" rms="5.2054442465305328e-02" purity="4.7212481498718262e-02" nType="0">
          <Node pos="l" depth="2" NCoef="0" IVar="16" Cut="4.4906182289123535e+00" cType="1" res="-3.5543451085686684e-03" rms="4.3020568788051605e-02" purity="1.7887050285935402e-02" nType="0">
            <Node pos="l" depth="3" NCoef="0" IVar="-1" Cut="0.0000000000000000e+00" cType="1" res="-2.8884280472993851e-02" rms="3.5777594894170761e-02" purity="3.8145650178194046e-03" nType="-99"/>
            <Node pos="r" depth="3" NCoef="0" IVar="-1" Cut="0.0000000000000000e+00" cType="1" res="-2.7532139793038368e-02" rms="7.4702695012092590e-02" purity="1.1071599274873734e-01" nType="-99"/>
          </Node>
          <Node pos="r" depth="2" NCoef="0" IVar="-1" Cut="0.0000000000000000e+00" cType="1" res="-2.4997919797897339e-02" rms="1.0265959799289703e-01" purity="3.1743252277374268e-01" nType="-99"/>
        </Node>
        <Node pos="r" depth="1" NCoef="0" IVar="2" Cut="-1.0707810401916504e+01" cType="1" res="2.4539220612496138e-03" rms="9.2293262481689453e-02" purity="6.7790055274963379e-01" nType="0">
          <Node pos="l" depth="2" NCoef="0" IVar="13" Cut="2.9271850585937500e+00" cType="1" res="-2.9283534968271852e-04" rms="6.7876093089580536e-02" purity="9.4530481100082397e-01" nType="0">
            <Node pos="l" depth="3" NCoef="0" IVar="-1" Cut="0.0000000000000000e+00" cType="1" res="-1.4642476104199886e-02" rms="1.1099679023027420e-01" purity="7.8726786375045776e-01" nType="-99"/>
            <Node pos="r" depth="3" NCoef="0" IVar="-1" Cut="0.0000000000000000e+00" cType="1" res="1.9116068258881569e-02" rms="4.5789010822772980e-02" purity="9.9651169776916504e-01" nType="-99"/>
          </Node>
          <Node pos="r" depth="2" NCoef="0" IVar="16" Cut="4.2831630706787109e+00" cType="1" res="8.1269070506095886e-03" rms="1.2863737344741821e-01" purity="1.2562008202075958e-01" nType="0">
            <Node pos="l" depth="3" NCoef="0" IVar="-1" Cut="0.0000000000000000e+00" cType="1" res="2.3852074518799782e-03" rms="8.8846117258071899e-02" purity="2.9092324897646904e-02" nType="-99"/>
            <Node pos="r" depth="3" NCoef="0" IVar="-1" Cut="0.0000000000000000e+00" cType="1" res="3.1934611499309540e-02" rms="1.9039732217788696e-01" purity="3.5038137435913086e-01" nType="-99"/>
          </Node>
        </Node>
      </Node>
    </BinaryTree>
    <BinaryTree type="DecisionTree" boostWeight="1.0000000000000000e+00" itree="93">
      <Node pos="s" depth="0" NCoef="0" IVar="8" Cut="3.0684840679168701e-01" cType="1" res="1.4520606491714716e-03" rms="8.7589658796787262e-02" purity="5.0830364227294922e-01" nType="0">
        <Node pos="l" depth="1" NCoef="0" IVar="7" Cut="3.4029827117919922e+00" cType="1" res="3.9564790204167366e-03" rms="9.5235168933868408e-02" purity="5.8773028850555420e-01" nType="0">
          <Node pos="l" depth="2" NCoef="0" IVar="14" Cut="4.1682314872741699e+00" cType="1" res="9.7837708890438080e-03" rms="1.3684354722499847e-01" purity="2.4767044186592102e-01" nType="0">
            <Node pos="l" depth="3" NCoef="0" IVar="-1" Cut="0.0000000000000000e+00" cType="1" res="7.4184238910675049e-03" rms="1.0842430591583252e-01" purity="7.6820477843284607e-02" nType="-99"/>
            <Node pos="r" depth="3" NCoef="0" IVar="-1" Cut="0.0000000000000000e+00" cType="1" res="5.7936422526836395e-02" rms="1.9005921483039856e-01" purity="6.8706470727920532e-01" nType="-99"/>
          </Node>
          <Node pos="r" depth="2" NCoef="0" IVar="15" Cut="3.9430406093597412e+00" cType="1" res="1.2767204316332936e-03" rms="6.7869760096073151e-02" purity="7.4411135911941528e-01" nType="0">
            <Node pos="l" depth="3" NCoef="0" IVar="-1" Cut="0.0000000000000000e+00" cType="1" res="-1.3749892823398113e-02" rms="7.4902951717376709e-02" purity="2.9029148817062378e-01" nType="-99"/>
            <Node pos="r" depth="3" NCoef="0" IVar="-1" Cut="0.0000000000000000e+00" cType="1" res="3.4342009574174881e-02" rms="6.3666120171546936e-02" purity="9.8620587587356567e-01" nType="-99"/>
          </Node>
        </Node>
        <Node pos="r" depth="1" NCoef="0" IVar="9" Cut="6.1946430206298828e+00" cType="1" res="-2.8141112998127937e-03" rms="7.2539567947387695e-02" purity="3.7300372123718262e-01" nType="0">
          <Node pos="l" depth="2" NCoef="0" IVar="7" Cut="2.6525731086730957e+00" cType="1" res="-6.6325133666396141e-03" rms="6.3622519373893738e-02" purity="2.4190405011177063e-01" nType="0">
            <Node pos="l" depth="3" NCoef="0" IVar="-1" Cut="0.0000000000000000e+00" cType="1" res="-7.1972094476222992e-02" rms="6.8812772631645203e-02" purity="3.4949772059917450e-02" nType="-99"/>
            <Node pos="r" depth="3" NCoef="0" IVar="-1" Cut="0.0000000000000000e+00" cType="1" res="-2.5937203317880630e-02" rms="6.1647936701774597e-02" purity="3.1123128533363342e-01" nType="-99"/>
          </Node>
          <Node pos="r" depth="2" NCoef="0" IVar="7" Cut="2.8726556301116943e+00" cType="1" res="3.0627532396465540e-03" rms="8.4105402231216431e-02" purity="5.7477790117263794e-01" nType="0">
            <Node pos="l" depth="3" NCoef="0" IVar="-1" Cut="0.0000000000000000e+00" cType="1" res="3.5412810742855072e-02" rms="1.2488038092851639e-01" purity="2.3562572896480560e-01" nType="-99"/>
            <Node pos="r" depth="3" NCoef="0" IVar="-1" Cut="0.0000000000000000e+00" cType="1" res="-1.0871171951293945e-02" rms="6.2323316931724548e-02" purity="6.9852346181869507e-01" nType="-99"/>
          </Node>
        </Node>
      </Node>
    </BinaryTree>
    <BinaryTree type="DecisionTree" boostWeight="1.0000000000000000e+00" itree="94">
      <Node pos="s" depth="0" NCoef="0" IVar="14" Cut="2.9951822757720947e+00" cType="1" res="9.6605962608009577e-04" rms="8.5070133209228516e-02" purity="5.0106185674667358e-01" nType="0">
        <Node pos="l" depth="1" NCoef="0" IVar="2" Cut="-9.6781654357910156e+00" cType="1" res="-4.9135992303490639e-03" rms="4.6548832207918167e-02" purity="1.7258172854781151e-02" nType="0">
          <Node pos="l" depth="2" NCoef="0" IVar="11" Cut="6.5405902862548828e+00" cType="1" res="-1.2754607014358044e-02" rms="6.9527730345726013e-02" purity="4.5719534158706665e-02" nType="0">
            <Node pos="l" depth="3" NCoef="0" IVar="-1" Cut="0.0000000000000000e+00" cType="1" res="-3.3578645437955856e-02" rms="5.4798554629087448e-02" purity="3.2219819724559784e-02" nType="-99"/>
            <Node pos="r" depth="3" NCoef="0" IVar="-1" Cut="0.0000000000000000e+00" cType="1" res="-5.1153197884559631e-02" rms="8.1624500453472137e-02" purity="5.9590473771095276e-02" nType="-99"/>
          </Node>
          <Node pos="r" depth="2" NCoef="0" IVar="9" Cut="6.2915859222412109e+00" cType="1" res="-2.2768394555896521e-03" rms="3.5244967788457870e-02" purity="7.6872408390045166e-03" nType="0">
            <Node pos="l" depth="3" NCoef="0" IVar="-1" Cut="0.0000000000000000e+00" cType="1" res="-5.1319867372512817e-02" rms="1.9815890118479729e-02" purity="1.3251781929284334e-03" nType="-99"/>
            <Node pos="r" depth="3" NCoef="0" IVar="-1" Cut="0.0000000000000000e+00" cType="1" res="2.5160670280456543e-02" rms="7.2668857872486115e-02" purity="3.8465403020381927e-02" nType="-99"/>
          </Node>
        </Node>
        <Node pos="r" depth="1" NCoef="0" IVar="0" Cut="7.4814791679382324e+00" cType="1" res="2.4472081568092108e-03" rms="9.2213042080402374e-02" purity="6.2293714284896851e-01" nType="0">
          <Node pos="l" depth="2" NCoef="0" IVar="-1" Cut="0.0000000000000000e+00" cType="1" res="-5.8935873210430145e-02" rms="4.9505840986967087e-02" purity="2.6001019403338432e-02" nType="-99"/>
          <Node pos="r" depth="2" NCoef="0" IVar="1" Cut="3.5627627372741699e+00" cType="1" res="3.1994823366403580e-03" rms="9.3781918287277222e-02" purity="6.5288537740707397e-01" nType="0">
            <Node pos="l" depth="3" NCoef="0" IVar="-1" Cut="0.0000000000000000e+00" cType="1" res="-7.7376805711537600e-04" rms="6.6901333630084991e-02" purity="7.7716159820556641e-01" nType="-99"/>
            <Node pos="r" depth="3" NCoef="0" IVar="-1" Cut="0.0000000000000000e+00" cType="1" res="2.4685006588697433e-02" rms="1.1426706612110138e-01" purity="5.2962142229080200e-01" nType="-99"/>
          </Node>
        </Node>
      </Node>
    </BinaryTree>
    <BinaryTree type="DecisionTree" boostWeight="1.0000000000000000e+00" itree="95">
      <Node pos="s" depth="0" NCoef="0" IVar="12" Cut="7.4314737319946289e+00" cType="1" res="8.4559770766645670e-04" rms="8.3267793059349060e-02" purity="5.0307220220565796e-01" nType="0">
        <Node pos="l" depth="1" NCoef="0" IVar="16" Cut="4.6434168815612793e+00" cType="1" res="-3.4738837275654078e-03" rms="6.7906573414802551e-02" purity="2.9298135638237000e-01" nType="0">
          <Node pos="l" depth="2" NCoef="0" IVar="5" Cut="-3.8443274497985840e+00" cType="1" res="-6.0898177325725555e-03" rms="4.9323000013828278e-02" purity="1.8493328243494034e-02" nType="0">
            <Node pos="l" depth="3" NCoef="0" IVar="-1" Cut="0.0000000000000000e+00" cType="1" res="-5.1756244152784348e-02" rms="6.2087558209896088e-02" purity="5.6593280285596848e-02" nType="-99"/>
            <Node pos="r" depth="3" NCoef="0" IVar="-1" Cut="0.0000000000000000e+00" cType="1" res="-2.4719310924410820e-02" rms="4.4349063187837601e-02" purity="7.1934526786208153e-03" nType="-99"/>
          </Node>
          <Node pos="r" depth="2" NCoef="0" IVar="-1" Cut="0.0000000000000000e+00" cType="1" res="6.6106715239584446e-03" rms="9.4524204730987549e-02" purity="8.4291642904281616e-01" nType="-99"/>
        </Node>
        <Node pos="r" depth="1" NCoef="0" IVar="9" Cut="5.4806160926818848e+00" cType="1" res="2.4301274679601192e-03" rms="8.8181853294372559e-02" purity="5.8014047145843506e-01" nType="0">
          <Node pos="l" depth="2" NCoef="0" IVar="15" Cut="2.6647539138793945e+00" cType="1" res="-4.8134480603039265e-03" rms="8.0658771097660065e-02" purity="3.4702965617179871e-01" nType="0">
            <Node pos="l" depth="3" NCoef="0" IVar="-1" Cut="0.0000000000000000e+00" cType="1" res="2.5512911379337311e-03" rms="6.9368802011013031e-02" purity="2.1640032529830933e-02" nType="-99"/>
            <Node pos="r" depth="3" NCoef="0" IVar="-1" Cut="0.0000000000000000e+00" cType="1" res="-3.1427264213562012e-02" rms="8.7891966104507446e-02" purity="5.8774107694625854e-01" nType="-99"/>
          </Node>
          <Node pos="r" depth="2" NCoef="0" IVar="14" Cut="2.9951822757720947e+00" cType="1" res="3.9361882954835892e-03" rms="8.9593291282653809e-02" purity="6.2860816717147827e-01" nType="0">
            <Node pos="l" depth="3" NCoef="0" IVar="-1" Cut="0.0000000000000000e+00" cType="1" res="-1.9201030954718590e-02" rms="5.2281782031059265e-02" purity="3.2905772328376770e-02" nType="-99"/>
            <Node pos="r" depth="3" NCoef="0" IVar="-1" Cut="0.0000000000000000e+00" cType="1" res="2.4219715967774391e-02" rms="9.4903580844402313e-02" purity="7.4023091793060303e-01" nType="-99"/>
          </Node>
        </Node>
      </Node>
    </BinaryTree>
    <BinaryTree type="DecisionTree" boostWeight="1.0000000000000000e+00" itree="96">
      <Node pos="s" depth="0" NCoef="0" IVar="9" Cut="6.3560509681701660e+00" cType="1" res="-2.9820640338584781e-04" rms="7.7767044305801392e-02" purity="4.9202877283096313e-01" nType="0">
        <Node pos="l" depth="1" NCoef="0" IVar="7" Cut="1.9600205421447754e+00" cType="1" res="-2.6169421616941690e-03" rms="7.9798765480518341e-02" purity="3.4570416808128357e-01" nType="0">
          <Node pos="l" depth="2" NCoef="0" IVar="15" Cut="2.4847888946533203e+00" cType="1" res="-1.0785689577460289e-02" rms="9.3950875103473663e-02" purity="5.3310539573431015e-02" nType="0">
            <Node pos="l" depth="3" NCoef="0" IVar="-1" Cut="0.0000000000000000e+00" cType="1" res="1.4274609275162220e-02" rms="7.9823769629001617e-02" purity="1.8289042636752129e-02" nType="-99"/>
            <Node pos="r" depth="3" NCoef="0" IVar="-1" Cut="0.0000000000000000e+00" cType="1" res="-7.3861278593540192e-02" rms="1.0944642871618271e-01" purity="1.0746322572231293e-01" nType="-99"/>
          </Node>
          <Node pos="r" depth="2" NCoef="0" IVar="15" Cut="3.9826261997222900e+00" cType="1" res="-1.5194227453321218e-03" rms="7.7635705471038818e-02" purity="3.8498899340629578e-01" nType="0">
            <Node pos="l" depth="3" NCoef="0" IVar="-1" Cut="0.0000000000000000e+00" cType="1" res="-1.9735440611839294e-02" rms="7.1428254246711731e-02" purity="1.0088913887739182e-01" nType="-99"/>
            <Node pos="r" depth="3" NCoef="0" IVar="-1" Cut="0.0000000000000000e+00" cType="1" res="1.4429767616093159e-02" rms="8.8523216545581818e-02" purity="9.5040541887283325e-01" nType="-99"/>
          </Node>
        </Node>
        <Node pos="r" depth="1" NCoef="0" IVar="12" Cut="7.5865159034729004e+00" cType="1" res="3.9208130910992622e-03" rms="7.3740370571613312e-02" purity="7.5827145576477051e-01" nType="0">
          <Node pos="l" depth="2" NCoef="0" IVar="15" Cut="2.5027277469635010e+00" cType="1" res="-1.4620329020544887e-03" rms="6.9345287978649139e-02" purity="5.2769958972930908e-01" nType="0">
            <Node pos="l" depth="3" NCoef="0" IVar="-1" Cut="0.0000000000000000e+00" cType="1" res="-3.6326050758361816e-02" rms="6.2301930040121078e-02" purity="4.5879468321800232e-02" nType="-99"/>
            <Node pos="r" depth="3" NCoef="0" IVar="-1" Cut="0.0000000000000000e+00" cType="1" res="1.1697165668010712e-02" rms="7.2500303387641907e-02" purity="7.8548163175582886e-01" nType="-99"/>
          </Node>
          <Node pos="r" depth="2" NCoef="0" IVar="-1" Cut="0.0000000000000000e+00" cType="1" res="4.5340068638324738e-02" rms="7.6210811734199524e-02" purity="9.0517300367355347e-01" nType="-99"/>
        </Node>
      </Node>
    </BinaryTree>
    <BinaryTree type="DecisionTree" boostWeight="1.0000000000000000e+00" itree="97">
      <Node pos="s" depth="0" NCoef="0" IVar="0" Cut="7.9974465370178223e+00" cType="1" res="2.3097876692190766e-04" rms="7.7742844820022583e-02" purity="5.0727063417434692e-01" nType="0">
        <Node pos="l" depth="1" NCoef="0" IVar="3" Cut="3.4013119339942932e-01" cType="1" res="-5.5733672343194485e-03" rms="4.9946177750825882e-02" purity="7.2527766227722168e-02" nType="0">
          <Node pos="l" depth="2" NCoef="0" IVar="-1" Cut="0.0000000000000000e+00" cType="1" res="-4.4813100248575211e-02" rms="8.3766669034957886e-02" purity="2.5450700521469116e-01" nType="-99"/>
          <Node pos="r" depth="2" NCoef="0" IVar="9" Cut="6.3799486160278320e+00" cType="1" res="-2.7457778342068195e-03" rms="3.9095036685466766e-02" purity="3.5552158951759338e-02" nType="0">
            <Node pos="l" depth="3" NCoef="0" IVar="-1" Cut="0.0000000000000000e+00" cType="1" res="-1.2682061642408371e-02" rms="3.9280734956264496e-02" purity="3.9121303707361221e-02" nType="-99"/>
            <Node pos="r" depth="3" NCoef="0" IVar="-1" Cut="0.0000000000000000e+00" cType="1" res="-5.5758014321327209e-02" rms="3.7971753627061844e-02" purity="2.1398428827524185e-02" nType="-99"/>
          </Node>
        </Node>
        <Node pos="r" depth="1" NCoef="0" IVar="7" Cut="1.1376637220382690e+00" cType="1" res="1.5345871215686202e-03" rms="8.2654915750026703e-02" purity="6.0491031408309937e-01" nType="0">
          <Node pos="l" depth="2" NCoef="0" IVar="-1" Cut="0.0000000000000000e+00" cType="1" res="-3.8167376071214676e-02" rms="8.6207590997219086e-02" purity="1.4551475644111633e-01" nType="-99"/>
          <Node pos="r" depth="2" NCoef="0" IVar="8" Cut="5.9213936328887939e-01" cType="1" res="2.2803426254540682e-03" rms="8.2400508224964142e-02" purity="6.2826061248779297e-01" nType="0">
            <Node pos="l" depth="3" NCoef="0" IVar="-1" Cut="0.0000000000000000e+00" cType="1" res="1.9667092710733414e-02" rms="8.4225356578826904e-02" purity="6.9566106796264648e-01" nType="-99"/>
            <Node pos="r" depth="3" NCoef="0" IVar="-1" Cut="0.0000000000000000e+00" cType="1" res="-1.0577387176454067e-02" rms="7.7375978231430054e-02" purity="4.5603740215301514e-01" nType="-99"/>
          </Node>
        </Node>
      </Node>
    </BinaryTree>
    <BinaryTree type="DecisionTree" boostWeight="1.0000000000000000e+00" itree="98">
      <Node pos="s" depth="0" NCoef="0" IVar="11" Cut="6.1122040748596191e+00" cType="1" res="-8.7177555542439222e-04" rms="7.9482033848762512e-02" purity="4.9341577291488647e-01" nType="0">
        <Node pos="l" depth="1" NCoef="0" IVar="2" Cut="-9.1878490447998047e+00" cType="1" res="-6.1113266274333000e-03" rms="7.9438395798206329e-02" purity="2.4611632525920868e-01" nType="0">
          <Node pos="l" depth="2" NCoef="0" IVar="4" Cut="1.3655273914337158e+00" cType="1" res="-1.0081080719828606e-02" rms="9.9253743886947632e-02" purity="4.8837316036224365e-01" nType="0">
            <Node pos="l" depth="3" NCoef="0" IVar="-1" Cut="0.0000000000000000e+00" cType="1" res="-1.9816052168607712e-02" rms="8.6409159004688263e-02" purity="6.3528972864151001e-01" nType="-99"/>
            <Node pos="r" depth="3" NCoef="0" IVar="-1" Cut="0.0000000000000000e+00" cType="1" res="-5.8488123118877411e-02" rms="1.1929822713136673e-01" purity="2.1246460080146790e-01" nType="-99"/>
          </Node>
          <Node pos="r" depth="2" NCoef="0" IVar="8" Cut="7.1423792839050293e-01" cType="1" res="-2.1403844002634287e-03" rms="5.2316535264253616e-02" purity="3.7869715597480536e-03" nType="0">
            <Node pos="l" depth="3" NCoef="0" IVar="-1" Cut="0.0000000000000000e+00" cType="1" res="-5.5455762892961502e-02" rms="2.2766659036278725e-02" purity="0.0000000000000000e+00" nType="-99"/>
            <Node pos="r" depth="3" NCoef="0" IVar="-1" Cut="0.0000000000000000e+00" cType="1" res="2.8202565386891365e-02" rms="7.6526179909706116e-02" purity="9.1809807345271111e-03" nType="-99"/>
          </Node>
        </Node>
        <Node pos="r" depth="1" NCoef="0" IVar="3" Cut="6.6719621419906616e-01" cType="1" res="2.5970669230446219e-04" rms="7.9446099698543549e-02" purity="5.4682010412216187e-01" nType="0">
          <Node pos="l" depth="2" NCoef="0" IVar="15" Cut="2.6853427886962891e+00" cType="1" res="2.6363027282059193e-03" rms="7.8726723790168762e-02" purity="8.6986595392227173e-01" nType="0">
            <Node pos="l" depth="3" NCoef="0" IVar="-1" Cut="0.0000000000000000e+00" cType="1" res="2.8503887355327606e-02" rms="1.5609228610992432e-01" purity="3.2982602715492249e-01" nType="-99"/>
            <Node pos="r" depth="3" NCoef="0" IVar="-1" Cut="0.0000000000000000e+00" cType="1" res="6.9545367732644081e-03" rms="6.0461033135652542e-02" purity="9.4462317228317261e-01" nType="-99"/>
          </Node>
          <Node pos="r" depth="2" NCoef="0" IVar="7" Cut="4.3316497802734375e+00" cType="1" res="-2.3669586516916752e-03" rms="8.0151721835136414e-02" purity="1.8978293240070343e-01" nType="0">
            <Node pos="l" depth="3" NCoef="0" IVar="-1" Cut="0.0000000000000000e+00" cType="1" res="-2.1578172221779823e-02" rms="7.6168783009052277e-02" purity="4.5879777520895004e-02" nType="-99"/>
            <Node pos="r" depth="3" NCoef="0" IVar="-1" Cut="0.0000000000000000e+00" cType="1" res="1.1037615127861500e-02" rms="9.4736710190773010e-02" purity="7.9021728038787842e-01" nType="-99"/>
          </Node>
        </Node>
      </Node>
    </BinaryTree>
    <BinaryTree type="DecisionTree" boostWeight="1.0000000000000000e+00" itree="99">
      <Node pos="s" depth="0" NCoef="0" IVar="4" Cut="1.9429795742034912e+00" cType="1" res="7.0991757092997432e-04" rms="7.9704567790031433e-02" purity="5.0964546203613281e-01" nType="0">
        <Node pos="l" depth="1" NCoef="0" IVar="7" Cut="1.6365734338760376e+00" cType="1" res="2.5137420743703842e-03" rms="8.3198025822639465e-02" purity="6.8743312358856201e-01" nType="0">
          <Node pos="l" depth="2" NCoef="0" IVar="-1" Cut="0.0000000000000000e+00" cType="1" res="-2.5088297203183174e-02" rms="9.7877748310565948e-02" purity="2.1187561750411987e-01" nType="-99"/>
          <Node pos="r" depth="2" NCoef="0" IVar="7" Cut="3.3074803352355957e+00" cType="1" res="3.4540931228548288e-03" rms="8.1915594637393951e-02" purity="7.2304499149322510e-01" nType="0">
            <Node pos="l" depth="3" NCoef="0" IVar="-1" Cut="0.0000000000000000e+00" cType="1" res="3.0624039471149445e-02" rms="1.3125908374786377e-01" purity="3.1800946593284607e-01" nType="-99"/>
            <Node pos="r" depth="3" NCoef="0" IVar="-1" Cut="0.0000000000000000e+00" cType="1" res="5.4383766837418079e-03" rms="6.1223186552524567e-02" purity="8.3581423759460449e-01" nType="-99"/>
          </Node>
        </Node>
        <Node pos="r" depth="1" NCoef="0" IVar="13" Cut="2.1321823596954346e+00" cType="1" res="-3.5144998691976070e-03" rms="7.0672363042831421e-02" purity="9.3280687928199768e-02" nType="0">
          <Node pos="l" depth="2" NCoef="0" IVar="15" Cut="3.3141930103302002e+00" cType="1" res="-1.6500708879902959e-03" rms="5.9490285813808441e-02" purity="1.1616034433245659e-02" nType="0">
            <Node pos="l" depth="3" NCoef="0" IVar="-1" Cut="0.0000000000000000e+00" cType="1" res="-5.7244556955993176e-03" rms="4.9961447715759277e-02" purity="4.9168877303600311e-03" nType="-99"/>
            <Node pos="r" depth="3" NCoef="0" IVar="-1" Cut="0.0000000000000000e+00" cType="1" res="-2.4120176210999489e-02" rms="1.0739320516586304e-01" purity="6.3644647598266602e-02" nType="-99"/>
          </Node>
          <Node pos="r" depth="2" NCoef="0" IVar="1" Cut="3.9882080554962158e+00" cType="1" res="-9.2848073691129684e-03" rms="9.7237795591354370e-02" purity="3.4602844715118408e-01" nType="0">
            <Node pos="l" depth="3" NCoef="0" IVar="-1" Cut="0.0000000000000000e+00" cType="1" res="-1.1554725468158722e-02" rms="9.8922096192836761e-02" purity="4.4856494665145874e-01" nType="-99"/>
            <Node pos="r" depth="3" NCoef="0" IVar="-1" Cut="0.0000000000000000e+00" cType="1" res="-7.6660722494125366e-02" rms="9.4149775803089142e-02" purity="1.9470441341400146e-01" nType="-99"/>
          </Node>
        </Node>
      </Node>
    </BinaryTree>
    <BinaryTree type="DecisionTree" boostWeight="1.0000000000000000e+00" itree="100">
      <Node pos="s" depth="0" NCoef="0" IVar="9" Cut="6.0590848922729492e+00" cType="1" res="7.5699388980865479e-04" rms="8.0657370388507843e-02" purity="5.1125019788742065e-01" nType="0">
        <Node pos="l" depth="1" NCoef="0" IVar="16" Cut="5.6217355728149414e+00" cType="1" res="-2.5765402242541313e-03" rms="7.6810590922832489e-02" purity="3.3795803785324097e-01" nType="0">
          <Node pos="l" depth="2" NCoef="0" IVar="15" Cut="3.5672757625579834e+00" cType="1" res="-4.7910320572555065e-03" rms="7.1867056190967560e-02" purity="7.9526878893375397e-02" nType="0">
            <Node pos="l" depth="3" NCoef="0" IVar="-1" Cut="0.0000000000000000e+00" cType="1" res="-2.0590081810951233e-02" rms="6.1845146119594574e-02" purity="3.1128298491239548e-02" nType="-99"/>
            <Node pos="r" depth="3" NCoef="0" IVar="-1" Cut="0.0000000000000000e+00" cType="1" res="-3.1109038740396500e-02" rms="1.2523242831230164e-01" purity="4.6570080518722534e-01" nType="-99"/>
          </Node>
          <Node pos="r" depth="2" NCoef="0" IVar="-1" Cut="0.0000000000000000e+00" cType="1" res="1.0644068010151386e-02" rms="8.6804687976837158e-02" purity="9.2574882507324219e-01" nType="-99"/>
        </Node>
        <Node pos="r" depth="1" NCoef="0" IVar="7" Cut="3.2265279293060303e+00" cType="1" res="3.7896051071584225e-03" rms="8.3889022469520569e-02" purity="6.6889899969100952e-01" nType="0">
          <Node pos="l" depth="2" NCoef="0" IVar="6" Cut="7.3613319396972656e+00" cType="1" res="1.1221022345125675e-02" rms="1.2722393870353699e-01" purity="2.9567906260490417e-01" nType="0">
            <Node pos="l" depth="3" NCoef="0" IVar="-1" Cut="0.0000000000000000e+00" cType="1" res="-3.4085605293512344e-02" rms="6.8142093718051910e-02" purity="6.6044367849826813e-02" nType="-99"/>
            <Node pos="r" depth="3" NCoef="0" IVar="-1" Cut="0.0000000000000000e+00" cType="1" res="4.3932285159826279e-02" rms="1.4635255932807922e-01" purity="4.0490970015525818e-01" nType="-99"/>
          </Node>
          <Node pos="r" depth="2" NCoef="0" IVar="16" Cut="4.2501025199890137e+00" cType="1" res="1.1252062395215034e-03" rms="6.1077166348695755e-02" purity="8.0271023511886597e-01" nType="0">
            <Node pos="l" depth="3" NCoef="0" IVar="-1" Cut="0.0000000000000000e+00" cType="1" res="-3.3744301646947861e-02" rms="5.5689603090286255e-02" purity="4.9724370241165161e-02" nType="-99"/>
            <Node pos="r" depth="3" NCoef="0" IVar="-1" Cut="0.0000000000000000e+00" cType="1" res="2.4759246036410332e-02" rms="6.1887513846158981e-02" purity="9.3925386667251587e-01" nType="-99"/>
          </Node>
        </Node>
      </Node>
    </BinaryTree>
    <BinaryTree type="DecisionTree" boostWeight="1.0000000000000000e+00" itree="101">
      <Node pos="s" depth="0" NCoef="0" IVar="3" Cut="2.7986368536949158e-01" cType="1" res="-3.0531888478435576e-04" rms="7.6092965900897980e-02" purity="4.9997332692146301e-01" nType="0">
        <Node pos="l" depth="1" NCoef="0" IVar="7" Cut="3.3875446319580078e+00" cType="1" res="3.8155750371515751e-03" rms="7.6435126364231110e-02" purity="8.8635909557342529e-01" nType="0">
          <Node pos="l" depth="2" NCoef="0" IVar="10" Cut="7.4310164451599121e+00" cType="1" res="1.8606703728437424e-02" rms="1.4758165180683136e-01" purity="5.9944593906402588e-01" nType="0">
            <Node pos="l" depth="3" NCoef="0" IVar="-1" Cut="0.0000000000000000e+00" cType="1" res="5.1100526005029678e-02" rms="2.0250684022903442e-01" purity="4.9064972996711731e-01" nType="-99"/>
            <Node pos="r" depth="3" NCoef="0" IVar="-1" Cut="0.0000000000000000e+00" cType="1" res="-1.2800305150449276e-02" rms="8.1274092197418213e-02" purity="6.7796266078948975e-01" nType="-99"/>
          </Node>
          <Node pos="r" depth="2" NCoef="0" IVar="-1" Cut="0.0000000000000000e+00" cType="1" res="4.8964964225888252e-03" rms="4.7131184488534927e-02" purity="9.5046669244766235e-01" nType="-99"/>
        </Node>
        <Node pos="r" depth="1" NCoef="0" IVar="16" Cut="5.7049951553344727e+00" cType="1" res="-2.6633075904101133e-03" rms="7.5795777142047882e-02" purity="2.7888208627700806e-01" nType="0">
          <Node pos="l" depth="2" NCoef="0" IVar="16" Cut="5.0904068946838379e+00" cType="1" res="-4.1637821123003960e-03" rms="6.9768764078617096e-02" purity="6.1274886131286621e-02" nType="0">
            <Node pos="l" depth="3" NCoef="0" IVar="-1" Cut="0.0000000000000000e+00" cType="1" res="-1.7702894285321236e-02" rms="6.2772490084171295e-02" purity="3.3940032124519348e-02" nType="-99"/>
            <Node pos="r" depth="3" NCoef="0" IVar="-1" Cut="0.0000000000000000e+00" cType="1" res="-4.9530841410160065e-02" rms="1.3639450073242188e-01" purity="4.8059698939323425e-01" nType="-99"/>
          </Node>
          <Node pos="r" depth="2" NCoef="0" IVar="-1" Cut="0.0000000000000000e+00" cType="1" res="8.3436919376254082e-03" rms="9.1270968317985535e-02" purity="9.2676568031311035e-01" nType="-99"/>
        </Node>
      </Node>
    </BinaryTree>
    <BinaryTree type="DecisionTree" boostWeight="1.0000000000000000e+00" itree="102">
      <Node pos="s" depth="0" NCoef="0" IVar="1" Cut="4.0705418586730957e+00" cType="1" res="6.5428944071754813e-04" rms="8.2737728953361511e-02" purity="4.9792605638504028e-01" nType="0">
        <Node pos="l" depth="1" NCoef="0" IVar="3" Cut="2.0136187076568604e+00" cType="1" res="2.1825565490871668e-03" rms="8.6457081139087677e-02" purity="5.9000116586685181e-01" nType="0">
          <Node pos="l" depth="2" NCoef="0" IVar="14" Cut="4.3402380943298340e+00" cType="1" res="3.1412644311785698e-03" rms="8.9749768376350403e-02" purity="6.5283638238906860e-01" nType="0">
            <Node pos="l" depth="3" NCoef="0" IVar="-1" Cut="0.0000000000000000e+00" cType="1" res="1.9651660695672035e-02" rms="1.2048708647489548e-01" purity="1.7978782951831818e-01" nType="-99"/>
            <Node pos="r" depth="3" NCoef="0" IVar="-1" Cut="0.0000000000000000e+00" cType="1" res="6.0729100368916988e-03" rms="6.2624998390674591e-02" purity="9.5426505804061890e-01" nType="-99"/>
          </Node>
          <Node pos="r" depth="2" NCoef="0" IVar="2" Cut="-8.4258470535278320e+00" cType="1" res="-6.5039466135203838e-03" rms="4.6196516603231430e-02" purity="2.0674183964729309e-02" nType="0">
            <Node pos="l" depth="3" NCoef="0" IVar="-1" Cut="0.0000000000000000e+00" cType="1" res="-3.9062827825546265e-02" rms="6.8813487887382507e-02" purity="4.7079939395189285e-02" nType="-99"/>
            <Node pos="r" depth="3" NCoef="0" IVar="-1" Cut="0.0000000000000000e+00" cType="1" res="-5.1396962255239487e-02" rms="7.5973998755216599e-03" purity="0.0000000000000000e+00" nType="-99"/>
          </Node>
        </Node>
        <Node pos="r" depth="1" NCoef="0" IVar="11" Cut="6.8178663253784180e+00" cType="1" res="-3.5051214508712292e-03" rms="7.1478314697742462e-02" purity="2.4732956290245056e-01" nType="0">
          <Node pos="l" depth="2" NCoef="0" IVar="2" Cut="-8.8431034088134766e+00" cType="1" res="-5.2310801111161709e-03" rms="5.8710969984531403e-02" purity="1.5640582144260406e-01" nType="0">
            <Node pos="l" depth="3" NCoef="0" IVar="-1" Cut="0.0000000000000000e+00" cType="1" res="-4.2942125350236893e-02" rms="6.5518423914909363e-02" purity="2.4787929654121399e-01" nType="-99"/>
            <Node pos="r" depth="3" NCoef="0" IVar="-1" Cut="0.0000000000000000e+00" cType="1" res="-1.5964118065312505e-03" rms="4.4497482478618622e-02" purity="2.3197231348603964e-03" nType="-99"/>
          </Node>
          <Node pos="r" depth="2" NCoef="0" IVar="11" Cut="7.1189265251159668e+00" cType="1" res="9.1436848742887378e-04" rms="9.6634075045585632e-02" purity="4.8014876246452332e-01" nType="0">
            <Node pos="l" depth="3" NCoef="0" IVar="-1" Cut="0.0000000000000000e+00" cType="1" res="2.7629056945443153e-02" rms="1.0819935053586960e-01" purity="3.7266883254051208e-01" nType="-99"/>
            <Node pos="r" depth="3" NCoef="0" IVar="-1" Cut="0.0000000000000000e+00" cType="1" res="-3.0648639425635338e-02" rms="8.1137865781784058e-02" purity="6.0058557987213135e-01" nType="-99"/>
          </Node>
        </Node>
      </Node>
    </BinaryTree>
    <BinaryTree type="DecisionTree" boostWeight="1.0000000000000000e+00" itree="103">
      <Node pos="s" depth="0" NCoef="0" IVar="10" Cut="7.1577553749084473e+00" cType="1" res="-2.8680692776106298e-04" rms="7.8001126646995544e-02" purity="4.9260491132736206e-01" nType="0">
        <Node pos="l" depth="1" NCoef="0" IVar="7" Cut="2.6679553985595703e+00" cType="1" res="-5.3477119654417038e-03" rms="6.2778256833553314e-02" purity="2.8780296444892883e-01" nType="0">
          <Node pos="l" depth="2" NCoef="0" IVar="15" Cut="2.5516817569732666e+00" cType="1" res="-1.4267957769334316e-02" rms="7.5322546064853668e-02" purity="9.9168218672275543e-02" nType="0">
            <Node pos="l" depth="3" NCoef="0" IVar="-1" Cut="0.0000000000000000e+00" cType="1" res="-4.9656156450510025e-02" rms="3.1246408820152283e-02" purity="5.8212936855852604e-03" nType="-99"/>
            <Node pos="r" depth="3" NCoef="0" IVar="-1" Cut="0.0000000000000000e+00" cType="1" res="-6.2980912625789642e-02" rms="1.0410167276859283e-01" purity="2.0543280243873596e-01" nType="-99"/>
          </Node>
          <Node pos="r" depth="2" NCoef="0" IVar="11" Cut="6.6165041923522949e+00" cType="1" res="-2.7997570578008890e-03" rms="5.8455608785152435e-02" purity="3.4168404340744019e-01" nType="0">
            <Node pos="l" depth="3" NCoef="0" IVar="-1" Cut="0.0000000000000000e+00" cType="1" res="-4.0274478495121002e-02" rms="4.6670306473970413e-02" purity="1.5108457207679749e-01" nType="-99"/>
            <Node pos="r" depth="3" NCoef="0" IVar="-1" Cut="0.0000000000000000e+00" cType="1" res="1.2081216555088758e-03" rms="6.6442042589187622e-02" purity="4.9834668636322021e-01" nType="-99"/>
          </Node>
        </Node>
        <Node pos="r" depth="1" NCoef="0" IVar="8" Cut="-1.9737216234207153e+00" cType="1" res="1.3563733082264662e-03" rms="8.2273766398429871e-02" purity="5.5910021066665649e-01" nType="0">
          <Node pos="l" depth="2" NCoef="0" IVar="7" Cut="2.8821010589599609e+00" cType="1" res="-3.2166263554245234e-03" rms="5.8862905949354172e-02" purity="6.4956742525100708e-01" nType="0">
            <Node pos="l" depth="3" NCoef="0" IVar="-1" Cut="0.0000000000000000e+00" cType="1" res="-5.1981139928102493e-02" rms="7.4029974639415741e-02" purity="2.3843833804130554e-01" nType="-99"/>
            <Node pos="r" depth="3" NCoef="0" IVar="-1" Cut="0.0000000000000000e+00" cType="1" res="-7.6874536462128162e-03" rms="5.4727930575609207e-02" purity="7.3982566595077515e-01" nType="-99"/>
          </Node>
          <Node pos="r" depth="2" NCoef="0" IVar="13" Cut="1.7528744935989380e+00" cType="1" res="2.7562188915908337e-03" rms="8.8159188628196716e-02" purity="5.3140723705291748e-01" nType="0">
            <Node pos="l" depth="3" NCoef="0" IVar="-1" Cut="0.0000000000000000e+00" cType="1" res="-1.5261377207934856e-02" rms="7.6170004904270172e-02" purity="7.1282893419265747e-02" nType="-99"/>
            <Node pos="r" depth="3" NCoef="0" IVar="-1" Cut="0.0000000000000000e+00" cType="1" res="2.3543080314993858e-02" rms="9.2368699610233307e-02" purity="7.1268826723098755e-01" nType="-99"/>
          </Node>
        </Node>
      </Node>
    </BinaryTree>
    <BinaryTree type="DecisionTree" boostWeight="1.0000000000000000e+00" itree="104">
      <Node pos="s" depth="0" NCoef="0" IVar="4" Cut="2.7168493270874023e+00" cType="1" res="7.2117347735911608e-04" rms="8.1063725054264069e-02" purity="5.0129252672195435e-01" nType="0">
        <Node pos="l" depth="1" NCoef="0" IVar="0" Cut="7.5688872337341309e+00" cType="1" res="1.6710803611204028e-03" rms="8.3997808396816254e-02" purity="5.6333279609680176e-01" nType="0">
          <Node pos="l" depth="2" NCoef="0" IVar="3" Cut="1.5436094999313354e+00" cType="1" res="-7.0373392663896084e-03" rms="4.7109305858612061e-02" purity="1.4530505053699017e-02" nType="0">
            <Node pos="l" depth="3" NCoef="0" IVar="-1" Cut="0.0000000000000000e+00" cType="1" res="-4.7909859567880630e-02" rms="5.8191619813442230e-02" purity="2.1809995174407959e-02" nType="-99"/>
            <Node pos="r" depth="3" NCoef="0" IVar="-1" Cut="0.0000000000000000e+00" cType="1" res="-7.3101818561553955e-03" rms="2.8427712619304657e-02" purity="6.2227165326476097e-03" nType="-99"/>
          </Node>
          <Node pos="r" depth="2" NCoef="0" IVar="4" Cut="-6.2974435091018677e-01" cType="1" res="2.2728589829057455e-03" rms="8.5931576788425446e-02" purity="6.0125672817230225e-01" nType="0">
            <Node pos="l" depth="3" NCoef="0" IVar="-1" Cut="0.0000000000000000e+00" cType="1" res="3.0883952975273132e-02" rms="9.3494184315204620e-02" purity="8.7679827213287354e-01" nType="-99"/>
            <Node pos="r" depth="3" NCoef="0" IVar="-1" Cut="0.0000000000000000e+00" cType="1" res="6.7791654728353024e-03" rms="8.4499716758728027e-02" purity="5.5288583040237427e-01" nType="-99"/>
          </Node>
        </Node>
        <Node pos="r" depth="1" NCoef="0" IVar="14" Cut="3.8670260906219482e+00" cType="1" res="-6.4141014590859413e-03" rms="5.3626127541065216e-02" purity="3.5274289548397064e-02" nType="0">
          <Node pos="l" depth="2" NCoef="0" IVar="14" Cut="3.0595912933349609e+00" cType="1" res="-2.6991709601134062e-03" rms="1.9699560478329659e-02" purity="3.8131615146994591e-03" nType="0">
            <Node pos="l" depth="3" NCoef="0" IVar="-1" Cut="0.0000000000000000e+00" cType="1" res="-1.6460968181490898e-02" rms="1.9305245950818062e-02" purity="7.4619902297854424e-03" nType="-99"/>
            <Node pos="r" depth="3" NCoef="0" IVar="-1" Cut="0.0000000000000000e+00" cType="1" res="-5.5367179214954376e-02" rms="1.9976945593953133e-02" purity="0.0000000000000000e+00" nType="-99"/>
          </Node>
          <Node pos="r" depth="2" NCoef="0" IVar="-1" Cut="0.0000000000000000e+00" cType="1" res="-6.6019222140312195e-02" rms="9.9029928445816040e-02" purity="1.2484237551689148e-01" nType="-99"/>
        </Node>
      </Node>
    </BinaryTree>
    <BinaryTree type="DecisionTree" boostWeight="1.0000000000000000e+00" itree="105">
      <Node pos="s" depth="0" NCoef="0" IVar="9" Cut="6.0768494606018066e+00" cType="1" res="4.5574398245662451e-04" rms="7.9718731343746185e-02" purity="4.9590420722961426e-01" nType="0">
        <Node pos="l" depth="1" NCoef="0" IVar="11" Cut="7.0243015289306641e+00" cType="1" res="-2.4458630941808224e-03" rms="7.8678324818611145e-02" purity="3.3075246214866638e-01" nType="0">
          <Node pos="l" depth="2" NCoef="0" IVar="12" Cut="8.2882633209228516e+00" cType="1" res="-4.4151907786726952e-03" rms="6.9709815084934235e-02" purity="2.1327659487724304e-01" nType="0">
            <Node pos="l" depth="3" NCoef="0" IVar="-1" Cut="0.0000000000000000e+00" cType="1" res="-2.1245051175355911e-02" rms="6.6503860056400299e-02" purity="1.9514471292495728e-01" nType="-99"/>
            <Node pos="r" depth="3" NCoef="0" IVar="-1" Cut="0.0000000000000000e+00" cType="1" res="-5.7527739554643631e-02" rms="9.9564544856548309e-02" purity="4.2871913313865662e-01" nType="-99"/>
          </Node>
          <Node pos="r" depth="2" NCoef="0" IVar="12" Cut="7.6718072891235352e+00" cType="1" res="2.6186518371105194e-03" rms="9.7862780094146729e-02" purity="6.3286483287811279e-01" nType="0">
            <Node pos="l" depth="3" NCoef="0" IVar="-1" Cut="0.0000000000000000e+00" cType="1" res="4.4025976210832596e-02" rms="1.2753060460090637e-01" purity="4.3342712521553040e-01" nType="-99"/>
            <Node pos="r" depth="3" NCoef="0" IVar="-1" Cut="0.0000000000000000e+00" cType="1" res="2.0824477542191744e-04" rms="8.5737690329551697e-02" purity="6.9847077131271362e-01" nType="-99"/>
          </Node>
        </Node>
        <Node pos="r" depth="1" NCoef="0" IVar="12" Cut="7.4049253463745117e+00" cType="1" res="3.3043653238564730e-03" rms="8.0625586211681366e-02" purity="6.5804010629653931e-01" nType="0">
          <Node pos="l" depth="2" NCoef="0" IVar="12" Cut="7.3197579383850098e+00" cType="1" res="-4.1000284254550934e-03" rms="6.6209293901920319e-02" purity="3.6298143863677979e-01" nType="0">
            <Node pos="l" depth="3" NCoef="0" IVar="-1" Cut="0.0000000000000000e+00" cType="1" res="-3.4597329795360565e-02" rms="5.9744831174612045e-02" purity="3.3217304944992065e-01" nType="-99"/>
            <Node pos="r" depth="3" NCoef="0" IVar="-1" Cut="0.0000000000000000e+00" cType="1" res="2.3746328428387642e-02" rms="8.3832062780857086e-02" purity="4.6761173009872437e-01" nType="-99"/>
          </Node>
          <Node pos="r" depth="2" NCoef="0" IVar="13" Cut="2.5907258987426758e+00" cType="1" res="5.7620019651949406e-03" rms="8.4728106856346130e-02" purity="7.5597482919692993e-01" nType="0">
            <Node pos="l" depth="3" NCoef="0" IVar="-1" Cut="0.0000000000000000e+00" cType="1" res="4.1351087391376495e-02" rms="1.2504829466342926e-01" purity="3.7442275881767273e-01" nType="-99"/>
            <Node pos="r" depth="3" NCoef="0" IVar="-1" Cut="0.0000000000000000e+00" cType="1" res="7.9016759991645813e-03" rms="4.8589445650577545e-02" purity="9.7012364864349365e-01" nType="-99"/>
          </Node>
        </Node>
      </Node>
    </BinaryTree>
    <BinaryTree type="DecisionTree" boostWeight="1.0000000000000000e+00" itree="106">
      <Node pos="s" depth="0" NCoef="0" IVar="15" Cut="2.2517597675323486e+00" cType="1" res="9.6827675588428974e-04" rms="8.0957852303981781e-02" purity="5.0203812122344971e-01" nType="0">
        <Node pos="l" depth="1" NCoef="0" IVar="3" Cut="3.4013119339942932e-01" cType="1" res="-4.4411160051822662e-03" rms="5.2157677710056305e-02" purity="3.5449869930744171e-02" nType="0">
          <Node pos="l" depth="2" NCoef="0" IVar="-1" Cut="0.0000000000000000e+00" cType="1" res="-4.1108574718236923e-02" rms="9.5766499638557434e-02" purity="1.9332480430603027e-01" nType="-99"/>
          <Node pos="r" depth="2" NCoef="0" IVar="14" Cut="4.1005396842956543e+00" cType="1" res="-2.8993280138820410e-03" rms="4.4668152928352356e-02" purity="1.8295641988515854e-02" nType="0">
            <Node pos="l" depth="3" NCoef="0" IVar="-1" Cut="0.0000000000000000e+00" cType="1" res="-1.8573649227619171e-02" rms="3.7351209670305252e-02" purity="4.6956124715507030e-03" nType="-99"/>
            <Node pos="r" depth="3" NCoef="0" IVar="-1" Cut="0.0000000000000000e+00" cType="1" res="-4.5042160898447037e-02" rms="7.5896196067333221e-02" purity="1.0607516020536423e-01" nType="-99"/>
          </Node>
        </Node>
        <Node pos="r" depth="1" NCoef="0" IVar="16" Cut="5.2507867813110352e+00" cType="1" res="2.9864497482776642e-03" rms="8.9272089302539825e-02" purity="6.7611598968505859e-01" nType="0">
          <Node pos="l" depth="2" NCoef="0" IVar="11" Cut="6.7409548759460449e+00" cType="1" res="7.6091047376394272e-03" rms="1.1711304634809494e-01" purity="2.0455288887023926e-01" nType="0">
            <Node pos="l" depth="3" NCoef="0" IVar="-1" Cut="0.0000000000000000e+00" cType="1" res="3.0195615254342556e-03" rms="9.9169686436653137e-02" purity="1.2219464033842087e-01" nType="-99"/>
            <Node pos="r" depth="3" NCoef="0" IVar="-1" Cut="0.0000000000000000e+00" cType="1" res="3.9649900048971176e-02" rms="1.3911502063274384e-01" purity="3.2771492004394531e-01" nType="-99"/>
          </Node>
          <Node pos="r" depth="2" NCoef="0" IVar="9" Cut="5.8514342308044434e+00" cType="1" res="1.9152765162289143e-04" rms="6.6893100738525391e-02" purity="9.6122974157333374e-01" nType="0">
            <Node pos="l" depth="3" NCoef="0" IVar="-1" Cut="0.0000000000000000e+00" cType="1" res="-2.4366173893213272e-02" rms="8.5379645228385925e-02" purity="8.9552658796310425e-01" nType="-99"/>
            <Node pos="r" depth="3" NCoef="0" IVar="-1" Cut="0.0000000000000000e+00" cType="1" res="1.8875140696763992e-02" rms="5.9249937534332275e-02" purity="9.8347300291061401e-01" nType="-99"/>
          </Node>
        </Node>
      </Node>
    </BinaryTree>
    <BinaryTree type="DecisionTree" boostWeight="1.0000000000000000e+00" itree="107">
      <Node pos="s" depth="0" NCoef="0" IVar="4" Cut="-4.4195190072059631e-01" cType="1" res="9.3527190620079637e-04" rms="7.6895326375961304e-02" purity="4.9859496951103210e-01" nType="0">
        <Node pos="l" depth="1" NCoef="0" IVar="4" Cut="-1.1394677162170410e+00" cType="1" res="6.4620263874530792e-03" rms="8.0425299704074860e-02" purity="8.4574246406555176e-01" nType="0">
          <Node pos="l" depth="2" NCoef="0" IVar="-1" Cut="0.0000000000000000e+00" cType="1" res="2.0509963855147362e-02" rms="7.8015409409999847e-02" purity="8.5636365413665771e-01" nType="-99"/>
          <Node pos="r" depth="2" NCoef="0" IVar="-1" Cut="0.0000000000000000e+00" cType="1" res="3.0309217050671577e-02" rms="8.3073474466800690e-02" purity="8.3342516422271729e-01" nType="-99"/>
        </Node>
        <Node pos="r" depth="1" NCoef="0" IVar="3" Cut="1.3213584423065186e+00" cType="1" res="8.7369556922567426e-07" rms="7.6242797076702118e-02" purity="4.3990340828895569e-01" nType="0">
          <Node pos="l" depth="2" NCoef="0" IVar="15" Cut="1.8124427795410156e+00" cType="1" res="1.8692279700189829e-03" rms="8.3995036780834198e-02" purity="6.8844240903854370e-01" nType="0">
            <Node pos="l" depth="3" NCoef="0" IVar="-1" Cut="0.0000000000000000e+00" cType="1" res="-5.0485283136367798e-02" rms="5.3935837000608444e-02" purity="4.2196895927190781e-02" nType="-99"/>
            <Node pos="r" depth="3" NCoef="0" IVar="-1" Cut="0.0000000000000000e+00" cType="1" res="1.3406705111265182e-02" rms="8.6319193243980408e-02" purity="7.5243216753005981e-01" nType="-99"/>
          </Node>
          <Node pos="r" depth="2" NCoef="0" IVar="0" Cut="8.4408302307128906e+00" cType="1" res="-3.0034861993044615e-03" rms="6.1650913208723068e-02" purity="4.0246460586786270e-02" nType="0">
            <Node pos="l" depth="3" NCoef="0" IVar="-1" Cut="0.0000000000000000e+00" cType="1" res="-1.0509776882827282e-02" rms="5.0936665385961533e-02" purity="9.6989171579480171e-03" nType="-99"/>
            <Node pos="r" depth="3" NCoef="0" IVar="-1" Cut="0.0000000000000000e+00" cType="1" res="-2.7908954769372940e-02" rms="8.4272712469100952e-02" purity="1.2513343989849091e-01" nType="-99"/>
          </Node>
        </Node>
      </Node>
    </BinaryTree>
    <BinaryTree type="DecisionTree" boostWeight="1.0000000000000000e+00" itree="108">
      <Node pos="s" depth="0" NCoef="0" IVar="10" Cut="7.1113076210021973e+00" cType="1" res="4.5730679994449019e-04" rms="8.2142524421215057e-02" purity="4.9963858723640442e-01" nType="0">
        <Node pos="l" depth="1" NCoef="0" IVar="3" Cut="5.2303653955459595e-01" cType="1" res="-3.9433320052921772e-03" rms="6.8830892443656921e-02" purity="2.8789198398590088e-01" nType="0">
          <Node pos="l" depth="2" NCoef="0" IVar="-1" Cut="0.0000000000000000e+00" cType="1" res="6.1716134659945965e-03" rms="9.7415089607238770e-02" purity="7.5307416915893555e-01" nType="-99"/>
          <Node pos="r" depth="2" NCoef="0" IVar="16" Cut="4.4797430038452148e+00" cType="1" res="-6.3163670711219311e-03" rms="5.3510569036006927e-02" purity="1.0637648403644562e-01" nType="0">
            <Node pos="l" depth="3" NCoef="0" IVar="-1" Cut="0.0000000000000000e+00" cType="1" res="-3.7156287580728531e-02" rms="2.5254026055335999e-02" purity="4.4041606597602367e-03" nType="-99"/>
            <Node pos="r" depth="3" NCoef="0" IVar="-1" Cut="0.0000000000000000e+00" cType="1" res="-4.2545937001705170e-02" rms="9.1680869460105896e-02" purity="3.6528459191322327e-01" nType="-99"/>
          </Node>
        </Node>
        <Node pos="r" depth="1" NCoef="0" IVar="6" Cut="7.6374330520629883e+00" cType="1" res="1.7020761733874679e-03" rms="8.5491716861724854e-02" purity="5.5953347682952881e-01" nType="0">
          <Node pos="l" depth="2" NCoef="0" IVar="15" Cut="3.1315271854400635e+00" cType="1" res="-2.0044250413775444e-03" rms="7.1913354098796844e-02" purity="2.5616392493247986e-01" nType="0">
            <Node pos="l" depth="3" NCoef="0" IVar="-1" Cut="0.0000000000000000e+00" cType="1" res="-3.1359672546386719e-02" rms="5.6647665798664093e-02" purity="2.3673191666603088e-02" nType="-99"/>
            <Node pos="r" depth="3" NCoef="0" IVar="-1" Cut="0.0000000000000000e+00" cType="1" res="9.1568287461996078e-03" rms="9.7482815384864807e-02" purity="7.7287024259567261e-01" nType="-99"/>
          </Node>
          <Node pos="r" depth="2" NCoef="0" IVar="7" Cut="3.2313148975372314e+00" cType="1" res="3.9799651131033897e-03" rms="9.2783160507678986e-02" purity="7.4597406387329102e-01" nType="0">
            <Node pos="l" depth="3" NCoef="0" IVar="-1" Cut="0.0000000000000000e+00" cType="1" res="5.2405200898647308e-02" rms="1.7215315997600555e-01" purity="4.0495675802230835e-01" nType="-99"/>
            <Node pos="r" depth="3" NCoef="0" IVar="-1" Cut="0.0000000000000000e+00" cType="1" res="-1.3234200887382030e-03" rms="5.7651408016681671e-02" purity="8.3028370141983032e-01" nType="-99"/>
          </Node>
        </Node>
      </Node>
    </BinaryTree>
    <BinaryTree type="DecisionTree" boostWeight="1.0000000000000000e+00" itree="109">
      <Node pos="s" depth="0" NCoef="0" IVar="13" Cut="2.1566762924194336e+00" cType="1" res="1.3892807764932513e-03" rms="8.3184175193309784e-02" purity="5.0035101175308228e-01" nType="0">
        <Node pos="l" depth="1" NCoef="0" IVar="13" Cut="2.0465610027313232e+00" cType="1" res="-1.5262797242030501e-03" rms="8.4380894899368286e-02" purity="1.0715468227863312e-01" nType="0">
          <Node pos="l" depth="2" NCoef="0" IVar="8" Cut="-1.1178922653198242e+00" cType="1" res="-2.6384030934423208e-03" rms="7.8981779515743256e-02" purity="9.0193904936313629e-02" nType="0">
            <Node pos="l" depth="3" NCoef="0" IVar="-1" Cut="0.0000000000000000e+00" cType="1" res="-4.0293812751770020e-02" rms="6.2555693089962006e-02" purity="1.2016988545656204e-01" nType="-99"/>
            <Node pos="r" depth="3" NCoef="0" IVar="-1" Cut="0.0000000000000000e+00" cType="1" res="-1.3821525499224663e-03" rms="8.4510877728462219e-02" purity="7.8289240598678589e-02" nType="-99"/>
          </Node>
          <Node pos="r" depth="2" NCoef="0" IVar="-1" Cut="0.0000000000000000e+00" cType="1" res="3.8778360933065414e-02" rms="1.3310153782367706e-01" purity="3.1476405262947083e-01" nType="-99"/>
        </Node>
        <Node pos="r" depth="1" NCoef="0" IVar="2" Cut="-1.0755681037902832e+01" cType="1" res="3.9607984945178032e-03" rms="8.2028232514858246e-02" purity="8.4714937210083008e-01" nType="0">
          <Node pos="l" depth="2" NCoef="0" IVar="-1" Cut="0.0000000000000000e+00" cType="1" res="1.2117508798837662e-02" rms="5.8603107929229736e-02" purity="9.8056119680404663e-01" nType="-99"/>
          <Node pos="r" depth="2" NCoef="0" IVar="3" Cut="5.2284920215606689e-01" cType="1" res="1.6072746366262436e-02" rms="1.4634877443313599e-01" purity="2.4500773847103119e-01" nType="0">
            <Node pos="l" depth="3" NCoef="0" IVar="-1" Cut="0.0000000000000000e+00" cType="1" res="5.2255600690841675e-02" rms="2.1823090314865112e-01" purity="5.5465513467788696e-01" nType="-99"/>
            <Node pos="r" depth="3" NCoef="0" IVar="-1" Cut="0.0000000000000000e+00" cType="1" res="1.4065031893551350e-02" rms="1.0113393515348434e-01" purity="1.1704496294260025e-01" nType="-99"/>
          </Node>
        </Node>
      </Node>
    </BinaryTree>
    <BinaryTree type="DecisionTree" boostWeight="1.0000000000000000e+00" itree="110">
      <Node pos="s" depth="0" NCoef="0" IVar="10" Cut="6.4391589164733887e+00" cType="1" res="8.4248994244262576e-04" rms="8.1164844334125519e-02" purity="5.0282055139541626e-01" nType="0">
        <Node pos="l" depth="1" NCoef="0" IVar="-1" Cut="0.0000000000000000e+00" cType="1" res="-6.5467581152915955e-02" rms="7.4179649353027344e-02" purity="1.3788193464279175e-01" nType="-99"/>
        <Node pos="r" depth="1" NCoef="0" IVar="0" Cut="7.9974465370178223e+00" cType="1" res="1.3026521774008870e-03" rms="8.1349194049835205e-02" purity="5.1508617401123047e-01" nType="0">
          <Node pos="l" depth="2" NCoef="0" IVar="9" Cut="6.1926946640014648e+00" cType="1" res="-3.7948200479149818e-03" rms="5.1167182624340057e-02" purity="7.7904142439365387e-02" nType="0">
            <Node pos="l" depth="3" NCoef="0" IVar="-1" Cut="0.0000000000000000e+00" cType="1" res="-4.1257413104176521e-03" rms="5.2848510444164276e-02" purity="8.4413312375545502e-02" nType="-99"/>
            <Node pos="r" depth="3" NCoef="0" IVar="-1" Cut="0.0000000000000000e+00" cType="1" res="-5.3573645651340485e-02" rms="4.7371175140142441e-02" purity="6.5969400107860565e-02" nType="-99"/>
          </Node>
          <Node pos="r" depth="2" NCoef="0" IVar="4" Cut="2.0453681945800781e+00" cType="1" res="2.5114205200225115e-03" rms="8.6939632892608643e-02" purity="6.1875557899475098e-01" nType="0">
            <Node pos="l" depth="3" NCoef="0" IVar="-1" Cut="0.0000000000000000e+00" cType="1" res="1.9089167937636375e-02" rms="8.6351089179515839e-02" purity="7.7174323797225952e-01" nType="-99"/>
            <Node pos="r" depth="3" NCoef="0" IVar="-1" Cut="0.0000000000000000e+00" cType="1" res="-9.4993943348526955e-03" rms="8.8660046458244324e-02" purity="1.2780641019344330e-01" nType="-99"/>
          </Node>
        </Node>
      </Node>
    </BinaryTree>
    <BinaryTree type="DecisionTree" boostWeight="1.0000000000000000e+00" itree="111">
      <Node pos="s" depth="0" NCoef="0" IVar="16" Cut="4.6413588523864746e+00" cType="1" res="1.2454285752028227e-03" rms="8.2362793385982513e-02" purity="4.9350816011428833e-01" nType="0">
        <Node pos="l" depth="1" NCoef="0" IVar="13" Cut="2.6349394321441650e+00" cType="1" res="-1.4830891741439700e-03" rms="7.5312763452529907e-02" purity="5.2940882742404938e-02" nType="0">
          <Node pos="l" depth="2" NCoef="0" IVar="3" Cut="-7.0161685347557068e-02" cType="1" res="-1.5872826043050736e-04" rms="7.2203457355499268e-02" purity="3.1534995883703232e-02" nType="0">
            <Node pos="l" depth="3" NCoef="0" IVar="-1" Cut="0.0000000000000000e+00" cType="1" res="2.4971351027488708e-02" rms="1.7318069934844971e-01" purity="2.2551482915878296e-01" nType="-99"/>
            <Node pos="r" depth="3" NCoef="0" IVar="-1" Cut="0.0000000000000000e+00" cType="1" res="-1.1790573596954346e-02" rms="6.0093596577644348e-02" purity="1.9222233444452286e-02" nType="-99"/>
          </Node>
          <Node pos="r" depth="2" NCoef="0" IVar="-1" Cut="0.0000000000000000e+00" cType="1" res="-3.5260505974292755e-02" rms="1.0698157548904419e-01" purity="3.3796697854995728e-01" nType="-99"/>
        </Node>
        <Node pos="r" depth="1" NCoef="0" IVar="2" Cut="-9.9865894317626953e+00" cType="1" res="3.7100454792380333e-03" rms="8.8175579905509949e-02" purity="8.9146405458450317e-01" nType="0">
          <Node pos="l" depth="2" NCoef="0" IVar="13" Cut="2.1893024444580078e+00" cType="1" res="5.0179136451333761e-04" rms="6.7798130214214325e-02" purity="9.6636849641799927e-01" nType="0">
            <Node pos="l" depth="3" NCoef="0" IVar="-1" Cut="0.0000000000000000e+00" cType="1" res="-1.5269337221980095e-02" rms="1.3679236173629761e-01" purity="7.5484693050384521e-01" nType="-99"/>
            <Node pos="r" depth="3" NCoef="0" IVar="-1" Cut="0.0000000000000000e+00" cType="1" res="1.8439345061779022e-02" rms="5.2483271807432175e-02" purity="9.9381834268569946e-01" nType="-99"/>
          </Node>
          <Node pos="r" depth="2" NCoef="0" IVar="12" Cut="7.7290596961975098e+00" cType="1" res="3.1980179250240326e-02" rms="1.8679302930831909e-01" purity="2.3142950236797333e-01" nType="0">
            <Node pos="l" depth="3" NCoef="0" IVar="-1" Cut="0.0000000000000000e+00" cType="1" res="7.0949427783489227e-02" rms="2.2293463349342346e-01" purity="2.4367327988147736e-01" nType="-99"/>
            <Node pos="r" depth="3" NCoef="0" IVar="-1" Cut="0.0000000000000000e+00" cType="1" res="2.2199638187885284e-02" rms="1.4315521717071533e-01" purity="2.2006480395793915e-01" nType="-99"/>
          </Node>
        </Node>
      </Node>
    </BinaryTree>
    <BinaryTree type="DecisionTree" boostWeight="1.0000000000000000e+00" itree="112">
      <Node pos="s" depth="0" NCoef="0" IVar="15" Cut="4.1755580902099609e+00" cType="1" res="-8.8464055443182588e-04" rms="7.3995128273963928e-02" purity="4.9396771192550659e-01" nType="0">
        <Node pos="l" depth="1" NCoef="0" IVar="9" Cut="6.4459328651428223e+00" cType="1" res="-2.9750519897788763e-03" rms="7.6056681573390961e-02" purity="1.7126423120498657e-01" nType="0">
          <Node pos="l" depth="2" NCoef="0" IVar="15" Cut="3.1121742725372314e+00" cType="1" res="-4.3479553423821926e-03" rms="6.8062759935855865e-02" purity="1.1675709486007690e-01" nType="0">
            <Node pos="l" depth="3" NCoef="0" IVar="-1" Cut="0.0000000000000000e+00" cType="1" res="-1.8435545265674591e-02" rms="6.0826443135738373e-02" purity="5.3482942283153534e-02" nType="-99"/>
            <Node pos="r" depth="3" NCoef="0" IVar="-1" Cut="0.0000000000000000e+00" cType="1" res="-3.3796854317188263e-02" rms="9.2434301972389221e-02" purity="3.8605803251266479e-01" nType="-99"/>
          </Node>
          <Node pos="r" depth="2" NCoef="0" IVar="4" Cut="1.4390689134597778e+00" cType="1" res="3.2129262108355761e-03" rms="1.0454907268285751e-01" purity="4.1693988442420959e-01" nType="0">
            <Node pos="l" depth="3" NCoef="0" IVar="-1" Cut="0.0000000000000000e+00" cType="1" res="2.9811803251504898e-02" rms="1.2368179112672806e-01" purity="6.7778176069259644e-01" nType="-99"/>
            <Node pos="r" depth="3" NCoef="0" IVar="-1" Cut="0.0000000000000000e+00" cType="1" res="-2.3851165547966957e-02" rms="7.5932472944259644e-02" purity="1.2017528712749481e-01" nType="-99"/>
          </Node>
        </Node>
        <Node pos="r" depth="1" NCoef="0" IVar="-1" Cut="0.0000000000000000e+00" cType="1" res="1.6863321885466576e-02" rms="7.0743292570114136e-02" purity="9.6841126680374146e-01" nType="-99"/>
      </Node>
    </BinaryTree>
    <BinaryTree type="DecisionTree" boostWeight="1.0000000000000000e+00" itree="113">
      <Node pos="s" depth="0" NCoef="0" IVar="14" Cut="2.9315907955169678e+00" cType="1" res="8.6709210881963372e-04" rms="7.6805293560028076e-02" purity="5.0049549341201782e-01" nType="0">
        <Node pos="l" depth="1" NCoef="0" IVar="16" Cut="4.5388917922973633e+00" cType="1" res="-4.2436085641384125e-03" rms="3.6561377346515656e-02" purity="1.5211990103125572e-02" nType="0">
          <Node pos="l" depth="2" NCoef="0" IVar="3" Cut="9.6240586042404175e-01" cType="1" res="-2.5871712714433670e-03" rms="2.0497161895036697e-02" purity="8.4726708009839058e-03" nType="0">
            <Node pos="l" depth="3" NCoef="0" IVar="-1" Cut="0.0000000000000000e+00" cType="1" res="-2.8243368491530418e-02" rms="4.1129268705844879e-02" purity="3.7263002246618271e-02" nType="-99"/>
            <Node pos="r" depth="3" NCoef="0" IVar="-1" Cut="0.0000000000000000e+00" cType="1" res="-5.1486112177371979e-02" rms="6.3700410537421703e-03" purity="0.0000000000000000e+00" nType="-99"/>
          </Node>
          <Node pos="r" depth="2" NCoef="0" IVar="-1" Cut="0.0000000000000000e+00" cType="1" res="-3.9596464484930038e-02" rms="7.8953221440315247e-02" purity="5.1924921572208405e-02" nType="-99"/>
        </Node>
        <Node pos="r" depth="1" NCoef="0" IVar="15" Cut="3.5499265193939209e+00" cType="1" res="2.0416667684912682e-03" rms="8.3307936787605286e-02" purity="6.1202645301818848e-01" nType="0">
          <Node pos="l" depth="2" NCoef="0" IVar="11" Cut="7.0178666114807129e+00" cType="1" res="-7.7428127406165004e-04" rms="8.7261490523815155e-02" purity="1.6588921844959259e-01" nType="0">
            <Node pos="l" depth="3" NCoef="0" IVar="-1" Cut="0.0000000000000000e+00" cType="1" res="-1.1167218908667564e-02" rms="7.6073065400123596e-02" purity="1.0958732664585114e-01" nType="-99"/>
            <Node pos="r" depth="3" NCoef="0" IVar="-1" Cut="0.0000000000000000e+00" cType="1" res="2.6206029579043388e-02" rms="1.3100154697895050e-01" purity="4.6364128589630127e-01" nType="-99"/>
          </Node>
          <Node pos="r" depth="2" NCoef="0" IVar="2" Cut="-1.0579136848449707e+01" cType="1" res="4.2109084315598011e-03" rms="8.0061942338943481e-02" purity="9.5570456981658936e-01" nType="0">
            <Node pos="l" depth="3" NCoef="0" IVar="-1" Cut="0.0000000000000000e+00" cType="1" res="1.4074320904910564e-02" rms="5.7686503976583481e-02" purity="9.9099034070968628e-01" nType="-99"/>
            <Node pos="r" depth="3" NCoef="0" IVar="-1" Cut="0.0000000000000000e+00" cType="1" res="3.8357790559530258e-02" rms="1.9971743226051331e-01" purity="5.5819582939147949e-01" nType="-99"/>
          </Node>
        </Node>
      </Node>
    </BinaryTree>
    <BinaryTree type="DecisionTree" boostWeight="1.0000000000000000e+00" itree="114">
      <Node pos="s" depth="0" NCoef="0" IVar="4" Cut="1.7147138118743896e+00" cType="1" res="1.1501592962304130e-04" rms="7.6006524264812469e-02" purity="5.0953710079193115e-01" nType="0">
        <Node pos="l" depth="1" NCoef="0" IVar="0" Cut="7.5240955352783203e+00" cType="1" res="1.7857272177934647e-03" rms="7.9688772559165955e-02" purity="7.1690672636032104e-01" nType="0">
          <Node pos="l" depth="2" NCoef="0" IVar="-1" Cut="0.0000000000000000e+00" cType="1" res="-6.4088873565196991e-02" rms="4.8735786229372025e-02" purity="6.1325514689087868e-03" nType="-99"/>
          <Node pos="r" depth="2" NCoef="0" IVar="10" Cut="7.3726572990417480e+00" cType="1" res="2.3461643140763044e-03" rms="8.0727435648441315e-02" purity="7.4803739786148071e-01" nType="0">
            <Node pos="l" depth="3" NCoef="0" IVar="-1" Cut="0.0000000000000000e+00" cType="1" res="2.1531680598855019e-02" rms="1.0872976481914520e-01" purity="5.4546749591827393e-01" nType="-99"/>
            <Node pos="r" depth="3" NCoef="0" IVar="-1" Cut="0.0000000000000000e+00" cType="1" res="3.5473185125738382e-03" rms="6.5547563135623932e-02" purity="8.3238166570663452e-01" nType="-99"/>
          </Node>
        </Node>
        <Node pos="r" depth="1" NCoef="0" IVar="15" Cut="2.5430464744567871e+00" cType="1" res="-2.8312180656939745e-03" rms="6.8937525153160095e-02" purity="1.4384892582893372e-01" nType="0">
          <Node pos="l" depth="2" NCoef="0" IVar="15" Cut="2.2124357223510742e+00" cType="1" res="-1.7264740017708391e-04" rms="5.4897751659154892e-02" purity="1.7865957692265511e-02" nType="0">
            <Node pos="l" depth="3" NCoef="0" IVar="-1" Cut="0.0000000000000000e+00" cType="1" res="-4.6665582805871964e-02" rms="3.0148576945066452e-02" purity="8.3106951788067818e-03" nType="-99"/>
            <Node pos="r" depth="3" NCoef="0" IVar="-1" Cut="0.0000000000000000e+00" cType="1" res="5.5252596735954285e-02" rms="1.0211195051670074e-01" purity="5.2087791264057159e-02" nType="-99"/>
          </Node>
          <Node pos="r" depth="2" NCoef="0" IVar="7" Cut="3.1105980873107910e+00" cType="1" res="-6.1981962062418461e-03" rms="8.3270587027072906e-02" purity="3.0340155959129333e-01" nType="0">
            <Node pos="l" depth="3" NCoef="0" IVar="-1" Cut="0.0000000000000000e+00" cType="1" res="-5.8784473687410355e-02" rms="6.9071166217327118e-02" purity="8.8866621255874634e-02" nType="-99"/>
            <Node pos="r" depth="3" NCoef="0" IVar="-1" Cut="0.0000000000000000e+00" cType="1" res="-1.4071049168705940e-02" rms="8.7181530892848969e-02" purity="3.7228277325630188e-01" nType="-99"/>
          </Node>
        </Node>
      </Node>
    </BinaryTree>
    <BinaryTree type="DecisionTree" boostWeight="1.0000000000000000e+00" itree="115">
      <Node pos="s" depth="0" NCoef="0" IVar="3" Cut="2.7984985709190369e-01" cType="1" res="9.4987521879374981e-04" rms="7.9269386827945709e-02" purity="5.0640851259231567e-01" nType="0">
        <Node pos="l" depth="1" NCoef="0" IVar="5" Cut="-3.2272596359252930e+00" cType="1" res="5.0658397376537323e-03" rms="8.7548531591892242e-02" purity="8.8515549898147583e-01" nType="0">
          <Node pos="l" depth="2" NCoef="0" IVar="7" Cut="3.2404987812042236e+00" cType="1" res="2.4247006513178349e-03" rms="6.5927498042583466e-02" purity="9.3001979589462280e-01" nType="0">
            <Node pos="l" depth="3" NCoef="0" IVar="-1" Cut="0.0000000000000000e+00" cType="1" res="1.6816169023513794e-02" rms="1.2487997114658356e-01" purity="6.9085717201232910e-01" nType="-99"/>
            <Node pos="r" depth="3" NCoef="0" IVar="-1" Cut="0.0000000000000000e+00" cType="1" res="1.3360259123146534e-02" rms="4.8688113689422607e-02" purity="9.7179317474365234e-01" nType="-99"/>
          </Node>
          <Node pos="r" depth="2" NCoef="0" IVar="-1" Cut="0.0000000000000000e+00" cType="1" res="7.6022207736968994e-02" rms="2.0764490962028503e-01" purity="3.9348047971725464e-01" nType="-99"/>
        </Node>
        <Node pos="r" depth="1" NCoef="0" IVar="7" Cut="2.9918208122253418e+00" cType="1" res="-1.3834555866196752e-03" rms="7.4065104126930237e-02" purity="2.9169771075248718e-01" nType="0">
          <Node pos="l" depth="2" NCoef="0" IVar="16" Cut="4.3286452293395996e+00" cType="1" res="-5.2947672083973885e-03" rms="7.2568424046039581e-02" purity="6.9743528962135315e-02" nType="0">
            <Node pos="l" depth="3" NCoef="0" IVar="-1" Cut="0.0000000000000000e+00" cType="1" res="-1.5731383115053177e-02" rms="5.0744168460369110e-02" purity="1.4242726378142834e-02" nType="-99"/>
            <Node pos="r" depth="3" NCoef="0" IVar="-1" Cut="0.0000000000000000e+00" cType="1" res="-3.2095111906528473e-02" rms="1.2753234803676605e-01" purity="3.0111148953437805e-01" nType="-99"/>
          </Node>
          <Node pos="r" depth="2" NCoef="0" IVar="11" Cut="6.8978276252746582e+00" cType="1" res="4.2123044840991497e-04" rms="7.4676536023616791e-02" purity="3.9410775899887085e-01" nType="0">
            <Node pos="l" depth="3" NCoef="0" IVar="-1" Cut="0.0000000000000000e+00" cType="1" res="-1.1523624882102013e-02" rms="6.9567359983921051e-02" purity="2.5192651152610779e-01" nType="-99"/>
            <Node pos="r" depth="3" NCoef="0" IVar="-1" Cut="0.0000000000000000e+00" cType="1" res="2.4758713319897652e-02" rms="8.3749257028102875e-02" purity="6.7726719379425049e-01" nType="-99"/>
          </Node>
        </Node>
      </Node>
    </BinaryTree>
    <BinaryTree type="DecisionTree" boostWeight="1.0000000000000000e+00" itree="116">
      <Node pos="s" depth="0" NCoef="0" IVar="3" Cut="1.3213492631912231e+00" cType="1" res="9.0415700105950236e-04" rms="8.0591790378093719e-02" purity="4.9958083033561707e-01" nType="0">
        <Node pos="l" depth="1" NCoef="0" IVar="10" Cut="7.3850126266479492e+00" cType="1" res="2.5140538346022367e-03" rms="8.5600905120372772e-02" purity="7.3691195249557495e-01" nType="0">
          <Node pos="l" depth="2" NCoef="0" IVar="7" Cut="3.6501030921936035e+00" cType="1" res="8.7306918576359749e-03" rms="1.1844548583030701e-01" purity="5.4415529966354370e-01" nType="0">
            <Node pos="l" depth="3" NCoef="0" IVar="-1" Cut="0.0000000000000000e+00" cType="1" res="4.1787765920162201e-02" rms="1.6437540948390961e-01" purity="2.5545358657836914e-01" nType="-99"/>
            <Node pos="r" depth="3" NCoef="0" IVar="-1" Cut="0.0000000000000000e+00" cType="1" res="-1.1255401186645031e-02" rms="6.2798686325550079e-02" purity="7.6247930526733398e-01" nType="-99"/>
          </Node>
          <Node pos="r" depth="2" NCoef="0" IVar="9" Cut="6.0768494606018066e+00" cType="1" res="-1.9446838996373117e-04" rms="6.6207483410835266e-02" purity="8.2089400291442871e-01" nType="0">
            <Node pos="l" depth="3" NCoef="0" IVar="-1" Cut="0.0000000000000000e+00" cType="1" res="-2.4235419929027557e-02" rms="7.2696819901466370e-02" purity="6.6293996572494507e-01" nType="-99"/>
            <Node pos="r" depth="3" NCoef="0" IVar="-1" Cut="0.0000000000000000e+00" cType="1" res="1.9335987046360970e-02" rms="6.2170017510652542e-02" purity="9.0903961658477783e-01" nType="-99"/>
          </Node>
        </Node>
        <Node pos="r" depth="1" NCoef="0" IVar="7" Cut="3.8516240119934082e+00" cType="1" res="-2.1911312360316515e-03" rms="6.9856278598308563e-02" purity="4.3273210525512695e-02" nType="0">
          <Node pos="l" depth="2" NCoef="0" IVar="15" Cut="2.9286262989044189e+00" cType="1" res="-4.6267318539321423e-03" rms="4.9286879599094391e-02" purity="4.4929641298949718e-03" nType="0">
            <Node pos="l" depth="3" NCoef="0" IVar="-1" Cut="0.0000000000000000e+00" cType="1" res="-2.6836086064577103e-02" rms="3.8939598947763443e-02" purity="2.3567767348140478e-03" nType="-99"/>
            <Node pos="r" depth="3" NCoef="0" IVar="-1" Cut="0.0000000000000000e+00" cType="1" res="-6.9621175527572632e-02" rms="7.9050384461879730e-02" purity="1.4031805098056793e-02" nType="-99"/>
          </Node>
          <Node pos="r" depth="2" NCoef="0" IVar="10" Cut="7.5183134078979492e+00" cType="1" res="5.4178182035684586e-03" rms="1.1162258684635162e-01" purity="1.6442482173442841e-01" nType="0">
            <Node pos="l" depth="3" NCoef="0" IVar="-1" Cut="0.0000000000000000e+00" cType="1" res="-6.9894618354737759e-03" rms="7.6021447777748108e-02" purity="9.4758845865726471e-02" nType="-99"/>
            <Node pos="r" depth="3" NCoef="0" IVar="-1" Cut="0.0000000000000000e+00" cType="1" res="3.3325240015983582e-02" rms="1.5124218165874481e-01" purity="2.7508446574211121e-01" nType="-99"/>
          </Node>
        </Node>
      </Node>
    </BinaryTree>
    <BinaryTree type="DecisionTree" boostWeight="1.0000000000000000e+00" itree="117">
      <Node pos="s" depth="0" NCoef="0" IVar="15" Cut="1.8226250410079956e+00" cType="1" res="-2.0369530830066651e-04" rms="7.4231684207916260e-02" purity="4.9816182255744934e-01" nType="0">
        <Node pos="l" depth="1" NCoef="0" IVar="5" Cut="-3.9548075199127197e+00" cType="1" res="-4.2631742544472218e-03" rms="3.7874896079301834e-02" purity="2.4296632036566734e-02" nType="0">
          <Node pos="l" depth="2" NCoef="0" IVar="-1" Cut="0.0000000000000000e+00" cType="1" res="-5.2244283258914948e-02" rms="6.6111281514167786e-02" purity="7.2226464748382568e-02" nType="-99"/>
          <Node pos="r" depth="2" NCoef="0" IVar="5" Cut="-2.9259133338928223e+00" cType="1" res="-2.3394594900310040e-03" rms="2.8078282251954079e-02" purity="1.4093725942075253e-02" nType="0">
            <Node pos="l" depth="3" NCoef="0" IVar="-1" Cut="0.0000000000000000e+00" cType="1" res="-4.2106427252292633e-02" rms="3.0380105599761009e-02" purity="1.2791546992957592e-02" nType="-99"/>
            <Node pos="r" depth="3" NCoef="0" IVar="-1" Cut="0.0000000000000000e+00" cType="1" res="7.3436503298580647e-03" rms="2.1504810079932213e-02" purity="1.7148781567811966e-02" nType="-99"/>
          </Node>
        </Node>
        <Node pos="r" depth="1" NCoef="0" IVar="9" Cut="5.4271068572998047e+00" cType="1" res="5.5644480744376779e-04" rms="7.9182587563991547e-02" purity="5.8689337968826294e-01" nType="0">
          <Node pos="l" depth="2" NCoef="0" IVar="7" Cut="3.0517449378967285e+00" cType="1" res="-4.6775327064096928e-03" rms="6.8854987621307373e-02" purity="3.7931156158447266e-01" nType="0">
            <Node pos="l" depth="3" NCoef="0" IVar="-1" Cut="0.0000000000000000e+00" cType="1" res="-5.0531949847936630e-02" rms="7.6558895409107208e-02" purity="8.7564148008823395e-02" nType="-99"/>
            <Node pos="r" depth="3" NCoef="0" IVar="-1" Cut="0.0000000000000000e+00" cType="1" res="-1.3333446346223354e-02" rms="6.5867565572261810e-02" purity="4.7858312726020813e-01" nType="-99"/>
          </Node>
          <Node pos="r" depth="2" NCoef="0" IVar="12" Cut="7.3045902252197266e+00" cType="1" res="1.4252820983529091e-03" rms="8.0736435949802399e-02" purity="6.2135189771652222e-01" nType="0">
            <Node pos="l" depth="3" NCoef="0" IVar="-1" Cut="0.0000000000000000e+00" cType="1" res="-2.4345858022570610e-02" rms="6.1656046658754349e-02" purity="3.5865527391433716e-01" nType="-99"/>
            <Node pos="r" depth="3" NCoef="0" IVar="-1" Cut="0.0000000000000000e+00" cType="1" res="1.3159226626157761e-02" rms="8.4060646593570709e-02" purity="6.7507034540176392e-01" nType="-99"/>
          </Node>
        </Node>
      </Node>
    </BinaryTree>
    <BinaryTree type="DecisionTree" boostWeight="1.0000000000000000e+00" itree="118">
      <Node pos="s" depth="0" NCoef="0" IVar="14" Cut="3.8408222198486328e+00" cType="1" res="6.4722826937213540e-04" rms="7.8175909817218781e-02" purity="5.0890856981277466e-01" nType="0">
        <Node pos="l" depth="1" NCoef="0" IVar="6" Cut="8.1245679855346680e+00" cType="1" res="-2.1391983609646559e-03" rms="6.7724622786045074e-02" purity="5.5058825761079788e-02" nType="0">
          <Node pos="l" depth="2" NCoef="0" IVar="0" Cut="8.4218444824218750e+00" cType="1" res="-6.2780524604022503e-04" rms="6.6782675683498383e-02" purity="4.0048003196716309e-02" nType="0">
            <Node pos="l" depth="3" NCoef="0" IVar="-1" Cut="0.0000000000000000e+00" cType="1" res="-2.5970656424760818e-02" rms="4.9438174813985825e-02" purity="1.0611943900585175e-02" nType="-99"/>
            <Node pos="r" depth="3" NCoef="0" IVar="-1" Cut="0.0000000000000000e+00" cType="1" res="2.3856701329350471e-02" rms="1.1704615503549576e-01" purity="1.7645663022994995e-01" nType="-99"/>
          </Node>
          <Node pos="r" depth="2" NCoef="0" IVar="5" Cut="-3.7818522453308105e+00" cType="1" res="-7.2416975162923336e-03" rms="7.0573486387729645e-02" purity="1.0573570430278778e-01" nType="0">
            <Node pos="l" depth="3" NCoef="0" IVar="-1" Cut="0.0000000000000000e+00" cType="1" res="-3.9477892220020294e-02" rms="9.8961614072322845e-02" purity="3.4446969628334045e-01" nType="-99"/>
            <Node pos="r" depth="3" NCoef="0" IVar="-1" Cut="0.0000000000000000e+00" cType="1" res="-2.0899029448628426e-02" rms="5.5986419320106506e-02" purity="1.6660820692777634e-02" nType="-99"/>
          </Node>
        </Node>
        <Node pos="r" depth="1" NCoef="0" IVar="15" Cut="2.6157324314117432e+00" cType="1" res="2.6096720248460770e-03" rms="8.4711775183677673e-02" purity="8.2854902744293213e-01" nType="0">
          <Node pos="l" depth="2" NCoef="0" IVar="8" Cut="5.9174609184265137e-01" cType="1" res="1.4710786752402782e-02" rms="1.4434790611267090e-01" purity="2.3785284161567688e-01" nType="0">
            <Node pos="l" depth="3" NCoef="0" IVar="-1" Cut="0.0000000000000000e+00" cType="1" res="4.9971070140600204e-02" rms="1.7313337326049805e-01" purity="3.2420423626899719e-01" nType="-99"/>
            <Node pos="r" depth="3" NCoef="0" IVar="-1" Cut="0.0000000000000000e+00" cType="1" res="-3.8752235472202301e-02" rms="7.2547212243080139e-02" purity="9.9174350500106812e-02" nType="-99"/>
          </Node>
          <Node pos="r" depth="2" NCoef="0" IVar="15" Cut="3.6695935726165771e+00" cType="1" res="5.3073558956384659e-04" rms="6.9280706346035004e-02" purity="9.3002891540527344e-01" nType="0">
            <Node pos="l" depth="3" NCoef="0" IVar="-1" Cut="0.0000000000000000e+00" cType="1" res="-1.9021209329366684e-02" rms="9.4693392515182495e-02" purity="6.1244946718215942e-01" nType="-99"/>
            <Node pos="r" depth="3" NCoef="0" IVar="-1" Cut="0.0000000000000000e+00" cType="1" res="1.7301455140113831e-02" rms="6.4078196883201599e-02" purity="9.8211985826492310e-01" nType="-99"/>
          </Node>
        </Node>
      </Node>
    </BinaryTree>
    <BinaryTree type="DecisionTree" boostWeight="1.0000000000000000e+00" itree="119">
      <Node pos="s" depth="0" NCoef="0" IVar="10" Cut="6.9018011093139648e+00" cType="1" res="7.1704800939187407e-04" rms="8.0980055034160614e-02" purity="4.9811708927154541e-01" nType="0">
        <Node pos="l" depth="1" NCoef="0" IVar="11" Cut="6.9802999496459961e+00" cType="1" res="-5.2553988061845303e-03" rms="7.2381839156150818e-02" purity="2.4304419755935669e-01" nType="0">
          <Node pos="l" depth="2" NCoef="0" IVar="11" Cut="6.5632009506225586e+00" cType="1" res="-9.2769513139501214e-04" rms="6.8208329379558563e-02" purity="1.3990432024002075e-01" nType="0">
            <Node pos="l" depth="3" NCoef="0" IVar="-1" Cut="0.0000000000000000e+00" cType="1" res="-4.6726714819669724e-02" rms="4.1015036404132843e-02" purity="1.0677281022071838e-01" nType="-99"/>
            <Node pos="r" depth="3" NCoef="0" IVar="-1" Cut="0.0000000000000000e+00" cType="1" res="2.5344023481011391e-02" rms="9.7582288086414337e-02" purity="1.9510279595851898e-01" nType="-99"/>
          </Node>
          <Node pos="r" depth="2" NCoef="0" IVar="-1" Cut="0.0000000000000000e+00" cType="1" res="-6.4243458211421967e-02" rms="7.7659919857978821e-02" purity="3.9413821697235107e-01" nType="-99"/>
        </Node>
        <Node pos="r" depth="1" NCoef="0" IVar="5" Cut="-3.0806171894073486e+00" cType="1" res="1.6203706618398428e-03" rms="8.2164466381072998e-02" purity="5.3669643402099609e-01" nType="0">
          <Node pos="l" depth="2" NCoef="0" IVar="7" Cut="3.9414973258972168e+00" cType="1" res="2.6837291661649942e-03" rms="8.7534762918949127e-02" purity="6.3249742984771729e-01" nType="0">
            <Node pos="l" depth="3" NCoef="0" IVar="-1" Cut="0.0000000000000000e+00" cType="1" res="1.8566250801086426e-02" rms="1.1346222460269928e-01" purity="2.7595564723014832e-01" nType="-99"/>
            <Node pos="r" depth="3" NCoef="0" IVar="-1" Cut="0.0000000000000000e+00" cType="1" res="2.8997692279517651e-03" rms="5.9626907110214233e-02" purity="9.1260147094726562e-01" nType="-99"/>
          </Node>
          <Node pos="r" depth="2" NCoef="0" IVar="3" Cut="9.2376172542572021e-01" cType="1" res="-3.8241988513618708e-03" rms="4.5270122587680817e-02" purity="4.6179570257663727e-02" nType="0">
            <Node pos="l" depth="3" NCoef="0" IVar="-1" Cut="0.0000000000000000e+00" cType="1" res="-4.1264601051807404e-02" rms="7.3368132114410400e-02" purity="1.7683064937591553e-01" nType="-99"/>
            <Node pos="r" depth="3" NCoef="0" IVar="-1" Cut="0.0000000000000000e+00" cType="1" res="-3.4057799726724625e-02" rms="3.1840134412050247e-02" purity="6.1862068250775337e-03" nType="-99"/>
          </Node>
        </Node>
      </Node>
    </BinaryTree>
    <BinaryTree type="DecisionTree" boostWeight="1.0000000000000000e+00" itree="120">
      <Node pos="s" depth="0" NCoef="0" IVar="16" Cut="4.0920629501342773e+00" cType="1" res="2.0268568187020719e-04" rms="7.5233563780784607e-02" purity="5.0484633445739746e-01" nType="0">
        <Node pos="l" depth="1" NCoef="0" IVar="3" Cut="9.6516169607639313e-02" cType="1" res="-3.6477737594395876e-03" rms="5.2170548588037491e-02" purity="2.5674276053905487e-02" nType="0">
          <Node pos="l" depth="2" NCoef="0" IVar="-1" Cut="0.0000000000000000e+00" cType="1" res="-3.1397052109241486e-02" rms="1.0753341764211655e-01" purity="1.3879296183586121e-01" nType="-99"/>
          <Node pos="r" depth="2" NCoef="0" IVar="13" Cut="2.4618754386901855e+00" cType="1" res="-2.2652044426649809e-03" rms="4.4003956019878387e-02" purity="1.5934253111481667e-02" nType="0">
            <Node pos="l" depth="3" NCoef="0" IVar="-1" Cut="0.0000000000000000e+00" cType="1" res="-1.8815252929925919e-02" rms="4.1737556457519531e-02" purity="9.1733969748020172e-03" nType="-99"/>
            <Node pos="r" depth="3" NCoef="0" IVar="-1" Cut="0.0000000000000000e+00" cType="1" res="-2.6632906869053841e-02" rms="6.4840763807296753e-02" purity="9.6732102334499359e-02" nType="-99"/>
          </Node>
        </Node>
        <Node pos="r" depth="1" NCoef="0" IVar="6" Cut="7.5997185707092285e+00" cType="1" res="2.3884077090770006e-03" rms="8.5526846349239349e-02" purity="7.7684950828552246e-01" nType="0">
          <Node pos="l" depth="2" NCoef="0" IVar="6" Cut="7.4182167053222656e+00" cType="1" res="1.0278862901031971e-02" rms="1.2052901089191437e-01" purity="5.9903270006179810e-01" nType="0">
            <Node pos="l" depth="3" NCoef="0" IVar="-1" Cut="0.0000000000000000e+00" cType="1" res="4.6631392091512680e-02" rms="1.3738025724887848e-01" purity="5.8315569162368774e-01" nType="-99"/>
            <Node pos="r" depth="3" NCoef="0" IVar="-1" Cut="0.0000000000000000e+00" cType="1" res="-7.2517292574048042e-03" rms="8.5250474512577057e-02" purity="6.2475442886352539e-01" nType="-99"/>
          </Node>
          <Node pos="r" depth="2" NCoef="0" IVar="7" Cut="2.7182710170745850e+00" cType="1" res="6.6814362071454525e-04" rms="7.5669497251510620e-02" purity="8.1561678647994995e-01" nType="0">
            <Node pos="l" depth="3" NCoef="0" IVar="-1" Cut="0.0000000000000000e+00" cType="1" res="-2.1039523184299469e-02" rms="1.3147309422492981e-01" purity="4.5600107312202454e-01" nType="-99"/>
            <Node pos="r" depth="3" NCoef="0" IVar="-1" Cut="0.0000000000000000e+00" cType="1" res="1.0953624732792377e-02" rms="6.8355686962604523e-02" purity="8.4804821014404297e-01" nType="-99"/>
          </Node>
        </Node>
      </Node>
    </BinaryTree>
    <BinaryTree type="DecisionTree" boostWeight="1.0000000000000000e+00" itree="121">
      <Node pos="s" depth="0" NCoef="0" IVar="9" Cut="6.0768494606018066e+00" cType="1" res="3.6321193329058588e-04" rms="7.9531073570251465e-02" purity="5.0301122665405273e-01" nType="0">
        <Node pos="l" depth="1" NCoef="0" IVar="16" Cut="3.6464908123016357e+00" cType="1" res="-2.0846559200435877e-03" rms="7.5806893408298492e-02" purity="3.3304363489151001e-01" nType="0">
          <Node pos="l" depth="2" NCoef="0" IVar="2" Cut="-9.9980020523071289e+00" cType="1" res="2.1607053931802511e-03" rms="7.1353547275066376e-02" purity="1.4671097509562969e-02" nType="0">
            <Node pos="l" depth="3" NCoef="0" IVar="-1" Cut="0.0000000000000000e+00" cType="1" res="6.2546558678150177e-02" rms="1.4408712089061737e-01" purity="6.2662534415721893e-02" nType="-99"/>
            <Node pos="r" depth="3" NCoef="0" IVar="-1" Cut="0.0000000000000000e+00" cType="1" res="-2.7996130287647247e-02" rms="2.8122149407863617e-02" purity="1.6943740192800760e-03" nType="-99"/>
          </Node>
          <Node pos="r" depth="2" NCoef="0" IVar="13" Cut="1.7528767585754395e+00" cType="1" res="-3.5303237382322550e-03" rms="7.7211558818817139e-02" purity="4.4145870208740234e-01" nType="0">
            <Node pos="l" depth="3" NCoef="0" IVar="-1" Cut="0.0000000000000000e+00" cType="1" res="-4.3383341282606125e-02" rms="5.9101823717355728e-02" purity="5.6366462260484695e-02" nType="-99"/>
            <Node pos="r" depth="3" NCoef="0" IVar="-1" Cut="0.0000000000000000e+00" cType="1" res="-6.2374570406973362e-03" rms="8.6044579744338989e-02" purity="6.6825264692306519e-01" nType="-99"/>
          </Node>
        </Node>
        <Node pos="r" depth="1" NCoef="0" IVar="7" Cut="2.5272271633148193e+00" cType="1" res="2.7013751678168774e-03" rms="8.2864843308925629e-02" purity="6.6536146402359009e-01" nType="0">
          <Node pos="l" depth="2" NCoef="0" IVar="14" Cut="3.6358160972595215e+00" cType="1" res="-7.4871852993965149e-03" rms="8.5286743938922882e-02" purity="2.2316004335880280e-01" nType="0">
            <Node pos="l" depth="3" NCoef="0" IVar="-1" Cut="0.0000000000000000e+00" cType="1" res="-1.5478202141821384e-02" rms="6.2915243208408356e-02" purity="7.1438640356063843e-02" nType="-99"/>
            <Node pos="r" depth="3" NCoef="0" IVar="-1" Cut="0.0000000000000000e+00" cType="1" res="-3.4263413399457932e-02" rms="1.0520626604557037e-01" purity="3.9871370792388916e-01" nType="-99"/>
          </Node>
          <Node pos="r" depth="2" NCoef="0" IVar="7" Cut="3.9210526943206787e+00" cType="1" res="4.4093145988881588e-03" rms="8.2328587770462036e-02" purity="7.3948901891708374e-01" nType="0">
            <Node pos="l" depth="3" NCoef="0" IVar="-1" Cut="0.0000000000000000e+00" cType="1" res="4.4558305293321609e-02" rms="1.2746904790401459e-01" purity="3.1976419687271118e-01" nType="-99"/>
            <Node pos="r" depth="3" NCoef="0" IVar="-1" Cut="0.0000000000000000e+00" cType="1" res="8.0595947802066803e-03" rms="4.8662282526493073e-02" purity="9.3296366930007935e-01" nType="-99"/>
          </Node>
        </Node>
      </Node>
    </BinaryTree>
    <BinaryTree type="DecisionTree" boostWeight="1.0000000000000000e+00" itree="122">
      <Node pos="s" depth="0" NCoef="0" IVar="11" Cut="6.5045299530029297e+00" cType="1" res="4.4382031774148345e-04" rms="8.0521993339061737e-02" purity="4.9634334444999695e-01" nType="0">
        <Node pos="l" depth="1" NCoef="0" IVar="1" Cut="4.0943040847778320e+00" cType="1" res="-3.4305523149669170e-03" rms="7.1432337164878845e-02" purity="2.9456448554992676e-01" nType="0">
          <Node pos="l" depth="2" NCoef="0" IVar="0" Cut="8.5111494064331055e+00" cType="1" res="-5.2335700020194054e-03" rms="6.9134175777435303e-02" purity="3.6569839715957642e-01" nType="0">
            <Node pos="l" depth="3" NCoef="0" IVar="-1" Cut="0.0000000000000000e+00" cType="1" res="-5.5155746638774872e-02" rms="4.8603195697069168e-02" purity="9.3290068209171295e-02" nType="-99"/>
            <Node pos="r" depth="3" NCoef="0" IVar="-1" Cut="0.0000000000000000e+00" cType="1" res="-1.1753148399293423e-02" rms="8.8974080979824066e-02" purity="7.2094643115997314e-01" nType="-99"/>
          </Node>
          <Node pos="r" depth="2" NCoef="0" IVar="13" Cut="2.2417774200439453e+00" cType="1" res="1.8854589143302292e-04" rms="7.5705908238887787e-02" purity="1.5178139507770538e-01" nType="0">
            <Node pos="l" depth="3" NCoef="0" IVar="-1" Cut="0.0000000000000000e+00" cType="1" res="-3.6316420882940292e-02" rms="4.1335746645927429e-02" purity="2.4354793131351471e-02" nType="-99"/>
            <Node pos="r" depth="3" NCoef="0" IVar="-1" Cut="0.0000000000000000e+00" cType="1" res="2.9847497120499611e-02" rms="1.3348203897476196e-01" purity="5.3848159313201904e-01" nType="-99"/>
          </Node>
        </Node>
        <Node pos="r" depth="1" NCoef="0" IVar="12" Cut="7.5112824440002441e+00" cType="1" res="2.8705548029392958e-03" rms="8.5636623203754425e-02" purity="6.2272864580154419e-01" nType="0">
          <Node pos="l" depth="2" NCoef="0" IVar="10" Cut="7.3038954734802246e+00" cType="1" res="8.8955974206328392e-03" rms="1.1433587223291397e-01" purity="3.8087978959083557e-01" nType="0">
            <Node pos="l" depth="3" NCoef="0" IVar="-1" Cut="0.0000000000000000e+00" cType="1" res="7.3674425482749939e-02" rms="1.6874831914901733e-01" purity="2.5469824671745300e-01" nType="-99"/>
            <Node pos="r" depth="3" NCoef="0" IVar="-1" Cut="0.0000000000000000e+00" cType="1" res="1.4069932512938976e-02" rms="9.4631880521774292e-02" purity="4.1298443078994751e-01" nType="-99"/>
          </Node>
          <Node pos="r" depth="2" NCoef="0" IVar="13" Cut="1.7877700328826904e+00" cType="1" res="1.4776199532207102e-04" rms="6.8675026297569275e-02" purity="7.3202317953109741e-01" nType="0">
            <Node pos="l" depth="3" NCoef="0" IVar="-1" Cut="0.0000000000000000e+00" cType="1" res="-2.4272233247756958e-02" rms="7.5877644121646881e-02" purity="1.2418729811906815e-01" nType="-99"/>
            <Node pos="r" depth="3" NCoef="0" IVar="-1" Cut="0.0000000000000000e+00" cType="1" res="1.2116931378841400e-02" rms="6.6605836153030396e-02" purity="8.8772177696228027e-01" nType="-99"/>
          </Node>
        </Node>
      </Node>
    </BinaryTree>
    <BinaryTree type="DecisionTree" boostWeight="1.0000000000000000e+00" itree="123">
      <Node pos="s" depth="0" NCoef="0" IVar="11" Cut="6.3091168403625488e+00" cType="1" res="2.2901383636053652e-04" rms="7.3924303054809570e-02" purity="5.0049519538879395e-01" nType="0">
        <Node pos="l" depth="1" NCoef="0" IVar="8" Cut="-8.7333935499191284e-01" cType="1" res="-3.3668528776615858e-03" rms="7.1614496409893036e-02" purity="2.6128643751144409e-01" nType="0">
          <Node pos="l" depth="2" NCoef="0" IVar="12" Cut="7.5166978836059570e+00" cType="1" res="8.5590517846867442e-04" rms="9.3034043908119202e-02" purity="3.4947755932807922e-01" nType="0">
            <Node pos="l" depth="3" NCoef="0" IVar="-1" Cut="0.0000000000000000e+00" cType="1" res="-6.3927032053470612e-02" rms="6.7635916173458099e-02" purity="2.5108170509338379e-01" nType="-99"/>
            <Node pos="r" depth="3" NCoef="0" IVar="-1" Cut="0.0000000000000000e+00" cType="1" res="2.1461931988596916e-02" rms="1.0116676241159439e-01" purity="3.8887196779251099e-01" nType="-99"/>
          </Node>
          <Node pos="r" depth="2" NCoef="0" IVar="2" Cut="-9.5782251358032227e+00" cType="1" res="-5.4257237352430820e-03" rms="5.8276988565921783e-02" purity="2.1828746795654297e-01" nType="0">
            <Node pos="l" depth="3" NCoef="0" IVar="-1" Cut="0.0000000000000000e+00" cType="1" res="-3.7665173411369324e-02" rms="8.4054104983806610e-02" purity="5.1659077405929565e-01" nType="-99"/>
            <Node pos="r" depth="3" NCoef="0" IVar="-1" Cut="0.0000000000000000e+00" cType="1" res="-3.5600535571575165e-02" rms="2.7501711621880531e-02" purity="4.7411755658686161e-03" nType="-99"/>
          </Node>
        </Node>
        <Node pos="r" depth="1" NCoef="0" IVar="4" Cut="1.7147138118743896e+00" cType="1" res="1.5540580498054624e-03" rms="7.4713833630084991e-02" purity="5.8864152431488037e-01" nType="0">
          <Node pos="l" depth="2" NCoef="0" IVar="16" Cut="4.6510334014892578e+00" cType="1" res="3.2559083774685860e-03" rms="7.6449401676654816e-02" purity="7.7475422620773315e-01" nType="0">
            <Node pos="l" depth="3" NCoef="0" IVar="-1" Cut="0.0000000000000000e+00" cType="1" res="2.1900296211242676e-02" rms="1.1897816509008408e-01" purity="1.5687006711959839e-01" nType="-99"/>
            <Node pos="r" depth="3" NCoef="0" IVar="-1" Cut="0.0000000000000000e+00" cType="1" res="1.3867074623703957e-02" rms="5.6566532701253891e-02" purity="9.7041797637939453e-01" nType="-99"/>
          </Node>
          <Node pos="r" depth="2" NCoef="0" IVar="0" Cut="8.6322622299194336e+00" cType="1" res="-2.2232523187994957e-03" rms="7.0563137531280518e-02" purity="1.7555846273899078e-01" nType="0">
            <Node pos="l" depth="3" NCoef="0" IVar="-1" Cut="0.0000000000000000e+00" cType="1" res="-3.6577388644218445e-02" rms="4.9377664923667908e-02" purity="5.0717465579509735e-02" nType="-99"/>
            <Node pos="r" depth="3" NCoef="0" IVar="-1" Cut="0.0000000000000000e+00" cType="1" res="1.1589840054512024e-02" rms="1.1851115524768829e-01" purity="6.2363481521606445e-01" nType="-99"/>
          </Node>
        </Node>
      </Node>
    </BinaryTree>
    <BinaryTree type="DecisionTree" boostWeight="1.0000000000000000e+00" itree="124">
      <Node pos="s" depth="0" NCoef="0" IVar="3" Cut="1.7093830108642578e+00" cType="1" res="6.4275233307853341e-04" rms="7.5266771018505096e-02" purity="5.0008422136306763e-01" nType="0">
        <Node pos="l" depth="1" NCoef="0" IVar="7" Cut="3.4136631488800049e+00" cType="1" res="1.9586570560932159e-03" rms="8.2862339913845062e-02" purity="6.4708000421524048e-01" nType="0">
          <Node pos="l" depth="2" NCoef="0" IVar="6" Cut="7.3141860961914062e+00" cType="1" res="6.0760397464036942e-03" rms="1.1808765679597855e-01" purity="2.7533388137817383e-01" nType="0">
            <Node pos="l" depth="3" NCoef="0" IVar="-1" Cut="0.0000000000000000e+00" cType="1" res="-5.6428950279951096e-02" rms="5.5941022932529449e-02" purity="4.7356110066175461e-02" nType="-99"/>
            <Node pos="r" depth="3" NCoef="0" IVar="-1" Cut="0.0000000000000000e+00" cType="1" res="2.5390665978193283e-02" rms="1.3172665238380432e-01" purity="3.4949383139610291e-01" nType="-99"/>
          </Node>
          <Node pos="r" depth="2" NCoef="0" IVar="16" Cut="4.5417027473449707e+00" cType="1" res="1.9232934573665261e-04" rms="6.1799172312021255e-02" purity="8.0655646324157715e-01" nType="0">
            <Node pos="l" depth="3" NCoef="0" IVar="-1" Cut="0.0000000000000000e+00" cType="1" res="-2.3236984387040138e-02" rms="7.1885302662849426e-02" purity="8.2620374858379364e-02" nType="-99"/>
            <Node pos="r" depth="3" NCoef="0" IVar="-1" Cut="0.0000000000000000e+00" cType="1" res="1.4330177567899227e-02" rms="5.9332016855478287e-02" purity="9.6255981922149658e-01" nType="-99"/>
          </Node>
        </Node>
        <Node pos="r" depth="1" NCoef="0" IVar="16" Cut="4.6297068595886230e+00" cType="1" res="-3.6310877185314894e-03" rms="4.1716746985912323e-02" purity="2.2666487842798233e-02" nType="0">
          <Node pos="l" depth="2" NCoef="0" IVar="13" Cut="2.2170369625091553e+00" cType="1" res="-1.8999527674168348e-03" rms="2.2188672795891762e-02" purity="8.4421312203630805e-04" nType="0">
            <Node pos="l" depth="3" NCoef="0" IVar="-1" Cut="0.0000000000000000e+00" cType="1" res="-3.0569594353437424e-02" rms="1.8583664670586586e-02" purity="9.7955332603305578e-04" nType="-99"/>
            <Node pos="r" depth="3" NCoef="0" IVar="-1" Cut="0.0000000000000000e+00" cType="1" res="-6.2808923423290253e-02" rms="3.7134576588869095e-02" purity="0.0000000000000000e+00" nType="-99"/>
          </Node>
          <Node pos="r" depth="2" NCoef="0" IVar="-1" Cut="0.0000000000000000e+00" cType="1" res="-3.2682582736015320e-02" rms="9.0268507599830627e-02" purity="1.3641913235187531e-01" nType="-99"/>
        </Node>
      </Node>
    </BinaryTree>
    <BinaryTree type="DecisionTree" boostWeight="1.0000000000000000e+00" itree="125">
      <Node pos="s" depth="0" NCoef="0" IVar="16" Cut="2.4791307449340820e+00" cType="1" res="1.9232649356126785e-03" rms="8.4233500063419342e-02" purity="4.8305535316467285e-01" nType="0">
        <Node pos="l" depth="1" NCoef="0" IVar="-1" Cut="0.0000000000000000e+00" cType="1" res="1.2006618082523346e-01" rms="1.2466800957918167e-01" purity="3.1966187059879303e-02" nType="-99"/>
        <Node pos="r" depth="1" NCoef="0" IVar="5" Cut="-3.0806171894073486e+00" cType="1" res="1.4469994930550456e-03" rms="8.2791984081268311e-02" purity="4.9546068906784058e-01" nType="0">
          <Node pos="l" depth="2" NCoef="0" IVar="2" Cut="-1.1616651535034180e+01" cType="1" res="2.5029741227626801e-03" rms="8.7807334959506989e-02" purity="5.9230667352676392e-01" nType="0">
            <Node pos="l" depth="3" NCoef="0" IVar="-1" Cut="0.0000000000000000e+00" cType="1" res="-1.0181359539274126e-04" rms="6.2759049236774445e-02" purity="9.4550549983978271e-01" nType="-99"/>
            <Node pos="r" depth="3" NCoef="0" IVar="-1" Cut="0.0000000000000000e+00" cType="1" res="1.7023427411913872e-02" rms="1.1061260849237442e-01" purity="1.6696250438690186e-01" nType="-99"/>
          </Node>
          <Node pos="r" depth="2" NCoef="0" IVar="3" Cut="6.4805096387863159e-01" cType="1" res="-3.4977761097252369e-03" rms="5.3087458014488220e-02" purity="4.1963294148445129e-02" nType="0">
            <Node pos="l" depth="3" NCoef="0" IVar="-1" Cut="0.0000000000000000e+00" cType="1" res="-5.5965203791856766e-02" rms="7.6734110713005066e-02" purity="1.6248901188373566e-01" nType="-99"/>
            <Node pos="r" depth="3" NCoef="0" IVar="-1" Cut="0.0000000000000000e+00" cType="1" res="-2.2072503343224525e-02" rms="4.6979766339063644e-02" purity="1.9028050824999809e-02" nType="-99"/>
          </Node>
        </Node>
      </Node>
    </BinaryTree>
    <BinaryTree type="DecisionTree" boostWeight="1.0000000000000000e+00" itree="126">
      <Node pos="s" depth="0" NCoef="0" IVar="3" Cut="5.2305203676223755e-01" cType="1" res="1.0934029705822468e-03" rms="7.6712675392627716e-02" purity="4.9717244505882263e-01" nType="0">
        <Node pos="l" depth="1" NCoef="0" IVar="2" Cut="-1.1349780082702637e+01" cType="1" res="3.5409627016633749e-03" rms="8.0644741654396057e-02" purity="8.6337196826934814e-01" nType="0">
          <Node pos="l" depth="2" NCoef="0" IVar="-1" Cut="0.0000000000000000e+00" cType="1" res="7.4214779306203127e-04" rms="4.3861102312803268e-02" purity="9.9141579866409302e-01" nType="-99"/>
          <Node pos="r" depth="2" NCoef="0" IVar="10" Cut="7.4189486503601074e+00" cType="1" res="1.5685647726058960e-02" rms="1.4902853965759277e-01" purity="4.1894564032554626e-01" nType="0">
            <Node pos="l" depth="3" NCoef="0" IVar="-1" Cut="0.0000000000000000e+00" cType="1" res="3.6615807563066483e-02" rms="1.8326820433139801e-01" purity="3.1640127301216125e-01" nType="-99"/>
            <Node pos="r" depth="3" NCoef="0" IVar="-1" Cut="0.0000000000000000e+00" cType="1" res="7.4283704161643982e-03" rms="1.0453855246305466e-01" purity="5.1794153451919556e-01" nType="-99"/>
          </Node>
        </Node>
        <Node pos="r" depth="1" NCoef="0" IVar="13" Cut="2.7932105064392090e+00" cType="1" res="-8.4180367412045598e-04" rms="7.3397107422351837e-02" purity="2.0763024687767029e-01" nType="0">
          <Node pos="l" depth="2" NCoef="0" IVar="2" Cut="-1.1755973815917969e+01" cType="1" res="-2.0331677515059710e-03" rms="6.8822972476482391e-02" purity="5.5284027010202408e-02" nType="0">
            <Node pos="l" depth="3" NCoef="0" IVar="-1" Cut="0.0000000000000000e+00" cType="1" res="-3.9378020912408829e-02" rms="1.1895045638084412e-01" purity="4.2148849368095398e-01" nType="-99"/>
            <Node pos="r" depth="3" NCoef="0" IVar="-1" Cut="0.0000000000000000e+00" cType="1" res="-6.2281973659992218e-03" rms="6.2300685793161392e-02" purity="2.2724283859133720e-02" nType="-99"/>
          </Node>
          <Node pos="r" depth="2" NCoef="0" IVar="-1" Cut="0.0000000000000000e+00" cType="1" res="1.6164841130375862e-02" rms="9.0761519968509674e-02" purity="8.8319253921508789e-01" nType="-99"/>
        </Node>
      </Node>
    </BinaryTree>
    <BinaryTree type="DecisionTree" boostWeight="1.0000000000000000e+00" itree="127">
      <Node pos="s" depth="0" NCoef="0" IVar="16" Cut="2.4938895702362061e+00" cType="1" res="-6.9811142748221755e-04" rms="7.4305951595306396e-02" purity="5.0274699926376343e-01" nType="0">
        <Node pos="l" depth="1" NCoef="0" IVar="-1" Cut="0.0000000000000000e+00" cType="1" res="5.9074249118566513e-02" rms="8.3260081708431244e-02" purity="3.1790334731340408e-02" nType="-99"/>
        <Node pos="r" depth="1" NCoef="0" IVar="3" Cut="1.6484119892120361e+00" cType="1" res="-1.0091206058859825e-03" rms="7.4025228619575500e-02" purity="5.1541382074356079e-01" nType="0">
          <Node pos="l" depth="2" NCoef="0" IVar="16" Cut="4.2306184768676758e+00" cType="1" res="-2.0918780937790871e-03" rms="7.1166738867759705e-02" purity="6.7293870449066162e-01" nType="0">
            <Node pos="l" depth="3" NCoef="0" IVar="-1" Cut="0.0000000000000000e+00" cType="1" res="-3.0402220785617828e-02" rms="6.3000999391078949e-02" purity="5.7257585227489471e-02" nType="-99"/>
            <Node pos="r" depth="3" NCoef="0" IVar="-1" Cut="0.0000000000000000e+00" cType="1" res="-1.4739115722477436e-03" rms="7.3922701179981232e-02" purity="9.0494197607040405e-01" nType="-99"/>
          </Node>
          <Node pos="r" depth="2" NCoef="0" IVar="3" Cut="1.9288436174392700e+00" cType="1" res="2.2909550461918116e-03" rms="8.2037888467311859e-02" purity="3.5302601754665375e-02" nType="0">
            <Node pos="l" depth="3" NCoef="0" IVar="-1" Cut="0.0000000000000000e+00" cType="1" res="6.0059364885091782e-02" rms="1.1410710960626602e-01" purity="6.4662665128707886e-02" nType="-99"/>
            <Node pos="r" depth="3" NCoef="0" IVar="-1" Cut="0.0000000000000000e+00" cType="1" res="-2.1403944119811058e-02" rms="5.2206255495548248e-02" purity="1.6893463209271431e-02" nType="-99"/>
          </Node>
        </Node>
      </Node>
    </BinaryTree>
    <BinaryTree type="DecisionTree" boostWeight="1.0000000000000000e+00" itree="128">
      <Node pos="s" depth="0" NCoef="0" IVar="10" Cut="7.6239795684814453e+00" cType="1" res="1.1131977662444115e-03" rms="8.0766424536705017e-02" purity="5.0637745857238770e-01" nType="0">
        <Node pos="l" depth="1" NCoef="0" IVar="15" Cut="3.9826261997222900e+00" cType="1" res="-5.6707963813096285e-04" rms="7.6078593730926514e-02" purity="3.3201706409454346e-01" nType="0">
          <Node pos="l" depth="2" NCoef="0" IVar="15" Cut="3.1154890060424805e+00" cType="1" res="-2.8034150600433350e-03" rms="6.8679817020893097e-02" purity="9.8176360130310059e-02" nType="0">
            <Node pos="l" depth="3" NCoef="0" IVar="-1" Cut="0.0000000000000000e+00" cType="1" res="-8.7595740333199501e-03" rms="6.6757738590240479e-02" purity="5.8826722204685211e-02" nType="-99"/>
            <Node pos="r" depth="3" NCoef="0" IVar="-1" Cut="0.0000000000000000e+00" cType="1" res="-3.4897863864898682e-02" rms="7.7462881803512573e-02" purity="3.0177861452102661e-01" nType="-99"/>
          </Node>
          <Node pos="r" depth="2" NCoef="0" IVar="-1" Cut="0.0000000000000000e+00" cType="1" res="2.1294530481100082e-02" rms="9.1687776148319244e-02" purity="9.1322052478790283e-01" nType="-99"/>
        </Node>
        <Node pos="r" depth="1" NCoef="0" IVar="7" Cut="2.3806676864624023e+00" cType="1" res="3.1148639973253012e-03" rms="8.5975252091884613e-02" purity="7.1408790349960327e-01" nType="0">
          <Node pos="l" depth="2" NCoef="0" IVar="-1" Cut="0.0000000000000000e+00" cType="1" res="6.9023974239826202e-02" rms="1.7057809233665466e-01" purity="2.6752603054046631e-01" nType="-99"/>
          <Node pos="r" depth="2" NCoef="0" IVar="11" Cut="5.9154171943664551e+00" cType="1" res="6.3759699696674943e-04" rms="6.8794496357440948e-02" purity="7.6761579513549805e-01" nType="0">
            <Node pos="l" depth="3" NCoef="0" IVar="-1" Cut="0.0000000000000000e+00" cType="1" res="-5.3651586174964905e-02" rms="8.1135310232639313e-02" purity="5.0600451231002808e-01" nType="-99"/>
            <Node pos="r" depth="3" NCoef="0" IVar="-1" Cut="0.0000000000000000e+00" cType="1" res="1.2647994793951511e-02" rms="6.7547596991062164e-02" purity="7.9036766290664673e-01" nType="-99"/>
          </Node>
        </Node>
      </Node>
    </BinaryTree>
    <BinaryTree type="DecisionTree" boostWeight="1.0000000000000000e+00" itree="129">
      <Node pos="s" depth="0" NCoef="0" IVar="16" Cut="4.0920629501342773e+00" cType="1" res="3.4361762573098531e-06" rms="7.6281718909740448e-02" purity="5.0045633316040039e-01" nType="0">
        <Node pos="l" depth="1" NCoef="0" IVar="3" Cut="2.0490956306457520e-01" cType="1" res="-2.7784358244389296e-03" rms="5.8111436665058136e-02" purity="3.1717952340841293e-02" nType="0">
          <Node pos="l" depth="2" NCoef="0" IVar="-1" Cut="0.0000000000000000e+00" cType="1" res="-1.9887087866663933e-02" rms="1.0850631445646286e-01" purity="2.1567393839359283e-01" nType="-99"/>
          <Node pos="r" depth="2" NCoef="0" IVar="11" Cut="5.8365216255187988e+00" cType="1" res="-1.7025665147230029e-03" rms="4.8788856714963913e-02" purity="1.0125963948667049e-02" nType="0">
            <Node pos="l" depth="3" NCoef="0" IVar="-1" Cut="0.0000000000000000e+00" cType="1" res="5.8879587799310684e-02" rms="9.1352634131908417e-02" purity="1.7945006489753723e-02" nType="-99"/>
            <Node pos="r" depth="3" NCoef="0" IVar="-1" Cut="0.0000000000000000e+00" cType="1" res="-3.3898159861564636e-02" rms="4.0156681090593338e-02" purity="9.1312872245907784e-03" nType="-99"/>
          </Node>
        </Node>
        <Node pos="r" depth="1" NCoef="0" IVar="14" Cut="2.4583110809326172e+00" cType="1" res="1.6201178077608347e-03" rms="8.5034891963005066e-02" purity="7.7286303043365479e-01" nType="0">
          <Node pos="l" depth="2" NCoef="0" IVar="-1" Cut="0.0000000000000000e+00" cType="1" res="-5.7405002415180206e-02" rms="5.1779393106698990e-02" purity="1.4272844418883324e-02" nType="-99"/>
          <Node pos="r" depth="2" NCoef="0" IVar="13" Cut="2.1399288177490234e+00" cType="1" res="2.2499244660139084e-03" rms="8.6546786129474640e-02" purity="8.1730985641479492e-01" nType="0">
            <Node pos="l" depth="3" NCoef="0" IVar="-1" Cut="0.0000000000000000e+00" cType="1" res="1.9774276763200760e-02" rms="1.4108395576477051e-01" purity="3.2828298211097717e-01" nType="-99"/>
            <Node pos="r" depth="3" NCoef="0" IVar="-1" Cut="0.0000000000000000e+00" cType="1" res="2.4009270127862692e-03" rms="6.3025854527950287e-02" purity="9.5518016815185547e-01" nType="-99"/>
          </Node>
        </Node>
      </Node>
    </BinaryTree>
    <BinaryTree type="DecisionTree" boostWeight="1.0000000000000000e+00" itree="130">
      <Node pos="s" depth="0" NCoef="0" IVar="7" Cut="2.9918208122253418e+00" cType="1" res="-5.3332967218011618e-04" rms="7.1912311017513275e-02" purity="5.0105017423629761e-01" nType="0">
        <Node pos="l" depth="1" NCoef="0" IVar="16" Cut="4.6413588523864746e+00" cType="1" res="-4.3604127131402493e-03" rms="8.5503891110420227e-02" purity="1.5411719679832458e-01" nType="0">
          <Node pos="l" depth="2" NCoef="0" IVar="15" Cut="2.5661869049072266e+00" cType="1" res="-1.8806800944730639e-03" rms="7.0436760783195496e-02" purity="5.2211336791515350e-02" nType="0">
            <Node pos="l" depth="3" NCoef="0" IVar="-1" Cut="0.0000000000000000e+00" cType="1" res="-4.8449274152517319e-02" rms="3.6377184092998505e-02" purity="1.0155603289604187e-02" nType="-99"/>
            <Node pos="r" depth="3" NCoef="0" IVar="-1" Cut="0.0000000000000000e+00" cType="1" res="2.0307427272200584e-02" rms="1.2202527374029160e-01" purity="1.6852653026580811e-01" nType="-99"/>
          </Node>
          <Node pos="r" depth="2" NCoef="0" IVar="-1" Cut="0.0000000000000000e+00" cType="1" res="-2.9432281851768494e-02" rms="1.3075672090053558e-01" purity="5.8445519208908081e-01" nType="-99"/>
        </Node>
        <Node pos="r" depth="1" NCoef="0" IVar="5" Cut="-3.0791039466857910e+00" cType="1" res="7.3333608452230692e-04" rms="6.6759251058101654e-02" purity="6.1587601900100708e-01" nType="0">
          <Node pos="l" depth="2" NCoef="0" IVar="8" Cut="1.3042017221450806e+00" cType="1" res="1.4601167058572173e-03" rms="6.9410458207130432e-02" purity="7.1560287475585938e-01" nType="0">
            <Node pos="l" depth="3" NCoef="0" IVar="-1" Cut="0.0000000000000000e+00" cType="1" res="1.4602743089199066e-02" rms="7.0797204971313477e-02" purity="7.4969464540481567e-01" nType="-99"/>
            <Node pos="r" depth="3" NCoef="0" IVar="-1" Cut="0.0000000000000000e+00" cType="1" res="-3.8649491965770721e-02" rms="5.7712629437446594e-02" purity="4.6212071180343628e-01" nType="-99"/>
          </Node>
          <Node pos="r" depth="2" NCoef="0" IVar="14" Cut="3.4676084518432617e+00" cType="1" res="-3.2614865340292454e-03" rms="4.9533691257238388e-02" purity="6.7717581987380981e-02" nType="0">
            <Node pos="l" depth="3" NCoef="0" IVar="-1" Cut="0.0000000000000000e+00" cType="1" res="-3.5163402557373047e-02" rms="1.1988714337348938e-02" purity="2.2318551782518625e-03" nType="-99"/>
            <Node pos="r" depth="3" NCoef="0" IVar="-1" Cut="0.0000000000000000e+00" cType="1" res="-3.0877353623509407e-02" rms="8.1500485539436340e-02" purity="1.8699088692665100e-01" nType="-99"/>
          </Node>
        </Node>
      </Node>
    </BinaryTree>
    <BinaryTree type="DecisionTree" boostWeight="1.0000000000000000e+00" itree="131">
      <Node pos="s" depth="0" NCoef="0" IVar="3" Cut="1.7506071329116821e+00" cType="1" res="3.8542336551472545e-04" rms="7.7089183032512665e-02" purity="5.0233131647109985e-01" nType="0">
        <Node pos="l" depth="1" NCoef="0" IVar="2" Cut="-1.1529101371765137e+01" cType="1" res="1.3728288467973471e-03" rms="8.3954602479934692e-02" purity="6.3903045654296875e-01" nType="0">
          <Node pos="l" depth="2" NCoef="0" IVar="16" Cut="5.6902933120727539e+00" cType="1" res="-1.0211119661107659e-03" rms="5.6841030716896057e-02" purity="9.6743488311767578e-01" nType="0">
            <Node pos="l" depth="3" NCoef="0" IVar="-1" Cut="0.0000000000000000e+00" cType="1" res="-2.6725996285676956e-02" rms="1.0192369669675827e-01" purity="8.0843389034271240e-01" nType="-99"/>
            <Node pos="r" depth="3" NCoef="0" IVar="-1" Cut="0.0000000000000000e+00" cType="1" res="4.1788676753640175e-03" rms="4.3553236871957779e-02" purity="9.9686563014984131e-01" nType="-99"/>
          </Node>
          <Node pos="r" depth="2" NCoef="0" IVar="13" Cut="1.6236588954925537e+00" cType="1" res="4.6156113967299461e-03" rms="1.1045888811349869e-01" purity="1.9418056309223175e-01" nType="0">
            <Node pos="l" depth="3" NCoef="0" IVar="-1" Cut="0.0000000000000000e+00" cType="1" res="-2.1265972405672073e-02" rms="7.6238304376602173e-02" purity="3.1248476356267929e-02" nType="-99"/>
            <Node pos="r" depth="3" NCoef="0" IVar="-1" Cut="0.0000000000000000e+00" cType="1" res="2.2475998848676682e-02" rms="1.2507385015487671e-01" purity="2.8353187441825867e-01" nType="-99"/>
          </Node>
        </Node>
        <Node pos="r" depth="1" NCoef="0" IVar="16" Cut="4.6391706466674805e+00" cType="1" res="-3.1065733637660742e-03" rms="4.4910874217748642e-02" purity="1.8889630213379860e-02" nType="0">
          <Node pos="l" depth="2" NCoef="0" IVar="4" Cut="1.7095226049423218e+00" cType="1" res="-1.6559525392949581e-03" rms="2.1613465622067451e-02" purity="8.9123478392139077e-04" nType="0">
            <Node pos="l" depth="3" NCoef="0" IVar="-1" Cut="0.0000000000000000e+00" cType="1" res="-5.5861741304397583e-02" rms="1.9657427445054054e-02" purity="0.0000000000000000e+00" nType="-99"/>
            <Node pos="r" depth="3" NCoef="0" IVar="-1" Cut="0.0000000000000000e+00" cType="1" res="-1.4255563728511333e-02" rms="2.2566754370927811e-02" purity="1.4030132442712784e-03" nType="-99"/>
          </Node>
          <Node pos="r" depth="2" NCoef="0" IVar="-1" Cut="0.0000000000000000e+00" cType="1" res="-2.3564107716083527e-02" rms="1.0282413661479950e-01" purity="1.1914291977882385e-01" nType="-99"/>
        </Node>
      </Node>
    </BinaryTree>
    <BinaryTree type="DecisionTree" boostWeight="1.0000000000000000e+00" itree="132">
      <Node pos="s" depth="0" NCoef="0" IVar="10" Cut="6.9874062538146973e+00" cType="1" res="1.5647626714780927e-03" rms="8.1228882074356079e-02" purity="4.9570327997207642e-01" nType="0">
        <Node pos="l" depth="1" NCoef="0" IVar="13" Cut="1.9791237115859985e+00" cType="1" res="-2.8217285871505737e-03" rms="6.9036178290843964e-02" purity="2.4498608708381653e-01" nType="0">
          <Node pos="l" depth="2" NCoef="0" IVar="3" Cut="1.3528255224227905e+00" cType="1" res="-6.2826634384691715e-03" rms="5.5054478347301483e-02" purity="2.0200874656438828e-02" nType="0">
            <Node pos="l" depth="3" NCoef="0" IVar="-1" Cut="0.0000000000000000e+00" cType="1" res="-4.2427334934473038e-02" rms="9.1990277171134949e-02" purity="6.1112064868211746e-02" nType="-99"/>
            <Node pos="r" depth="3" NCoef="0" IVar="-1" Cut="0.0000000000000000e+00" cType="1" res="-5.6790791451931000e-02" rms="1.7582550644874573e-02" purity="0.0000000000000000e+00" nType="-99"/>
          </Node>
          <Node pos="r" depth="2" NCoef="0" IVar="-1" Cut="0.0000000000000000e+00" cType="1" res="1.0646169073879719e-02" rms="8.7175369262695312e-02" purity="6.1897689104080200e-01" nType="-99"/>
        </Node>
        <Node pos="r" depth="1" NCoef="0" IVar="12" Cut="7.3222298622131348e+00" cType="1" res="2.4025074671953917e-03" rms="8.3328634500503540e-02" purity="5.4358595609664917e-01" nType="0">
          <Node pos="l" depth="2" NCoef="0" IVar="15" Cut="3.1472954750061035e+00" cType="1" res="-2.1253346931189299e-03" rms="6.5522588789463043e-02" purity="2.6668545603752136e-01" nType="0">
            <Node pos="l" depth="3" NCoef="0" IVar="-1" Cut="0.0000000000000000e+00" cType="1" res="-3.5373698920011520e-02" rms="4.5099072158336639e-02" purity="3.5334315150976181e-02" nType="-99"/>
            <Node pos="r" depth="3" NCoef="0" IVar="-1" Cut="0.0000000000000000e+00" cType="1" res="9.0381074696779251e-03" rms="9.5414526760578156e-02" purity="7.6218843460083008e-01" nType="-99"/>
          </Node>
          <Node pos="r" depth="2" NCoef="0" IVar="13" Cut="2.5292277336120605e+00" cType="1" res="3.7812318187206984e-03" rms="8.7991923093795776e-02" purity="6.2790197134017944e-01" nType="0">
            <Node pos="l" depth="3" NCoef="0" IVar="-1" Cut="0.0000000000000000e+00" cType="1" res="2.7350967749953270e-02" rms="1.1425296962261200e-01" purity="2.3628459870815277e-01" nType="-99"/>
            <Node pos="r" depth="3" NCoef="0" IVar="-1" Cut="0.0000000000000000e+00" cType="1" res="7.9596806317567825e-03" rms="5.7234812527894974e-02" purity="9.5570498704910278e-01" nType="-99"/>
          </Node>
        </Node>
      </Node>
    </BinaryTree>
    <BinaryTree type="DecisionTree" boostWeight="1.0000000000000000e+00" itree="133">
      <Node pos="s" depth="0" NCoef="0" IVar="13" Cut="2.9920556545257568e+00" cType="1" res="-1.5862032305449247e-03" rms="6.6670022904872894e-02" purity="4.9924257397651672e-01" nType="0">
        <Node pos="l" depth="1" NCoef="0" IVar="12" Cut="7.9385132789611816e+00" cType="1" res="-3.4079218748956919e-03" rms="7.3348805308341980e-02" purity="2.0629069209098816e-01" nType="0">
          <Node pos="l" depth="2" NCoef="0" IVar="16" Cut="4.6297068595886230e+00" cType="1" res="-5.2204271778464317e-03" rms="6.4255431294441223e-02" purity="1.3890936970710754e-01" nType="0">
            <Node pos="l" depth="3" NCoef="0" IVar="-1" Cut="0.0000000000000000e+00" cType="1" res="-3.2823942601680756e-02" rms="4.9671228975057602e-02" purity="1.4590132050216198e-02" nType="-99"/>
            <Node pos="r" depth="3" NCoef="0" IVar="-1" Cut="0.0000000000000000e+00" cType="1" res="-3.2891612499952316e-02" rms="1.0229973495006561e-01" purity="6.1632347106933594e-01" nType="-99"/>
          </Node>
          <Node pos="r" depth="2" NCoef="0" IVar="13" Cut="1.5392559766769409e+00" cType="1" res="1.2809195322915912e-03" rms="9.2663727700710297e-02" purity="3.8060203194618225e-01" nType="0">
            <Node pos="l" depth="3" NCoef="0" IVar="-1" Cut="0.0000000000000000e+00" cType="1" res="-4.4002957642078400e-02" rms="5.5291086435317993e-02" purity="8.1701532006263733e-02" nType="-99"/>
            <Node pos="r" depth="3" NCoef="0" IVar="-1" Cut="0.0000000000000000e+00" cType="1" res="1.1849776841700077e-02" rms="1.0135954618453979e-01" purity="4.7317299246788025e-01" nType="-99"/>
          </Node>
        </Node>
        <Node pos="r" depth="1" NCoef="0" IVar="-1" Cut="0.0000000000000000e+00" cType="1" res="1.5457940287888050e-02" rms="5.3846172988414764e-02" purity="9.7889906167984009e-01" nType="-99"/>
      </Node>
    </BinaryTree>
    <BinaryTree type="DecisionTree" boostWeight="1.0000000000000000e+00" itree="134">
      <Node pos="s" depth="0" NCoef="0" IVar="11" Cut="6.3784184455871582e+00" cType="1" res="4.6929708332754672e-04" rms="7.4429370462894440e-02" purity="5.0947231054306030e-01" nType="0">
        <Node pos="l" depth="1" NCoef="0" IVar="13" Cut="2.4440274238586426e+00" cType="1" res="-2.2588926367461681e-03" rms="7.3027253150939941e-02" purity="2.6822036504745483e-01" nType="0">
          <Node pos="l" depth="2" NCoef="0" IVar="2" Cut="-1.0270404815673828e+01" cType="1" res="-4.8787830746732652e-04" rms="6.7316859960556030e-02" purity="6.2800429761409760e-02" nType="0">
            <Node pos="l" depth="3" NCoef="0" IVar="-1" Cut="0.0000000000000000e+00" cType="1" res="-1.9859166815876961e-02" rms="9.1780997812747955e-02" purity="2.6257175207138062e-01" nType="-99"/>
            <Node pos="r" depth="3" NCoef="0" IVar="-1" Cut="0.0000000000000000e+00" cType="1" res="1.2093991972506046e-02" rms="5.9546116739511490e-02" purity="1.2925960123538971e-02" nType="-99"/>
          </Node>
          <Node pos="r" depth="2" NCoef="0" IVar="-1" Cut="0.0000000000000000e+00" cType="1" res="-3.7239499390125275e-02" rms="8.5592336952686310e-02" purity="7.8622388839721680e-01" nType="-99"/>
        </Node>
        <Node pos="r" depth="1" NCoef="0" IVar="2" Cut="-9.1100034713745117e+00" cType="1" res="1.6862208722159266e-03" rms="7.5014352798461914e-02" purity="6.1708402633666992e-01" nType="0">
          <Node pos="l" depth="2" NCoef="0" IVar="16" Cut="4.7932271957397461e+00" cType="1" res="3.4286226145923138e-03" rms="8.3563707768917084e-02" purity="8.2975256443023682e-01" nType="0">
            <Node pos="l" depth="3" NCoef="0" IVar="-1" Cut="0.0000000000000000e+00" cType="1" res="2.9906775802373886e-02" rms="1.3728605210781097e-01" purity="2.4261239171028137e-01" nType="-99"/>
            <Node pos="r" depth="3" NCoef="0" IVar="-1" Cut="0.0000000000000000e+00" cType="1" res="8.9921541512012482e-03" rms="6.4064897596836090e-02" purity="9.7070300579071045e-01" nType="-99"/>
          </Node>
          <Node pos="r" depth="2" NCoef="0" IVar="8" Cut="1.4461435079574585e+00" cType="1" res="-3.2364514190703630e-03" rms="4.2000863701105118e-02" purity="1.6248067840933800e-02" nType="0">
            <Node pos="l" depth="3" NCoef="0" IVar="-1" Cut="0.0000000000000000e+00" cType="1" res="-3.4014280885457993e-02" rms="3.5305682569742203e-02" purity="1.5492617152631283e-02" nType="-99"/>
            <Node pos="r" depth="3" NCoef="0" IVar="-1" Cut="0.0000000000000000e+00" cType="1" res="2.6203982532024384e-02" rms="6.3300199806690216e-02" purity="1.9591741263866425e-02" nType="-99"/>
          </Node>
        </Node>
      </Node>
    </BinaryTree>
    <BinaryTree type="DecisionTree" boostWeight="1.0000000000000000e+00" itree="135">
      <Node pos="s" depth="0" NCoef="0" IVar="4" Cut="-5.4150325059890747e-01" cType="1" res="6.6787493415176868e-04" rms="7.5273118913173676e-02" purity="4.9237844347953796e-01" nType="0">
        <Node pos="l" depth="1" NCoef="0" IVar="-1" Cut="0.0000000000000000e+00" cType="1" res="2.8147993609309196e-02" rms="8.1891074776649475e-02" purity="8.5194802284240723e-01" nType="-99"/>
        <Node pos="r" depth="1" NCoef="0" IVar="16" Cut="5.7049951553344727e+00" cType="1" res="-3.3465414890088141e-04" rms="7.4040018022060394e-02" purity="4.3111482262611389e-01" nType="0">
          <Node pos="l" depth="2" NCoef="0" IVar="1" Cut="3.4661457538604736e+00" cType="1" res="-1.6445742221549153e-03" rms="7.7120222151279449e-02" purity="1.3198548555374146e-01" nType="0">
            <Node pos="l" depth="3" NCoef="0" IVar="-1" Cut="0.0000000000000000e+00" cType="1" res="-2.5692362338304520e-02" rms="8.0720841884613037e-02" purity="2.6411655545234680e-01" nType="-99"/>
            <Node pos="r" depth="3" NCoef="0" IVar="-1" Cut="0.0000000000000000e+00" cType="1" res="-1.9670554320327938e-04" rms="7.5912676751613617e-02" purity="9.1607518494129181e-02" nType="-99"/>
          </Node>
          <Node pos="r" depth="2" NCoef="0" IVar="-1" Cut="0.0000000000000000e+00" cType="1" res="1.6614234074950218e-02" rms="6.8165041506290436e-02" purity="9.6241843700408936e-01" nType="-99"/>
        </Node>
      </Node>
    </BinaryTree>
    <BinaryTree type="DecisionTree" boostWeight="1.0000000000000000e+00" itree="136">
      <Node pos="s" depth="0" NCoef="0" IVar="12" Cut="7.1519217491149902e+00" cType="1" res="5.2853836677968502e-04" rms="7.6736144721508026e-02" purity="4.9838581681251526e-01" nType="0">
        <Node pos="l" depth="1" NCoef="0" IVar="16" Cut="3.8326945304870605e+00" cType="1" res="-6.4218011684715748e-03" rms="4.9992825835943222e-02" purity="2.4462532997131348e-01" nType="0">
          <Node pos="l" depth="2" NCoef="0" IVar="-1" Cut="0.0000000000000000e+00" cType="1" res="-3.3000104129314423e-02" rms="2.7412163093686104e-02" purity="3.9727143011987209e-03" nType="-99"/>
          <Node pos="r" depth="2" NCoef="0" IVar="-1" Cut="0.0000000000000000e+00" cType="1" res="-6.4508505165576935e-02" rms="6.4805127680301666e-02" purity="4.8201167583465576e-01" nType="-99"/>
        </Node>
        <Node pos="r" depth="1" NCoef="0" IVar="4" Cut="2.1729183197021484e+00" cType="1" res="1.1728063691407442e-03" rms="7.8725494444370270e-02" purity="5.2190840244293213e-01" nType="0">
          <Node pos="l" depth="2" NCoef="0" IVar="8" Cut="1.3746128082275391e+00" cType="1" res="2.2539505735039711e-03" rms="8.1816524267196655e-02" purity="6.6162776947021484e-01" nType="0">
            <Node pos="l" depth="3" NCoef="0" IVar="-1" Cut="0.0000000000000000e+00" cType="1" res="1.7400184646248817e-02" rms="8.4515735507011414e-02" purity="7.0580774545669556e-01" nType="-99"/>
            <Node pos="r" depth="3" NCoef="0" IVar="-1" Cut="0.0000000000000000e+00" cType="1" res="-2.7878958731889725e-02" rms="5.7295195758342743e-02" purity="3.3069121837615967e-01" nType="-99"/>
          </Node>
          <Node pos="r" depth="2" NCoef="0" IVar="2" Cut="-9.5691995620727539e+00" cType="1" res="-2.1757711656391621e-03" rms="6.8160757422447205e-02" purity="8.9162066578865051e-02" nType="0">
            <Node pos="l" depth="3" NCoef="0" IVar="-1" Cut="0.0000000000000000e+00" cType="1" res="-3.8741286844015121e-02" rms="1.0588662326335907e-01" purity="4.0167486667633057e-01" nType="-99"/>
            <Node pos="r" depth="3" NCoef="0" IVar="-1" Cut="0.0000000000000000e+00" cType="1" res="1.5668097184970975e-03" rms="5.4259639233350754e-02" purity="9.4048185274004936e-03" nType="-99"/>
          </Node>
        </Node>
      </Node>
    </BinaryTree>
    <BinaryTree type="DecisionTree" boostWeight="1.0000000000000000e+00" itree="137">
      <Node pos="s" depth="0" NCoef="0" IVar="9" Cut="6.6529664993286133e+00" cType="1" res="-2.6530056493356824e-04" rms="7.3448009788990021e-02" purity="4.8818212747573853e-01" nType="0">
        <Node pos="l" depth="1" NCoef="0" IVar="8" Cut="-1.3026845455169678e+00" cType="1" res="-1.6072598518803716e-03" rms="7.4540510773658752e-02" purity="3.8246670365333557e-01" nType="0">
          <Node pos="l" depth="2" NCoef="0" IVar="11" Cut="5.9949531555175781e+00" cType="1" res="-4.2093624360859394e-03" rms="6.9621615111827850e-02" purity="4.6000236272811890e-01" nType="0">
            <Node pos="l" depth="3" NCoef="0" IVar="-1" Cut="0.0000000000000000e+00" cType="1" res="1.5672618523240089e-02" rms="7.7410057187080383e-02" purity="2.9043480753898621e-01" nType="-99"/>
            <Node pos="r" depth="3" NCoef="0" IVar="-1" Cut="0.0000000000000000e+00" cType="1" res="-3.8147315382957458e-02" rms="6.8229950964450836e-02" purity="4.8670512437820435e-01" nType="-99"/>
          </Node>
          <Node pos="r" depth="2" NCoef="0" IVar="9" Cut="5.5803098678588867e+00" cType="1" res="-5.4698617896065116e-04" rms="7.6428711414337158e-02" purity="3.5087338089942932e-01" nType="0">
            <Node pos="l" depth="3" NCoef="0" IVar="-1" Cut="0.0000000000000000e+00" cType="1" res="1.7096705734729767e-02" rms="8.6214594542980194e-02" purity="2.7070659399032593e-01" nType="-99"/>
            <Node pos="r" depth="3" NCoef="0" IVar="-1" Cut="0.0000000000000000e+00" cType="1" res="-1.2412689626216888e-02" rms="7.2293736040592194e-02" purity="3.8144353032112122e-01" nType="-99"/>
          </Node>
        </Node>
        <Node pos="r" depth="1" NCoef="0" IVar="3" Cut="9.8615944385528564e-01" cType="1" res="4.6844226308166981e-03" rms="6.9044396281242371e-02" purity="8.7810605764389038e-01" nType="0">
          <Node pos="l" depth="2" NCoef="0" IVar="-1" Cut="0.0000000000000000e+00" cType="1" res="2.8074141591787338e-02" rms="4.4991947710514069e-02" purity="9.5614439249038696e-01" nType="-99"/>
          <Node pos="r" depth="2" NCoef="0" IVar="-1" Cut="0.0000000000000000e+00" cType="1" res="4.1206676512956619e-02" rms="1.4289008080959320e-01" purity="4.2966780066490173e-01" nType="-99"/>
        </Node>
      </Node>
    </BinaryTree>
    <BinaryTree type="DecisionTree" boostWeight="1.0000000000000000e+00" itree="138">
      <Node pos="s" depth="0" NCoef="0" IVar="7" Cut="1.6903573274612427e+00" cType="1" res="3.9503100560978055e-04" rms="7.2329968214035034e-02" purity="5.0673472881317139e-01" nType="0">
        <Node pos="l" depth="1" NCoef="0" IVar="16" Cut="4.1044917106628418e+00" cType="1" res="-7.3140412569046021e-03" rms="7.1431428194046021e-02" purity="1.2627606093883514e-01" nType="0">
          <Node pos="l" depth="2" NCoef="0" IVar="2" Cut="-8.7628240585327148e+00" cType="1" res="-3.5527991130948067e-03" rms="4.9561373889446259e-02" purity="2.9349818825721741e-02" nType="0">
            <Node pos="l" depth="3" NCoef="0" IVar="-1" Cut="0.0000000000000000e+00" cType="1" res="-3.2261438667774200e-02" rms="6.2211934477090836e-02" purity="5.1667008548974991e-02" nType="-99"/>
            <Node pos="r" depth="3" NCoef="0" IVar="-1" Cut="0.0000000000000000e+00" cType="1" res="-1.1429669102653861e-03" rms="3.0880955979228020e-02" purity="6.0050976462662220e-03" nType="-99"/>
          </Node>
          <Node pos="r" depth="2" NCoef="0" IVar="-1" Cut="0.0000000000000000e+00" cType="1" res="-4.2097296565771103e-02" rms="1.0486832261085510e-01" purity="3.4604337811470032e-01" nType="-99"/>
        </Node>
        <Node pos="r" depth="1" NCoef="0" IVar="0" Cut="8.6779174804687500e+00" cType="1" res="1.0736885014921427e-03" rms="7.2369217872619629e-02" purity="5.4022789001464844e-01" nType="0">
          <Node pos="l" depth="2" NCoef="0" IVar="5" Cut="-4.3806281089782715e+00" cType="1" res="-6.7994848359376192e-04" rms="6.7601658403873444e-02" purity="2.4027989804744720e-01" nType="0">
            <Node pos="l" depth="3" NCoef="0" IVar="-1" Cut="0.0000000000000000e+00" cType="1" res="-2.8298621997237206e-02" rms="6.3495688140392303e-02" purity="6.1580240726470947e-01" nType="-99"/>
            <Node pos="r" depth="3" NCoef="0" IVar="-1" Cut="0.0000000000000000e+00" cType="1" res="7.1318441769108176e-04" rms="6.8151362240314484e-02" purity="1.8481598794460297e-01" nType="-99"/>
          </Node>
          <Node pos="r" depth="2" NCoef="0" IVar="14" Cut="4.1879234313964844e+00" cType="1" res="3.3572139218449593e-03" rms="7.8083574771881104e-02" purity="9.3080973625183105e-01" nType="0">
            <Node pos="l" depth="3" NCoef="0" IVar="-1" Cut="0.0000000000000000e+00" cType="1" res="3.6000933498144150e-02" rms="1.4986561238765717e-01" purity="5.4662960767745972e-01" nType="-99"/>
            <Node pos="r" depth="3" NCoef="0" IVar="-1" Cut="0.0000000000000000e+00" cType="1" res="6.4137587323784828e-03" rms="6.0316216200590134e-02" purity="9.8700970411300659e-01" nType="-99"/>
          </Node>
        </Node>
      </Node>
    </BinaryTree>
    <BinaryTree type="DecisionTree" boostWeight="1.0000000000000000e+00" itree="139">
      <Node pos="s" depth="0" NCoef="0" IVar="8" Cut="4.4718742370605469e-01" cType="1" res="2.5493639986962080e-04" rms="7.7787965536117554e-02" purity="4.9592474102973938e-01" nType="0">
        <Node pos="l" depth="1" NCoef="0" IVar="2" Cut="-1.0831835746765137e+01" cType="1" res="1.8343875417485833e-03" rms="8.2235269248485565e-02" purity="5.7577133178710938e-01" nType="0">
          <Node pos="l" depth="2" NCoef="0" IVar="3" Cut="1.2511602640151978e+00" cType="1" res="-7.6747790444642305e-04" rms="6.4783073961734772e-02" purity="9.2765998840332031e-01" nType="0">
            <Node pos="l" depth="3" NCoef="0" IVar="-1" Cut="0.0000000000000000e+00" cType="1" res="1.4735119184479117e-03" rms="5.7627659291028976e-02" purity="9.7921901941299438e-01" nType="-99"/>
            <Node pos="r" depth="3" NCoef="0" IVar="-1" Cut="0.0000000000000000e+00" cType="1" res="-2.4246050044894218e-02" rms="1.1281016469001770e-01" purity="4.2058563232421875e-01" nType="-99"/>
          </Node>
          <Node pos="r" depth="2" NCoef="0" IVar="2" Cut="-9.1497697830200195e+00" cType="1" res="5.3656692616641521e-03" rms="1.0111035406589508e-01" purity="9.8184049129486084e-02" nType="0">
            <Node pos="l" depth="3" NCoef="0" IVar="-1" Cut="0.0000000000000000e+00" cType="1" res="4.1144929826259613e-02" rms="1.6486869752407074e-01" purity="2.8558424115180969e-01" nType="-99"/>
            <Node pos="r" depth="3" NCoef="0" IVar="-1" Cut="0.0000000000000000e+00" cType="1" res="-1.9855571910738945e-02" rms="5.1149286329746246e-02" purity="1.6342662274837494e-02" nType="-99"/>
          </Node>
        </Node>
        <Node pos="r" depth="1" NCoef="0" IVar="3" Cut="4.2632064223289490e-01" cType="1" res="-2.7914075180888176e-03" rms="6.8295300006866455e-02" purity="3.4192171692848206e-01" nType="0">
          <Node pos="l" depth="2" NCoef="0" IVar="-1" Cut="0.0000000000000000e+00" cType="1" res="1.3954345136880875e-02" rms="8.6679875850677490e-02" purity="8.1633502244949341e-01" nType="-99"/>
          <Node pos="r" depth="2" NCoef="0" IVar="16" Cut="4.4884362220764160e+00" cType="1" res="-4.9615344032645226e-03" rms="5.8978572487831116e-02" purity="1.4717221260070801e-01" nType="0">
            <Node pos="l" depth="3" NCoef="0" IVar="-1" Cut="0.0000000000000000e+00" cType="1" res="-3.8195155560970306e-02" rms="3.2554410398006439e-02" purity="4.7803958877921104e-03" nType="-99"/>
            <Node pos="r" depth="3" NCoef="0" IVar="-1" Cut="0.0000000000000000e+00" cType="1" res="-4.6023190021514893e-02" rms="9.8537907004356384e-02" purity="5.1825648546218872e-01" nType="-99"/>
          </Node>
        </Node>
      </Node>
    </BinaryTree>
    <BinaryTree type="DecisionTree" boostWeight="1.0000000000000000e+00" itree="140">
      <Node pos="s" depth="0" NCoef="0" IVar="3" Cut="1.1162105798721313e+00" cType="1" res="1.2884133029729128e-03" rms="7.9230777919292450e-02" purity="4.9944630265235901e-01" nType="0">
        <Node pos="l" depth="1" NCoef="0" IVar="7" Cut="3.2313148975372314e+00" cType="1" res="3.2087524887174368e-03" rms="8.4627255797386169e-02" purity="7.8114998340606689e-01" nType="0">
          <Node pos="l" depth="2" NCoef="0" IVar="15" Cut="2.2674257755279541e+00" cType="1" res="1.4149344526231289e-02" rms="1.3650637865066528e-01" purity="4.2422077059745789e-01" nType="0">
            <Node pos="l" depth="3" NCoef="0" IVar="-1" Cut="0.0000000000000000e+00" cType="1" res="-7.1776774711906910e-03" rms="8.6576357483863831e-02" purity="5.5138967931270599e-02" nType="-99"/>
            <Node pos="r" depth="3" NCoef="0" IVar="-1" Cut="0.0000000000000000e+00" cType="1" res="3.9028167724609375e-02" rms="1.5610222518444061e-01" purity="6.2178504467010498e-01" nType="-99"/>
          </Node>
          <Node pos="r" depth="2" NCoef="0" IVar="0" Cut="7.9875679016113281e+00" cType="1" res="1.6181274258997291e-04" rms="6.2643088400363922e-02" purity="8.8055431842803955e-01" nType="0">
            <Node pos="l" depth="3" NCoef="0" IVar="-1" Cut="0.0000000000000000e+00" cType="1" res="3.2058153301477432e-02" rms="1.1544577032327652e-01" purity="3.4052854776382446e-01" nType="-99"/>
            <Node pos="r" depth="3" NCoef="0" IVar="-1" Cut="0.0000000000000000e+00" cType="1" res="-8.7323263287544250e-03" rms="5.5574558675289154e-02" purity="9.2796605825424194e-01" nType="-99"/>
          </Node>
        </Node>
        <Node pos="r" depth="1" NCoef="0" IVar="14" Cut="4.2398834228515625e+00" cType="1" res="-1.6377554275095463e-03" rms="7.0113644003868103e-02" purity="7.0192717015743256e-02" nType="0">
          <Node pos="l" depth="2" NCoef="0" IVar="2" Cut="-1.1166216850280762e+01" cType="1" res="-3.0251118005253375e-04" rms="5.3273342549800873e-02" purity="1.3551925309002399e-02" nType="0">
            <Node pos="l" depth="3" NCoef="0" IVar="-1" Cut="0.0000000000000000e+00" cType="1" res="2.4334073066711426e-02" rms="1.2663285434246063e-01" purity="1.0009379684925079e-01" nType="-99"/>
            <Node pos="r" depth="3" NCoef="0" IVar="-1" Cut="0.0000000000000000e+00" cType="1" res="-2.0096400752663612e-02" rms="3.8962304592132568e-02" purity="4.9655018374323845e-03" nType="-99"/>
          </Node>
          <Node pos="r" depth="2" NCoef="0" IVar="3" Cut="1.7942633628845215e+00" cType="1" res="-9.0617090463638306e-03" rms="1.2807759642601013e-01" purity="3.8511538505554199e-01" nType="0">
            <Node pos="l" depth="3" NCoef="0" IVar="-1" Cut="0.0000000000000000e+00" cType="1" res="-3.8817360997200012e-02" rms="1.2762892246246338e-01" purity="5.9074097871780396e-01" nType="-99"/>
            <Node pos="r" depth="3" NCoef="0" IVar="-1" Cut="0.0000000000000000e+00" cType="1" res="-2.0112097263336182e-03" rms="1.2823051214218140e-01" purity="1.1074435710906982e-01" nType="-99"/>
          </Node>
        </Node>
      </Node>
    </BinaryTree>
    <BinaryTree type="DecisionTree" boostWeight="1.0000000000000000e+00" itree="141">
      <Node pos="s" depth="0" NCoef="0" IVar="13" Cut="1.7391290664672852e+00" cType="1" res="1.1950647458434105e-03" rms="7.4980482459068298e-02" purity="5.0508135557174683e-01" nType="0">
        <Node pos="l" depth="1" NCoef="0" IVar="15" Cut="3.5678193569183350e+00" cType="1" res="-2.4497169069945812e-03" rms="6.0307551175355911e-02" purity="5.8836337178945541e-02" nType="0">
          <Node pos="l" depth="2" NCoef="0" IVar="13" Cut="1.6047157049179077e+00" cType="1" res="-1.2751602334901690e-03" rms="5.1437404006719589e-02" purity="2.2505102679133415e-02" nType="0">
            <Node pos="l" depth="3" NCoef="0" IVar="-1" Cut="0.0000000000000000e+00" cType="1" res="-3.3988945186138153e-02" rms="3.6823518574237823e-02" purity="1.5885407105088234e-02" nType="-99"/>
            <Node pos="r" depth="3" NCoef="0" IVar="-1" Cut="0.0000000000000000e+00" cType="1" res="1.8777638673782349e-02" rms="7.5866945087909698e-02" purity="3.8583386689424515e-02" nType="-99"/>
          </Node>
          <Node pos="r" depth="2" NCoef="0" IVar="-1" Cut="0.0000000000000000e+00" cType="1" res="-2.7427902445197105e-02" rms="1.0997110605239868e-01" purity="3.7302514910697937e-01" nType="-99"/>
        </Node>
        <Node pos="r" depth="1" NCoef="0" IVar="0" Cut="7.4822044372558594e+00" cType="1" res="2.7269455604255199e-03" rms="8.0302290618419647e-02" purity="6.9263559579849243e-01" nType="0">
          <Node pos="l" depth="2" NCoef="0" IVar="-1" Cut="0.0000000000000000e+00" cType="1" res="-6.2059160321950912e-02" rms="4.6306956559419632e-02" purity="2.8288833796977997e-02" nType="-99"/>
          <Node pos="r" depth="2" NCoef="0" IVar="14" Cut="4.4572362899780273e+00" cType="1" res="3.2618078403174877e-03" rms="8.1415787339210510e-02" purity="7.2149085998535156e-01" nType="0">
            <Node pos="l" depth="3" NCoef="0" IVar="-1" Cut="0.0000000000000000e+00" cType="1" res="2.4401469156146049e-02" rms="1.1433356255292892e-01" purity="2.3247118294239044e-01" nType="-99"/>
            <Node pos="r" depth="3" NCoef="0" IVar="-1" Cut="0.0000000000000000e+00" cType="1" res="1.0473321191966534e-02" rms="5.8295108377933502e-02" purity="9.6561050415039062e-01" nType="-99"/>
          </Node>
        </Node>
      </Node>
    </BinaryTree>
    <BinaryTree type="DecisionTree" boostWeight="1.0000000000000000e+00" itree="142">
      <Node pos="s" depth="0" NCoef="0" IVar="7" Cut="2.5913064479827881e+00" cType="1" res="1.8370334873907268e-04" rms="7.2072044014930725e-02" purity="5.0218594074249268e-01" nType="0">
        <Node pos="l" depth="1" NCoef="0" IVar="8" Cut="-1.1187577247619629e+00" cType="1" res="-3.9066397584974766e-03" rms="8.2878112792968750e-02" purity="1.4949204027652740e-01" nType="0">
          <Node pos="l" depth="2" NCoef="0" IVar="-1" Cut="0.0000000000000000e+00" cType="1" res="-6.4519420266151428e-02" rms="6.6248185932636261e-02" purity="1.6517478227615356e-01" nType="-99"/>
          <Node pos="r" depth="2" NCoef="0" IVar="12" Cut="7.7605586051940918e+00" cType="1" res="-1.2084883637726307e-03" rms="8.8187180459499359e-02" purity="1.4358063042163849e-01" nType="0">
            <Node pos="l" depth="3" NCoef="0" IVar="-1" Cut="0.0000000000000000e+00" cType="1" res="-2.1182291209697723e-02" rms="6.3263140618801117e-02" purity="8.3172664046287537e-02" nType="-99"/>
            <Node pos="r" depth="3" NCoef="0" IVar="-1" Cut="0.0000000000000000e+00" cType="1" res="1.3863279484212399e-02" rms="1.2659259140491486e-01" purity="2.7645513415336609e-01" nType="-99"/>
          </Node>
        </Node>
        <Node pos="r" depth="1" NCoef="0" IVar="15" Cut="3.9430246353149414e+00" cType="1" res="1.0770267108455300e-03" rms="6.9456756114959717e-02" purity="5.7921361923217773e-01" nType="0">
          <Node pos="l" depth="2" NCoef="0" IVar="7" Cut="2.8700511455535889e+00" cType="1" res="-8.7604153668507934e-04" rms="7.2644568979740143e-02" purity="1.7816099524497986e-01" nType="0">
            <Node pos="l" depth="3" NCoef="0" IVar="-1" Cut="0.0000000000000000e+00" cType="1" res="4.2886044830083847e-02" rms="1.0628657042980194e-01" purity="1.3390377163887024e-01" nType="-99"/>
            <Node pos="r" depth="3" NCoef="0" IVar="-1" Cut="0.0000000000000000e+00" cType="1" res="-1.3401105999946594e-02" rms="6.7762091755867004e-02" purity="1.8305458128452301e-01" nType="-99"/>
          </Node>
          <Node pos="r" depth="2" NCoef="0" IVar="-1" Cut="0.0000000000000000e+00" cType="1" res="2.6763804256916046e-02" rms="6.6073693335056305e-02" purity="9.7844016551971436e-01" nType="-99"/>
        </Node>
      </Node>
    </BinaryTree>
    <BinaryTree type="DecisionTree" boostWeight="1.0000000000000000e+00" itree="143">
      <Node pos="s" depth="0" NCoef="0" IVar="8" Cut="1.3746128082275391e+00" cType="1" res="1.2142627965658903e-03" rms="7.6967529952526093e-02" purity="5.0844377279281616e-01" nType="0">
        <Node pos="l" depth="1" NCoef="0" IVar="2" Cut="-1.1211001396179199e+01" cType="1" res="1.9344857428222895e-03" rms="7.9634398221969604e-02" purity="5.5951690673828125e-01" nType="0">
          <Node pos="l" depth="2" NCoef="0" IVar="14" Cut="5.0368747711181641e+00" cType="1" res="7.2066395659931004e-05" rms="6.4055040478706360e-02" purity="9.3725788593292236e-01" nType="0">
            <Node pos="l" depth="3" NCoef="0" IVar="-1" Cut="0.0000000000000000e+00" cType="1" res="-1.6036676242947578e-02" rms="1.0513672977685928e-01" purity="7.0633333921432495e-01" nType="-99"/>
            <Node pos="r" depth="3" NCoef="0" IVar="-1" Cut="0.0000000000000000e+00" cType="1" res="1.7968906089663506e-02" rms="4.8615936189889908e-02" purity="9.9484640359878540e-01" nType="-99"/>
          </Node>
          <Node pos="r" depth="2" NCoef="0" IVar="3" Cut="1.7093838453292847e+00" cType="1" res="4.0544415824115276e-03" rms="9.4240851700305939e-02" purity="1.2954168021678925e-01" nType="0">
            <Node pos="l" depth="3" NCoef="0" IVar="-1" Cut="0.0000000000000000e+00" cType="1" res="2.3809110745787621e-02" rms="1.1817175894975662e-01" purity="2.0856066048145294e-01" nType="-99"/>
            <Node pos="r" depth="3" NCoef="0" IVar="-1" Cut="0.0000000000000000e+00" cType="1" res="-4.6579536050558090e-02" rms="2.4718750268220901e-02" purity="2.1552592515945435e-03" nType="-99"/>
          </Node>
        </Node>
        <Node pos="r" depth="1" NCoef="0" IVar="12" Cut="7.9511218070983887e+00" cType="1" res="-2.9324148781597614e-03" rms="5.9154726564884186e-02" purity="2.1439063549041748e-01" nType="0">
          <Node pos="l" depth="2" NCoef="0" IVar="3" Cut="1.5873093605041504e+00" cType="1" res="-5.0163208507001400e-03" rms="4.9732372164726257e-02" purity="1.3938896358013153e-01" nType="0">
            <Node pos="l" depth="3" NCoef="0" IVar="-1" Cut="0.0000000000000000e+00" cType="1" res="-5.4486151784658432e-02" rms="6.4269736409187317e-02" purity="2.6899179816246033e-01" nType="-99"/>
            <Node pos="r" depth="3" NCoef="0" IVar="-1" Cut="0.0000000000000000e+00" cType="1" res="-2.2776274010539055e-02" rms="2.7960995212197304e-02" purity="9.1141508892178535e-03" nType="-99"/>
          </Node>
          <Node pos="r" depth="2" NCoef="0" IVar="-1" Cut="0.0000000000000000e+00" cType="1" res="1.5558333136141300e-02" rms="7.9206764698028564e-02" purity="4.2047905921936035e-01" nType="-99"/>
        </Node>
      </Node>
    </BinaryTree>
    <BinaryTree type="DecisionTree" boostWeight="1.0000000000000000e+00" itree="144">
      <Node pos="s" depth="0" NCoef="0" IVar="12" Cut="7.1519217491149902e+00" cType="1" res="1.1983560398221016e-03" rms="7.5744196772575378e-02" purity="5.0387668609619141e-01" nType="0">
        <Node pos="l" depth="1" NCoef="0" IVar="12" Cut="7.0870075225830078e+00" cType="1" res="8.0037545412778854e-03" rms="1.0738863795995712e-01" purity="2.6966756582260132e-01" nType="0">
          <Node pos="l" depth="2" NCoef="0" IVar="5" Cut="-3.6893079280853271e+00" cType="1" res="-1.4703401830047369e-03" rms="6.2524266541004181e-02" purity="2.4868690967559814e-01" nType="0">
            <Node pos="l" depth="3" NCoef="0" IVar="-1" Cut="0.0000000000000000e+00" cType="1" res="-4.0060523897409439e-02" rms="5.4023616015911102e-02" purity="4.6085312962532043e-01" nType="-99"/>
            <Node pos="r" depth="3" NCoef="0" IVar="-1" Cut="0.0000000000000000e+00" cType="1" res="1.9543055444955826e-02" rms="6.8091318011283875e-02" purity="8.5086576640605927e-02" nType="-99"/>
          </Node>
          <Node pos="r" depth="2" NCoef="0" IVar="-1" Cut="0.0000000000000000e+00" cType="1" res="1.4312985539436340e-01" rms="1.6404758393764496e-01" purity="3.1359574198722839e-01" nType="-99"/>
        </Node>
        <Node pos="r" depth="1" NCoef="0" IVar="16" Cut="4.0920629501342773e+00" cType="1" res="5.5190775310620666e-04" rms="7.1985304355621338e-02" purity="5.2612423896789551e-01" nType="0">
          <Node pos="l" depth="2" NCoef="0" IVar="9" Cut="6.5660452842712402e+00" cType="1" res="-2.2322409786283970e-03" rms="5.1075451076030731e-02" purity="3.0213151127099991e-02" nType="0">
            <Node pos="l" depth="3" NCoef="0" IVar="-1" Cut="0.0000000000000000e+00" cType="1" res="-3.0672736465930939e-02" rms="4.2902402579784393e-02" purity="1.6797166317701340e-02" nType="-99"/>
            <Node pos="r" depth="3" NCoef="0" IVar="-1" Cut="0.0000000000000000e+00" cType="1" res="2.1466055884957314e-02" rms="1.0364872962236404e-01" purity="1.7487542331218719e-01" nType="-99"/>
          </Node>
          <Node pos="r" depth="2" NCoef="0" IVar="0" Cut="7.8947038650512695e+00" cType="1" res="2.0037717185914516e-03" rms="8.0731548368930817e-02" purity="7.8472954034805298e-01" nType="0">
            <Node pos="l" depth="3" NCoef="0" IVar="-1" Cut="0.0000000000000000e+00" cType="1" res="4.4845066964626312e-02" rms="1.3855431973934174e-01" purity="2.3124529421329498e-01" nType="-99"/>
            <Node pos="r" depth="3" NCoef="0" IVar="-1" Cut="0.0000000000000000e+00" cType="1" res="7.0491130463778973e-03" rms="7.5603418052196503e-02" purity="8.1916421651840210e-01" nType="-99"/>
          </Node>
        </Node>
      </Node>
    </BinaryTree>
    <BinaryTree type="DecisionTree" boostWeight="1.0000000000000000e+00" itree="145">
      <Node pos="s" depth="0" NCoef="0" IVar="14" Cut="4.9598994255065918e+00" cType="1" res="4.6982869389466941e-04" rms="7.7153429388999939e-02" purity="4.9268198013305664e-01" nType="0">
        <Node pos="l" depth="1" NCoef="0" IVar="3" Cut="9.4743967056274414e-02" cType="1" res="-1.5668454580008984e-03" rms="7.8990101814270020e-02" purity="1.5091963112354279e-01" nType="0">
          <Node pos="l" depth="2" NCoef="0" IVar="10" Cut="7.4150681495666504e+00" cType="1" res="-9.5505099743604660e-03" rms="9.1755747795104980e-02" purity="5.5838304758071899e-01" nType="0">
            <Node pos="l" depth="3" NCoef="0" IVar="-1" Cut="0.0000000000000000e+00" cType="1" res="-2.6118295267224312e-02" rms="1.1110163480043411e-01" purity="3.4001812338829041e-01" nType="-99"/>
            <Node pos="r" depth="3" NCoef="0" IVar="-1" Cut="0.0000000000000000e+00" cType="1" res="-2.5868907570838928e-02" rms="7.7136836946010590e-02" purity="6.9470709562301636e-01" nType="-99"/>
          </Node>
          <Node pos="r" depth="2" NCoef="0" IVar="11" Cut="7.1246523857116699e+00" cType="1" res="-4.5598921133205295e-04" rms="7.6980844140052795e-02" purity="9.4224691390991211e-02" nType="0">
            <Node pos="l" depth="3" NCoef="0" IVar="-1" Cut="0.0000000000000000e+00" cType="1" res="4.4690836220979691e-03" rms="7.4590623378753662e-02" purity="6.8492539227008820e-02" nType="-99"/>
            <Node pos="r" depth="3" NCoef="0" IVar="-1" Cut="0.0000000000000000e+00" cType="1" res="-2.8638992458581924e-02" rms="9.2037416994571686e-02" purity="2.8030189871788025e-01" nType="-99"/>
          </Node>
        </Node>
        <Node pos="r" depth="1" NCoef="0" IVar="-1" Cut="0.0000000000000000e+00" cType="1" res="2.9403697699308395e-02" rms="7.4398078024387360e-02" purity="9.7356754541397095e-01" nType="-99"/>
      </Node>
    </BinaryTree>
    <BinaryTree type="DecisionTree" boostWeight="1.0000000000000000e+00" itree="146">
      <Node pos="s" depth="0" NCoef="0" IVar="2" Cut="-1.1210976600646973e+01" cType="1" res="2.0538200624287128e-03" rms="8.2757204771041870e-02" purity="4.9108585715293884e-01" nType="0">
        <Node pos="l" depth="1" NCoef="0" IVar="5" Cut="-3.6167416572570801e+00" cType="1" res="-3.1071700504980981e-04" rms="6.7114949226379395e-02" purity="9.1892224550247192e-01" nType="0">
          <Node pos="l" depth="2" NCoef="0" IVar="10" Cut="7.3633670806884766e+00" cType="1" res="6.9871667074039578e-04" rms="6.0759704560041428e-02" purity="9.4075977802276611e-01" nType="0">
            <Node pos="l" depth="3" NCoef="0" IVar="-1" Cut="0.0000000000000000e+00" cType="1" res="2.8366837650537491e-02" rms="7.8954868018627167e-02" purity="8.8169604539871216e-01" nType="-99"/>
            <Node pos="r" depth="3" NCoef="0" IVar="-1" Cut="0.0000000000000000e+00" cType="1" res="-8.8021354749798775e-03" rms="5.3742218762636185e-02" purity="9.5925384759902954e-01" nType="-99"/>
          </Node>
          <Node pos="r" depth="2" NCoef="0" IVar="-1" Cut="0.0000000000000000e+00" cType="1" res="-4.3304704129695892e-02" rms="1.0725929588079453e-01" purity="7.2850030660629272e-01" nType="-99"/>
        </Node>
        <Node pos="r" depth="1" NCoef="0" IVar="3" Cut="5.0456881523132324e-01" cType="1" res="4.2296047322452068e-03" rms="9.4847634434700012e-02" purity="9.7402110695838928e-02" nType="0">
          <Node pos="l" depth="2" NCoef="0" IVar="4" Cut="1.4778453111648560e+00" cType="1" res="1.7772084102034569e-02" rms="1.6147240996360779e-01" purity="3.8155728578567505e-01" nType="0">
            <Node pos="l" depth="3" NCoef="0" IVar="-1" Cut="0.0000000000000000e+00" cType="1" res="4.7362949699163437e-02" rms="2.1085965633392334e-01" purity="5.7850265502929688e-01" nType="-99"/>
            <Node pos="r" depth="3" NCoef="0" IVar="-1" Cut="0.0000000000000000e+00" cType="1" res="9.3076499179005623e-03" rms="1.1619567126035690e-01" purity="2.5152689218521118e-01" nType="-99"/>
          </Node>
          <Node pos="r" depth="2" NCoef="0" IVar="16" Cut="5.1782259941101074e+00" cType="1" res="1.3618875527754426e-03" rms="7.3025889694690704e-02" purity="3.7230219691991806e-02" nType="0">
            <Node pos="l" depth="3" NCoef="0" IVar="-1" Cut="0.0000000000000000e+00" cType="1" res="1.6429261304438114e-03" rms="5.3132183849811554e-02" purity="1.4495663344860077e-02" nType="-99"/>
            <Node pos="r" depth="3" NCoef="0" IVar="-1" Cut="0.0000000000000000e+00" cType="1" res="2.3898171260952950e-02" rms="1.9465167820453644e-01" purity="3.3463108539581299e-01" nType="-99"/>
          </Node>
        </Node>
      </Node>
    </BinaryTree>
    <BinaryTree type="DecisionTree" boostWeight="1.0000000000000000e+00" itree="147">
      <Node pos="s" depth="0" NCoef="0" IVar="12" Cut="7.1383881568908691e+00" cType="1" res="1.7882333486340940e-04" rms="7.4169203639030457e-02" purity="5.0519669055938721e-01" nType="0">
        <Node pos="l" depth="1" NCoef="0" IVar="4" Cut="1.8505576848983765e+00" cType="1" res="-5.8338367380201817e-03" rms="5.0315789878368378e-02" purity="2.6872354745864868e-01" nType="0">
          <Node pos="l" depth="2" NCoef="0" IVar="-1" Cut="0.0000000000000000e+00" cType="1" res="-5.7015709578990936e-02" rms="5.8419656008481979e-02" purity="4.1543710231781006e-01" nType="-99"/>
          <Node pos="r" depth="2" NCoef="0" IVar="-1" Cut="0.0000000000000000e+00" cType="1" res="-3.3943396061658859e-02" rms="3.7952862679958344e-02" purity="8.9714363217353821e-02" nType="-99"/>
        </Node>
        <Node pos="r" depth="1" NCoef="0" IVar="9" Cut="6.4973258972167969e+00" cType="1" res="7.1194925112649798e-04" rms="7.5900383293628693e-02" purity="5.2616411447525024e-01" nType="0">
          <Node pos="l" depth="2" NCoef="0" IVar="7" Cut="3.4029827117919922e+00" cType="1" res="-4.9713655607774854e-04" rms="7.7764540910720825e-02" purity="3.9895930886268616e-01" nType="0">
            <Node pos="l" depth="3" NCoef="0" IVar="-1" Cut="0.0000000000000000e+00" cType="1" res="1.0526588186621666e-02" rms="9.8147213459014893e-02" purity="1.3810764253139496e-01" nType="-99"/>
            <Node pos="r" depth="3" NCoef="0" IVar="-1" Cut="0.0000000000000000e+00" cType="1" res="-1.7261944711208344e-02" rms="6.1421953141689301e-02" purity="5.6387633085250854e-01" nType="-99"/>
          </Node>
          <Node pos="r" depth="2" NCoef="0" IVar="13" Cut="2.1400115489959717e+00" cType="1" res="3.7703334819525480e-03" rms="7.0874735713005066e-02" purity="8.4792882204055786e-01" nType="0">
            <Node pos="l" depth="3" NCoef="0" IVar="-1" Cut="0.0000000000000000e+00" cType="1" res="4.3743789196014404e-02" rms="1.3572762906551361e-01" purity="3.6960622668266296e-01" nType="-99"/>
            <Node pos="r" depth="3" NCoef="0" IVar="-1" Cut="0.0000000000000000e+00" cType="1" res="6.5276040695607662e-03" rms="4.5785341411828995e-02" purity="9.5024228096008301e-01" nType="-99"/>
          </Node>
        </Node>
      </Node>
    </BinaryTree>
    <BinaryTree type="DecisionTree" boostWeight="1.0000000000000000e+00" itree="148">
      <Node pos="s" depth="0" NCoef="0" IVar="9" Cut="5.6994748115539551e+00" cType="1" res="-7.4539944762364030e-04" rms="6.8448796868324280e-02" purity="4.9659281969070435e-01" nType="0">
        <Node pos="l" depth="1" NCoef="0" IVar="7" Cut="3.0162415504455566e+00" cType="1" res="-3.7692764308303595e-03" rms="6.5593302249908447e-02" purity="3.1444057822227478e-01" nType="0">
          <Node pos="l" depth="2" NCoef="0" IVar="2" Cut="-9.0768642425537109e+00" cType="1" res="-7.7358861453831196e-03" rms="6.3982956111431122e-02" purity="3.2421443611383438e-02" nType="0">
            <Node pos="l" depth="3" NCoef="0" IVar="-1" Cut="0.0000000000000000e+00" cType="1" res="-4.9492582678794861e-02" rms="9.2381075024604797e-02" purity="6.7596048116683960e-02" nType="-99"/>
            <Node pos="r" depth="3" NCoef="0" IVar="-1" Cut="0.0000000000000000e+00" cType="1" res="-3.7167761474847794e-02" rms="2.0708423107862473e-02" purity="3.9132195524871349e-03" nType="-99"/>
          </Node>
          <Node pos="r" depth="2" NCoef="0" IVar="5" Cut="-4.0914874076843262e+00" cType="1" res="-2.2567692212760448e-03" rms="6.6134400665760040e-02" purity="4.2197725176811218e-01" nType="0">
            <Node pos="l" depth="3" NCoef="0" IVar="-1" Cut="0.0000000000000000e+00" cType="1" res="6.6533498466014862e-03" rms="4.7148454934358597e-02" purity="8.3205682039260864e-01" nType="-99"/>
            <Node pos="r" depth="3" NCoef="0" IVar="-1" Cut="0.0000000000000000e+00" cType="1" res="-2.6457346975803375e-02" rms="7.3783814907073975e-02" purity="2.1649970114231110e-01" nType="-99"/>
          </Node>
        </Node>
        <Node pos="r" depth="1" NCoef="0" IVar="15" Cut="2.6844763755798340e+00" cType="1" res="4.3025010381825268e-04" rms="6.9491811096668243e-02" purity="5.6741160154342651e-01" nType="0">
          <Node pos="l" depth="2" NCoef="0" IVar="1" Cut="3.7912271022796631e+00" cType="1" res="-2.8837472200393677e-03" rms="6.1363458633422852e-02" purity="7.9626791179180145e-02" nType="0">
            <Node pos="l" depth="3" NCoef="0" IVar="-1" Cut="0.0000000000000000e+00" cType="1" res="-3.1860433518886566e-02" rms="6.7963413894176483e-02" purity="1.2426568567752838e-01" nType="-99"/>
            <Node pos="r" depth="3" NCoef="0" IVar="-1" Cut="0.0000000000000000e+00" cType="1" res="-9.3288469361141324e-04" rms="5.5775988847017288e-02" purity="4.6336591243743896e-02" nType="-99"/>
          </Node>
          <Node pos="r" depth="2" NCoef="0" IVar="2" Cut="-1.0047413825988770e+01" cType="1" res="2.1439662668853998e-03" rms="7.3283821344375610e-02" purity="8.1965214014053345e-01" nType="0">
            <Node pos="l" depth="3" NCoef="0" IVar="-1" Cut="0.0000000000000000e+00" cType="1" res="1.5993872657418251e-03" rms="5.6184176355600357e-02" purity="9.6466886997222900e-01" nType="-99"/>
            <Node pos="r" depth="3" NCoef="0" IVar="-1" Cut="0.0000000000000000e+00" cType="1" res="2.5426968932151794e-02" rms="1.2384947389364243e-01" purity="1.6010856628417969e-01" nType="-99"/>
          </Node>
        </Node>
      </Node>
    </BinaryTree>
    <BinaryTree type="DecisionTree" boostWeight="1.0000000000000000e+00" itree="149">
      <Node pos="s" depth="0" NCoef="0" IVar="15" Cut="3.9826261997222900e+00" cType="1" res="5.4205453488975763e-04" rms="7.2815477848052979e-02" purity="5.0486260652542114e-01" nType="0">
        <Node pos="l" depth="1" NCoef="0" IVar="7" Cut="1.4781228303909302e+00" cType="1" res="-1.4252506662160158e-03" rms="7.1023851633071899e-02" purity="1.5689922869205475e-01" nType="0">
          <Node pos="l" depth="2" NCoef="0" IVar="4" Cut="1.5499409437179565e+00" cType="1" res="9.1268410906195641e-03" rms="1.0595152527093887e-01" purity="1.0033920407295227e-01" nType="0">
            <Node pos="l" depth="3" NCoef="0" IVar="-1" Cut="0.0000000000000000e+00" cType="1" res="4.7473661601543427e-02" rms="1.4721785485744476e-01" purity="2.0308215916156769e-01" nType="-99"/>
            <Node pos="r" depth="3" NCoef="0" IVar="-1" Cut="0.0000000000000000e+00" cType="1" res="-6.3271567225456238e-02" rms="2.6541722938418388e-02" purity="0.0000000000000000e+00" nType="-99"/>
          </Node>
          <Node pos="r" depth="2" NCoef="0" IVar="5" Cut="-3.6246802806854248e+00" cType="1" res="-2.6888642460107803e-03" rms="6.5492302179336548e-02" purity="1.6367226839065552e-01" nType="0">
            <Node pos="l" depth="3" NCoef="0" IVar="-1" Cut="0.0000000000000000e+00" cType="1" res="-2.1399546414613724e-02" rms="7.2820849716663361e-02" purity="3.5940769314765930e-01" nType="-99"/>
            <Node pos="r" depth="3" NCoef="0" IVar="-1" Cut="0.0000000000000000e+00" cType="1" res="-5.9529496356844902e-03" rms="6.0303907841444016e-02" purity="3.9773158729076385e-02" nType="-99"/>
          </Node>
        </Node>
        <Node pos="r" depth="1" NCoef="0" IVar="3" Cut="1.1466187238693237e+00" cType="1" res="3.1302501447498798e-03" rms="7.5028941035270691e-02" purity="9.6264487504959106e-01" nType="0">
          <Node pos="l" depth="2" NCoef="0" IVar="-1" Cut="0.0000000000000000e+00" cType="1" res="1.5510560013353825e-02" rms="5.3335592150688171e-02" purity="9.9320334196090698e-01" nType="-99"/>
          <Node pos="r" depth="2" NCoef="0" IVar="-1" Cut="0.0000000000000000e+00" cType="1" res="2.8583165258169174e-02" rms="1.8577226996421814e-01" purity="6.3980615139007568e-01" nType="-99"/>
        </Node>
      </Node>
    </BinaryTree>
    <BinaryTree type="DecisionTree" boostWeight="1.0000000000000000e+00" itree="150">
      <Node pos="s" depth="0" NCoef="0" IVar="13" Cut="1.8552739620208740e+00" cType="1" res="4.3638705392368138e-04" rms="7.2997607290744781e-02" purity="5.0514757633209229e-01" nType="0">
        <Node pos="l" depth="1" NCoef="0" IVar="11" Cut="7.0891661643981934e+00" cType="1" res="-2.0253560505807400e-03" rms="5.9926904737949371e-02" purity="7.9369872808456421e-02" nType="0">
          <Node pos="l" depth="2" NCoef="0" IVar="9" Cut="6.4598407745361328e+00" cType="1" res="-8.7690947111696005e-04" rms="5.4516457021236420e-02" purity="6.1630554497241974e-02" nType="0">
            <Node pos="l" depth="3" NCoef="0" IVar="-1" Cut="0.0000000000000000e+00" cType="1" res="-1.7412818968296051e-02" rms="4.8809334635734558e-02" purity="4.1089303791522980e-02" nType="-99"/>
            <Node pos="r" depth="3" NCoef="0" IVar="-1" Cut="0.0000000000000000e+00" cType="1" res="2.0949074998497963e-02" rms="8.3166390657424927e-02" purity="2.0125095546245575e-01" nType="-99"/>
          </Node>
          <Node pos="r" depth="2" NCoef="0" IVar="-1" Cut="0.0000000000000000e+00" cType="1" res="-3.3268388360738754e-02" rms="8.7758608162403107e-02" purity="1.9910450279712677e-01" nType="-99"/>
        </Node>
        <Node pos="r" depth="1" NCoef="0" IVar="2" Cut="-9.8690261840820312e+00" cType="1" res="1.8158208113163710e-03" rms="7.9353079199790955e-02" purity="7.4373143911361694e-01" nType="0">
          <Node pos="l" depth="2" NCoef="0" IVar="3" Cut="1.5156675577163696e+00" cType="1" res="4.9109524115920067e-04" rms="7.0421889424324036e-02" purity="9.3626075983047485e-01" nType="0">
            <Node pos="l" depth="3" NCoef="0" IVar="-1" Cut="0.0000000000000000e+00" cType="1" res="-8.3100730553269386e-03" rms="5.9134520590305328e-02" purity="9.7367483377456665e-01" nType="-99"/>
            <Node pos="r" depth="3" NCoef="0" IVar="-1" Cut="0.0000000000000000e+00" cType="1" res="2.4433629587292671e-02" rms="1.6173893213272095e-01" purity="3.8594359159469604e-01" nType="-99"/>
          </Node>
          <Node pos="r" depth="2" NCoef="0" IVar="2" Cut="-9.0228328704833984e+00" cType="1" res="6.3610007055103779e-03" rms="1.0421045124530792e-01" purity="8.3156414330005646e-02" nType="0">
            <Node pos="l" depth="3" NCoef="0" IVar="-1" Cut="0.0000000000000000e+00" cType="1" res="3.8058258593082428e-02" rms="1.7224244773387909e-01" purity="2.8384226560592651e-01" nType="-99"/>
            <Node pos="r" depth="3" NCoef="0" IVar="-1" Cut="0.0000000000000000e+00" cType="1" res="-1.4267019287217408e-04" rms="7.3129490017890930e-02" purity="2.6312170550227165e-02" nType="-99"/>
          </Node>
        </Node>
      </Node>
    </BinaryTree>
    <BinaryTree type="DecisionTree" boostWeight="1.0000000000000000e+00" itree="151">
      <Node pos="s" depth="0" NCoef="0" IVar="12" Cut="7.4554238319396973e+00" cType="1" res="2.6954594068229198e-04" rms="7.3909483850002289e-02" purity="5.0514638423919678e-01" nType="0">
        <Node pos="l" depth="1" NCoef="0" IVar="16" Cut="4.1094751358032227e+00" cType="1" res="3.6115967668592930e-03" rms="8.2413911819458008e-02" purity="3.1051346659660339e-01" nType="0">
          <Node pos="l" depth="2" NCoef="0" IVar="15" Cut="2.9085600376129150e+00" cType="1" res="-1.9581094384193420e-03" rms="4.2353045195341110e-02" purity="7.1487957611680031e-03" nType="0">
            <Node pos="l" depth="3" NCoef="0" IVar="-1" Cut="0.0000000000000000e+00" cType="1" res="-7.0790699683129787e-03" rms="4.2299710214138031e-02" purity="6.1713419854640961e-03" nType="-99"/>
            <Node pos="r" depth="3" NCoef="0" IVar="-1" Cut="0.0000000000000000e+00" cType="1" res="-5.1743268966674805e-02" rms="4.1937772184610367e-02" purity="1.1835061013698578e-02" nType="-99"/>
          </Node>
          <Node pos="r" depth="2" NCoef="0" IVar="2" Cut="-9.1878480911254883e+00" cType="1" res="1.0639918036758900e-02" rms="1.1406467109918594e-01" purity="6.9332432746887207e-01" nType="0">
            <Node pos="l" depth="3" NCoef="0" IVar="-1" Cut="0.0000000000000000e+00" cType="1" res="1.4534372836351395e-02" rms="8.8915050029754639e-02" purity="8.7050575017929077e-01" nType="-99"/>
            <Node pos="r" depth="3" NCoef="0" IVar="-1" Cut="0.0000000000000000e+00" cType="1" res="7.3605105280876160e-02" rms="1.7079785466194153e-01" purity="1.0569270700216293e-01" nType="-99"/>
          </Node>
        </Node>
        <Node pos="r" depth="1" NCoef="0" IVar="11" Cut="6.7029418945312500e+00" cType="1" res="-1.0906798997893929e-03" rms="7.0107974112033844e-02" purity="5.8436262607574463e-01" nType="0">
          <Node pos="l" depth="2" NCoef="0" IVar="1" Cut="4.4128484725952148e+00" cType="1" res="-3.3959669526666403e-03" rms="7.2871319949626923e-02" purity="3.6047160625457764e-01" nType="0">
            <Node pos="l" depth="3" NCoef="0" IVar="-1" Cut="0.0000000000000000e+00" cType="1" res="-2.8916532173752785e-02" rms="7.1243308484554291e-02" purity="4.0712645649909973e-01" nType="-99"/>
            <Node pos="r" depth="3" NCoef="0" IVar="-1" Cut="0.0000000000000000e+00" cType="1" res="1.8678132444620132e-02" rms="8.1070318818092346e-02" purity="1.0099633038043976e-01" nType="-99"/>
          </Node>
          <Node pos="r" depth="2" NCoef="0" IVar="15" Cut="3.5169780254364014e+00" cType="1" res="9.2941615730524063e-04" rms="6.7529015243053436e-02" purity="7.8055566549301147e-01" nType="0">
            <Node pos="l" depth="3" NCoef="0" IVar="-1" Cut="0.0000000000000000e+00" cType="1" res="2.2489739581942558e-02" rms="8.6518734693527222e-02" purity="3.5967281460762024e-01" nType="-99"/>
            <Node pos="r" depth="3" NCoef="0" IVar="-1" Cut="0.0000000000000000e+00" cType="1" res="-1.6007175669074059e-02" rms="5.8484438806772232e-02" purity="9.4182199239730835e-01" nType="-99"/>
          </Node>
        </Node>
      </Node>
    </BinaryTree>
    <BinaryTree type="DecisionTree" boostWeight="1.0000000000000000e+00" itree="152">
      <Node pos="s" depth="0" NCoef="0" IVar="4" Cut="2.1729099750518799e+00" cType="1" res="7.7825144398957491e-04" rms="7.3828220367431641e-02" purity="5.0196242332458496e-01" nType="0">
        <Node pos="l" depth="1" NCoef="0" IVar="15" Cut="3.9826261997222900e+00" cType="1" res="2.0445256959646940e-03" rms="7.8857183456420898e-02" purity="6.4262413978576660e-01" nType="0">
          <Node pos="l" depth="2" NCoef="0" IVar="14" Cut="4.1017475128173828e+00" cType="1" res="4.2937574908137321e-03" rms="9.7375586628913879e-02" purity="2.6049795746803284e-01" nType="0">
            <Node pos="l" depth="3" NCoef="0" IVar="-1" Cut="0.0000000000000000e+00" cType="1" res="3.2288148067891598e-03" rms="7.5540028512477875e-02" purity="6.9511890411376953e-02" nType="-99"/>
            <Node pos="r" depth="3" NCoef="0" IVar="-1" Cut="0.0000000000000000e+00" cType="1" res="2.8933357447385788e-02" rms="1.3734300434589386e-01" purity="7.4066925048828125e-01" nType="-99"/>
          </Node>
          <Node pos="r" depth="2" NCoef="0" IVar="-1" Cut="0.0000000000000000e+00" cType="1" res="8.8334694737568498e-04" rms="5.7895693928003311e-02" purity="9.7729229927062988e-01" nType="-99"/>
        </Node>
        <Node pos="r" depth="1" NCoef="0" IVar="3" Cut="5.2302306890487671e-01" cType="1" res="-3.0033513903617859e-03" rms="5.6021530181169510e-02" purity="8.1890068948268890e-02" nType="0">
          <Node pos="l" depth="2" NCoef="0" IVar="-1" Cut="0.0000000000000000e+00" cType="1" res="-4.0737602859735489e-02" rms="9.5250211656093597e-02" purity="2.8806927800178528e-01" nType="-99"/>
          <Node pos="r" depth="2" NCoef="0" IVar="6" Cut="7.9483351707458496e+00" cType="1" res="-1.6571802552789450e-03" rms="4.5064985752105713e-02" purity="4.3812610208988190e-02" nType="0">
            <Node pos="l" depth="3" NCoef="0" IVar="-1" Cut="0.0000000000000000e+00" cType="1" res="-4.4505139812827110e-03" rms="3.4280352294445038e-02" purity="2.2391906008124352e-02" nType="-99"/>
            <Node pos="r" depth="3" NCoef="0" IVar="-1" Cut="0.0000000000000000e+00" cType="1" res="-3.2030049711465836e-02" rms="5.8931864798069000e-02" purity="8.0116562545299530e-02" nType="-99"/>
          </Node>
        </Node>
      </Node>
    </BinaryTree>
    <BinaryTree type="DecisionTree" boostWeight="1.0000000000000000e+00" itree="153">
      <Node pos="s" depth="0" NCoef="0" IVar="1" Cut="4.4257974624633789e+00" cType="1" res="-7.7444259659387171e-05" rms="7.3289960622787476e-02" purity="5.0116312503814697e-01" nType="0">
        <Node pos="l" depth="1" NCoef="0" IVar="1" Cut="4.3073740005493164e+00" cType="1" res="4.9546972149983048e-04" rms="7.6348952949047089e-02" purity="5.5201995372772217e-01" nType="0">
          <Node pos="l" depth="2" NCoef="0" IVar="8" Cut="-4.0060634613037109e+00" cType="1" res="-5.5245996009034570e-06" rms="7.3620148003101349e-02" purity="5.6391495466232300e-01" nType="0">
            <Node pos="l" depth="3" NCoef="0" IVar="-1" Cut="0.0000000000000000e+00" cType="1" res="-4.7615177929401398e-02" rms="5.9108916670084000e-02" purity="6.6102081537246704e-01" nType="-99"/>
            <Node pos="r" depth="3" NCoef="0" IVar="-1" Cut="0.0000000000000000e+00" cType="1" res="2.8677308000624180e-03" rms="7.4808664619922638e-02" purity="5.5489313602447510e-01" nType="-99"/>
          </Node>
          <Node pos="r" depth="2" NCoef="0" IVar="-1" Cut="0.0000000000000000e+00" cType="1" res="6.7845739424228668e-02" rms="1.1895727366209030e-01" purity="3.0689224600791931e-01" nType="-99"/>
        </Node>
        <Node pos="r" depth="1" NCoef="0" IVar="16" Cut="4.1044917106628418e+00" cType="1" res="-4.2364443652331829e-03" rms="4.5042186975479126e-02" purity="1.3197357952594757e-01" nType="0">
          <Node pos="l" depth="2" NCoef="0" IVar="13" Cut="1.8616399765014648e+00" cType="1" res="-1.8486524932086468e-03" rms="2.3958412930369377e-02" purity="6.0706068761646748e-03" nType="0">
            <Node pos="l" depth="3" NCoef="0" IVar="-1" Cut="0.0000000000000000e+00" cType="1" res="-4.7325650230050087e-03" rms="1.7698945477604866e-02" purity="5.8868676424026489e-03" nType="-99"/>
            <Node pos="r" depth="3" NCoef="0" IVar="-1" Cut="0.0000000000000000e+00" cType="1" res="-4.6437606215476990e-02" rms="3.3587180078029633e-02" purity="6.4747869037091732e-03" nType="-99"/>
          </Node>
          <Node pos="r" depth="2" NCoef="0" IVar="-1" Cut="0.0000000000000000e+00" cType="1" res="-5.0336319953203201e-02" rms="7.1229137480258942e-02" purity="3.9874142408370972e-01" nType="-99"/>
        </Node>
      </Node>
    </BinaryTree>
    <BinaryTree type="DecisionTree" boostWeight="1.0000000000000000e+00" itree="154">
      <Node pos="s" depth="0" NCoef="0" IVar="16" Cut="3.5544188022613525e+00" cType="1" res="1.5161859337240458e-03" rms="7.7221021056175232e-02" purity="4.9809768795967102e-01" nType="0">
        <Node pos="l" depth="1" NCoef="0" IVar="2" Cut="-9.2234210968017578e+00" cType="1" res="-2.5816934648901224e-03" rms="4.7615136951208115e-02" purity="1.1593812145292759e-02" nType="0">
          <Node pos="l" depth="2" NCoef="0" IVar="1" Cut="4.4476256370544434e+00" cType="1" res="-8.2526570186018944e-03" rms="5.5399056524038315e-02" purity="2.2781403735280037e-02" nType="0">
            <Node pos="l" depth="3" NCoef="0" IVar="-1" Cut="0.0000000000000000e+00" cType="1" res="-5.4938606917858124e-02" rms="7.2040788829326630e-02" purity="3.7714812904596329e-02" nType="-99"/>
            <Node pos="r" depth="3" NCoef="0" IVar="-1" Cut="0.0000000000000000e+00" cType="1" res="-3.6515198647975922e-02" rms="2.5121927261352539e-02" purity="6.0401023365557194e-03" nType="-99"/>
          </Node>
          <Node pos="r" depth="2" NCoef="0" IVar="12" Cut="7.3233404159545898e+00" cType="1" res="3.3031098428182304e-04" rms="4.2783882468938828e-02" purity="5.8490545488893986e-03" nType="0">
            <Node pos="l" depth="3" NCoef="0" IVar="-1" Cut="0.0000000000000000e+00" cType="1" res="5.0908263772726059e-02" rms="6.4540296792984009e-02" purity="1.5214709565043449e-02" nType="-99"/>
            <Node pos="r" depth="3" NCoef="0" IVar="-1" Cut="0.0000000000000000e+00" cType="1" res="-5.6800320744514465e-02" rms="1.8554056063294411e-02" purity="0.0000000000000000e+00" nType="-99"/>
          </Node>
        </Node>
        <Node pos="r" depth="1" NCoef="0" IVar="10" Cut="7.1621117591857910e+00" cType="1" res="2.3665367625653744e-03" rms="8.2011044025421143e-02" purity="5.9905219078063965e-01" nType="0">
          <Node pos="l" depth="2" NCoef="0" IVar="12" Cut="8.3253803253173828e+00" cType="1" res="-1.3812192482873797e-03" rms="7.5879067182540894e-02" purity="3.4908095002174377e-01" nType="0">
            <Node pos="l" depth="3" NCoef="0" IVar="-1" Cut="0.0000000000000000e+00" cType="1" res="-1.8129568547010422e-02" rms="6.8730853497982025e-02" purity="2.9269313812255859e-01" nType="-99"/>
            <Node pos="r" depth="3" NCoef="0" IVar="-1" Cut="0.0000000000000000e+00" cType="1" res="2.1315120160579681e-02" rms="1.0269720852375031e-01" purity="6.1531209945678711e-01" nType="-99"/>
          </Node>
          <Node pos="r" depth="2" NCoef="0" IVar="2" Cut="-1.2932290077209473e+01" cType="1" res="3.4698226954787970e-03" rms="8.3698727190494537e-02" purity="6.7264008522033691e-01" nType="0">
            <Node pos="l" depth="3" NCoef="0" IVar="-1" Cut="0.0000000000000000e+00" cType="1" res="6.0425251722335815e-03" rms="4.8227731138467789e-02" purity="9.8584425449371338e-01" nType="-99"/>
            <Node pos="r" depth="3" NCoef="0" IVar="-1" Cut="0.0000000000000000e+00" cType="1" res="2.2890198975801468e-02" rms="1.0829325020313263e-01" purity="3.5527357459068298e-01" nType="-99"/>
          </Node>
        </Node>
      </Node>
    </BinaryTree>
    <BinaryTree type="DecisionTree" boostWeight="1.0000000000000000e+00" itree="155">
      <Node pos="s" depth="0" NCoef="0" IVar="16" Cut="4.0920629501342773e+00" cType="1" res="9.3857059255242348e-04" rms="7.4779540300369263e-02" purity="4.9326455593109131e-01" nType="0">
        <Node pos="l" depth="1" NCoef="0" IVar="7" Cut="9.5702296495437622e-01" cType="1" res="-1.9049620022997260e-03" rms="5.4491903632879257e-02" purity="2.1915372461080551e-02" nType="0">
          <Node pos="l" depth="2" NCoef="0" IVar="-1" Cut="0.0000000000000000e+00" cType="1" res="3.8793683052062988e-02" rms="8.9929185807704926e-02" purity="6.2586404383182526e-02" nType="-99"/>
          <Node pos="r" depth="2" NCoef="0" IVar="3" Cut="2.0488445460796356e-01" cType="1" res="-3.0432953499257565e-03" rms="4.9634262919425964e-02" purity="1.8013434484601021e-02" nType="0">
            <Node pos="l" depth="3" NCoef="0" IVar="-1" Cut="0.0000000000000000e+00" cType="1" res="-3.4686230123043060e-02" rms="9.7006767988204956e-02" purity="1.2275803089141846e-01" nType="-99"/>
            <Node pos="r" depth="3" NCoef="0" IVar="-1" Cut="0.0000000000000000e+00" cType="1" res="-2.2786917164921761e-02" rms="4.1494328528642654e-02" purity="7.1777682751417160e-03" nType="-99"/>
          </Node>
        </Node>
        <Node pos="r" depth="1" NCoef="0" IVar="16" Cut="4.9113364219665527e+00" cType="1" res="2.6103241834789515e-03" rms="8.4417425096035004e-02" purity="7.7037751674652100e-01" nType="0">
          <Node pos="l" depth="2" NCoef="0" IVar="7" Cut="3.1905901432037354e+00" cType="1" res="1.2415098957717419e-02" rms="1.2930169701576233e-01" purity="2.1252709627151489e-01" nType="0">
            <Node pos="l" depth="3" NCoef="0" IVar="-1" Cut="0.0000000000000000e+00" cType="1" res="5.9838928282260895e-02" rms="1.7143785953521729e-01" purity="3.1999555230140686e-01" nType="-99"/>
            <Node pos="r" depth="3" NCoef="0" IVar="-1" Cut="0.0000000000000000e+00" cType="1" res="1.0270492173731327e-02" rms="1.0181608051061630e-01" purity="1.6093491017818451e-01" nType="-99"/>
          </Node>
          <Node pos="r" depth="2" NCoef="0" IVar="3" Cut="1.2512438297271729e+00" cType="1" res="-1.1077075032517314e-04" rms="6.6558241844177246e-02" purity="9.2519629001617432e-01" nType="0">
            <Node pos="l" depth="3" NCoef="0" IVar="-1" Cut="0.0000000000000000e+00" cType="1" res="9.1568753123283386e-03" rms="5.6334819644689560e-02" purity="9.8267984390258789e-01" nType="-99"/>
            <Node pos="r" depth="3" NCoef="0" IVar="-1" Cut="0.0000000000000000e+00" cType="1" res="-1.5810459852218628e-02" rms="1.2547990679740906e-01" purity="4.0394037961959839e-01" nType="-99"/>
          </Node>
        </Node>
      </Node>
    </BinaryTree>
    <BinaryTree type="DecisionTree" boostWeight="1.0000000000000000e+00" itree="156">
      <Node pos="s" depth="0" NCoef="0" IVar="1" Cut="4.4257974624633789e+00" cType="1" res="9.0566597646102309e-04" rms="7.9194836318492889e-02" purity="4.9984869360923767e-01" nType="0">
        <Node pos="l" depth="1" NCoef="0" IVar="10" Cut="7.3850126266479492e+00" cType="1" res="1.5036519616842270e-03" rms="8.2836285233497620e-02" purity="5.5080306529998779e-01" nType="0">
          <Node pos="l" depth="2" NCoef="0" IVar="9" Cut="6.5539236068725586e+00" cType="1" res="4.0885456837713718e-03" rms="9.1674797236919403e-02" purity="3.4803423285484314e-01" nType="0">
            <Node pos="l" depth="3" NCoef="0" IVar="-1" Cut="0.0000000000000000e+00" cType="1" res="4.2470754124224186e-03" rms="8.2550965249538422e-02" purity="3.1346133351325989e-01" nType="-99"/>
            <Node pos="r" depth="3" NCoef="0" IVar="-1" Cut="0.0000000000000000e+00" cType="1" res="5.2429366856813431e-02" rms="1.3445453345775604e-01" purity="5.6929224729537964e-01" nType="-99"/>
          </Node>
          <Node pos="r" depth="2" NCoef="0" IVar="9" Cut="5.6436839103698730e+00" cType="1" res="3.2797655876493081e-05" rms="7.7318944036960602e-02" purity="6.6618245840072632e-01" nType="0">
            <Node pos="l" depth="3" NCoef="0" IVar="-1" Cut="0.0000000000000000e+00" cType="1" res="2.2031011059880257e-02" rms="1.1261964589357376e-01" purity="4.0348708629608154e-01" nType="-99"/>
            <Node pos="r" depth="3" NCoef="0" IVar="-1" Cut="0.0000000000000000e+00" cType="1" res="-9.3755703419446945e-03" rms="6.5306909382343292e-02" purity="7.3307961225509644e-01" nType="-99"/>
          </Node>
        </Node>
        <Node pos="r" depth="1" NCoef="0" IVar="16" Cut="4.1044917106628418e+00" cType="1" res="-3.3916954416781664e-03" rms="4.4839851558208466e-02" purity="1.3367061316967010e-01" nType="0">
          <Node pos="l" depth="2" NCoef="0" IVar="13" Cut="1.8616399765014648e+00" cType="1" res="-1.8509873189032078e-03" rms="2.3879617452621460e-02" purity="4.0585636161267757e-03" nType="0">
            <Node pos="l" depth="3" NCoef="0" IVar="-1" Cut="0.0000000000000000e+00" cType="1" res="-6.0911164619028568e-03" rms="1.9886353984475136e-02" purity="5.8644646778702736e-03" nType="-99"/>
            <Node pos="r" depth="3" NCoef="0" IVar="-1" Cut="0.0000000000000000e+00" cType="1" res="-6.0934353619813919e-02" rms="3.0733117833733559e-02" purity="0.0000000000000000e+00" nType="-99"/>
          </Node>
          <Node pos="r" depth="2" NCoef="0" IVar="-1" Cut="0.0000000000000000e+00" cType="1" res="-3.2907452434301376e-02" rms="7.0347830653190613e-02" purity="3.9940035343170166e-01" nType="-99"/>
        </Node>
      </Node>
    </BinaryTree>
    <BinaryTree type="DecisionTree" boostWeight="1.0000000000000000e+00" itree="157">
      <Node pos="s" depth="0" NCoef="0" IVar="12" Cut="7.5771193504333496e+00" cType="1" res="5.7692226255312562e-04" rms="7.4538692831993103e-02" purity="4.9915164709091187e-01" nType="0">
        <Node pos="l" depth="1" NCoef="0" IVar="13" Cut="2.1193656921386719e+00" cType="1" res="3.2709324732422829e-03" rms="8.8016569614410400e-02" purity="3.1858736276626587e-01" nType="0">
          <Node pos="l" depth="2" NCoef="0" IVar="9" Cut="5.5677132606506348e+00" cType="1" res="-3.2060567173175514e-04" rms="7.3210023343563080e-02" purity="6.2840379774570465e-02" nType="0">
            <Node pos="l" depth="3" NCoef="0" IVar="-1" Cut="0.0000000000000000e+00" cType="1" res="4.8568222671747208e-02" rms="9.7528152167797089e-02" purity="5.5391937494277954e-02" nType="-99"/>
            <Node pos="r" depth="3" NCoef="0" IVar="-1" Cut="0.0000000000000000e+00" cType="1" res="-1.8251217901706696e-02" rms="6.3265152275562286e-02" purity="6.5232664346694946e-02" nType="-99"/>
          </Node>
          <Node pos="r" depth="2" NCoef="0" IVar="11" Cut="6.2922987937927246e+00" cType="1" res="8.2834204658865929e-03" rms="1.0504984855651855e-01" purity="6.7551761865615845e-01" nType="0">
            <Node pos="l" depth="3" NCoef="0" IVar="-1" Cut="0.0000000000000000e+00" cType="1" res="8.1578776240348816e-02" rms="1.5376345813274384e-01" purity="5.4215109348297119e-01" nType="-99"/>
            <Node pos="r" depth="3" NCoef="0" IVar="-1" Cut="0.0000000000000000e+00" cType="1" res="1.4110953547060490e-02" rms="8.5717961192131042e-02" purity="7.1303349733352661e-01" nType="-99"/>
          </Node>
        </Node>
        <Node pos="r" depth="1" NCoef="0" IVar="7" Cut="1.7894080877304077e+00" cType="1" res="-1.0857786983251572e-03" rms="6.4781039953231812e-02" purity="6.1059314012527466e-01" nType="0">
          <Node pos="l" depth="2" NCoef="0" IVar="-1" Cut="0.0000000000000000e+00" cType="1" res="-3.6651041358709335e-02" rms="9.0269394218921661e-02" purity="2.2567529976367950e-01" nType="-99"/>
          <Node pos="r" depth="2" NCoef="0" IVar="15" Cut="3.8451004028320312e+00" cType="1" res="-4.5894217328168452e-04" rms="6.2471888959407806e-02" purity="6.3865011930465698e-01" nType="0">
            <Node pos="l" depth="3" NCoef="0" IVar="-1" Cut="0.0000000000000000e+00" cType="1" res="-1.6851551830768585e-02" rms="6.5638206899166107e-02" purity="2.1347837150096893e-01" nType="-99"/>
            <Node pos="r" depth="3" NCoef="0" IVar="-1" Cut="0.0000000000000000e+00" cType="1" res="1.2355398386716843e-02" rms="5.9830863028764725e-02" purity="9.7000980377197266e-01" nType="-99"/>
          </Node>
        </Node>
      </Node>
    </BinaryTree>
    <BinaryTree type="DecisionTree" boostWeight="1.0000000000000000e+00" itree="158">
      <Node pos="s" depth="0" NCoef="0" IVar="12" Cut="8.0034637451171875e+00" cType="1" res="5.0802162149921060e-04" rms="7.3525428771972656e-02" purity="4.9948406219482422e-01" nType="0">
        <Node pos="l" depth="1" NCoef="0" IVar="15" Cut="2.2059249877929688e+00" cType="1" res="1.7091878689825535e-03" rms="7.6330430805683136e-02" purity="3.9227721095085144e-01" nType="0">
          <Node pos="l" depth="2" NCoef="0" IVar="3" Cut="5.0455993413925171e-01" cType="1" res="-2.2036484442651272e-03" rms="4.7790560871362686e-02" purity="2.5720188394188881e-02" nType="0">
            <Node pos="l" depth="3" NCoef="0" IVar="-1" Cut="0.0000000000000000e+00" cType="1" res="-1.7851276323199272e-02" rms="9.5498904585838318e-02" purity="1.3568559288978577e-01" nType="-99"/>
            <Node pos="r" depth="3" NCoef="0" IVar="-1" Cut="0.0000000000000000e+00" cType="1" res="-2.3853713646531105e-02" rms="3.5454824566841125e-02" purity="9.2911738902330399e-03" nType="-99"/>
          </Node>
          <Node pos="r" depth="2" NCoef="0" IVar="11" Cut="5.8722314834594727e+00" cType="1" res="3.6482268478721380e-03" rms="8.7008349597454071e-02" purity="5.7392764091491699e-01" nType="0">
            <Node pos="l" depth="3" NCoef="0" IVar="-1" Cut="0.0000000000000000e+00" cType="1" res="4.7074038535356522e-02" rms="1.3572049140930176e-01" purity="4.9140390753746033e-01" nType="-99"/>
            <Node pos="r" depth="3" NCoef="0" IVar="-1" Cut="0.0000000000000000e+00" cType="1" res="1.4997877180576324e-02" rms="8.2415141165256500e-02" purity="5.7975488901138306e-01" nType="-99"/>
          </Node>
        </Node>
        <Node pos="r" depth="1" NCoef="0" IVar="5" Cut="-3.8995532989501953e+00" cType="1" res="-2.0808838307857513e-03" rms="6.7008890211582184e-02" purity="7.3054981231689453e-01" nType="0">
          <Node pos="l" depth="2" NCoef="0" IVar="-1" Cut="0.0000000000000000e+00" cType="1" res="1.1641052697086707e-04" rms="5.9351604431867599e-02" purity="9.3175143003463745e-01" nType="-99"/>
          <Node pos="r" depth="2" NCoef="0" IVar="2" Cut="-9.9304628372192383e+00" cType="1" res="-5.6061120703816414e-03" rms="7.8103482723236084e-02" purity="3.9165055751800537e-01" nType="0">
            <Node pos="l" depth="3" NCoef="0" IVar="-1" Cut="0.0000000000000000e+00" cType="1" res="-6.7056700587272644e-02" rms="1.0072328895330429e-01" purity="7.7645432949066162e-01" nType="-99"/>
            <Node pos="r" depth="3" NCoef="0" IVar="-1" Cut="0.0000000000000000e+00" cType="1" res="-8.7574319913983345e-03" rms="4.8404917120933533e-02" purity="3.7857353687286377e-02" nType="-99"/>
          </Node>
        </Node>
      </Node>
    </BinaryTree>
    <BinaryTree type="DecisionTree" boostWeight="1.0000000000000000e+00" itree="159">
      <Node pos="s" depth="0" NCoef="0" IVar="9" Cut="5.6994748115539551e+00" cType="1" res="-8.1348873209208250e-05" rms="7.2819709777832031e-02" purity="4.9800720810890198e-01" nType="0">
        <Node pos="l" depth="1" NCoef="0" IVar="10" Cut="7.6440176963806152e+00" cType="1" res="2.7571702376008034e-03" rms="9.1140538454055786e-02" purity="3.2214283943176270e-01" nType="0">
          <Node pos="l" depth="2" NCoef="0" IVar="3" Cut="7.7958190441131592e-01" cType="1" res="-5.8764312416315079e-04" rms="6.4172290265560150e-02" purity="2.5398150086402893e-01" nType="0">
            <Node pos="l" depth="3" NCoef="0" IVar="-1" Cut="0.0000000000000000e+00" cType="1" res="1.8512126058340073e-02" rms="9.3530878424644470e-02" purity="7.0479869842529297e-01" nType="-99"/>
            <Node pos="r" depth="3" NCoef="0" IVar="-1" Cut="0.0000000000000000e+00" cType="1" res="-3.7587206810712814e-02" rms="4.4112611562013626e-02" purity="4.5053046196699142e-02" nType="-99"/>
          </Node>
          <Node pos="r" depth="2" NCoef="0" IVar="10" Cut="7.8247170448303223e+00" cType="1" res="8.0867512151598930e-03" rms="1.2220592796802521e-01" purity="4.3075025081634521e-01" nType="0">
            <Node pos="l" depth="3" NCoef="0" IVar="-1" Cut="0.0000000000000000e+00" cType="1" res="1.7265808582305908e-01" rms="1.7568823695182800e-01" purity="2.7178046107292175e-01" nType="-99"/>
            <Node pos="r" depth="3" NCoef="0" IVar="-1" Cut="0.0000000000000000e+00" cType="1" res="-2.3955497890710831e-03" rms="8.1040687859058380e-02" purity="5.1206749677658081e-01" nType="-99"/>
          </Node>
        </Node>
        <Node pos="r" depth="1" NCoef="0" IVar="3" Cut="2.0489573478698730e-01" cType="1" res="-1.1949960608035326e-03" rms="6.4185529947280884e-02" purity="5.6700474023818970e-01" nType="0">
          <Node pos="l" depth="2" NCoef="0" IVar="7" Cut="3.1751797199249268e+00" cType="1" res="9.8836154211312532e-04" rms="5.9426296502351761e-02" purity="8.9155083894729614e-01" nType="0">
            <Node pos="l" depth="3" NCoef="0" IVar="-1" Cut="0.0000000000000000e+00" cType="1" res="1.9472142681479454e-02" rms="1.1283004283905029e-01" purity="6.1026877164840698e-01" nType="-99"/>
            <Node pos="r" depth="3" NCoef="0" IVar="-1" Cut="0.0000000000000000e+00" cType="1" res="-1.0105445049703121e-02" rms="4.0794666856527328e-02" purity="9.4815796613693237e-01" nType="-99"/>
          </Node>
          <Node pos="r" depth="2" NCoef="0" IVar="7" Cut="3.7728545665740967e+00" cType="1" res="-2.5392440147697926e-03" rms="6.6912204027175903e-02" purity="3.6718845367431641e-01" nType="0">
            <Node pos="l" depth="3" NCoef="0" IVar="-1" Cut="0.0000000000000000e+00" cType="1" res="-3.1571086496114731e-02" rms="6.6210046410560608e-02" purity="8.5956349968910217e-02" nType="-99"/>
            <Node pos="r" depth="3" NCoef="0" IVar="-1" Cut="0.0000000000000000e+00" cType="1" res="2.0746544469147921e-03" rms="6.7636050283908844e-02" purity="7.0387589931488037e-01" nType="-99"/>
          </Node>
        </Node>
      </Node>
    </BinaryTree>
    <BinaryTree type="DecisionTree" boostWeight="1.0000000000000000e+00" itree="160">
      <Node pos="s" depth="0" NCoef="0" IVar="5" Cut="-4.1672368049621582e+00" cType="1" res="1.2356255319900811e-04" rms="7.3526971042156219e-02" purity="4.9720728397369385e-01" nType="0">
        <Node pos="l" depth="1" NCoef="0" IVar="7" Cut="2.3730206489562988e+00" cType="1" res="1.9116664770990610e-03" rms="6.9186873733997345e-02" purity="8.4782743453979492e-01" nType="0">
          <Node pos="l" depth="2" NCoef="0" IVar="-1" Cut="0.0000000000000000e+00" cType="1" res="2.5320090353488922e-02" rms="1.4443850517272949e-01" purity="4.9723002314567566e-01" nType="-99"/>
          <Node pos="r" depth="2" NCoef="0" IVar="16" Cut="4.2796444892883301e+00" cType="1" res="6.5994332544505596e-04" rms="5.4742731153964996e-02" purity="8.8652342557907104e-01" nType="0">
            <Node pos="l" depth="3" NCoef="0" IVar="-1" Cut="0.0000000000000000e+00" cType="1" res="-4.0104743093252182e-02" rms="7.9491041600704193e-02" purity="1.3418765366077423e-01" nType="-99"/>
            <Node pos="r" depth="3" NCoef="0" IVar="-1" Cut="0.0000000000000000e+00" cType="1" res="2.5114260613918304e-02" rms="5.0791364163160324e-02" purity="9.7589361667633057e-01" nType="-99"/>
          </Node>
        </Node>
        <Node pos="r" depth="1" NCoef="0" IVar="5" Cut="-3.9714586734771729e+00" cType="1" res="-8.4435008466243744e-04" rms="7.5755052268505096e-02" purity="3.0741420388221741e-01" nType="0">
          <Node pos="l" depth="2" NCoef="0" IVar="9" Cut="5.8936495780944824e+00" cType="1" res="4.0168287232518196e-03" rms="8.7936483323574066e-02" purity="7.1828448772430420e-01" nType="0">
            <Node pos="l" depth="3" NCoef="0" IVar="-1" Cut="0.0000000000000000e+00" cType="1" res="-2.3854911327362061e-02" rms="7.7381692826747894e-02" purity="5.2530437707901001e-01" nType="-99"/>
            <Node pos="r" depth="3" NCoef="0" IVar="-1" Cut="0.0000000000000000e+00" cType="1" res="4.5242067426443100e-02" rms="9.1946534812450409e-02" purity="8.0251878499984741e-01" nType="-99"/>
          </Node>
          <Node pos="r" depth="2" NCoef="0" IVar="2" Cut="-9.9287872314453125e+00" cType="1" res="-1.6054946463555098e-03" rms="7.3636516928672791e-02" purity="2.4308171868324280e-01" nType="0">
            <Node pos="l" depth="3" NCoef="0" IVar="-1" Cut="0.0000000000000000e+00" cType="1" res="-2.6414008811116219e-02" rms="9.4991117715835571e-02" purity="6.8242621421813965e-01" nType="-99"/>
            <Node pos="r" depth="3" NCoef="0" IVar="-1" Cut="0.0000000000000000e+00" cType="1" res="-1.9302153668832034e-04" rms="6.0568630695343018e-02" purity="3.0042568221688271e-02" nType="-99"/>
          </Node>
        </Node>
      </Node>
    </BinaryTree>
    <BinaryTree type="DecisionTree" boostWeight="1.0000000000000000e+00" itree="161">
      <Node pos="s" depth="0" NCoef="0" IVar="1" Cut="3.5149011611938477e+00" cType="1" res="7.6972646638751030e-04" rms="7.8148655593395233e-02" purity="4.8994445800781250e-01" nType="0">
        <Node pos="l" depth="1" NCoef="0" IVar="13" Cut="2.5907456874847412e+00" cType="1" res="-1.8010239582508802e-03" rms="6.8128608167171478e-02" purity="6.9404196739196777e-01" nType="0">
          <Node pos="l" depth="2" NCoef="0" IVar="13" Cut="1.7874542474746704e+00" cType="1" res="-6.9938106462359428e-03" rms="8.6136952042579651e-02" purity="2.6186069846153259e-01" nType="0">
            <Node pos="l" depth="3" NCoef="0" IVar="-1" Cut="0.0000000000000000e+00" cType="1" res="-9.8309004679322243e-03" rms="8.4413893520832062e-02" purity="1.1621218919754028e-01" nType="-99"/>
            <Node pos="r" depth="3" NCoef="0" IVar="-1" Cut="0.0000000000000000e+00" cType="1" res="-4.8630472272634506e-02" rms="8.7773889303207397e-02" purity="4.2585319280624390e-01" nType="-99"/>
          </Node>
          <Node pos="r" depth="2" NCoef="0" IVar="-1" Cut="0.0000000000000000e+00" cType="1" res="1.7779486253857613e-02" rms="5.3207058459520340e-02" purity="9.7128480672836304e-01" nType="-99"/>
        </Node>
        <Node pos="r" depth="1" NCoef="0" IVar="8" Cut="-1.9725651741027832e+00" cType="1" res="2.4091936647891998e-03" rms="8.3875186741352081e-02" purity="3.5978356003761292e-01" nType="0">
          <Node pos="l" depth="2" NCoef="0" IVar="12" Cut="7.4989924430847168e+00" cType="1" res="-4.4617257080972195e-03" rms="5.6643739342689514e-02" purity="4.4446009397506714e-01" nType="0">
            <Node pos="l" depth="3" NCoef="0" IVar="-1" Cut="0.0000000000000000e+00" cType="1" res="-7.3618628084659576e-02" rms="5.5193588137626648e-02" purity="2.6921227574348450e-01" nType="-99"/>
            <Node pos="r" depth="3" NCoef="0" IVar="-1" Cut="0.0000000000000000e+00" cType="1" res="-2.5696843862533569e-02" rms="5.7355888187885284e-02" purity="5.3717964887619019e-01" nType="-99"/>
          </Node>
          <Node pos="r" depth="2" NCoef="0" IVar="12" Cut="8.0460977554321289e+00" cType="1" res="4.2311013676226139e-03" rms="8.9631810784339905e-02" purity="3.3733057975769043e-01" nType="0">
            <Node pos="l" depth="3" NCoef="0" IVar="-1" Cut="0.0000000000000000e+00" cType="1" res="3.2806739211082458e-02" rms="9.4548940658569336e-02" purity="2.8124970197677612e-01" nType="-99"/>
            <Node pos="r" depth="3" NCoef="0" IVar="-1" Cut="0.0000000000000000e+00" cType="1" res="-1.7081512138247490e-02" rms="6.5288372337818146e-02" purity="5.6766808032989502e-01" nType="-99"/>
          </Node>
        </Node>
      </Node>
    </BinaryTree>
    <BinaryTree type="DecisionTree" boostWeight="1.0000000000000000e+00" itree="162">
      <Node pos="s" depth="0" NCoef="0" IVar="0" Cut="7.6837229728698730e+00" cType="1" res="3.4123091609217227e-04" rms="7.6251573860645294e-02" purity="4.9896577000617981e-01" nType="0">
        <Node pos="l" depth="1" NCoef="0" IVar="3" Cut="9.4066536426544189e-01" cType="1" res="-5.3735137917101383e-03" rms="3.7645451724529266e-02" purity="3.2849505543708801e-02" nType="0">
          <Node pos="l" depth="2" NCoef="0" IVar="-1" Cut="0.0000000000000000e+00" cType="1" res="-5.5578105151653290e-02" rms="6.1534550040960312e-02" purity="9.5702774822711945e-02" nType="-99"/>
          <Node pos="r" depth="2" NCoef="0" IVar="15" Cut="2.2600746154785156e+00" cType="1" res="-1.5649772249162197e-03" rms="1.5360080637037754e-02" purity="2.7003660798072815e-03" nType="0">
            <Node pos="l" depth="3" NCoef="0" IVar="-1" Cut="0.0000000000000000e+00" cType="1" res="-5.0631847232580185e-02" rms="2.3992280475795269e-03" purity="0.0000000000000000e+00" nType="-99"/>
            <Node pos="r" depth="3" NCoef="0" IVar="-1" Cut="0.0000000000000000e+00" cType="1" res="-4.4956520199775696e-02" rms="2.3034581914544106e-02" purity="6.1983289197087288e-03" nType="-99"/>
          </Node>
        </Node>
        <Node pos="r" depth="1" NCoef="0" IVar="11" Cut="6.3091402053833008e+00" cType="1" res="9.1808766592293978e-04" rms="7.9085566103458405e-02" purity="5.4601645469665527e-01" nType="0">
          <Node pos="l" depth="2" NCoef="0" IVar="7" Cut="2.3578131198883057e+00" cType="1" res="-2.2362263407558203e-03" rms="7.9317100346088409e-02" purity="3.0656319856643677e-01" nType="0">
            <Node pos="l" depth="3" NCoef="0" IVar="-1" Cut="0.0000000000000000e+00" cType="1" res="3.1698800623416901e-02" rms="1.0701375454664230e-01" purity="8.6736395955085754e-02" nType="-99"/>
            <Node pos="r" depth="3" NCoef="0" IVar="-1" Cut="0.0000000000000000e+00" cType="1" res="-3.0180774629116058e-02" rms="7.2378642857074738e-02" purity="3.5042074322700500e-01" nType="-99"/>
          </Node>
          <Node pos="r" depth="2" NCoef="0" IVar="7" Cut="1.7796300649642944e+00" cType="1" res="1.9999446813017130e-03" rms="7.8976996243000031e-02" purity="6.2814331054687500e-01" nType="0">
            <Node pos="l" depth="3" NCoef="0" IVar="-1" Cut="0.0000000000000000e+00" cType="1" res="-4.3860025703907013e-02" rms="9.8569579422473907e-02" purity="1.4377529919147491e-01" nType="-99"/>
            <Node pos="r" depth="3" NCoef="0" IVar="-1" Cut="0.0000000000000000e+00" cType="1" res="1.9864769652485847e-02" rms="7.7027164399623871e-02" purity="6.6879719495773315e-01" nType="-99"/>
          </Node>
        </Node>
      </Node>
    </BinaryTree>
    <BinaryTree type="DecisionTree" boostWeight="1.0000000000000000e+00" itree="163">
      <Node pos="s" depth="0" NCoef="0" IVar="16" Cut="2.4791307449340820e+00" cType="1" res="1.3301649596542120e-03" rms="7.6398655772209167e-02" purity="5.0669991970062256e-01" nType="0">
        <Node pos="l" depth="1" NCoef="0" IVar="-1" Cut="0.0000000000000000e+00" cType="1" res="1.1714321374893188e-01" rms="1.0610067844390869e-01" purity="1.9795008003711700e-02" nType="-99"/>
        <Node pos="r" depth="1" NCoef="0" IVar="15" Cut="2.2517669200897217e+00" cType="1" res="1.0331262601539493e-03" rms="7.5459353625774384e-02" purity="5.1919585466384888e-01" nType="0">
          <Node pos="l" depth="2" NCoef="0" IVar="12" Cut="8.0184307098388672e+00" cType="1" res="-1.8128349911421537e-03" rms="5.3152434527873993e-02" purity="4.3417591601610184e-02" nType="0">
            <Node pos="l" depth="3" NCoef="0" IVar="-1" Cut="0.0000000000000000e+00" cType="1" res="-3.3648353070020676e-02" rms="4.0856931358575821e-02" purity="2.7370085939764977e-02" nType="-99"/>
            <Node pos="r" depth="3" NCoef="0" IVar="-1" Cut="0.0000000000000000e+00" cType="1" res="3.8503587245941162e-02" rms="9.7466081380844116e-02" purity="1.3741254806518555e-01" nType="-99"/>
          </Node>
          <Node pos="r" depth="2" NCoef="0" IVar="2" Cut="-1.1616643905639648e+01" cType="1" res="1.9996569026261568e-03" rms="8.1637986004352570e-02" purity="6.8077719211578369e-01" nType="0">
            <Node pos="l" depth="3" NCoef="0" IVar="-1" Cut="0.0000000000000000e+00" cType="1" res="-3.8266805931925774e-03" rms="5.4610088467597961e-02" purity="9.6931499242782593e-01" nType="-99"/>
            <Node pos="r" depth="3" NCoef="0" IVar="-1" Cut="0.0000000000000000e+00" cType="1" res="1.8870297819375992e-02" rms="1.1135669797658920e-01" purity="2.2969114780426025e-01" nType="-99"/>
          </Node>
        </Node>
      </Node>
    </BinaryTree>
    <BinaryTree type="DecisionTree" boostWeight="1.0000000000000000e+00" itree="164">
      <Node pos="s" depth="0" NCoef="0" IVar="1" Cut="3.9182376861572266e+00" cType="1" res="-3.6282750079408288e-04" rms="7.5166881084442139e-02" purity="5.0062423944473267e-01" nType="0">
        <Node pos="l" depth="1" NCoef="0" IVar="0" Cut="7.8724298477172852e+00" cType="1" res="1.1534315999597311e-03" rms="8.1845171749591827e-02" purity="6.1504966020584106e-01" nType="0">
          <Node pos="l" depth="2" NCoef="0" IVar="-1" Cut="0.0000000000000000e+00" cType="1" res="4.8035833984613419e-02" rms="1.3349217176437378e-01" purity="9.7408004105091095e-02" nType="-99"/>
          <Node pos="r" depth="2" NCoef="0" IVar="11" Cut="5.9128503799438477e+00" cType="1" res="4.9774814397096634e-04" rms="7.8387960791587830e-02" purity="6.4040470123291016e-01" nType="0">
            <Node pos="l" depth="3" NCoef="0" IVar="-1" Cut="0.0000000000000000e+00" cType="1" res="3.3480111509561539e-02" rms="1.2593233585357666e-01" purity="3.1795176863670349e-01" nType="-99"/>
            <Node pos="r" depth="3" NCoef="0" IVar="-1" Cut="0.0000000000000000e+00" cType="1" res="-1.1028137523680925e-03" rms="7.2365581989288330e-02" purity="6.7037272453308105e-01" nType="-99"/>
          </Node>
        </Node>
        <Node pos="r" depth="1" NCoef="0" IVar="0" Cut="8.2282409667968750e+00" cType="1" res="-3.2434291206300259e-03" rms="6.0376398265361786e-02" purity="2.8323790431022644e-01" nType="0">
          <Node pos="l" depth="2" NCoef="0" IVar="9" Cut="5.3253197669982910e+00" cType="1" res="-1.2298828223720193e-03" rms="4.8364326357841492e-02" purity="1.0384766012430191e-01" nType="0">
            <Node pos="l" depth="3" NCoef="0" IVar="-1" Cut="0.0000000000000000e+00" cType="1" res="4.2184833437204361e-02" rms="6.3716143369674683e-02" purity="1.4243654906749725e-01" nType="-99"/>
            <Node pos="r" depth="3" NCoef="0" IVar="-1" Cut="0.0000000000000000e+00" cType="1" res="-2.4301474913954735e-02" rms="4.5069742947816849e-02" purity="9.7197957336902618e-02" nType="-99"/>
          </Node>
          <Node pos="r" depth="2" NCoef="0" IVar="10" Cut="7.1623792648315430e+00" cType="1" res="-5.9479228220880032e-03" rms="7.3395997285842896e-02" purity="5.2418583631515503e-01" nType="0">
            <Node pos="l" depth="3" NCoef="0" IVar="-1" Cut="0.0000000000000000e+00" cType="1" res="-1.4043221250176430e-02" rms="5.8131653815507889e-02" purity="2.3799172043800354e-01" nType="-99"/>
            <Node pos="r" depth="3" NCoef="0" IVar="-1" Cut="0.0000000000000000e+00" cType="1" res="-5.8185771107673645e-02" rms="7.8121170401573181e-02" purity="6.2720346450805664e-01" nType="-99"/>
          </Node>
        </Node>
      </Node>
    </BinaryTree>
    <BinaryTree type="DecisionTree" boostWeight="1.0000000000000000e+00" itree="165">
      <Node pos="s" depth="0" NCoef="0" IVar="6" Cut="7.4780130386352539e+00" cType="1" res="3.9509564521722496e-04" rms="7.4526377022266388e-02" purity="4.9775663018226624e-01" nType="0">
        <Node pos="l" depth="1" NCoef="0" IVar="16" Cut="4.3453950881958008e+00" cType="1" res="3.7067430093884468e-03" rms="8.3413295447826385e-02" purity="2.3621566593647003e-01" nType="0">
          <Node pos="l" depth="2" NCoef="0" IVar="0" Cut="8.2221698760986328e+00" cType="1" res="-1.1652668472379446e-03" rms="4.6103499829769135e-02" purity="1.4642271213233471e-02" nType="0">
            <Node pos="l" depth="3" NCoef="0" IVar="-1" Cut="0.0000000000000000e+00" cType="1" res="-5.8391466736793518e-02" rms="2.2737413644790649e-02" purity="0.0000000000000000e+00" nType="-99"/>
            <Node pos="r" depth="3" NCoef="0" IVar="-1" Cut="0.0000000000000000e+00" cType="1" res="3.0423071235418320e-02" rms="8.0709829926490784e-02" purity="5.5197328329086304e-02" nType="-99"/>
          </Node>
          <Node pos="r" depth="2" NCoef="0" IVar="-1" Cut="0.0000000000000000e+00" cType="1" res="4.3720752000808716e-02" rms="1.3143078982830048e-01" purity="7.1672779321670532e-01" nType="-99"/>
        </Node>
        <Node pos="r" depth="1" NCoef="0" IVar="4" Cut="-5.4150325059890747e-01" cType="1" res="-6.1509647639468312e-04" rms="7.1565762162208557e-02" purity="5.7753765583038330e-01" nType="0">
          <Node pos="l" depth="2" NCoef="0" IVar="-1" Cut="0.0000000000000000e+00" cType="1" res="2.3021783679723740e-02" rms="7.1642063558101654e-02" purity="8.9522868394851685e-01" nType="-99"/>
          <Node pos="r" depth="2" NCoef="0" IVar="7" Cut="2.8914897441864014e+00" cType="1" res="-1.5670123975723982e-03" rms="7.1511566638946533e-02" purity="5.1724386215209961e-01" nType="0">
            <Node pos="l" depth="3" NCoef="0" IVar="-1" Cut="0.0000000000000000e+00" cType="1" res="-2.3579260334372520e-02" rms="8.1127636134624481e-02" purity="1.9799987971782684e-01" nType="-99"/>
            <Node pos="r" depth="3" NCoef="0" IVar="-1" Cut="0.0000000000000000e+00" cType="1" res="-4.8503642901778221e-03" rms="6.8719886243343353e-02" purity="6.0140156745910645e-01" nType="-99"/>
          </Node>
        </Node>
      </Node>
    </BinaryTree>
    <BinaryTree type="DecisionTree" boostWeight="1.0000000000000000e+00" itree="166">
      <Node pos="s" depth="0" NCoef="0" IVar="4" Cut="-5.4149091243743896e-01" cType="1" res="7.0679764030501246e-04" rms="7.2933346033096313e-02" purity="5.0563204288482666e-01" nType="0">
        <Node pos="l" depth="1" NCoef="0" IVar="-1" Cut="0.0000000000000000e+00" cType="1" res="3.7503764033317566e-02" rms="8.4840573370456696e-02" purity="8.6174207925796509e-01" nType="-99"/>
        <Node pos="r" depth="1" NCoef="0" IVar="16" Cut="4.1021571159362793e+00" cType="1" res="-4.8662198241800070e-04" rms="7.0656664669513702e-02" purity="4.4553419947624207e-01" nType="0">
          <Node pos="l" depth="2" NCoef="0" IVar="14" Cut="4.0055480003356934e+00" cType="1" res="1.9139385549351573e-03" rms="6.6853918135166168e-02" purity="2.5200540199875832e-02" nType="0">
            <Node pos="l" depth="3" NCoef="0" IVar="-1" Cut="0.0000000000000000e+00" cType="1" res="5.3321494488045573e-04" rms="4.8621896654367447e-02" purity="8.3813546225428581e-03" nType="-99"/>
            <Node pos="r" depth="3" NCoef="0" IVar="-1" Cut="0.0000000000000000e+00" cType="1" res="3.6682624369859695e-02" rms="1.2789095938205719e-01" purity="1.2123429030179977e-01" nType="-99"/>
          </Node>
          <Node pos="r" depth="2" NCoef="0" IVar="9" Cut="5.6994748115539551e+00" cType="1" res="-2.1213532891124487e-03" rms="7.3088057339191437e-02" purity="7.3177254199981689e-01" nType="0">
            <Node pos="l" depth="3" NCoef="0" IVar="-1" Cut="0.0000000000000000e+00" cType="1" res="-3.7283346056938171e-02" rms="8.3597064018249512e-02" purity="5.1537972688674927e-01" nType="-99"/>
            <Node pos="r" depth="3" NCoef="0" IVar="-1" Cut="0.0000000000000000e+00" cType="1" res="-2.9334663413465023e-03" rms="6.9199748337268829e-02" purity="8.0295836925506592e-01" nType="-99"/>
          </Node>
        </Node>
      </Node>
    </BinaryTree>
    <BinaryTree type="DecisionTree" boostWeight="1.0000000000000000e+00" itree="167">
      <Node pos="s" depth="0" NCoef="0" IVar="3" Cut="5.0457650423049927e-01" cType="1" res="3.4907195367850363e-04" rms="7.2526887059211731e-02" purity="4.9374642968177795e-01" nType="0">
        <Node pos="l" depth="1" NCoef="0" IVar="2" Cut="-1.0758922576904297e+01" cType="1" res="2.4322443641722202e-03" rms="7.7597200870513916e-02" purity="8.6276590824127197e-01" nType="0">
          <Node pos="l" depth="2" NCoef="0" IVar="-1" Cut="0.0000000000000000e+00" cType="1" res="1.7092134803533554e-03" rms="4.6760894358158112e-02" purity="9.8640239238739014e-01" nType="-99"/>
          <Node pos="r" depth="2" NCoef="0" IVar="9" Cut="6.3424348831176758e+00" cType="1" res="1.2827034108340740e-02" rms="1.5192459523677826e-01" purity="3.0847898125648499e-01" nType="0">
            <Node pos="l" depth="3" NCoef="0" IVar="-1" Cut="0.0000000000000000e+00" cType="1" res="3.5656739026308060e-02" rms="1.6737350821495056e-01" purity="2.5563469529151917e-01" nType="-99"/>
            <Node pos="r" depth="3" NCoef="0" IVar="-1" Cut="0.0000000000000000e+00" cType="1" res="-1.2809517793357372e-02" rms="1.1021575331687927e-01" purity="4.1961792111396790e-01" nType="-99"/>
          </Node>
        </Node>
        <Node pos="r" depth="1" NCoef="0" IVar="3" Cut="1.5320060253143311e+00" cType="1" res="-1.2739138910546899e-03" rms="6.8272307515144348e-02" purity="2.0624580979347229e-01" nType="0">
          <Node pos="l" depth="2" NCoef="0" IVar="9" Cut="5.3311305046081543e+00" cType="1" res="-3.4287718590348959e-03" rms="7.6491326093673706e-02" purity="3.9138135313987732e-01" nType="0">
            <Node pos="l" depth="3" NCoef="0" IVar="-1" Cut="0.0000000000000000e+00" cType="1" res="-6.0176812112331390e-02" rms="8.4439225494861603e-02" purity="2.4842990934848785e-01" nType="-99"/>
            <Node pos="r" depth="3" NCoef="0" IVar="-1" Cut="0.0000000000000000e+00" cType="1" res="-1.3635082170367241e-02" rms="7.5065478682518005e-02" purity="4.1460523009300232e-01" nType="-99"/>
          </Node>
          <Node pos="r" depth="2" NCoef="0" IVar="3" Cut="1.6788237094879150e+00" cType="1" res="6.8022753112018108e-04" rms="5.9783689677715302e-02" purity="3.8354877382516861e-02" nType="0">
            <Node pos="l" depth="3" NCoef="0" IVar="-1" Cut="0.0000000000000000e+00" cType="1" res="3.8037452846765518e-02" rms="9.3014210462570190e-02" purity="1.2661319971084595e-01" nType="-99"/>
            <Node pos="r" depth="3" NCoef="0" IVar="-1" Cut="0.0000000000000000e+00" cType="1" res="-1.0523940436542034e-02" rms="5.1007755100727081e-02" purity="2.1762611344456673e-02" nType="-99"/>
          </Node>
        </Node>
      </Node>
    </BinaryTree>
    <BinaryTree type="DecisionTree" boostWeight="1.0000000000000000e+00" itree="168">
      <Node pos="s" depth="0" NCoef="0" IVar="0" Cut="8.6421079635620117e+00" cType="1" res="-8.1177044194191694e-05" rms="7.0460908114910126e-02" purity="4.9075758457183838e-01" nType="0">
        <Node pos="l" depth="1" NCoef="0" IVar="7" Cut="3.6329209804534912e+00" cType="1" res="-1.7744441283866763e-03" rms="6.5177939832210541e-02" purity="1.9414600729942322e-01" nType="0">
          <Node pos="l" depth="2" NCoef="0" IVar="16" Cut="4.6413588523864746e+00" cType="1" res="-3.9777234196662903e-03" rms="5.7739689946174622e-02" purity="4.6911370009183884e-02" nType="0">
            <Node pos="l" depth="3" NCoef="0" IVar="-1" Cut="0.0000000000000000e+00" cType="1" res="-1.7838351428508759e-02" rms="4.5163836330175400e-02" purity="1.6960741952061653e-02" nType="-99"/>
            <Node pos="r" depth="3" NCoef="0" IVar="-1" Cut="0.0000000000000000e+00" cType="1" res="-5.4307203739881516e-02" rms="1.2214659899473190e-01" purity="3.2430469989776611e-01" nType="-99"/>
          </Node>
          <Node pos="r" depth="2" NCoef="0" IVar="8" Cut="1.4469325542449951e+00" cType="1" res="1.4477855293080211e-03" rms="7.4617728590965271e-02" purity="4.0947228670120239e-01" nType="0">
            <Node pos="l" depth="3" NCoef="0" IVar="-1" Cut="0.0000000000000000e+00" cType="1" res="-2.3032661993056536e-03" rms="6.6330760717391968e-02" purity="4.5613771677017212e-01" nType="-99"/>
            <Node pos="r" depth="3" NCoef="0" IVar="-1" Cut="0.0000000000000000e+00" cType="1" res="5.7689346373081207e-02" rms="1.1023339629173279e-01" purity="1.4129750430583954e-01" nType="-99"/>
          </Node>
        </Node>
        <Node pos="r" depth="1" NCoef="0" IVar="2" Cut="-1.0609925270080566e+01" cType="1" res="2.2478241007775068e-03" rms="7.7077783644199371e-02" purity="8.9873147010803223e-01" nType="0">
          <Node pos="l" depth="2" NCoef="0" IVar="-1" Cut="0.0000000000000000e+00" cType="1" res="4.1662063449621201e-03" rms="5.8580398559570312e-02" purity="9.7540074586868286e-01" nType="-99"/>
          <Node pos="r" depth="2" NCoef="0" IVar="-1" Cut="0.0000000000000000e+00" cType="1" res="2.7289802208542824e-02" rms="1.5700495243072510e-01" purity="3.2046210765838623e-01" nType="-99"/>
        </Node>
      </Node>
    </BinaryTree>
    <BinaryTree type="DecisionTree" boostWeight="1.0000000000000000e+00" itree="169">
      <Node pos="s" depth="0" NCoef="0" IVar="2" Cut="-1.0548246383666992e+01" cType="1" res="6.6483847331255674e-04" rms="7.2479806840419769e-02" purity="5.0025081634521484e-01" nType="0">
        <Node pos="l" depth="1" NCoef="0" IVar="4" Cut="1.6730015277862549e+00" cType="1" res="-1.1030810419470072e-03" rms="6.2111452221870422e-02" purity="8.8140273094177246e-01" nType="0">
          <Node pos="l" depth="2" NCoef="0" IVar="3" Cut="1.4356225728988647e+00" cType="1" res="-1.5304303087759763e-04" rms="5.2558004856109619e-02" purity="9.0489464998245239e-01" nType="0">
            <Node pos="l" depth="3" NCoef="0" IVar="-1" Cut="0.0000000000000000e+00" cType="1" res="6.0249068774282932e-03" rms="4.9021292477846146e-02" purity="9.6563518047332764e-01" nType="-99"/>
            <Node pos="r" depth="3" NCoef="0" IVar="-1" Cut="0.0000000000000000e+00" cType="1" res="-2.7576992288231850e-02" rms="8.1978365778923035e-02" purity="2.2439432144165039e-01" nType="-99"/>
          </Node>
          <Node pos="r" depth="2" NCoef="0" IVar="-1" Cut="0.0000000000000000e+00" cType="1" res="-3.7066340446472168e-02" rms="1.0831322520971298e-01" purity="7.1139878034591675e-01" nType="-99"/>
        </Node>
        <Node pos="r" depth="1" NCoef="0" IVar="14" Cut="4.0783939361572266e+00" cType="1" res="2.7145245112478733e-03" rms="8.2845628261566162e-02" purity="5.8351889252662659e-02" nType="0">
          <Node pos="l" depth="2" NCoef="0" IVar="15" Cut="3.3141930103302002e+00" cType="1" res="-3.9937923429533839e-04" rms="5.7124767452478409e-02" purity="2.6381099596619606e-02" nType="0">
            <Node pos="l" depth="3" NCoef="0" IVar="-1" Cut="0.0000000000000000e+00" cType="1" res="-1.6132473945617676e-02" rms="4.1963797062635422e-02" purity="8.5844472050666809e-03" nType="-99"/>
            <Node pos="r" depth="3" NCoef="0" IVar="-1" Cut="0.0000000000000000e+00" cType="1" res="1.2059926986694336e-02" rms="1.2503710389137268e-01" purity="1.7367112636566162e-01" nType="-99"/>
          </Node>
          <Node pos="r" depth="2" NCoef="0" IVar="3" Cut="1.7510143518447876e+00" cType="1" res="1.9889682531356812e-02" rms="1.6239486634731293e-01" purity="2.3469115793704987e-01" nType="0">
            <Node pos="l" depth="3" NCoef="0" IVar="-1" Cut="0.0000000000000000e+00" cType="1" res="5.0942339003086090e-02" rms="2.0321565866470337e-01" purity="3.8202241063117981e-01" nType="-99"/>
            <Node pos="r" depth="3" NCoef="0" IVar="-1" Cut="0.0000000000000000e+00" cType="1" res="-6.2547788023948669e-02" rms="3.7417039275169373e-02" purity="0.0000000000000000e+00" nType="-99"/>
          </Node>
        </Node>
      </Node>
    </BinaryTree>
    <BinaryTree type="DecisionTree" boostWeight="1.0000000000000000e+00" itree="170">
      <Node pos="s" depth="0" NCoef="0" IVar="7" Cut="2.0947043895721436e+00" cType="1" res="-5.0113542238250375e-04" rms="6.7221648991107941e-02" purity="4.9838343262672424e-01" nType="0">
        <Node pos="l" depth="1" NCoef="0" IVar="16" Cut="4.6413588523864746e+00" cType="1" res="-5.0532794557511806e-03" rms="7.0157721638679504e-02" purity="1.4488664269447327e-01" nType="0">
          <Node pos="l" depth="2" NCoef="0" IVar="15" Cut="2.4269022941589355e+00" cType="1" res="-1.4853704487904906e-03" rms="5.2094358950853348e-02" purity="5.2356161177158356e-02" nType="0">
            <Node pos="l" depth="3" NCoef="0" IVar="-1" Cut="0.0000000000000000e+00" cType="1" res="-5.4788481444120407e-02" rms="3.2358918339014053e-02" purity="5.0643896684050560e-03" nType="-99"/>
            <Node pos="r" depth="3" NCoef="0" IVar="-1" Cut="0.0000000000000000e+00" cType="1" res="1.4467464759945869e-02" rms="7.9689197242259979e-02" purity="1.5722905099391937e-01" nType="-99"/>
          </Node>
          <Node pos="r" depth="2" NCoef="0" IVar="-1" Cut="0.0000000000000000e+00" cType="1" res="-4.8584580421447754e-02" rms="1.1416295170783997e-01" purity="4.9437737464904785e-01" nType="-99"/>
        </Node>
        <Node pos="r" depth="1" NCoef="0" IVar="8" Cut="1.3043580055236816e+00" cType="1" res="1.2216219329275191e-04" rms="6.6785439848899841e-02" purity="5.4678559303283691e-01" nType="0">
          <Node pos="l" depth="2" NCoef="0" IVar="2" Cut="-8.6290845870971680e+00" cType="1" res="7.9300097422674298e-04" rms="6.7751102149486542e-02" purity="5.9875595569610596e-01" nType="0">
            <Node pos="l" depth="3" NCoef="0" IVar="-1" Cut="0.0000000000000000e+00" cType="1" res="1.1089019477367401e-02" rms="7.5399309396743774e-02" purity="7.8398561477661133e-01" nType="-99"/>
            <Node pos="r" depth="3" NCoef="0" IVar="-1" Cut="0.0000000000000000e+00" cType="1" res="-2.9394872486591339e-02" rms="3.2798714935779572e-02" purity="6.5614320337772369e-03" nType="-99"/>
          </Node>
          <Node pos="r" depth="2" NCoef="0" IVar="3" Cut="1.6484315395355225e+00" cType="1" res="-3.5628275945782661e-03" rms="6.1078619211912155e-02" purity="2.6130685210227966e-01" nType="0">
            <Node pos="l" depth="3" NCoef="0" IVar="-1" Cut="0.0000000000000000e+00" cType="1" res="-4.5911777764558792e-02" rms="6.5214350819587708e-02" purity="4.3351408839225769e-01" nType="-99"/>
            <Node pos="r" depth="3" NCoef="0" IVar="-1" Cut="0.0000000000000000e+00" cType="1" res="-1.7782980576157570e-03" rms="5.4593868553638458e-02" purity="2.0591432228684425e-02" nType="-99"/>
          </Node>
        </Node>
      </Node>
    </BinaryTree>
    <BinaryTree type="DecisionTree" boostWeight="1.0000000000000000e+00" itree="171">
      <Node pos="s" depth="0" NCoef="0" IVar="12" Cut="7.5087699890136719e+00" cType="1" res="4.5540809514932334e-04" rms="7.2090797126293182e-02" purity="5.0147306919097900e-01" nType="0">
        <Node pos="l" depth="1" NCoef="0" IVar="11" Cut="7.0154600143432617e+00" cType="1" res="2.3441510275006294e-03" rms="8.0519698560237885e-02" purity="3.2741719484329224e-01" nType="0">
          <Node pos="l" depth="2" NCoef="0" IVar="9" Cut="5.5251955986022949e+00" cType="1" res="4.0902732871472836e-04" rms="7.1041025221347809e-02" purity="2.8362029790878296e-01" nType="0">
            <Node pos="l" depth="3" NCoef="0" IVar="-1" Cut="0.0000000000000000e+00" cType="1" res="6.3269235193729401e-02" rms="1.0376990586519241e-01" purity="2.2490149736404419e-01" nType="-99"/>
            <Node pos="r" depth="3" NCoef="0" IVar="-1" Cut="0.0000000000000000e+00" cType="1" res="-8.9659262448549271e-03" rms="6.1113215982913971e-02" purity="2.9691487550735474e-01" nType="-99"/>
          </Node>
          <Node pos="r" depth="2" NCoef="0" IVar="-1" Cut="0.0000000000000000e+00" cType="1" res="5.6226160377264023e-02" rms="1.2269912660121918e-01" purity="5.9365069866180420e-01" nType="-99"/>
        </Node>
        <Node pos="r" depth="1" NCoef="0" IVar="12" Cut="7.9322419166564941e+00" cType="1" res="-4.7307100612670183e-04" rms="6.7543476819992065e-02" purity="5.8703643083572388e-01" nType="0">
          <Node pos="l" depth="2" NCoef="0" IVar="12" Cut="7.6700921058654785e+00" cType="1" res="-2.4061473086476326e-03" rms="6.1252970248460770e-02" purity="4.3103411793708801e-01" nType="0">
            <Node pos="l" depth="3" NCoef="0" IVar="-1" Cut="0.0000000000000000e+00" cType="1" res="-1.2977619189769030e-03" rms="7.0163980126380920e-02" purity="3.9380776882171631e-01" nType="-99"/>
            <Node pos="r" depth="3" NCoef="0" IVar="-1" Cut="0.0000000000000000e+00" cType="1" res="-3.3264499157667160e-02" rms="5.3981158882379532e-02" purity="4.5748728513717651e-01" nType="-99"/>
          </Node>
          <Node pos="r" depth="2" NCoef="0" IVar="12" Cut="8.0532350540161133e+00" cType="1" res="1.0590103920549154e-03" rms="7.2103679180145264e-02" purity="7.1067780256271362e-01" nType="0">
            <Node pos="l" depth="3" NCoef="0" IVar="-1" Cut="0.0000000000000000e+00" cType="1" res="3.8493845611810684e-02" rms="8.8854975998401642e-02" purity="5.4772889614105225e-01" nType="-99"/>
            <Node pos="r" depth="3" NCoef="0" IVar="-1" Cut="0.0000000000000000e+00" cType="1" res="-3.0712170992046595e-03" rms="6.7101292312145233e-02" purity="7.5212651491165161e-01" nType="-99"/>
          </Node>
        </Node>
      </Node>
    </BinaryTree>
    <BinaryTree type="DecisionTree" boostWeight="1.0000000000000000e+00" itree="172">
      <Node pos="s" depth="0" NCoef="0" IVar="2" Cut="-1.0350360870361328e+01" cType="1" res="-5.9313839301466942e-04" rms="6.8040825426578522e-02" purity="5.0029563903808594e-01" nType="0">
        <Node pos="l" depth="1" NCoef="0" IVar="16" Cut="4.6426429748535156e+00" cType="1" res="1.5223443042486906e-03" rms="7.6377287507057190e-02" purity="8.6913537979125977e-01" nType="0">
          <Node pos="l" depth="2" NCoef="0" IVar="14" Cut="3.3150994777679443e+00" cType="1" res="1.2133566662669182e-02" rms="1.3411183655261993e-01" purity="2.6740518212318420e-01" nType="0">
            <Node pos="l" depth="3" NCoef="0" IVar="-1" Cut="0.0000000000000000e+00" cType="1" res="-1.3826129958033562e-02" rms="4.7540772706270218e-02" purity="4.0016327053308487e-02" nType="-99"/>
            <Node pos="r" depth="3" NCoef="0" IVar="-1" Cut="0.0000000000000000e+00" cType="1" res="3.7233352661132812e-02" rms="1.7561438679695129e-01" purity="4.5771744847297668e-01" nType="-99"/>
          </Node>
          <Node pos="r" depth="2" NCoef="0" IVar="13" Cut="2.8845312595367432e+00" cType="1" res="-3.1191666494123638e-04" rms="6.0909569263458252e-02" purity="9.7315073013305664e-01" nType="0">
            <Node pos="l" depth="3" NCoef="0" IVar="-1" Cut="0.0000000000000000e+00" cType="1" res="-1.5915360301733017e-02" rms="9.6666745841503143e-02" purity="8.9431107044219971e-01" nType="-99"/>
            <Node pos="r" depth="3" NCoef="0" IVar="-1" Cut="0.0000000000000000e+00" cType="1" res="1.6249293461441994e-02" rms="4.4644672423601151e-02" purity="9.9709808826446533e-01" nType="-99"/>
          </Node>
        </Node>
        <Node pos="r" depth="1" NCoef="0" IVar="14" Cut="4.1540713310241699e+00" cType="1" res="-3.2536815851926804e-03" rms="5.5702015757560730e-02" purity="3.6423176527023315e-02" nType="0">
          <Node pos="l" depth="2" NCoef="0" IVar="3" Cut="6.6719621419906616e-01" cType="1" res="-1.8745233537629247e-03" rms="4.8205547034740448e-02" purity="2.0482281222939491e-02" nType="0">
            <Node pos="l" depth="3" NCoef="0" IVar="-1" Cut="0.0000000000000000e+00" cType="1" res="-1.9101437181234360e-02" rms="8.6317777633666992e-02" purity="9.2980228364467621e-02" nType="-99"/>
            <Node pos="r" depth="3" NCoef="0" IVar="-1" Cut="0.0000000000000000e+00" cType="1" res="-1.4506880193948746e-02" rms="3.5620000213384628e-02" purity="5.6539140641689301e-03" nType="-99"/>
          </Node>
          <Node pos="r" depth="2" NCoef="0" IVar="15" Cut="2.4124321937561035e+00" cType="1" res="-1.3364851474761963e-02" rms="9.3259088695049286e-02" purity="1.5329237282276154e-01" nType="0">
            <Node pos="l" depth="3" NCoef="0" IVar="-1" Cut="0.0000000000000000e+00" cType="1" res="-2.0873123779892921e-02" rms="5.8861866593360901e-02" purity="2.4096719920635223e-02" nType="-99"/>
            <Node pos="r" depth="3" NCoef="0" IVar="-1" Cut="0.0000000000000000e+00" cType="1" res="-5.6254029273986816e-02" rms="1.1893527954816818e-01" purity="2.9286780953407288e-01" nType="-99"/>
          </Node>
        </Node>
      </Node>
    </BinaryTree>
    <BinaryTree type="DecisionTree" boostWeight="1.0000000000000000e+00" itree="173">
      <Node pos="s" depth="0" NCoef="0" IVar="8" Cut="1.4008808135986328e+00" cType="1" res="1.4526075683534145e-03" rms="7.3653370141983032e-02" purity="5.0582528114318848e-01" nType="0">
        <Node pos="l" depth="1" NCoef="0" IVar="4" Cut="-8.8197159767150879e-01" cType="1" res="2.2113148588687181e-03" rms="7.6251588761806488e-02" purity="5.5652672052383423e-01" nType="0">
          <Node pos="l" depth="2" NCoef="0" IVar="-1" Cut="0.0000000000000000e+00" cType="1" res="3.6888048052787781e-02" rms="8.0727972090244293e-02" purity="8.8539147377014160e-01" nType="-99"/>
          <Node pos="r" depth="2" NCoef="0" IVar="11" Cut="7.0967674255371094e+00" cType="1" res="1.3834798010066152e-03" rms="7.5637556612491608e-02" purity="5.1578855514526367e-01" nType="0">
            <Node pos="l" depth="3" NCoef="0" IVar="-1" Cut="0.0000000000000000e+00" cType="1" res="1.4201025478541851e-02" rms="8.1068888306617737e-02" purity="3.8901594281196594e-01" nType="-99"/>
            <Node pos="r" depth="3" NCoef="0" IVar="-1" Cut="0.0000000000000000e+00" cType="1" res="-1.4804117381572723e-02" rms="6.0814380645751953e-02" purity="8.1531739234924316e-01" nType="-99"/>
          </Node>
        </Node>
        <Node pos="r" depth="1" NCoef="0" IVar="2" Cut="-1.0560066223144531e+01" cType="1" res="-3.1512454152107239e-03" rms="5.5106442421674728e-02" purity="1.9816800951957703e-01" nType="0">
          <Node pos="l" depth="2" NCoef="0" IVar="-1" Cut="0.0000000000000000e+00" cType="1" res="-5.4032336920499802e-02" rms="7.8554399311542511e-02" purity="6.0991108417510986e-01" nType="-99"/>
          <Node pos="r" depth="2" NCoef="0" IVar="8" Cut="1.7013410329818726e+00" cType="1" res="-9.2483073240146041e-04" rms="4.1239634156227112e-02" purity="2.4845849722623825e-02" nType="0">
            <Node pos="l" depth="3" NCoef="0" IVar="-1" Cut="0.0000000000000000e+00" cType="1" res="1.5085064806044102e-02" rms="5.6260641664266586e-02" purity="6.4863085746765137e-02" nType="-99"/>
            <Node pos="r" depth="3" NCoef="0" IVar="-1" Cut="0.0000000000000000e+00" cType="1" res="-4.4502221047878265e-02" rms="3.1023783609271049e-02" purity="4.9590826965868473e-03" nType="-99"/>
          </Node>
        </Node>
      </Node>
    </BinaryTree>
    <BinaryTree type="DecisionTree" boostWeight="1.0000000000000000e+00" itree="174">
      <Node pos="s" depth="0" NCoef="0" IVar="2" Cut="-1.2071640968322754e+01" cType="1" res="1.5046128537505865e-03" rms="7.4625357985496521e-02" purity="4.9788767099380493e-01" nType="0">
        <Node pos="l" depth="1" NCoef="0" IVar="16" Cut="5.6902933120727539e+00" cType="1" res="-6.2254897784441710e-04" rms="5.1954891532659531e-02" purity="9.5351618528366089e-01" nType="0">
          <Node pos="l" depth="2" NCoef="0" IVar="-1" Cut="0.0000000000000000e+00" cType="1" res="-1.7540035769343376e-02" rms="9.0556293725967407e-02" purity="7.3179274797439575e-01" nType="-99"/>
          <Node pos="r" depth="2" NCoef="0" IVar="-1" Cut="0.0000000000000000e+00" cType="1" res="2.2947278339415789e-03" rms="4.0805328637361526e-02" purity="9.9506753683090210e-01" nType="-99"/>
        </Node>
        <Node pos="r" depth="1" NCoef="0" IVar="15" Cut="2.1179735660552979e+00" cType="1" res="3.0985367484390736e-03" rms="8.7825313210487366e-02" purity="1.5647642314434052e-01" nType="0">
          <Node pos="l" depth="2" NCoef="0" IVar="5" Cut="-4.0040001869201660e+00" cType="1" res="-2.0302785560488701e-03" rms="3.4368492662906647e-02" purity="1.0908758267760277e-02" nType="0">
            <Node pos="l" depth="3" NCoef="0" IVar="-1" Cut="0.0000000000000000e+00" cType="1" res="-4.8505648970603943e-02" rms="5.0966035574674606e-02" purity="2.7884576469659805e-02" nType="-99"/>
            <Node pos="r" depth="3" NCoef="0" IVar="-1" Cut="0.0000000000000000e+00" cType="1" res="-1.9179280847311020e-02" rms="3.0988190323114395e-02" purity="8.3630820736289024e-03" nType="-99"/>
          </Node>
          <Node pos="r" depth="2" NCoef="0" IVar="9" Cut="6.2873864173889160e+00" cType="1" res="6.5273516811430454e-03" rms="1.0977660864591599e-01" purity="2.5379413366317749e-01" nType="0">
            <Node pos="l" depth="3" NCoef="0" IVar="-1" Cut="0.0000000000000000e+00" cType="1" res="3.0840335413813591e-02" rms="1.1377476900815964e-01" purity="1.8256606161594391e-01" nType="-99"/>
            <Node pos="r" depth="3" NCoef="0" IVar="-1" Cut="0.0000000000000000e+00" cType="1" res="-3.6777111236006021e-03" rms="9.7418680787086487e-02" purity="4.5137315988540649e-01" nType="-99"/>
          </Node>
        </Node>
      </Node>
    </BinaryTree>
    <BinaryTree type="DecisionTree" boostWeight="1.0000000000000000e+00" itree="175">
      <Node pos="s" depth="0" NCoef="0" IVar="0" Cut="7.7435836791992188e+00" cType="1" res="2.9544471180997789e-04" rms="7.4563838541507721e-02" purity="4.9748024344444275e-01" nType="0">
        <Node pos="l" depth="1" NCoef="0" IVar="3" Cut="9.2258089780807495e-01" cType="1" res="-5.2639101631939411e-03" rms="3.8594692945480347e-02" purity="3.1088918447494507e-02" nType="0">
          <Node pos="l" depth="2" NCoef="0" IVar="-1" Cut="0.0000000000000000e+00" cType="1" res="-5.5700991302728653e-02" rms="6.5479382872581482e-02" purity="9.0594187378883362e-02" nType="-99"/>
          <Node pos="r" depth="2" NCoef="0" IVar="15" Cut="2.1576333045959473e+00" cType="1" res="-1.5938287833705544e-03" rms="1.4349491335451603e-02" purity="4.7225481830537319e-03" nType="0">
            <Node pos="l" depth="3" NCoef="0" IVar="-1" Cut="0.0000000000000000e+00" cType="1" res="-5.0635136663913727e-02" rms="2.2820828016847372e-03" purity="0.0000000000000000e+00" nType="-99"/>
            <Node pos="r" depth="3" NCoef="0" IVar="-1" Cut="0.0000000000000000e+00" cType="1" res="-5.5698137730360031e-02" rms="2.0522596314549446e-02" purity="9.8603181540966034e-03" nType="-99"/>
          </Node>
        </Node>
        <Node pos="r" depth="1" NCoef="0" IVar="8" Cut="-3.6826076507568359e+00" cType="1" res="9.3352008843794465e-04" rms="7.7607803046703339e-02" purity="5.5101031064987183e-01" nType="0">
          <Node pos="l" depth="2" NCoef="0" IVar="1" Cut="3.7246615886688232e+00" cType="1" res="-3.7281746044754982e-03" rms="6.0663320124149323e-02" purity="6.8051677942276001e-01" nType="0">
            <Node pos="l" depth="3" NCoef="0" IVar="-1" Cut="0.0000000000000000e+00" cType="1" res="-2.1713592112064362e-02" rms="5.4953306913375854e-02" purity="7.6399916410446167e-01" nType="-99"/>
            <Node pos="r" depth="3" NCoef="0" IVar="-1" Cut="0.0000000000000000e+00" cType="1" res="-6.4610503613948822e-02" rms="6.9145835936069489e-02" purity="5.3998041152954102e-01" nType="-99"/>
          </Node>
          <Node pos="r" depth="2" NCoef="0" IVar="2" Cut="-7.7684912681579590e+00" cType="1" res="1.4668436488136649e-03" rms="7.9298458993434906e-02" purity="5.3619414567947388e-01" nType="0">
            <Node pos="l" depth="3" NCoef="0" IVar="-1" Cut="0.0000000000000000e+00" cType="1" res="1.2332761660218239e-02" rms="8.5373431444168091e-02" purity="6.2470364570617676e-01" nType="-99"/>
            <Node pos="r" depth="3" NCoef="0" IVar="-1" Cut="0.0000000000000000e+00" cType="1" res="-5.4391704499721527e-02" rms="1.4423504471778870e-02" purity="0.0000000000000000e+00" nType="-99"/>
          </Node>
        </Node>
      </Node>
    </BinaryTree>
    <BinaryTree type="DecisionTree" boostWeight="1.0000000000000000e+00" itree="176">
      <Node pos="s" depth="0" NCoef="0" IVar="0" Cut="8.7668638229370117e+00" cType="1" res="-1.2118547601858154e-04" rms="7.0785216987133026e-02" purity="5.0472694635391235e-01" nType="0">
        <Node pos="l" depth="1" NCoef="0" IVar="6" Cut="8.3168239593505859e+00" cType="1" res="-1.3094424502924085e-03" rms="6.5011188387870789e-02" purity="2.4025632441043854e-01" nType="0">
          <Node pos="l" depth="2" NCoef="0" IVar="1" Cut="3.7513065338134766e+00" cType="1" res="-1.9782697781920433e-03" rms="6.3163720071315765e-02" purity="2.3016779124736786e-01" nType="0">
            <Node pos="l" depth="3" NCoef="0" IVar="-1" Cut="0.0000000000000000e+00" cType="1" res="-2.8522901237010956e-02" rms="6.4056567847728729e-02" purity="2.8270807862281799e-01" nType="-99"/>
            <Node pos="r" depth="3" NCoef="0" IVar="-1" Cut="0.0000000000000000e+00" cType="1" res="-7.9791049938648939e-04" rms="6.2497816979885101e-02" purity="1.9560213387012482e-01" nType="-99"/>
          </Node>
          <Node pos="r" depth="2" NCoef="0" IVar="0" Cut="8.5211782455444336e+00" cType="1" res="5.4343403317034245e-03" rms="8.1019170582294464e-02" purity="3.4197902679443359e-01" nType="0">
            <Node pos="l" depth="3" NCoef="0" IVar="-1" Cut="0.0000000000000000e+00" cType="1" res="-1.4515727758407593e-02" rms="5.0382308661937714e-02" purity="1.8450041115283966e-01" nType="-99"/>
            <Node pos="r" depth="3" NCoef="0" IVar="-1" Cut="0.0000000000000000e+00" cType="1" res="3.5968780517578125e-02" rms="9.8450772464275360e-02" purity="4.6752282977104187e-01" nType="-99"/>
          </Node>
        </Node>
        <Node pos="r" depth="1" NCoef="0" IVar="2" Cut="-1.0609925270080566e+01" cType="1" res="1.8525475170463324e-03" rms="7.9414799809455872e-02" purity="9.4402110576629639e-01" nType="0">
          <Node pos="l" depth="2" NCoef="0" IVar="-1" Cut="0.0000000000000000e+00" cType="1" res="-4.7799022868275642e-03" rms="6.2516562640666962e-02" purity="9.8262763023376465e-01" nType="-99"/>
          <Node pos="r" depth="2" NCoef="0" IVar="-1" Cut="0.0000000000000000e+00" cType="1" res="3.7735618650913239e-02" rms="1.8181557953357697e-01" purity="5.0186818838119507e-01" nType="-99"/>
        </Node>
      </Node>
    </BinaryTree>
    <BinaryTree type="DecisionTree" boostWeight="1.0000000000000000e+00" itree="177">
      <Node pos="s" depth="0" NCoef="0" IVar="4" Cut="1.7147222757339478e+00" cType="1" res="6.3034053891897202e-04" rms="7.3076844215393066e-02" purity="4.9910619854927063e-01" nType="0">
        <Node pos="l" depth="1" NCoef="0" IVar="7" Cut="2.5913064479827881e+00" cType="1" res="2.3577739484608173e-03" rms="7.6577439904212952e-02" purity="7.1114993095397949e-01" nType="0">
          <Node pos="l" depth="2" NCoef="0" IVar="3" Cut="1.4907649755477905e+00" cType="1" res="1.1079733259975910e-02" rms="1.2885913252830505e-01" purity="2.8641968965530396e-01" nType="0">
            <Node pos="l" depth="3" NCoef="0" IVar="-1" Cut="0.0000000000000000e+00" cType="1" res="3.8992334157228470e-02" rms="1.6007213294506073e-01" purity="4.7006973624229431e-01" nType="-99"/>
            <Node pos="r" depth="3" NCoef="0" IVar="-1" Cut="0.0000000000000000e+00" cType="1" res="-5.5115021765232086e-02" rms="4.7479815781116486e-02" purity="4.2484938167035580e-03" nType="-99"/>
          </Node>
          <Node pos="r" depth="2" NCoef="0" IVar="15" Cut="2.6646754741668701e+00" cType="1" res="7.4871629476547241e-04" rms="6.2177345156669617e-02" purity="7.8950560092926025e-01" nType="0">
            <Node pos="l" depth="3" NCoef="0" IVar="-1" Cut="0.0000000000000000e+00" cType="1" res="-1.2381741777062416e-02" rms="6.7227534949779510e-02" purity="1.9069971144199371e-01" nType="-99"/>
            <Node pos="r" depth="3" NCoef="0" IVar="-1" Cut="0.0000000000000000e+00" cType="1" res="1.3413359411060810e-02" rms="6.0975234955549240e-02" purity="9.2227256298065186e-01" nType="-99"/>
          </Node>
        </Node>
        <Node pos="r" depth="1" NCoef="0" IVar="2" Cut="-1.0222601890563965e+01" cType="1" res="-2.4161825422197580e-03" rms="6.6345781087875366e-02" purity="1.2514322996139526e-01" nType="0">
          <Node pos="l" depth="2" NCoef="0" IVar="-1" Cut="0.0000000000000000e+00" cType="1" res="-4.7343704849481583e-02" rms="1.0855776071548462e-01" purity="6.0479706525802612e-01" nType="-99"/>
          <Node pos="r" depth="2" NCoef="0" IVar="2" Cut="-9.4333353042602539e+00" cType="1" res="-7.0692138979211450e-04" rms="5.3250819444656372e-02" purity="2.4491744115948677e-02" nType="0">
            <Node pos="l" depth="3" NCoef="0" IVar="-1" Cut="0.0000000000000000e+00" cType="1" res="4.7164216637611389e-02" rms="1.4127984642982483e-01" purity="1.4430719614028931e-01" nType="-99"/>
            <Node pos="r" depth="3" NCoef="0" IVar="-1" Cut="0.0000000000000000e+00" cType="1" res="-2.8747009113430977e-02" rms="2.8703639283776283e-02" purity="1.0562793351709843e-02" nType="-99"/>
          </Node>
        </Node>
      </Node>
    </BinaryTree>
    <BinaryTree type="DecisionTree" boostWeight="1.0000000000000000e+00" itree="178">
      <Node pos="s" depth="0" NCoef="0" IVar="15" Cut="3.1171929836273193e+00" cType="1" res="2.8590616420842707e-04" rms="7.2016753256320953e-02" purity="5.0034803152084351e-01" nType="0">
        <Node pos="l" depth="1" NCoef="0" IVar="14" Cut="4.2484488487243652e+00" cType="1" res="2.0707331132143736e-03" rms="7.7625550329685211e-02" purity="9.3804761767387390e-02" nType="0">
          <Node pos="l" depth="2" NCoef="0" IVar="10" Cut="7.7942795753479004e+00" cType="1" res="4.2399921221658587e-04" rms="6.1527203768491745e-02" purity="1.9681906327605247e-02" nType="0">
            <Node pos="l" depth="3" NCoef="0" IVar="-1" Cut="0.0000000000000000e+00" cType="1" res="-9.5533896237611771e-03" rms="4.9925360828638077e-02" purity="1.2797353789210320e-02" nType="-99"/>
            <Node pos="r" depth="3" NCoef="0" IVar="-1" Cut="0.0000000000000000e+00" cType="1" res="4.7807086259126663e-02" rms="1.0533346980810165e-01" purity="5.8937449008226395e-02" nType="-99"/>
          </Node>
          <Node pos="r" depth="2" NCoef="0" IVar="10" Cut="7.4893240928649902e+00" cType="1" res="1.1068537831306458e-02" rms="1.3479645550251007e-01" purity="4.9881437420845032e-01" nType="0">
            <Node pos="l" depth="3" NCoef="0" IVar="-1" Cut="0.0000000000000000e+00" cType="1" res="4.3644014745950699e-02" rms="1.4882452785968781e-01" purity="4.1107562184333801e-01" nType="-99"/>
            <Node pos="r" depth="3" NCoef="0" IVar="-1" Cut="0.0000000000000000e+00" cType="1" res="1.2187721207737923e-02" rms="1.2215571850538254e-01" purity="5.6767690181732178e-01" nType="-99"/>
          </Node>
        </Node>
        <Node pos="r" depth="1" NCoef="0" IVar="4" Cut="2.1886105537414551e+00" cType="1" res="-1.3072883011773229e-03" rms="6.6572003066539764e-02" purity="8.6324173212051392e-01" nType="0">
          <Node pos="l" depth="2" NCoef="0" IVar="3" Cut="1.4541708230972290e+00" cType="1" res="-1.9585955305956304e-04" rms="6.1609521508216858e-02" purity="9.2426687479019165e-01" nType="0">
            <Node pos="l" depth="3" NCoef="0" IVar="-1" Cut="0.0000000000000000e+00" cType="1" res="4.0451036766171455e-03" rms="5.4784055799245834e-02" purity="9.6951490640640259e-01" nType="-99"/>
            <Node pos="r" depth="3" NCoef="0" IVar="-1" Cut="0.0000000000000000e+00" cType="1" res="-1.7045700922608376e-02" rms="1.2085538357496262e-01" purity="3.0426591634750366e-01" nType="-99"/>
          </Node>
          <Node pos="r" depth="2" NCoef="0" IVar="10" Cut="7.3564229011535645e+00" cType="1" res="-1.1401316151022911e-02" rms="1.0047780722379684e-01" purity="3.0900913476943970e-01" nType="0">
            <Node pos="l" depth="3" NCoef="0" IVar="-1" Cut="0.0000000000000000e+00" cType="1" res="-2.0848967134952545e-02" rms="6.5529644489288330e-02" purity="1.7870488762855530e-01" nType="-99"/>
            <Node pos="r" depth="3" NCoef="0" IVar="-1" Cut="0.0000000000000000e+00" cType="1" res="-5.7139661163091660e-02" rms="1.2731742858886719e-01" purity="4.4846650958061218e-01" nType="-99"/>
          </Node>
        </Node>
      </Node>
    </BinaryTree>
    <BinaryTree type="DecisionTree" boostWeight="1.0000000000000000e+00" itree="179">
      <Node pos="s" depth="0" NCoef="0" IVar="3" Cut="1.1039103269577026e+00" cType="1" res="4.5345444232225418e-04" rms="7.2236627340316772e-02" purity="4.9656358361244202e-01" nType="0">
        <Node pos="l" depth="1" NCoef="0" IVar="5" Cut="-3.7078211307525635e+00" cType="1" res="2.3005320690572262e-03" rms="8.1242561340332031e-02" purity="7.7834647893905640e-01" nType="0">
          <Node pos="l" depth="2" NCoef="0" IVar="14" Cut="4.1345591545104980e+00" cType="1" res="-8.2435563672333956e-04" rms="5.8509487658739090e-02" purity="9.1423422098159790e-01" nType="0">
            <Node pos="l" depth="3" NCoef="0" IVar="-1" Cut="0.0000000000000000e+00" cType="1" res="-1.7412690445780754e-02" rms="1.1530967056751251e-01" purity="4.3899708986282349e-01" nType="-99"/>
            <Node pos="r" depth="3" NCoef="0" IVar="-1" Cut="0.0000000000000000e+00" cType="1" res="7.9930434003472328e-03" rms="4.2277377098798752e-02" purity="9.9245941638946533e-01" nType="-99"/>
          </Node>
          <Node pos="r" depth="2" NCoef="0" IVar="10" Cut="7.4027695655822754e+00" cType="1" res="1.0725148022174835e-02" rms="1.2275238335132599e-01" purity="4.1199663281440735e-01" nType="0">
            <Node pos="l" depth="3" NCoef="0" IVar="-1" Cut="0.0000000000000000e+00" cType="1" res="6.2685191631317139e-02" rms="1.4266963303089142e-01" purity="3.3040919899940491e-01" nType="-99"/>
            <Node pos="r" depth="3" NCoef="0" IVar="-1" Cut="0.0000000000000000e+00" cType="1" res="6.4205662347376347e-03" rms="9.9334627389907837e-02" purity="4.8961064219474792e-01" nType="-99"/>
          </Node>
        </Node>
        <Node pos="r" depth="1" NCoef="0" IVar="14" Cut="3.8363983631134033e+00" cType="1" res="-2.3202486336231232e-03" rms="5.5943433195352554e-02" purity="7.3418356478214264e-02" nType="0">
          <Node pos="l" depth="2" NCoef="0" IVar="2" Cut="-9.6781644821166992e+00" cType="1" res="-9.0633198851719499e-04" rms="3.6883234977722168e-02" purity="7.9653840512037277e-03" nType="0">
            <Node pos="l" depth="3" NCoef="0" IVar="-1" Cut="0.0000000000000000e+00" cType="1" res="-3.5017952322959900e-02" rms="4.5448970049619675e-02" purity="2.2553991526365280e-02" nType="-99"/>
            <Node pos="r" depth="3" NCoef="0" IVar="-1" Cut="0.0000000000000000e+00" cType="1" res="3.7352393846958876e-03" rms="3.3438596874475479e-02" purity="3.0436194501817226e-03" nType="-99"/>
          </Node>
          <Node pos="r" depth="2" NCoef="0" IVar="3" Cut="1.7317769527435303e+00" cType="1" res="-6.2901023775339127e-03" rms="8.9866250753402710e-02" purity="2.5719070434570312e-01" nType="0">
            <Node pos="l" depth="3" NCoef="0" IVar="-1" Cut="0.0000000000000000e+00" cType="1" res="-3.7272367626428604e-02" rms="1.0136577486991882e-01" purity="4.5423287153244019e-01" nType="-99"/>
            <Node pos="r" depth="3" NCoef="0" IVar="-1" Cut="0.0000000000000000e+00" cType="1" res="-7.4464036151766777e-03" rms="7.8114889562129974e-02" purity="8.4035307168960571e-02" nType="-99"/>
          </Node>
        </Node>
      </Node>
    </BinaryTree>
    <BinaryTree type="DecisionTree" boostWeight="1.0000000000000000e+00" itree="180">
      <Node pos="s" depth="0" NCoef="0" IVar="0" Cut="8.0503063201904297e+00" cType="1" res="1.2008101912215352e-03" rms="7.1699976921081543e-02" purity="5.0422269105911255e-01" nType="0">
        <Node pos="l" depth="1" NCoef="0" IVar="3" Cut="1.3013998977839947e-02" cType="1" res="-1.9927478861063719e-03" rms="4.5599609613418579e-02" purity="1.0046634823083878e-01" nType="0">
          <Node pos="l" depth="2" NCoef="0" IVar="-1" Cut="0.0000000000000000e+00" cType="1" res="-4.9097903072834015e-02" rms="6.4070209860801697e-02" purity="4.0235546231269836e-01" nType="-99"/>
          <Node pos="r" depth="2" NCoef="0" IVar="11" Cut="6.7998208999633789e+00" cType="1" res="-4.8244645586237311e-04" rms="4.2236071079969406e-02" purity="5.9267457574605942e-02" nType="0">
            <Node pos="l" depth="3" NCoef="0" IVar="-1" Cut="0.0000000000000000e+00" cType="1" res="-2.3041563108563423e-02" rms="3.3959988504648209e-02" purity="3.7211090326309204e-02" nType="-99"/>
            <Node pos="r" depth="3" NCoef="0" IVar="-1" Cut="0.0000000000000000e+00" cType="1" res="2.7801638469099998e-02" rms="6.4890898764133453e-02" purity="1.4552600681781769e-01" nType="-99"/>
          </Node>
        </Node>
        <Node pos="r" depth="1" NCoef="0" IVar="6" Cut="7.5211272239685059e+00" cType="1" res="2.0769315306097269e-03" rms="7.7312551438808441e-02" purity="6.1498922109603882e-01" nType="0">
          <Node pos="l" depth="2" NCoef="0" IVar="15" Cut="2.1579108238220215e+00" cType="1" res="7.7756093814969063e-03" rms="9.2125803232192993e-02" purity="3.7980899214744568e-01" nType="0">
            <Node pos="l" depth="3" NCoef="0" IVar="-1" Cut="0.0000000000000000e+00" cType="1" res="-6.2038417905569077e-02" rms="2.8883043676614761e-02" purity="6.9906855933368206e-03" nType="-99"/>
            <Node pos="r" depth="3" NCoef="0" IVar="-1" Cut="0.0000000000000000e+00" cType="1" res="4.5402709394693375e-02" rms="1.1211706697940826e-01" purity="5.8406066894531250e-01" nType="-99"/>
          </Node>
          <Node pos="r" depth="2" NCoef="0" IVar="13" Cut="1.7591769695281982e+00" cType="1" res="9.0920459479093552e-04" rms="7.3857277631759644e-02" purity="6.6318053007125854e-01" nType="0">
            <Node pos="l" depth="3" NCoef="0" IVar="-1" Cut="0.0000000000000000e+00" cType="1" res="-1.6598191112279892e-02" rms="6.9721169769763947e-02" purity="1.1237540841102600e-01" nType="-99"/>
            <Node pos="r" depth="3" NCoef="0" IVar="-1" Cut="0.0000000000000000e+00" cType="1" res="1.4376024715602398e-02" rms="7.5036674737930298e-02" purity="8.3202004432678223e-01" nType="-99"/>
          </Node>
        </Node>
      </Node>
    </BinaryTree>
    <BinaryTree type="DecisionTree" boostWeight="1.0000000000000000e+00" itree="181">
      <Node pos="s" depth="0" NCoef="0" IVar="10" Cut="7.1288318634033203e+00" cType="1" res="2.0310148829594254e-04" rms="7.0211604237556458e-02" purity="4.9670752882957458e-01" nType="0">
        <Node pos="l" depth="1" NCoef="0" IVar="7" Cut="3.8731265068054199e+00" cType="1" res="-2.3082988336682320e-03" rms="6.0765530914068222e-02" purity="2.6624032855033875e-01" nType="0">
          <Node pos="l" depth="2" NCoef="0" IVar="16" Cut="4.4885754585266113e+00" cType="1" res="-4.1389944963157177e-03" rms="5.9916179627180099e-02" purity="7.1564666926860809e-02" nType="0">
            <Node pos="l" depth="3" NCoef="0" IVar="-1" Cut="0.0000000000000000e+00" cType="1" res="-2.1697044372558594e-02" rms="3.6700572818517685e-02" purity="1.7914693802595139e-02" nType="-99"/>
            <Node pos="r" depth="3" NCoef="0" IVar="-1" Cut="0.0000000000000000e+00" cType="1" res="-3.2883286476135254e-02" rms="1.1494757235050201e-01" purity="3.0403384566307068e-01" nType="-99"/>
          </Node>
          <Node pos="r" depth="2" NCoef="0" IVar="11" Cut="6.4716219902038574e+00" cType="1" res="6.3543801661580801e-04" rms="6.1993677169084549e-02" purity="5.7927650213241577e-01" nType="0">
            <Node pos="l" depth="3" NCoef="0" IVar="-1" Cut="0.0000000000000000e+00" cType="1" res="-4.6802181750535965e-02" rms="4.4847145676612854e-02" purity="3.1661438941955566e-01" nType="-99"/>
            <Node pos="r" depth="3" NCoef="0" IVar="-1" Cut="0.0000000000000000e+00" cType="1" res="1.4797125011682510e-02" rms="6.8153202533721924e-02" purity="6.9619101285934448e-01" nType="-99"/>
          </Node>
        </Node>
        <Node pos="r" depth="1" NCoef="0" IVar="16" Cut="3.5690793991088867e+00" cType="1" res="9.2585186939686537e-04" rms="7.2686918079853058e-02" purity="5.6303316354751587e-01" nType="0">
          <Node pos="l" depth="2" NCoef="0" IVar="2" Cut="-1.0176898002624512e+01" cType="1" res="5.5675795301795006e-03" rms="8.8748432695865631e-02" purity="3.7008024752140045e-02" nType="0">
            <Node pos="l" depth="3" NCoef="0" IVar="-1" Cut="0.0000000000000000e+00" cType="1" res="9.2202961444854736e-02" rms="1.8311893939971924e-01" purity="1.6151486337184906e-01" nType="-99"/>
            <Node pos="r" depth="3" NCoef="0" IVar="-1" Cut="0.0000000000000000e+00" cType="1" res="-2.5398442521691322e-02" rms="3.5720847547054291e-02" purity="6.3610267825424671e-03" nType="-99"/>
          </Node>
          <Node pos="r" depth="2" NCoef="0" IVar="9" Cut="6.0768494606018066e+00" cType="1" res="-1.5813291611266322e-05" rms="6.8935558199882507e-02" purity="6.6974765062332153e-01" nType="0">
            <Node pos="l" depth="3" NCoef="0" IVar="-1" Cut="0.0000000000000000e+00" cType="1" res="-1.1876042932271957e-02" rms="7.7045269310474396e-02" purity="4.6131739020347595e-01" nType="-99"/>
            <Node pos="r" depth="3" NCoef="0" IVar="-1" Cut="0.0000000000000000e+00" cType="1" res="9.9792294204235077e-03" rms="6.2522053718566895e-02" purity="8.1744050979614258e-01" nType="-99"/>
          </Node>
        </Node>
      </Node>
    </BinaryTree>
    <BinaryTree type="DecisionTree" boostWeight="1.0000000000000000e+00" itree="182">
      <Node pos="s" depth="0" NCoef="0" IVar="13" Cut="2.3242423534393311e+00" cType="1" res="-4.1482219239696860e-04" rms="6.5402612090110779e-02" purity="4.9565890431404114e-01" nType="0">
        <Node pos="l" depth="1" NCoef="0" IVar="15" Cut="2.5430464744567871e+00" cType="1" res="-2.2651676554232836e-03" rms="6.5198607742786407e-02" purity="1.1900067329406738e-01" nType="0">
          <Node pos="l" depth="2" NCoef="0" IVar="2" Cut="-1.0344704627990723e+01" cType="1" res="-3.8294226396828890e-04" rms="4.1132725775241852e-02" purity="2.0186174660921097e-02" nType="0">
            <Node pos="l" depth="3" NCoef="0" IVar="-1" Cut="0.0000000000000000e+00" cType="1" res="2.5237215682864189e-02" rms="9.0988010168075562e-02" purity="1.0984484106302261e-01" nType="-99"/>
            <Node pos="r" depth="3" NCoef="0" IVar="-1" Cut="0.0000000000000000e+00" cType="1" res="-4.3375346809625626e-02" rms="2.0933942869305611e-02" purity="3.3307073172181845e-03" nType="-99"/>
          </Node>
          <Node pos="r" depth="2" NCoef="0" IVar="14" Cut="3.6834676265716553e+00" cType="1" res="-4.9501513130962849e-03" rms="8.8819667696952820e-02" purity="2.5995898246765137e-01" nType="0">
            <Node pos="l" depth="3" NCoef="0" IVar="-1" Cut="0.0000000000000000e+00" cType="1" res="-8.8698305189609528e-03" rms="7.0989772677421570e-02" purity="8.6745508015155792e-02" nType="-99"/>
            <Node pos="r" depth="3" NCoef="0" IVar="-1" Cut="0.0000000000000000e+00" cType="1" res="-2.6273414492607117e-02" rms="1.1084301769733429e-01" purity="5.2927255630493164e-01" nType="-99"/>
          </Node>
        </Node>
        <Node pos="r" depth="1" NCoef="0" IVar="2" Cut="-1.1616799354553223e+01" cType="1" res="1.5127712395042181e-03" rms="6.5558940172195435e-02" purity="8.8804173469543457e-01" nType="0">
          <Node pos="l" depth="2" NCoef="0" IVar="-1" Cut="0.0000000000000000e+00" cType="1" res="-3.8621311541646719e-03" rms="4.4145554304122925e-02" purity="9.9073743820190430e-01" nType="-99"/>
          <Node pos="r" depth="2" NCoef="0" IVar="9" Cut="6.3070116043090820e+00" cType="1" res="8.7408591061830521e-03" rms="1.1918748915195465e-01" purity="4.5209345221519470e-01" nType="0">
            <Node pos="l" depth="3" NCoef="0" IVar="-1" Cut="0.0000000000000000e+00" cType="1" res="3.7125002592802048e-02" rms="1.3995552062988281e-01" purity="3.6500498652458191e-01" nType="-99"/>
            <Node pos="r" depth="3" NCoef="0" IVar="-1" Cut="0.0000000000000000e+00" cType="1" res="-1.5181014314293861e-02" rms="7.9119920730590820e-02" purity="5.7598656415939331e-01" nType="-99"/>
          </Node>
        </Node>
      </Node>
    </BinaryTree>
    <BinaryTree type="DecisionTree" boostWeight="1.0000000000000000e+00" itree="183">
      <Node pos="s" depth="0" NCoef="0" IVar="7" Cut="2.4129748344421387e+00" cType="1" res="5.4495548829436302e-04" rms="7.1378208696842194e-02" purity="4.9985665082931519e-01" nType="0">
        <Node pos="l" depth="1" NCoef="0" IVar="2" Cut="-9.7445535659790039e+00" cType="1" res="-3.4843704197555780e-03" rms="7.0715680718421936e-02" purity="1.4204603433609009e-01" nType="0">
          <Node pos="l" depth="2" NCoef="0" IVar="5" Cut="-3.9463057518005371e+00" cType="1" res="-1.2207432650029659e-02" rms="8.4483370184898376e-02" purity="3.3543154597282410e-01" nType="0">
            <Node pos="l" depth="3" NCoef="0" IVar="-1" Cut="0.0000000000000000e+00" cType="1" res="-5.9222687035799026e-02" rms="9.9531650543212891e-02" purity="4.6579959988594055e-01" nType="-99"/>
            <Node pos="r" depth="3" NCoef="0" IVar="-1" Cut="0.0000000000000000e+00" cType="1" res="-4.2728640139102936e-02" rms="6.4481742680072784e-02" purity="1.9734741747379303e-01" nType="-99"/>
          </Node>
          <Node pos="r" depth="2" NCoef="0" IVar="9" Cut="6.2120213508605957e+00" cType="1" res="1.4076731167733669e-03" rms="6.1121072620153427e-02" purity="3.3592101186513901e-02" nType="0">
            <Node pos="l" depth="3" NCoef="0" IVar="-1" Cut="0.0000000000000000e+00" cType="1" res="-4.0186453610658646e-02" rms="3.6487478762865067e-02" purity="7.7446959912776947e-03" nType="-99"/>
            <Node pos="r" depth="3" NCoef="0" IVar="-1" Cut="0.0000000000000000e+00" cType="1" res="2.9926139861345291e-02" rms="8.9976690709590912e-02" purity="8.1724405288696289e-02" nType="-99"/>
          </Node>
        </Node>
        <Node pos="r" depth="1" NCoef="0" IVar="8" Cut="5.9213936328887939e-01" cType="1" res="1.2837143149226904e-03" rms="7.1474373340606689e-02" purity="5.6545960903167725e-01" nType="0">
          <Node pos="l" depth="2" NCoef="0" IVar="8" Cut="-4.0490427017211914e+00" cType="1" res="-1.1542956781340763e-04" rms="6.2766276299953461e-02" purity="6.3527107238769531e-01" nType="0">
            <Node pos="l" depth="3" NCoef="0" IVar="-1" Cut="0.0000000000000000e+00" cType="1" res="2.7836030349135399e-02" rms="7.3874093592166901e-02" purity="6.8921351432800293e-01" nType="-99"/>
            <Node pos="r" depth="3" NCoef="0" IVar="-1" Cut="0.0000000000000000e+00" cType="1" res="-6.0459007509052753e-03" rms="6.1052840203046799e-02" purity="6.2785649299621582e-01" nType="-99"/>
          </Node>
          <Node pos="r" depth="2" NCoef="0" IVar="3" Cut="1.4752787351608276e+00" cType="1" res="4.6425382606685162e-03" rms="8.8875718414783478e-02" purity="3.9786821603775024e-01" nType="0">
            <Node pos="l" depth="3" NCoef="0" IVar="-1" Cut="0.0000000000000000e+00" cType="1" res="-7.9422406852245331e-03" rms="6.5822437405586243e-02" purity="6.3222789764404297e-01" nType="-99"/>
            <Node pos="r" depth="3" NCoef="0" IVar="-1" Cut="0.0000000000000000e+00" cType="1" res="8.3349704742431641e-02" rms="1.1365002393722534e-01" purity="6.0555107891559601e-02" nType="-99"/>
          </Node>
        </Node>
      </Node>
    </BinaryTree>
    <BinaryTree type="DecisionTree" boostWeight="1.0000000000000000e+00" itree="184">
      <Node pos="s" depth="0" NCoef="0" IVar="4" Cut="1.1583781242370605e+00" cType="1" res="-2.8569682035595179e-04" rms="6.7288741469383240e-02" purity="5.0471991300582886e-01" nType="0">
        <Node pos="l" depth="1" NCoef="0" IVar="16" Cut="4.6413588523864746e+00" cType="1" res="1.4010027516633272e-03" rms="6.7121073603630066e-02" purity="7.7632445096969604e-01" nType="0">
          <Node pos="l" depth="2" NCoef="0" IVar="0" Cut="8.4633359909057617e+00" cType="1" res="7.0917406119406223e-03" rms="1.0464230179786682e-01" purity="1.5726538002490997e-01" nType="0">
            <Node pos="l" depth="3" NCoef="0" IVar="-1" Cut="0.0000000000000000e+00" cType="1" res="-1.7504203133285046e-03" rms="7.6766923069953918e-02" purity="4.4326521456241608e-02" nType="-99"/>
            <Node pos="r" depth="3" NCoef="0" IVar="-1" Cut="0.0000000000000000e+00" cType="1" res="3.7533991038799286e-02" rms="1.5765315294265747e-01" purity="4.8178634047508240e-01" nType="-99"/>
          </Node>
          <Node pos="r" depth="2" NCoef="0" IVar="-1" Cut="0.0000000000000000e+00" cType="1" res="-5.0150495953857899e-03" rms="4.9605850130319595e-02" purity="9.7142142057418823e-01" nType="-99"/>
        </Node>
        <Node pos="r" depth="1" NCoef="0" IVar="5" Cut="-3.6255755424499512e+00" cType="1" res="-1.8818590324372053e-03" rms="6.7408174276351929e-02" purity="2.4769428372383118e-01" nType="0">
          <Node pos="l" depth="2" NCoef="0" IVar="11" Cut="6.5909934043884277e+00" cType="1" res="-6.0992962680757046e-03" rms="7.3000848293304443e-02" purity="5.8780378103256226e-01" nType="0">
            <Node pos="l" depth="3" NCoef="0" IVar="-1" Cut="0.0000000000000000e+00" cType="1" res="-8.6165130138397217e-02" rms="8.4958024322986603e-02" purity="3.2044941186904907e-01" nType="-99"/>
            <Node pos="r" depth="3" NCoef="0" IVar="-1" Cut="0.0000000000000000e+00" cType="1" res="-2.2542303428053856e-02" rms="6.5464176237583160e-02" purity="7.3174297809600830e-01" nType="-99"/>
          </Node>
          <Node pos="r" depth="2" NCoef="0" IVar="4" Cut="1.8454518318176270e+00" cType="1" res="-4.6470295637845993e-04" rms="6.5360620617866516e-02" purity="1.3340964913368225e-01" nType="0">
            <Node pos="l" depth="3" NCoef="0" IVar="-1" Cut="0.0000000000000000e+00" cType="1" res="3.0011305585503578e-02" rms="8.5189811885356903e-02" purity="3.0795878171920776e-01" nType="-99"/>
            <Node pos="r" depth="3" NCoef="0" IVar="-1" Cut="0.0000000000000000e+00" cType="1" res="-1.4850806444883347e-02" rms="6.0113426297903061e-02" purity="9.5449760556221008e-02" nType="-99"/>
          </Node>
        </Node>
      </Node>
    </BinaryTree>
    <BinaryTree type="DecisionTree" boostWeight="1.0000000000000000e+00" itree="185">
      <Node pos="s" depth="0" NCoef="0" IVar="7" Cut="1.9467763900756836e+00" cType="1" res="-1.7760215268936008e-04" rms="6.7143410444259644e-02" purity="4.8875615000724792e-01" nType="0">
        <Node pos="l" depth="1" NCoef="0" IVar="16" Cut="4.1044917106628418e+00" cType="1" res="-5.5581433698534966e-03" rms="6.8080455064773560e-02" purity="1.2201504409313202e-01" nType="0">
          <Node pos="l" depth="2" NCoef="0" IVar="2" Cut="-8.7621908187866211e+00" cType="1" res="-2.1999813616275787e-03" rms="4.5270513743162155e-02" purity="2.8274193406105042e-02" nType="0">
            <Node pos="l" depth="3" NCoef="0" IVar="-1" Cut="0.0000000000000000e+00" cType="1" res="-2.5171168148517609e-02" rms="5.9591140598058701e-02" purity="4.6701088547706604e-02" nType="-99"/>
            <Node pos="r" depth="3" NCoef="0" IVar="-1" Cut="0.0000000000000000e+00" cType="1" res="5.0568669103085995e-03" rms="2.2533483803272247e-02" purity="9.5107881352305412e-03" nType="-99"/>
          </Node>
          <Node pos="r" depth="2" NCoef="0" IVar="-1" Cut="0.0000000000000000e+00" cType="1" res="-3.9552044123411179e-02" rms="1.0283228009939194e-01" purity="3.4053340554237366e-01" nType="-99"/>
        </Node>
        <Node pos="r" depth="1" NCoef="0" IVar="12" Cut="7.5087699890136719e+00" cType="1" res="4.4212309876456857e-04" rms="6.7006900906562805e-02" purity="5.3099697828292847e-01" nType="0">
          <Node pos="l" depth="2" NCoef="0" IVar="10" Cut="7.2389154434204102e+00" cType="1" res="-1.9886593800038099e-03" rms="6.2700964510440826e-02" purity="3.3637019991874695e-01" nType="0">
            <Node pos="l" depth="3" NCoef="0" IVar="-1" Cut="0.0000000000000000e+00" cType="1" res="-6.5314650535583496e-02" rms="5.5691305547952652e-02" purity="1.6707679629325867e-01" nType="-99"/>
            <Node pos="r" depth="3" NCoef="0" IVar="-1" Cut="0.0000000000000000e+00" cType="1" res="-8.9653488248586655e-03" rms="6.3492402434349060e-02" purity="3.5821896791458130e-01" nType="-99"/>
          </Node>
          <Node pos="r" depth="2" NCoef="0" IVar="6" Cut="7.5503363609313965e+00" cType="1" res="1.5253986930474639e-03" rms="6.8811476230621338e-02" purity="6.1773222684860229e-01" nType="0">
            <Node pos="l" depth="3" NCoef="0" IVar="-1" Cut="0.0000000000000000e+00" cType="1" res="5.1918439567089081e-02" rms="1.0101408511400223e-01" purity="2.4564771354198456e-01" nType="-99"/>
            <Node pos="r" depth="3" NCoef="0" IVar="-1" Cut="0.0000000000000000e+00" cType="1" res="6.0149603523313999e-03" rms="6.6694974899291992e-02" purity="6.3651698827743530e-01" nType="-99"/>
          </Node>
        </Node>
      </Node>
    </BinaryTree>
    <BinaryTree type="DecisionTree" boostWeight="1.0000000000000000e+00" itree="186">
      <Node pos="s" depth="0" NCoef="0" IVar="13" Cut="1.7877432107925415e+00" cType="1" res="2.5054116849787533e-04" rms="6.8485096096992493e-02" purity="4.9908882379531860e-01" nType="0">
        <Node pos="l" depth="1" NCoef="0" IVar="15" Cut="3.5678193569183350e+00" cType="1" res="-2.5365212932229042e-03" rms="5.3288724273443222e-02" purity="6.2240455299615860e-02" nType="0">
          <Node pos="l" depth="2" NCoef="0" IVar="3" Cut="5.5922883749008179e-01" cType="1" res="-1.5536270802840590e-03" rms="4.2670156806707382e-02" purity="2.0811401307582855e-02" nType="0">
            <Node pos="l" depth="3" NCoef="0" IVar="-1" Cut="0.0000000000000000e+00" cType="1" res="-2.6094287633895874e-02" rms="8.1861771643161774e-02" purity="1.1040627956390381e-01" nType="-99"/>
            <Node pos="r" depth="3" NCoef="0" IVar="-1" Cut="0.0000000000000000e+00" cType="1" res="-1.1192917823791504e-02" rms="3.3322382718324661e-02" purity="7.9341875389218330e-03" nType="-99"/>
          </Node>
          <Node pos="r" depth="2" NCoef="0" IVar="-1" Cut="0.0000000000000000e+00" cType="1" res="-2.5773117318749428e-02" rms="1.0486011952161789e-01" purity="3.9672896265983582e-01" nType="-99"/>
        </Node>
        <Node pos="r" depth="1" NCoef="0" IVar="15" Cut="3.8280751705169678e+00" cType="1" res="1.5894247917458415e-03" rms="7.4656948447227478e-02" purity="7.0894742012023926e-01" nType="0">
          <Node pos="l" depth="2" NCoef="0" IVar="15" Cut="2.0833649635314941e+00" cType="1" res="4.5086015015840530e-03" rms="9.8308093845844269e-02" purity="2.8697556257247925e-01" nType="0">
            <Node pos="l" depth="3" NCoef="0" IVar="-1" Cut="0.0000000000000000e+00" cType="1" res="-1.5417984686791897e-02" rms="5.5446136742830276e-02" purity="9.6478000283241272e-02" nType="-99"/>
            <Node pos="r" depth="3" NCoef="0" IVar="-1" Cut="0.0000000000000000e+00" cType="1" res="2.3296590894460678e-02" rms="1.1537748575210571e-01" purity="3.9355880022048950e-01" nType="-99"/>
          </Node>
          <Node pos="r" depth="2" NCoef="0" IVar="-1" Cut="0.0000000000000000e+00" cType="1" res="-3.8230204954743385e-03" rms="5.4036155343055725e-02" purity="9.8174881935119629e-01" nType="-99"/>
        </Node>
      </Node>
    </BinaryTree>
    <BinaryTree type="DecisionTree" boostWeight="1.0000000000000000e+00" itree="187">
      <Node pos="s" depth="0" NCoef="0" IVar="5" Cut="-3.5919840335845947e+00" cType="1" res="-4.1830382542684674e-04" rms="6.8047970533370972e-02" purity="4.9756082892417908e-01" nType="0">
        <Node pos="l" depth="1" NCoef="0" IVar="2" Cut="-1.2227849006652832e+01" cType="1" res="-1.5717836795374751e-03" rms="6.5814450383186340e-02" purity="7.3588573932647705e-01" nType="0">
          <Node pos="l" depth="2" NCoef="0" IVar="14" Cut="4.6120815277099609e+00" cType="1" res="3.8446910912171006e-04" rms="4.8278521746397018e-02" purity="9.6713727712631226e-01" nType="0">
            <Node pos="l" depth="3" NCoef="0" IVar="-1" Cut="0.0000000000000000e+00" cType="1" res="-1.4084095135331154e-02" rms="8.3365246653556824e-02" purity="7.3823738098144531e-01" nType="-99"/>
            <Node pos="r" depth="3" NCoef="0" IVar="-1" Cut="0.0000000000000000e+00" cType="1" res="1.9098429009318352e-02" rms="4.1738815605640411e-02" purity="9.9620896577835083e-01" nType="-99"/>
          </Node>
          <Node pos="r" depth="2" NCoef="0" IVar="14" Cut="3.7880237102508545e+00" cType="1" res="-5.3709270432591438e-03" rms="9.0527281165122986e-02" purity="2.8678351640701294e-01" nType="0">
            <Node pos="l" depth="3" NCoef="0" IVar="-1" Cut="0.0000000000000000e+00" cType="1" res="-8.6334645748138428e-03" rms="8.3839513361454010e-02" purity="7.4312433600425720e-02" nType="-99"/>
            <Node pos="r" depth="3" NCoef="0" IVar="-1" Cut="0.0000000000000000e+00" cType="1" res="-4.4895075261592865e-02" rms="9.9809274077415466e-02" purity="6.1739563941955566e-01" nType="-99"/>
          </Node>
        </Node>
        <Node pos="r" depth="1" NCoef="0" IVar="16" Cut="4.6297068595886230e+00" cType="1" res="1.3820907333865762e-03" rms="7.1357369422912598e-02" purity="1.2557433545589447e-01" nType="0">
          <Node pos="l" depth="2" NCoef="0" IVar="11" Cut="6.9392147064208984e+00" cType="1" res="-6.4962555188685656e-04" rms="4.0126897394657135e-02" purity="8.2697179168462753e-03" nType="0">
            <Node pos="l" depth="3" NCoef="0" IVar="-1" Cut="0.0000000000000000e+00" cType="1" res="-3.1523838639259338e-02" rms="2.9390722513198853e-02" purity="3.9244624786078930e-03" nType="-99"/>
            <Node pos="r" depth="3" NCoef="0" IVar="-1" Cut="0.0000000000000000e+00" cType="1" res="3.3155474811792374e-02" rms="7.4671886861324310e-02" purity="3.1581699848175049e-02" nType="-99"/>
          </Node>
          <Node pos="r" depth="2" NCoef="0" IVar="9" Cut="5.6237435340881348e+00" cType="1" res="8.4767993539571762e-03" rms="1.3109220564365387e-01" purity="5.3519946336746216e-01" nType="0">
            <Node pos="l" depth="3" NCoef="0" IVar="-1" Cut="0.0000000000000000e+00" cType="1" res="5.2660431712865829e-02" rms="1.7172703146934509e-01" purity="3.3595460653305054e-01" nType="-99"/>
            <Node pos="r" depth="3" NCoef="0" IVar="-1" Cut="0.0000000000000000e+00" cType="1" res="2.7989626396447420e-03" rms="1.0784456133842468e-01" purity="6.2210881710052490e-01" nType="-99"/>
          </Node>
        </Node>
      </Node>
    </BinaryTree>
    <BinaryTree type="DecisionTree" boostWeight="1.0000000000000000e+00" itree="188">
      <Node pos="s" depth="0" NCoef="0" IVar="11" Cut="5.9027690887451172e+00" cType="1" res="8.4817707829643041e-05" rms="6.8300448358058929e-02" purity="4.9947580695152283e-01" nType="0">
        <Node pos="l" depth="1" NCoef="0" IVar="13" Cut="2.0916261672973633e+00" cType="1" res="-4.9406937323510647e-03" rms="6.9608859717845917e-02" purity="1.9847533106803894e-01" nType="0">
          <Node pos="l" depth="2" NCoef="0" IVar="9" Cut="5.8937072753906250e+00" cType="1" res="-1.1687146034091711e-03" rms="5.0044633448123932e-02" purity="3.3389683812856674e-02" nType="0">
            <Node pos="l" depth="3" NCoef="0" IVar="-1" Cut="0.0000000000000000e+00" cType="1" res="-6.4438655972480774e-02" rms="3.3201020210981369e-02" purity="4.7599510289728642e-03" nType="-99"/>
            <Node pos="r" depth="3" NCoef="0" IVar="-1" Cut="0.0000000000000000e+00" cType="1" res="9.7006373107433319e-03" rms="6.4268775284290314e-02" purity="6.6943496465682983e-02" nType="-99"/>
          </Node>
          <Node pos="r" depth="2" NCoef="0" IVar="-1" Cut="0.0000000000000000e+00" cType="1" res="-6.2426201999187469e-02" rms="9.7116321325302124e-02" purity="5.2789723873138428e-01" nType="-99"/>
        </Node>
        <Node pos="r" depth="1" NCoef="0" IVar="14" Cut="2.9568958282470703e+00" cType="1" res="6.2595080817118287e-04" rms="6.8135961890220642e-02" purity="5.3188663721084595e-01" nType="0">
          <Node pos="l" depth="2" NCoef="0" IVar="15" Cut="3.1521458625793457e+00" cType="1" res="-3.1512633431702852e-03" rms="2.9466833919286728e-02" purity="1.7875028774142265e-02" nType="0">
            <Node pos="l" depth="3" NCoef="0" IVar="-1" Cut="0.0000000000000000e+00" cType="1" res="-4.1957367211580276e-02" rms="1.8462659791111946e-02" purity="5.9398123994469643e-03" nType="-99"/>
            <Node pos="r" depth="3" NCoef="0" IVar="-1" Cut="0.0000000000000000e+00" cType="1" res="-4.8705767840147018e-02" rms="5.9198267757892609e-02" purity="7.8685857355594635e-02" nType="-99"/>
          </Node>
          <Node pos="r" depth="2" NCoef="0" IVar="10" Cut="7.3850126266479492e+00" cType="1" res="1.4863319229334593e-03" rms="7.4149966239929199e-02" purity="6.4896923303604126e-01" nType="0">
            <Node pos="l" depth="3" NCoef="0" IVar="-1" Cut="0.0000000000000000e+00" cType="1" res="2.1727465093135834e-02" rms="9.1270178556442261e-02" purity="4.5429086685180664e-01" nType="-99"/>
            <Node pos="r" depth="3" NCoef="0" IVar="-1" Cut="0.0000000000000000e+00" cType="1" res="-2.2753984667360783e-03" rms="6.4027123153209686e-02" purity="7.4447667598724365e-01" nType="-99"/>
          </Node>
        </Node>
      </Node>
    </BinaryTree>
    <BinaryTree type="DecisionTree" boostWeight="1.0000000000000000e+00" itree="189">
      <Node pos="s" depth="0" NCoef="0" IVar="8" Cut="1.3045375347137451e+00" cType="1" res="-6.6834429162554443e-05" rms="6.8424187600612640e-02" purity="5.0303548574447632e-01" nType="0">
        <Node pos="l" depth="1" NCoef="0" IVar="3" Cut="1.7404208183288574e+00" cType="1" res="5.0255702808499336e-04" rms="7.0978865027427673e-02" purity="5.5647939443588257e-01" nType="0">
          <Node pos="l" depth="2" NCoef="0" IVar="10" Cut="6.6734108924865723e+00" cType="1" res="1.1150393402203918e-03" rms="7.6079264283180237e-02" purity="6.8480604887008667e-01" nType="0">
            <Node pos="l" depth="3" NCoef="0" IVar="-1" Cut="0.0000000000000000e+00" cType="1" res="-3.0870273709297180e-02" rms="7.6701611280441284e-02" purity="3.7314450740814209e-01" nType="-99"/>
            <Node pos="r" depth="3" NCoef="0" IVar="-1" Cut="0.0000000000000000e+00" cType="1" res="1.0221479460597038e-02" rms="7.6022751629352570e-02" purity="7.0229321718215942e-01" nType="-99"/>
          </Node>
          <Node pos="r" depth="2" NCoef="0" IVar="4" Cut="1.2064876556396484e+00" cType="1" res="-2.0325526129454374e-03" rms="4.3880339711904526e-02" purity="2.5325791910290718e-02" nType="0">
            <Node pos="l" depth="3" NCoef="0" IVar="-1" Cut="0.0000000000000000e+00" cType="1" res="-5.1408115774393082e-02" rms="6.0753449797630310e-02" purity="5.2491821348667145e-02" nType="-99"/>
            <Node pos="r" depth="3" NCoef="0" IVar="-1" Cut="0.0000000000000000e+00" cType="1" res="-4.0133325383067131e-03" rms="3.7157453596591949e-02" purity="1.7138436436653137e-02" nType="-99"/>
          </Node>
        </Node>
        <Node pos="r" depth="1" NCoef="0" IVar="4" Cut="2.4667582511901855e+00" cType="1" res="-3.0254230368882418e-03" rms="5.3112700581550598e-02" purity="2.2533804178237915e-01" nType="0">
          <Node pos="l" depth="2" NCoef="0" IVar="15" Cut="2.5018270015716553e+00" cType="1" res="-4.0900260210037231e-03" rms="5.7892352342605591e-02" purity="2.9801613092422485e-01" nType="0">
            <Node pos="l" depth="3" NCoef="0" IVar="-1" Cut="0.0000000000000000e+00" cType="1" res="-2.3478418588638306e-02" rms="3.0818393453955650e-02" purity="2.5326551869511604e-02" nType="-99"/>
            <Node pos="r" depth="3" NCoef="0" IVar="-1" Cut="0.0000000000000000e+00" cType="1" res="-3.7025414407253265e-02" rms="7.5755864381790161e-02" purity="5.7020449638366699e-01" nType="-99"/>
          </Node>
          <Node pos="r" depth="2" NCoef="0" IVar="-1" Cut="0.0000000000000000e+00" cType="1" res="-2.0031519234180450e-03" rms="3.7217788398265839e-02" purity="3.0195506289601326e-02" nType="-99"/>
        </Node>
      </Node>
    </BinaryTree>
    <BinaryTree type="DecisionTree" boostWeight="1.0000000000000000e+00" itree="190">
      <Node pos="s" depth="0" NCoef="0" IVar="9" Cut="6.4744858741760254e+00" cType="1" res="1.0525332763791084e-03" rms="7.2106108069419861e-02" purity="5.0076878070831299e-01" nType="0">
        <Node pos="l" depth="1" NCoef="0" IVar="7" Cut="4.0236210823059082e+00" cType="1" res="-4.8959400737658143e-04" rms="7.1173995733261108e-02" purity="3.6943042278289795e-01" nType="0">
          <Node pos="l" depth="2" NCoef="0" IVar="15" Cut="3.3142158985137939e+00" cType="1" res="-1.6975557664409280e-03" rms="6.8711407482624054e-02" purity="1.1023675650358200e-01" nType="0">
            <Node pos="l" depth="3" NCoef="0" IVar="-1" Cut="0.0000000000000000e+00" cType="1" res="-3.2707205973565578e-03" rms="5.8475203812122345e-02" purity="3.2918978482484818e-02" nType="-99"/>
            <Node pos="r" depth="3" NCoef="0" IVar="-1" Cut="0.0000000000000000e+00" cType="1" res="-2.3874362930655479e-02" rms="1.0724105685949326e-01" purity="5.1645559072494507e-01" nType="-99"/>
          </Node>
          <Node pos="r" depth="2" NCoef="0" IVar="2" Cut="-9.9478092193603516e+00" cType="1" res="1.4429423026740551e-03" rms="7.4905142188072205e-02" purity="7.8409683704376221e-01" nType="0">
            <Node pos="l" depth="3" NCoef="0" IVar="-1" Cut="0.0000000000000000e+00" cType="1" res="-7.0704296231269836e-03" rms="6.6923752427101135e-02" purity="9.3783140182495117e-01" nType="-99"/>
            <Node pos="r" depth="3" NCoef="0" IVar="-1" Cut="0.0000000000000000e+00" cType="1" res="4.1071094572544098e-02" rms="1.0290385037660599e-01" purity="9.1353833675384521e-02" nType="-99"/>
          </Node>
        </Node>
        <Node pos="r" depth="1" NCoef="0" IVar="3" Cut="1.4752967357635498e+00" cType="1" res="4.6976916491985321e-03" rms="7.4135452508926392e-02" purity="8.1121593713760376e-01" nType="0">
          <Node pos="l" depth="2" NCoef="0" IVar="13" Cut="2.1357324123382568e+00" cType="1" res="1.6529278364032507e-03" rms="5.4544355720281601e-02" purity="8.9594376087188721e-01" nType="0">
            <Node pos="l" depth="3" NCoef="0" IVar="-1" Cut="0.0000000000000000e+00" cType="1" res="2.3739989846944809e-02" rms="1.0879154503345490e-01" purity="4.7667986154556274e-01" nType="-99"/>
            <Node pos="r" depth="3" NCoef="0" IVar="-1" Cut="0.0000000000000000e+00" cType="1" res="8.8091501966118813e-03" rms="3.9953358471393585e-02" purity="9.6074628829956055e-01" nType="-99"/>
          </Node>
          <Node pos="r" depth="2" NCoef="0" IVar="-1" Cut="0.0000000000000000e+00" cType="1" res="7.5134813785552979e-02" rms="1.5066617727279663e-01" purity="2.1539823710918427e-01" nType="-99"/>
        </Node>
      </Node>
    </BinaryTree>
    <BinaryTree type="DecisionTree" boostWeight="1.0000000000000000e+00" itree="191">
      <Node pos="s" depth="0" NCoef="0" IVar="9" Cut="5.2216258049011230e+00" cType="1" res="5.8859550335910171e-05" rms="6.8562366068363190e-02" purity="4.9833378195762634e-01" nType="0">
        <Node pos="l" depth="1" NCoef="0" IVar="14" Cut="3.5683593750000000e+00" cType="1" res="-5.4485872387886047e-03" rms="5.9219140559434891e-02" purity="2.4158072471618652e-01" nType="0">
          <Node pos="l" depth="2" NCoef="0" IVar="-1" Cut="0.0000000000000000e+00" cType="1" res="-4.3281506747007370e-02" rms="1.8034910783171654e-02" purity="6.9671836681663990e-03" nType="-99"/>
          <Node pos="r" depth="2" NCoef="0" IVar="-1" Cut="0.0000000000000000e+00" cType="1" res="-5.5107783526182175e-02" rms="8.4364064037799835e-02" purity="5.0983351469039917e-01" nType="-99"/>
        </Node>
        <Node pos="r" depth="1" NCoef="0" IVar="9" Cut="5.3978095054626465e+00" cType="1" res="6.0367392143234611e-04" rms="6.9394558668136597e-02" purity="5.2373266220092773e-01" nType="0">
          <Node pos="l" depth="2" NCoef="0" IVar="9" Cut="5.3139362335205078e+00" cType="1" res="1.0143860243260860e-02" rms="1.0137650370597839e-01" purity="3.6445394158363342e-01" nType="0">
            <Node pos="l" depth="3" NCoef="0" IVar="-1" Cut="0.0000000000000000e+00" cType="1" res="6.1812162399291992e-02" rms="1.0907004028558731e-01" purity="3.7947553396224976e-01" nType="-99"/>
            <Node pos="r" depth="3" NCoef="0" IVar="-1" Cut="0.0000000000000000e+00" cType="1" res="1.9717756658792496e-02" rms="9.2871174216270447e-02" purity="3.4959030151367188e-01" nType="-99"/>
          </Node>
          <Node pos="r" depth="2" NCoef="0" IVar="7" Cut="9.8030149936676025e-01" cType="1" res="3.2452939194627106e-05" rms="6.6953822970390320e-02" purity="5.3326952457427979e-01" nType="0">
            <Node pos="l" depth="3" NCoef="0" IVar="-1" Cut="0.0000000000000000e+00" cType="1" res="-4.1875477880239487e-02" rms="6.4880676567554474e-02" purity="1.2219991534948349e-01" nType="-99"/>
            <Node pos="r" depth="3" NCoef="0" IVar="-1" Cut="0.0000000000000000e+00" cType="1" res="2.6563545688986778e-03" rms="6.7030332982540131e-02" purity="5.5247867107391357e-01" nType="-99"/>
          </Node>
        </Node>
      </Node>
    </BinaryTree>
    <BinaryTree type="DecisionTree" boostWeight="1.0000000000000000e+00" itree="192">
      <Node pos="s" depth="0" NCoef="0" IVar="11" Cut="6.7029418945312500e+00" cType="1" res="1.2522792676463723e-03" rms="7.4801445007324219e-02" purity="4.9296584725379944e-01" nType="0">
        <Node pos="l" depth="1" NCoef="0" IVar="0" Cut="8.5193624496459961e+00" cType="1" res="3.1354473903775215e-03" rms="8.6813040077686310e-02" purity="3.0755916237831116e-01" nType="0">
          <Node pos="l" depth="2" NCoef="0" IVar="3" Cut="3.9594617486000061e-01" cType="1" res="1.1597335105761886e-03" rms="7.0801265537738800e-02" purity="1.2465213984251022e-01" nType="0">
            <Node pos="l" depth="3" NCoef="0" IVar="-1" Cut="0.0000000000000000e+00" cType="1" res="3.1381726264953613e-02" rms="1.3502666354179382e-01" purity="4.9079155921936035e-01" nType="-99"/>
            <Node pos="r" depth="3" NCoef="0" IVar="-1" Cut="0.0000000000000000e+00" cType="1" res="-1.2056456878781319e-02" rms="4.4698774814605713e-02" purity="4.1797637939453125e-02" nType="-99"/>
          </Node>
          <Node pos="r" depth="2" NCoef="0" IVar="7" Cut="3.1798927783966064e+00" cType="1" res="7.4631399475038052e-03" rms="1.1418063938617706e-01" purity="7.0820689201354980e-01" nType="0">
            <Node pos="l" depth="3" NCoef="0" IVar="-1" Cut="0.0000000000000000e+00" cType="1" res="7.5477764010429382e-02" rms="1.9574652612209320e-01" purity="3.3997508883476257e-01" nType="-99"/>
            <Node pos="r" depth="3" NCoef="0" IVar="-1" Cut="0.0000000000000000e+00" cType="1" res="4.2056152597069740e-03" rms="7.9620473086833954e-02" purity="8.0253100395202637e-01" nType="-99"/>
          </Node>
        </Node>
        <Node pos="r" depth="1" NCoef="0" IVar="3" Cut="3.3503699302673340e-01" cType="1" res="-6.7561742616817355e-04" rms="6.0004610568284988e-02" purity="6.8277615308761597e-01" nType="0">
          <Node pos="l" depth="2" NCoef="0" IVar="-1" Cut="0.0000000000000000e+00" cType="1" res="1.3328814879059792e-02" rms="5.4454829543828964e-02" purity="9.4484978914260864e-01" nType="-99"/>
          <Node pos="r" depth="2" NCoef="0" IVar="7" Cut="4.0937013626098633e+00" cType="1" res="-2.5690819602459669e-03" rms="6.4594842493534088e-02" purity="4.4371089339256287e-01" nType="0">
            <Node pos="l" depth="3" NCoef="0" IVar="-1" Cut="0.0000000000000000e+00" cType="1" res="-3.4128684550523758e-02" rms="6.3272006809711456e-02" purity="1.3397414982318878e-01" nType="-99"/>
            <Node pos="r" depth="3" NCoef="0" IVar="-1" Cut="0.0000000000000000e+00" cType="1" res="5.4012765176594257e-03" rms="6.6202543675899506e-02" purity="8.6519205570220947e-01" nType="-99"/>
          </Node>
        </Node>
      </Node>
    </BinaryTree>
    <BinaryTree type="DecisionTree" boostWeight="1.0000000000000000e+00" itree="193">
      <Node pos="s" depth="0" NCoef="0" IVar="11" Cut="6.1113042831420898e+00" cType="1" res="-3.3143363543786108e-04" rms="6.7180752754211426e-02" purity="4.9968695640563965e-01" nType="0">
        <Node pos="l" depth="1" NCoef="0" IVar="8" Cut="-1.7706472873687744e+00" cType="1" res="-3.5277784336358309e-03" rms="6.6227160394191742e-02" purity="2.4985836446285248e-01" nType="0">
          <Node pos="l" depth="2" NCoef="0" IVar="-1" Cut="0.0000000000000000e+00" cType="1" res="1.1882661841809750e-02" rms="7.8406997025012970e-02" purity="3.6219656467437744e-01" nType="-99"/>
          <Node pos="r" depth="2" NCoef="0" IVar="2" Cut="-8.6804103851318359e+00" cType="1" res="-5.1970547065138817e-03" rms="6.2294825911521912e-02" purity="2.1844272315502167e-01" nType="0">
            <Node pos="l" depth="3" NCoef="0" IVar="-1" Cut="0.0000000000000000e+00" cType="1" res="-4.8204351216554642e-02" rms="7.9062417149543762e-02" purity="3.8002961874008179e-01" nType="-99"/>
            <Node pos="r" depth="3" NCoef="0" IVar="-1" Cut="0.0000000000000000e+00" cType="1" res="-1.7604714259505272e-02" rms="2.6183795183897018e-02" purity="2.8485797811299562e-03" nType="-99"/>
          </Node>
        </Node>
        <Node pos="r" depth="1" NCoef="0" IVar="11" Cut="6.2798843383789062e+00" cType="1" res="3.4305834560655057e-04" rms="6.7360877990722656e-02" purity="5.5240571498870850e-01" nType="0">
          <Node pos="l" depth="2" NCoef="0" IVar="4" Cut="1.4075225591659546e+00" cType="1" res="5.0352211110293865e-03" rms="7.8903362154960632e-02" purity="2.9737621545791626e-01" nType="0">
            <Node pos="l" depth="3" NCoef="0" IVar="-1" Cut="0.0000000000000000e+00" cType="1" res="5.9698835015296936e-02" rms="1.1093010753393173e-01" purity="5.7377195358276367e-01" nType="-99"/>
            <Node pos="r" depth="3" NCoef="0" IVar="-1" Cut="0.0000000000000000e+00" cType="1" res="-3.9683941751718521e-02" rms="3.6302857100963593e-02" purity="8.0044575035572052e-02" nType="-99"/>
          </Node>
          <Node pos="r" depth="2" NCoef="0" IVar="16" Cut="4.1094751358032227e+00" cType="1" res="-1.7135818779934198e-04" rms="6.5952420234680176e-02" purity="5.8036535978317261e-01" nType="0">
            <Node pos="l" depth="3" NCoef="0" IVar="-1" Cut="0.0000000000000000e+00" cType="1" res="-2.9276384040713310e-02" rms="4.6095855534076691e-02" purity="3.5803217440843582e-02" nType="-99"/>
            <Node pos="r" depth="3" NCoef="0" IVar="-1" Cut="0.0000000000000000e+00" cType="1" res="7.5524034909904003e-03" rms="7.3364689946174622e-02" purity="8.3438116312026978e-01" nType="-99"/>
          </Node>
        </Node>
      </Node>
    </BinaryTree>
    <BinaryTree type="DecisionTree" boostWeight="1.0000000000000000e+00" itree="194">
      <Node pos="s" depth="0" NCoef="0" IVar="0" Cut="8.3675384521484375e+00" cType="1" res="3.8675669929943979e-04" rms="6.9472983479499817e-02" purity="4.9923023581504822e-01" nType="0">
        <Node pos="l" depth="1" NCoef="0" IVar="14" Cut="4.4476928710937500e+00" cType="1" res="-1.2645892566069961e-03" rms="5.3539182990789413e-02" purity="1.3524289429187775e-01" nType="0">
          <Node pos="l" depth="2" NCoef="0" IVar="3" Cut="8.1960517168045044e-01" cType="1" res="-2.6077313814312220e-03" rms="4.1412841528654099e-02" purity="1.5642389655113220e-02" nType="0">
            <Node pos="l" depth="3" NCoef="0" IVar="-1" Cut="0.0000000000000000e+00" cType="1" res="-3.6540895700454712e-02" rms="6.3852183520793915e-02" purity="5.5090110749006271e-02" nType="-99"/>
            <Node pos="r" depth="3" NCoef="0" IVar="-1" Cut="0.0000000000000000e+00" cType="1" res="-1.6478173434734344e-02" rms="3.2520521432161331e-02" purity="4.9687172286212444e-03" nType="-99"/>
          </Node>
          <Node pos="r" depth="2" NCoef="0" IVar="-1" Cut="0.0000000000000000e+00" cType="1" res="1.9002607092261314e-02" rms="9.2573136091232300e-02" purity="7.3328328132629395e-01" nType="-99"/>
        </Node>
        <Node pos="r" depth="1" NCoef="0" IVar="7" Cut="3.4029827117919922e+00" cType="1" res="1.5382859855890274e-03" rms="7.8676976263523102e-02" purity="7.5304865837097168e-01" nType="0">
          <Node pos="l" depth="2" NCoef="0" IVar="10" Cut="7.9387335777282715e+00" cType="1" res="6.5169599838554859e-03" rms="1.1709181219339371e-01" purity="4.1436448693275452e-01" nType="0">
            <Node pos="l" depth="3" NCoef="0" IVar="-1" Cut="0.0000000000000000e+00" cType="1" res="3.1109975650906563e-02" rms="1.3194443285465240e-01" purity="3.5799708962440491e-01" nType="-99"/>
            <Node pos="r" depth="3" NCoef="0" IVar="-1" Cut="0.0000000000000000e+00" cType="1" res="-2.0064203068614006e-02" rms="6.8822182714939117e-02" purity="5.4859018325805664e-01" nType="-99"/>
          </Node>
          <Node pos="r" depth="2" NCoef="0" IVar="16" Cut="4.7432308197021484e+00" cType="1" res="-6.3065774156711996e-05" rms="6.1324082314968109e-02" purity="8.6198383569717407e-01" nType="0">
            <Node pos="l" depth="3" NCoef="0" IVar="-1" Cut="0.0000000000000000e+00" cType="1" res="-2.3522382602095604e-02" rms="7.7078267931938171e-02" purity="1.7236767709255219e-01" nType="-99"/>
            <Node pos="r" depth="3" NCoef="0" IVar="-1" Cut="0.0000000000000000e+00" cType="1" res="8.5564954206347466e-03" rms="5.8383002877235413e-02" purity="9.7166156768798828e-01" nType="-99"/>
          </Node>
        </Node>
      </Node>
    </BinaryTree>
    <BinaryTree type="DecisionTree" boostWeight="1.0000000000000000e+00" itree="195">
      <Node pos="s" depth="0" NCoef="0" IVar="11" Cut="5.9126935005187988e+00" cType="1" res="-5.9851806145161390e-04" rms="6.4261250197887421e-02" purity="4.9865949153900146e-01" nType="0">
        <Node pos="l" depth="1" NCoef="0" IVar="2" Cut="-8.7383518218994141e+00" cType="1" res="-5.7069757021963596e-03" rms="6.0136280953884125e-02" purity="2.2340163588523865e-01" nType="0">
          <Node pos="l" depth="2" NCoef="0" IVar="1" Cut="4.0070567131042480e+00" cType="1" res="-8.6626717820763588e-03" rms="7.6481372117996216e-02" purity="3.8550919294357300e-01" nType="0">
            <Node pos="l" depth="3" NCoef="0" IVar="-1" Cut="0.0000000000000000e+00" cType="1" res="-6.2198758125305176e-02" rms="8.8315494358539581e-02" purity="5.6106436252593994e-01" nType="-99"/>
            <Node pos="r" depth="3" NCoef="0" IVar="-1" Cut="0.0000000000000000e+00" cType="1" res="-4.3827369809150696e-02" rms="5.7129591703414917e-02" purity="1.5505591034889221e-01" nType="-99"/>
          </Node>
          <Node pos="r" depth="2" NCoef="0" IVar="-1" Cut="0.0000000000000000e+00" cType="1" res="-3.1892459839582443e-02" rms="2.3733573034405708e-02" purity="3.7845869082957506e-03" nType="-99"/>
        </Node>
        <Node pos="r" depth="1" NCoef="0" IVar="14" Cut="3.4723787307739258e+00" cType="1" res="-7.0511491685465444e-06" rms="6.4695820212364197e-02" purity="5.3052937984466553e-01" nType="0">
          <Node pos="l" depth="2" NCoef="0" IVar="0" Cut="8.6356506347656250e+00" cType="1" res="-1.7298844177275896e-03" rms="4.2570833116769791e-02" purity="3.8111031055450439e-02" nType="0">
            <Node pos="l" depth="3" NCoef="0" IVar="-1" Cut="0.0000000000000000e+00" cType="1" res="-1.2822711840271950e-02" rms="3.5534370690584183e-02" purity="1.7581235617399216e-02" nType="-99"/>
            <Node pos="r" depth="3" NCoef="0" IVar="-1" Cut="0.0000000000000000e+00" cType="1" res="-2.1246213465929031e-02" rms="8.2132391631603241e-02" purity="2.2377361357212067e-01" nType="-99"/>
          </Node>
          <Node pos="r" depth="2" NCoef="0" IVar="1" Cut="3.8553614616394043e+00" cType="1" res="7.9395697684958577e-04" rms="7.2711408138275146e-02" purity="7.5947260856628418e-01" nType="0">
            <Node pos="l" depth="3" NCoef="0" IVar="-1" Cut="0.0000000000000000e+00" cType="1" res="-1.2795643415302038e-03" rms="6.4447171986103058e-02" purity="8.2240235805511475e-01" nType="-99"/>
            <Node pos="r" depth="3" NCoef="0" IVar="-1" Cut="0.0000000000000000e+00" cType="1" res="1.5555249527096748e-02" rms="8.9698448777198792e-02" purity="6.0588872432708740e-01" nType="-99"/>
          </Node>
        </Node>
      </Node>
    </BinaryTree>
    <BinaryTree type="DecisionTree" boostWeight="1.0000000000000000e+00" itree="196">
      <Node pos="s" depth="0" NCoef="0" IVar="10" Cut="6.6532921791076660e+00" cType="1" res="-2.3578468244522810e-04" rms="6.4747259020805359e-02" purity="4.9935302138328552e-01" nType="0">
        <Node pos="l" depth="1" NCoef="0" IVar="13" Cut="1.7281967401504517e+00" cType="1" res="4.5818504877388477e-03" rms="8.5419669747352600e-02" purity="2.0899966359138489e-01" nType="0">
          <Node pos="l" depth="2" NCoef="0" IVar="-1" Cut="0.0000000000000000e+00" cType="1" res="-5.8027125895023346e-02" rms="3.6234896630048752e-02" purity="9.7058545798063278e-03" nType="-99"/>
          <Node pos="r" depth="2" NCoef="0" IVar="-1" Cut="0.0000000000000000e+00" cType="1" res="4.6031951904296875e-02" rms="1.1529526114463806e-01" purity="4.1368031501770020e-01" nType="-99"/>
        </Node>
        <Node pos="r" depth="1" NCoef="0" IVar="15" Cut="3.1171994209289551e+00" cType="1" res="-5.8660109061747789e-04" rms="6.2963008880615234e-02" purity="5.2049636840820312e-01" nType="0">
          <Node pos="l" depth="2" NCoef="0" IVar="0" Cut="8.7690305709838867e+00" cType="1" res="-2.0518053788691759e-03" rms="5.3586445748806000e-02" purity="8.3750627934932709e-02" nType="0">
            <Node pos="l" depth="3" NCoef="0" IVar="-1" Cut="0.0000000000000000e+00" cType="1" res="-1.2895654886960983e-02" rms="4.6471420675516129e-02" purity="2.8858704492449760e-02" nType="-99"/>
            <Node pos="r" depth="3" NCoef="0" IVar="-1" Cut="0.0000000000000000e+00" cType="1" res="-3.0149092897772789e-02" rms="1.0130684822797775e-01" purity="6.5882158279418945e-01" nType="-99"/>
          </Node>
          <Node pos="r" depth="2" NCoef="0" IVar="3" Cut="1.7615745067596436e+00" cType="1" res="6.3846795819699764e-04" rms="6.9819569587707520e-02" purity="8.8566297292709351e-01" nType="0">
            <Node pos="l" depth="3" NCoef="0" IVar="-1" Cut="0.0000000000000000e+00" cType="1" res="1.1438016779720783e-02" rms="6.7432045936584473e-02" purity="9.3393427133560181e-01" nType="-99"/>
            <Node pos="r" depth="3" NCoef="0" IVar="-1" Cut="0.0000000000000000e+00" cType="1" res="-3.1998738646507263e-02" rms="1.0119874775409698e-01" purity="7.5962342321872711e-02" nType="-99"/>
          </Node>
        </Node>
      </Node>
    </BinaryTree>
    <BinaryTree type="DecisionTree" boostWeight="1.0000000000000000e+00" itree="197">
      <Node pos="s" depth="0" NCoef="0" IVar="9" Cut="5.9183335304260254e+00" cType="1" res="3.1016499269753695e-04" rms="6.5361946821212769e-02" purity="5.0645613670349121e-01" nType="0">
        <Node pos="l" depth="1" NCoef="0" IVar="15" Cut="3.2702274322509766e+00" cType="1" res="-1.1322835925966501e-03" rms="6.7043490707874298e-02" purity="3.2179051637649536e-01" nType="0">
          <Node pos="l" depth="2" NCoef="0" IVar="16" Cut="4.8159470558166504e+00" cType="1" res="8.3488074596971273e-04" rms="5.7164423167705536e-02" purity="5.8049425482749939e-02" nType="0">
            <Node pos="l" depth="3" NCoef="0" IVar="-1" Cut="0.0000000000000000e+00" cType="1" res="-1.3353557325899601e-02" rms="4.0669009089469910e-02" purity="1.7902243882417679e-02" nType="-99"/>
            <Node pos="r" depth="3" NCoef="0" IVar="-1" Cut="0.0000000000000000e+00" cType="1" res="3.2465435564517975e-02" rms="1.2939712405204773e-01" purity="3.9845991134643555e-01" nType="-99"/>
          </Node>
          <Node pos="r" depth="2" NCoef="0" IVar="7" Cut="3.4790804386138916e+00" cType="1" res="-4.3512606061995029e-03" rms="8.0535940825939178e-02" purity="7.5336426496505737e-01" nType="0">
            <Node pos="l" depth="3" NCoef="0" IVar="-1" Cut="0.0000000000000000e+00" cType="1" res="-4.5026708394289017e-02" rms="1.1426245421171188e-01" purity="3.6950728297233582e-01" nType="-99"/>
            <Node pos="r" depth="3" NCoef="0" IVar="-1" Cut="0.0000000000000000e+00" cType="1" res="-1.1560686863958836e-02" rms="7.0512458682060242e-02" purity="8.3945930004119873e-01" nType="-99"/>
          </Node>
        </Node>
        <Node pos="r" depth="1" NCoef="0" IVar="15" Cut="1.8190430402755737e+00" cType="1" res="1.2559382012113929e-03" rms="6.4217932522296906e-02" purity="6.2753623723983765e-01" nType="0">
          <Node pos="l" depth="2" NCoef="0" IVar="5" Cut="-3.4498820304870605e+00" cType="1" res="-3.4735957160592079e-03" rms="3.7977240979671478e-02" purity="2.8113275766372681e-02" nType="0">
            <Node pos="l" depth="3" NCoef="0" IVar="-1" Cut="0.0000000000000000e+00" cType="1" res="-6.5733350813388824e-02" rms="4.9339931458234787e-02" purity="5.0965968519449234e-02" nType="-99"/>
            <Node pos="r" depth="3" NCoef="0" IVar="-1" Cut="0.0000000000000000e+00" cType="1" res="-4.6401191502809525e-03" rms="2.6778534054756165e-02" purity="1.1987716890871525e-02" nType="-99"/>
          </Node>
          <Node pos="r" depth="2" NCoef="0" IVar="13" Cut="2.3243129253387451e+00" cType="1" res="1.8759912345558405e-03" rms="6.6874504089355469e-02" purity="7.0612198114395142e-01" nType="0">
            <Node pos="l" depth="3" NCoef="0" IVar="-1" Cut="0.0000000000000000e+00" cType="1" res="2.0837657153606415e-02" rms="9.1097719967365265e-02" purity="2.5052919983863831e-01" nType="-99"/>
            <Node pos="r" depth="3" NCoef="0" IVar="-1" Cut="0.0000000000000000e+00" cType="1" res="-3.5202741855755448e-05" rms="5.0881709903478622e-02" purity="9.2906200885772705e-01" nType="-99"/>
          </Node>
        </Node>
      </Node>
    </BinaryTree>
    <BinaryTree type="DecisionTree" boostWeight="1.0000000000000000e+00" itree="198">
      <Node pos="s" depth="0" NCoef="0" IVar="10" Cut="7.1502289772033691e+00" cType="1" res="5.3559889784082770e-04" rms="6.7164205014705658e-02" purity="4.9762001633644104e-01" nType="0">
        <Node pos="l" depth="1" NCoef="0" IVar="13" Cut="2.1567018032073975e+00" cType="1" res="-1.7372692236676812e-03" rms="5.5908709764480591e-02" purity="2.7870649099349976e-01" nType="0">
          <Node pos="l" depth="2" NCoef="0" IVar="3" Cut="9.2268133163452148e-01" cType="1" res="-3.1949509866535664e-03" rms="4.4743459671735764e-02" purity="3.1792420893907547e-02" nType="0">
            <Node pos="l" depth="3" NCoef="0" IVar="-1" Cut="0.0000000000000000e+00" cType="1" res="-3.0809143558144569e-02" rms="8.6364038288593292e-02" purity="1.4807333052158356e-01" nType="-99"/>
            <Node pos="r" depth="3" NCoef="0" IVar="-1" Cut="0.0000000000000000e+00" cType="1" res="-3.6802716553211212e-02" rms="2.5004060938954353e-02" purity="2.7403833810240030e-03" nType="-99"/>
          </Node>
          <Node pos="r" depth="2" NCoef="0" IVar="-1" Cut="0.0000000000000000e+00" cType="1" res="4.4044516980648041e-03" rms="7.1825683116912842e-02" purity="7.2780680656433105e-01" nType="-99"/>
        </Node>
        <Node pos="r" depth="1" NCoef="0" IVar="9" Cut="5.0428986549377441e+00" cType="1" res="1.2388670584186912e-03" rms="7.0267766714096069e-02" purity="5.6535589694976807e-01" nType="0">
          <Node pos="l" depth="2" NCoef="0" IVar="-1" Cut="0.0000000000000000e+00" cType="1" res="-5.5050466209650040e-02" rms="6.2729671597480774e-02" purity="2.3349295556545258e-01" nType="-99"/>
          <Node pos="r" depth="2" NCoef="0" IVar="11" Cut="6.1642732620239258e+00" cType="1" res="1.5785669675096869e-03" rms="7.0607930421829224e-02" purity="5.8201801776885986e-01" nType="0">
            <Node pos="l" depth="3" NCoef="0" IVar="-1" Cut="0.0000000000000000e+00" cType="1" res="2.7469161897897720e-02" rms="9.7527436912059784e-02" purity="3.3559840917587280e-01" nType="-99"/>
            <Node pos="r" depth="3" NCoef="0" IVar="-1" Cut="0.0000000000000000e+00" cType="1" res="6.3769542612135410e-03" rms="6.2402836978435516e-02" purity="6.4126849174499512e-01" nType="-99"/>
          </Node>
        </Node>
      </Node>
    </BinaryTree>
    <BinaryTree type="DecisionTree" boostWeight="1.0000000000000000e+00" itree="199">
      <Node pos="s" depth="0" NCoef="0" IVar="1" Cut="3.1450159549713135e+00" cType="1" res="4.3402420124039054e-04" rms="6.9139420986175537e-02" purity="4.9588459730148315e-01" nType="0">
        <Node pos="l" depth="1" NCoef="0" IVar="7" Cut="3.6729073524475098e+00" cType="1" res="3.8268389180302620e-03" rms="7.6171107590198517e-02" purity="8.2735103368759155e-01" nType="0">
          <Node pos="l" depth="2" NCoef="0" IVar="-1" Cut="0.0000000000000000e+00" cType="1" res="4.6482026576995850e-02" rms="1.3680234551429749e-01" purity="5.1916915178298950e-01" nType="-99"/>
          <Node pos="r" depth="2" NCoef="0" IVar="-1" Cut="0.0000000000000000e+00" cType="1" res="-1.6799255972728133e-03" rms="4.5718915760517120e-02" purity="9.1423577070236206e-01" nType="-99"/>
        </Node>
        <Node pos="r" depth="1" NCoef="0" IVar="7" Cut="1.6949150562286377e+00" cType="1" res="-3.6433700006455183e-04" rms="6.7353390157222748e-02" purity="4.1788738965988159e-01" nType="0">
          <Node pos="l" depth="2" NCoef="0" IVar="3" Cut="1.2958416938781738e+00" cType="1" res="4.3291086331009865e-03" rms="8.7895959615707397e-02" purity="1.2986421585083008e-01" nType="0">
            <Node pos="l" depth="3" NCoef="0" IVar="-1" Cut="0.0000000000000000e+00" cType="1" res="3.1459722667932510e-02" rms="1.3442921638488770e-01" purity="3.1542900204658508e-01" nType="-99"/>
            <Node pos="r" depth="3" NCoef="0" IVar="-1" Cut="0.0000000000000000e+00" cType="1" res="-6.1364248394966125e-02" rms="2.3946890607476234e-02" purity="3.5777629818767309e-03" nType="-99"/>
          </Node>
          <Node pos="r" depth="2" NCoef="0" IVar="7" Cut="2.5293524265289307e+00" cType="1" res="-8.6895161075517535e-04" rms="6.4737685024738312e-02" purity="4.4885417819023132e-01" nType="0">
            <Node pos="l" depth="3" NCoef="0" IVar="-1" Cut="0.0000000000000000e+00" cType="1" res="-5.4184712469577789e-02" rms="5.3895108401775360e-02" purity="1.0814079642295837e-01" nType="-99"/>
            <Node pos="r" depth="3" NCoef="0" IVar="-1" Cut="0.0000000000000000e+00" cType="1" res="-1.5119618037715554e-03" rms="6.5922640264034271e-02" purity="4.9099195003509521e-01" nType="-99"/>
          </Node>
        </Node>
      </Node>
    </BinaryTree>
    <BinaryTree type="DecisionTree" boostWeight="1.0000000000000000e+00" itree="200">
      <Node pos="s" depth="0" NCoef="0" IVar="12" Cut="7.4314737319946289e+00" cType="1" res="2.0718956366181374e-03" rms="7.1885973215103149e-02" purity="5.0074404478073120e-01" nType="0">
        <Node pos="l" depth="1" NCoef="0" IVar="10" Cut="7.3328742980957031e+00" cType="1" res="-1.0172182228416204e-03" rms="6.0923133045434952e-02" purity="3.0311387777328491e-01" nType="0">
          <Node pos="l" depth="2" NCoef="0" IVar="-1" Cut="0.0000000000000000e+00" cType="1" res="3.1675066798925400e-02" rms="9.1815911233425140e-02" purity="1.4874227344989777e-01" nType="-99"/>
          <Node pos="r" depth="2" NCoef="0" IVar="10" Cut="7.9896059036254883e+00" cType="1" res="-2.7869550976902246e-03" rms="5.1983747631311417e-02" purity="3.3554455637931824e-01" nType="0">
            <Node pos="l" depth="3" NCoef="0" IVar="-1" Cut="0.0000000000000000e+00" cType="1" res="-4.7169066965579987e-02" rms="4.6992219984531403e-02" purity="2.3471166193485260e-01" nType="-99"/>
            <Node pos="r" depth="3" NCoef="0" IVar="-1" Cut="0.0000000000000000e+00" cType="1" res="8.5934782400727272e-03" rms="6.4410850405693054e-02" purity="6.3497728109359741e-01" nType="-99"/>
          </Node>
        </Node>
        <Node pos="r" depth="1" NCoef="0" IVar="7" Cut="1.9467763900756836e+00" cType="1" res="3.2293885014951229e-03" rms="7.5552821159362793e-02" purity="5.7479619979858398e-01" nType="0">
          <Node pos="l" depth="2" NCoef="0" IVar="3" Cut="1.5819391012191772e+00" cType="1" res="1.2442640028893948e-02" rms="1.2192322313785553e-01" purity="2.3793995380401611e-01" nType="0">
            <Node pos="l" depth="3" NCoef="0" IVar="-1" Cut="0.0000000000000000e+00" cType="1" res="4.7592177987098694e-02" rms="1.6361826658248901e-01" purity="4.3995144963264465e-01" nType="-99"/>
            <Node pos="r" depth="3" NCoef="0" IVar="-1" Cut="0.0000000000000000e+00" cType="1" res="-5.9561118483543396e-02" rms="2.0500684157013893e-02" purity="0.0000000000000000e+00" nType="-99"/>
          </Node>
          <Node pos="r" depth="2" NCoef="0" IVar="6" Cut="7.5852694511413574e+00" cType="1" res="2.3391894064843655e-03" rms="6.9386355578899384e-02" purity="6.0734379291534424e-01" nType="0">
            <Node pos="l" depth="3" NCoef="0" IVar="-1" Cut="0.0000000000000000e+00" cType="1" res="5.4744750261306763e-02" rms="1.0359891504049301e-01" purity="2.5419700145721436e-01" nType="-99"/>
            <Node pos="r" depth="3" NCoef="0" IVar="-1" Cut="0.0000000000000000e+00" cType="1" res="1.1715902015566826e-02" rms="6.4954496920108795e-02" purity="6.4245897531509399e-01" nType="-99"/>
          </Node>
        </Node>
      </Node>
    </BinaryTree>
    <BinaryTree type="DecisionTree" boostWeight="1.0000000000000000e+00" itree="201">
      <Node pos="s" depth="0" NCoef="0" IVar="10" Cut="6.4434599876403809e+00" cType="1" res="3.1822777236811817e-04" rms="6.6660694777965546e-02" purity="4.9179783463478088e-01" nType="0">
        <Node pos="l" depth="1" NCoef="0" IVar="-1" Cut="0.0000000000000000e+00" cType="1" res="-4.3213035911321640e-02" rms="6.6584996879100800e-02" purity="1.8209412693977356e-01" nType="-99"/>
        <Node pos="r" depth="1" NCoef="0" IVar="12" Cut="7.2480878829956055e+00" cType="1" res="5.5049813818186522e-04" rms="6.6651962697505951e-02" purity="5.0309967994689941e-01" nType="0">
          <Node pos="l" depth="2" NCoef="0" IVar="11" Cut="6.7594075202941895e+00" cType="1" res="-2.0846265833824873e-03" rms="5.1983762532472610e-02" purity="2.6561453938484192e-01" nType="0">
            <Node pos="l" depth="3" NCoef="0" IVar="-1" Cut="0.0000000000000000e+00" cType="1" res="-1.5011880896054208e-04" rms="5.1405679434537888e-02" purity="2.1599172055721283e-01" nType="-99"/>
            <Node pos="r" depth="3" NCoef="0" IVar="-1" Cut="0.0000000000000000e+00" cType="1" res="-4.7001119703054428e-02" rms="5.2725847810506821e-02" purity="3.4483936429023743e-01" nType="-99"/>
          </Node>
          <Node pos="r" depth="2" NCoef="0" IVar="2" Cut="-1.2401450157165527e+01" cType="1" res="1.0449974797666073e-03" rms="6.9047018885612488e-02" purity="5.4766535758972168e-01" nType="0">
            <Node pos="l" depth="3" NCoef="0" IVar="-1" Cut="0.0000000000000000e+00" cType="1" res="-1.3459495268762112e-02" rms="5.0673879683017731e-02" purity="9.6976810693740845e-01" nType="-99"/>
            <Node pos="r" depth="3" NCoef="0" IVar="-1" Cut="0.0000000000000000e+00" cType="1" res="1.2248413637280464e-02" rms="8.0879703164100647e-02" purity="2.0624428987503052e-01" nType="-99"/>
          </Node>
        </Node>
      </Node>
    </BinaryTree>
    <BinaryTree type="DecisionTree" boostWeight="1.0000000000000000e+00" itree="202">
      <Node pos="s" depth="0" NCoef="0" IVar="8" Cut="-1.6885299682617188e+00" cType="1" res="-2.5703624123707414e-04" rms="6.7638568580150604e-02" purity="4.9965476989746094e-01" nType="0">
        <Node pos="l" depth="1" NCoef="0" IVar="4" Cut="1.8661967515945435e+00" cType="1" res="-3.2575749792158604e-03" rms="5.5379781872034073e-02" purity="5.9325778484344482e-01" nType="0">
          <Node pos="l" depth="2" NCoef="0" IVar="13" Cut="1.7878037691116333e+00" cType="1" res="-2.0579660777002573e-03" rms="5.2098855376243591e-02" purity="7.6418596506118774e-01" nType="0">
            <Node pos="l" depth="3" NCoef="0" IVar="-1" Cut="0.0000000000000000e+00" cType="1" res="-4.3111991137266159e-02" rms="5.7606659829616547e-02" purity="1.5244697034358978e-01" nType="-99"/>
            <Node pos="r" depth="3" NCoef="0" IVar="-1" Cut="0.0000000000000000e+00" cType="1" res="-1.2210118584334850e-02" rms="5.0825171172618866e-02" purity="8.9096891880035400e-01" nType="-99"/>
          </Node>
          <Node pos="r" depth="2" NCoef="0" IVar="14" Cut="3.5646131038665771e+00" cType="1" res="-6.6156680695712566e-03" rms="6.3551075756549835e-02" purity="1.1477462947368622e-01" nType="0">
            <Node pos="l" depth="3" NCoef="0" IVar="-1" Cut="0.0000000000000000e+00" cType="1" res="-5.2178345620632172e-02" rms="1.2805082835257053e-02" purity="8.1500951200723648e-03" nType="-99"/>
            <Node pos="r" depth="3" NCoef="0" IVar="-1" Cut="0.0000000000000000e+00" cType="1" res="-6.9152042269706726e-02" rms="9.8731622099876404e-02" purity="2.7421924471855164e-01" nType="-99"/>
          </Node>
        </Node>
        <Node pos="r" depth="1" NCoef="0" IVar="8" Cut="2.1197532117366791e-01" cType="1" res="7.8724260674789548e-04" rms="7.1383476257324219e-02" purity="4.6707808971405029e-01" nType="0">
          <Node pos="l" depth="2" NCoef="0" IVar="16" Cut="4.1094751358032227e+00" cType="1" res="3.4728718455880880e-03" rms="8.3079397678375244e-02" purity="5.7024610042572021e-01" nType="0">
            <Node pos="l" depth="3" NCoef="0" IVar="-1" Cut="0.0000000000000000e+00" cType="1" res="4.9018990248441696e-02" rms="1.0473524034023285e-01" purity="6.7623548209667206e-02" nType="-99"/>
            <Node pos="r" depth="3" NCoef="0" IVar="-1" Cut="0.0000000000000000e+00" cType="1" res="-1.5182207571342587e-03" rms="6.9086991250514984e-02" purity="8.2839787006378174e-01" nType="-99"/>
          </Node>
          <Node pos="r" depth="2" NCoef="0" IVar="3" Cut="1.3050238601863384e-02" cType="1" res="-1.4838427305221558e-03" rms="5.9637371450662613e-02" purity="3.7983474135398865e-01" nType="0">
            <Node pos="l" depth="3" NCoef="0" IVar="-1" Cut="0.0000000000000000e+00" cType="1" res="8.5718380287289619e-03" rms="5.9171836823225021e-02" purity="8.6863648891448975e-01" nType="-99"/>
            <Node pos="r" depth="3" NCoef="0" IVar="-1" Cut="0.0000000000000000e+00" cType="1" res="-2.0131111145019531e-02" rms="5.9738304466009140e-02" purity="2.5095003843307495e-01" nType="-99"/>
          </Node>
        </Node>
      </Node>
    </BinaryTree>
    <BinaryTree type="DecisionTree" boostWeight="1.0000000000000000e+00" itree="203">
      <Node pos="s" depth="0" NCoef="0" IVar="8" Cut="-6.9084078073501587e-01" cType="1" res="3.5887755802832544e-04" rms="6.7932367324829102e-02" purity="4.9776762723922729e-01" nType="0">
        <Node pos="l" depth="1" NCoef="0" IVar="12" Cut="7.8614726066589355e+00" cType="1" res="-1.4390972210094333e-03" rms="5.6995775550603867e-02" purity="5.8139622211456299e-01" nType="0">
          <Node pos="l" depth="2" NCoef="0" IVar="7" Cut="2.9956438541412354e+00" cType="1" res="-3.1115862075239420e-03" rms="5.2321109920740128e-02" purity="4.4091102480888367e-01" nType="0">
            <Node pos="l" depth="3" NCoef="0" IVar="-1" Cut="0.0000000000000000e+00" cType="1" res="-4.6208146959543228e-02" rms="5.0649758428335190e-02" purity="1.0312816500663757e-01" nType="-99"/>
            <Node pos="r" depth="3" NCoef="0" IVar="-1" Cut="0.0000000000000000e+00" cType="1" res="-1.7883865162730217e-02" rms="5.2846029400825500e-02" purity="5.6123244762420654e-01" nType="-99"/>
          </Node>
          <Node pos="r" depth="2" NCoef="0" IVar="10" Cut="7.1309714317321777e+00" cType="1" res="5.4217450087890029e-04" rms="6.2021333724260330e-02" purity="7.4781835079193115e-01" nType="0">
            <Node pos="l" depth="3" NCoef="0" IVar="-1" Cut="0.0000000000000000e+00" cType="1" res="3.0493190512061119e-02" rms="6.8768739700317383e-02" purity="3.7650874257087708e-01" nType="-99"/>
            <Node pos="r" depth="3" NCoef="0" IVar="-1" Cut="0.0000000000000000e+00" cType="1" res="-1.9963003695011139e-02" rms="5.8750856667757034e-02" purity="9.0565365552902222e-01" nType="-99"/>
          </Node>
        </Node>
        <Node pos="r" depth="1" NCoef="0" IVar="8" Cut="3.0685785412788391e-01" cType="1" res="1.6066652024164796e-03" rms="7.4560075998306274e-02" purity="4.3972975015640259e-01" nType="0">
          <Node pos="l" depth="2" NCoef="0" IVar="15" Cut="3.0908100605010986e+00" cType="1" res="5.2492469549179077e-03" rms="9.0907670557498932e-02" purity="5.5841940641403198e-01" nType="0">
            <Node pos="l" depth="3" NCoef="0" IVar="-1" Cut="0.0000000000000000e+00" cType="1" res="6.0282435268163681e-02" rms="1.1506239324808121e-01" purity="1.2865354120731354e-01" nType="-99"/>
            <Node pos="r" depth="3" NCoef="0" IVar="-1" Cut="0.0000000000000000e+00" cType="1" res="1.0257762623950839e-03" rms="6.7159272730350494e-02" purity="8.7740391492843628e-01" nType="-99"/>
          </Node>
          <Node pos="r" depth="2" NCoef="0" IVar="12" Cut="7.4679841995239258e+00" cType="1" res="-4.1096718632616103e-04" rms="6.3635535538196564e-02" purity="3.7398731708526611e-01" nType="0">
            <Node pos="l" depth="3" NCoef="0" IVar="-1" Cut="0.0000000000000000e+00" cType="1" res="-3.5148922353982925e-02" rms="4.8263158649206161e-02" purity="1.8304167687892914e-01" nType="-99"/>
            <Node pos="r" depth="3" NCoef="0" IVar="-1" Cut="0.0000000000000000e+00" cType="1" res="6.1345114372670650e-03" rms="6.9721318781375885e-02" purity="4.6471458673477173e-01" nType="-99"/>
          </Node>
        </Node>
      </Node>
    </BinaryTree>
    <BinaryTree type="DecisionTree" boostWeight="1.0000000000000000e+00" itree="204">
      <Node pos="s" depth="0" NCoef="0" IVar="5" Cut="-3.5919840335845947e+00" cType="1" res="2.4871033383533359e-04" rms="6.3020616769790649e-02" purity="5.0375652313232422e-01" nType="0">
        <Node pos="l" depth="1" NCoef="0" IVar="7" Cut="4.0286855697631836e+00" cType="1" res="1.3365235645323992e-03" rms="6.7776456475257874e-02" purity="7.4248838424682617e-01" nType="0">
          <Node pos="l" depth="2" NCoef="0" IVar="14" Cut="3.2677004337310791e+00" cType="1" res="3.6936104297637939e-03" rms="9.3941085040569305e-02" purity="3.8183671236038208e-01" nType="0">
            <Node pos="l" depth="3" NCoef="0" IVar="-1" Cut="0.0000000000000000e+00" cType="1" res="-1.3987011276185513e-02" rms="5.5525846779346466e-02" purity="5.0191458314657211e-02" nType="-99"/>
            <Node pos="r" depth="3" NCoef="0" IVar="-1" Cut="0.0000000000000000e+00" cType="1" res="1.9298134371638298e-02" rms="1.0992433130741119e-01" purity="5.7186633348464966e-01" nType="-99"/>
          </Node>
          <Node pos="r" depth="2" NCoef="0" IVar="-1" Cut="0.0000000000000000e+00" cType="1" res="-2.1625314839184284e-03" rms="4.4361289590597153e-02" purity="9.6581631898880005e-01" nType="-99"/>
        </Node>
        <Node pos="r" depth="1" NCoef="0" IVar="2" Cut="-1.0633760452270508e+01" cType="1" res="-1.4978222316130996e-03" rms="5.4478615522384644e-02" purity="1.2046191841363907e-01" nType="0">
          <Node pos="l" depth="2" NCoef="0" IVar="-1" Cut="0.0000000000000000e+00" cType="1" res="-2.8130330145359039e-02" rms="9.6537984907627106e-02" purity="5.9993028640747070e-01" nType="-99"/>
          <Node pos="r" depth="2" NCoef="0" IVar="16" Cut="4.6413588523864746e+00" cType="1" res="-7.3861348209902644e-04" rms="4.3182495981454849e-02" purity="3.7480153143405914e-02" nType="0">
            <Node pos="l" depth="3" NCoef="0" IVar="-1" Cut="0.0000000000000000e+00" cType="1" res="-3.4998767077922821e-02" rms="2.3130781948566437e-02" purity="5.2811154164373875e-03" nType="-99"/>
            <Node pos="r" depth="3" NCoef="0" IVar="-1" Cut="0.0000000000000000e+00" cType="1" res="1.2262339703738689e-02" rms="1.0106349736452103e-01" purity="2.4056906998157501e-01" nType="-99"/>
          </Node>
        </Node>
      </Node>
    </BinaryTree>
    <BinaryTree type="DecisionTree" boostWeight="1.0000000000000000e+00" itree="205">
      <Node pos="s" depth="0" NCoef="0" IVar="7" Cut="3.4029827117919922e+00" cType="1" res="1.9037741003558040e-03" rms="7.0763677358627319e-02" purity="5.0181120634078979e-01" nType="0">
        <Node pos="l" depth="1" NCoef="0" IVar="8" Cut="3.0620041489601135e-01" cType="1" res="4.5964037999510765e-03" rms="9.0683050453662872e-02" purity="1.7716866731643677e-01" nType="0">
          <Node pos="l" depth="2" NCoef="0" IVar="5" Cut="-3.8399314880371094e+00" cType="1" res="8.7125077843666077e-03" rms="1.0504651814699173e-01" purity="2.2431586682796478e-01" nType="0">
            <Node pos="l" depth="3" NCoef="0" IVar="-1" Cut="0.0000000000000000e+00" cType="1" res="4.0965199470520020e-02" rms="1.4418798685073853e-01" purity="4.9056470394134521e-01" nType="-99"/>
            <Node pos="r" depth="3" NCoef="0" IVar="-1" Cut="0.0000000000000000e+00" cType="1" res="1.6732638701796532e-02" rms="7.3005855083465576e-02" purity="7.1432791650295258e-02" nType="-99"/>
          </Node>
          <Node pos="r" depth="2" NCoef="0" IVar="0" Cut="8.3307609558105469e+00" cType="1" res="-5.0185492727905512e-04" rms="6.8514660000801086e-02" purity="1.1877153068780899e-01" nType="0">
            <Node pos="l" depth="3" NCoef="0" IVar="-1" Cut="0.0000000000000000e+00" cType="1" res="3.3175781369209290e-02" rms="6.4078003168106079e-02" purity="2.4606935679912567e-02" nType="-99"/>
            <Node pos="r" depth="3" NCoef="0" IVar="-1" Cut="0.0000000000000000e+00" cType="1" res="-3.0220873653888702e-02" rms="7.4386283755302429e-02" purity="2.6200285553932190e-01" nType="-99"/>
          </Node>
        </Node>
        <Node pos="r" depth="1" NCoef="0" IVar="10" Cut="7.8381118774414062e+00" cType="1" res="4.3703670962713659e-04" rms="5.7005371898412704e-02" purity="6.7865151166915894e-01" nType="0">
          <Node pos="l" depth="2" NCoef="0" IVar="13" Cut="2.5099854469299316e+00" cType="1" res="-1.0437599848955870e-03" rms="5.5021151900291443e-02" purity="5.3029829263687134e-01" nType="0">
            <Node pos="l" depth="3" NCoef="0" IVar="-1" Cut="0.0000000000000000e+00" cType="1" res="-2.2787263616919518e-02" rms="5.4704487323760986e-02" purity="1.3409540057182312e-01" nType="-99"/>
            <Node pos="r" depth="3" NCoef="0" IVar="-1" Cut="0.0000000000000000e+00" cType="1" res="1.1441369540989399e-02" rms="5.5273551493883133e-02" purity="9.4666051864624023e-01" nType="-99"/>
          </Node>
          <Node pos="r" depth="2" NCoef="0" IVar="6" Cut="7.5062394142150879e+00" cType="1" res="2.7741142548620701e-03" rms="5.9929229319095612e-02" purity="9.1279095411300659e-01" nType="0">
            <Node pos="l" depth="3" NCoef="0" IVar="-1" Cut="0.0000000000000000e+00" cType="1" res="4.2759370058774948e-02" rms="7.8658320009708405e-02" purity="6.7036145925521851e-01" nType="-99"/>
            <Node pos="r" depth="3" NCoef="0" IVar="-1" Cut="0.0000000000000000e+00" cType="1" res="1.3746014796197414e-02" rms="5.5221483111381531e-02" purity="9.6199417114257812e-01" nType="-99"/>
          </Node>
        </Node>
      </Node>
    </BinaryTree>
    <BinaryTree type="DecisionTree" boostWeight="1.0000000000000000e+00" itree="206">
      <Node pos="s" depth="0" NCoef="0" IVar="15" Cut="2.6952221393585205e+00" cType="1" res="3.6645500222221017e-04" rms="6.6638454794883728e-02" purity="4.9586889147758484e-01" nType="0">
        <Node pos="l" depth="1" NCoef="0" IVar="16" Cut="4.9292554855346680e+00" cType="1" res="2.2358496207743883e-03" rms="6.8102531135082245e-02" purity="7.3331996798515320e-02" nType="0">
          <Node pos="l" depth="2" NCoef="0" IVar="4" Cut="6.8027150630950928e-01" cType="1" res="4.1058269562199712e-04" rms="5.7629134505987167e-02" purity="2.5786986574530602e-02" nType="0">
            <Node pos="l" depth="3" NCoef="0" IVar="-1" Cut="0.0000000000000000e+00" cType="1" res="-2.1919252350926399e-02" rms="7.5773939490318298e-02" purity="7.9884611070156097e-02" nType="-99"/>
            <Node pos="r" depth="3" NCoef="0" IVar="-1" Cut="0.0000000000000000e+00" cType="1" res="2.0047791302204132e-02" rms="5.3558036684989929e-02" purity="1.5831641852855682e-02" nType="-99"/>
          </Node>
          <Node pos="r" depth="2" NCoef="0" IVar="-1" Cut="0.0000000000000000e+00" cType="1" res="4.2419977486133575e-02" rms="1.3181307911872864e-01" purity="5.4629725217819214e-01" nType="-99"/>
        </Node>
        <Node pos="r" depth="1" NCoef="0" IVar="15" Cut="4.1912670135498047e+00" cType="1" res="-8.0269062891602516e-04" rms="6.5679185092449188e-02" purity="7.6012933254241943e-01" nType="0">
          <Node pos="l" depth="2" NCoef="0" IVar="9" Cut="6.3852748870849609e+00" cType="1" res="-3.9637736044824123e-03" rms="7.6272368431091309e-02" purity="3.5681310296058655e-01" nType="0">
            <Node pos="l" depth="3" NCoef="0" IVar="-1" Cut="0.0000000000000000e+00" cType="1" res="-2.6050888001918793e-02" rms="7.4265822768211365e-02" purity="2.3711644113063812e-01" nType="-99"/>
            <Node pos="r" depth="3" NCoef="0" IVar="-1" Cut="0.0000000000000000e+00" cType="1" res="2.0466423593461514e-03" rms="8.1427276134490967e-02" purity="6.8983715772628784e-01" nType="-99"/>
          </Node>
          <Node pos="r" depth="2" NCoef="0" IVar="-1" Cut="0.0000000000000000e+00" cType="1" res="9.2744175344705582e-03" rms="5.9403304010629654e-02" purity="9.6857583522796631e-01" nType="-99"/>
        </Node>
      </Node>
    </BinaryTree>
    <BinaryTree type="DecisionTree" boostWeight="1.0000000000000000e+00" itree="207">
      <Node pos="s" depth="0" NCoef="0" IVar="9" Cut="5.5255570411682129e+00" cType="1" res="4.9392855726182461e-04" rms="6.5410844981670380e-02" purity="4.9830609560012817e-01" nType="0">
        <Node pos="l" depth="1" NCoef="0" IVar="4" Cut="9.1810435056686401e-01" cType="1" res="4.1903862729668617e-03" rms="8.2181297242641449e-02" purity="2.9164016246795654e-01" nType="0">
          <Node pos="l" depth="2" NCoef="0" IVar="-1" Cut="0.0000000000000000e+00" cType="1" res="4.4253289699554443e-02" rms="1.1178851872682571e-01" purity="6.1063265800476074e-01" nType="-99"/>
          <Node pos="r" depth="2" NCoef="0" IVar="14" Cut="3.9782683849334717e+00" cType="1" res="1.4727754751220345e-04" rms="6.3639655709266663e-02" purity="1.4433288574218750e-01" nType="0">
            <Node pos="l" depth="3" NCoef="0" IVar="-1" Cut="0.0000000000000000e+00" cType="1" res="-6.0487121343612671e-02" rms="2.7960091829299927e-02" purity="9.2676244676113129e-03" nType="-99"/>
            <Node pos="r" depth="3" NCoef="0" IVar="-1" Cut="0.0000000000000000e+00" cType="1" res="1.6536401584744453e-02" rms="1.1156219989061356e-01" purity="4.9339488148689270e-01" nType="-99"/>
          </Node>
        </Node>
        <Node pos="r" depth="1" NCoef="0" IVar="15" Cut="3.0141482353210449e+00" cType="1" res="-3.3385015558451414e-04" rms="6.0996260493993759e-02" purity="5.4458647966384888e-01" nType="0">
          <Node pos="l" depth="2" NCoef="0" IVar="0" Cut="8.6421079635620117e+00" cType="1" res="-2.2931410931050777e-03" rms="5.6219514459371567e-02" purity="8.8948346674442291e-02" nType="0">
            <Node pos="l" depth="3" NCoef="0" IVar="-1" Cut="0.0000000000000000e+00" cType="1" res="-1.1647487990558147e-02" rms="4.7500066459178925e-02" purity="3.0699672177433968e-02" nType="-99"/>
            <Node pos="r" depth="3" NCoef="0" IVar="-1" Cut="0.0000000000000000e+00" cType="1" res="-3.5658299922943115e-02" rms="9.8624408245086670e-02" purity="5.1779717206954956e-01" nType="-99"/>
          </Node>
          <Node pos="r" depth="2" NCoef="0" IVar="2" Cut="-9.9888944625854492e+00" cType="1" res="1.0652960045263171e-03" rms="6.4153574407100677e-02" purity="8.6996144056320190e-01" nType="0">
            <Node pos="l" depth="3" NCoef="0" IVar="-1" Cut="0.0000000000000000e+00" cType="1" res="3.7181857042014599e-03" rms="5.1241144537925720e-02" purity="9.7450232505798340e-01" nType="-99"/>
            <Node pos="r" depth="3" NCoef="0" IVar="-1" Cut="0.0000000000000000e+00" cType="1" res="1.4463216997683048e-02" rms="1.1831656098365784e-01" purity="1.7454835772514343e-01" nType="-99"/>
          </Node>
        </Node>
      </Node>
    </BinaryTree>
    <BinaryTree type="DecisionTree" boostWeight="1.0000000000000000e+00" itree="208">
      <Node pos="s" depth="0" NCoef="0" IVar="7" Cut="1.6407910585403442e+00" cType="1" res="6.2869401881471276e-04" rms="6.6987976431846619e-02" purity="4.9767813086509705e-01" nType="0">
        <Node pos="l" depth="1" NCoef="0" IVar="0" Cut="8.4412984848022461e+00" cType="1" res="-4.5555122196674347e-03" rms="6.3369892537593842e-02" purity="1.4183087646961212e-01" nType="0">
          <Node pos="l" depth="2" NCoef="0" IVar="14" Cut="3.3354203701019287e+00" cType="1" res="-1.6988593852147460e-03" rms="4.8329722136259079e-02" purity="1.9552433863282204e-02" nType="0">
            <Node pos="l" depth="3" NCoef="0" IVar="-1" Cut="0.0000000000000000e+00" cType="1" res="1.9356943666934967e-02" rms="4.1628323495388031e-02" purity="6.5282387658953667e-03" nType="-99"/>
            <Node pos="r" depth="3" NCoef="0" IVar="-1" Cut="0.0000000000000000e+00" cType="1" res="-3.0952330678701401e-02" rms="5.4027292877435684e-02" purity="3.2533768564462662e-02" nType="-99"/>
          </Node>
          <Node pos="r" depth="2" NCoef="0" IVar="-1" Cut="0.0000000000000000e+00" cType="1" res="-4.2251050472259521e-02" rms="8.4184691309928894e-02" purity="3.6852118372917175e-01" nType="-99"/>
        </Node>
        <Node pos="r" depth="1" NCoef="0" IVar="13" Cut="2.7932217121124268e+00" cType="1" res="1.0732057271525264e-03" rms="6.7270554602146149e-02" purity="5.2818971872329712e-01" nType="0">
          <Node pos="l" depth="2" NCoef="0" IVar="12" Cut="7.8501410484313965e+00" cType="1" res="2.3650056682527065e-03" rms="7.8167952597141266e-02" purity="2.0361489057540894e-01" nType="0">
            <Node pos="l" depth="3" NCoef="0" IVar="-1" Cut="0.0000000000000000e+00" cType="1" res="1.0282571893185377e-03" rms="6.3945509493350983e-02" purity="1.4063553512096405e-01" nType="-99"/>
            <Node pos="r" depth="3" NCoef="0" IVar="-1" Cut="0.0000000000000000e+00" cType="1" res="2.9379241168498993e-02" rms="1.0207631438970566e-01" purity="3.3892273902893066e-01" nType="-99"/>
          </Node>
          <Node pos="r" depth="2" NCoef="0" IVar="-1" Cut="0.0000000000000000e+00" cType="1" res="-1.0637813247740269e-02" rms="4.8744007945060730e-02" purity="9.6727102994918823e-01" nType="-99"/>
        </Node>
      </Node>
    </BinaryTree>
    <BinaryTree type="DecisionTree" boostWeight="1.0000000000000000e+00" itree="209">
      <Node pos="s" depth="0" NCoef="0" IVar="1" Cut="4.2581253051757812e+00" cType="1" res="5.6608440354466438e-04" rms="6.7081093788146973e-02" purity="5.0664633512496948e-01" nType="0">
        <Node pos="l" depth="1" NCoef="0" IVar="0" Cut="8.7675724029541016e+00" cType="1" res="-7.0403963036369532e-05" rms="6.6010698676109314e-02" purity="5.7467854022979736e-01" nType="0">
          <Node pos="l" depth="2" NCoef="0" IVar="16" Cut="5.5136876106262207e+00" cType="1" res="-1.4176819240674376e-03" rms="6.5421044826507568e-02" purity="2.8370279073715210e-01" nType="0">
            <Node pos="l" depth="3" NCoef="0" IVar="-1" Cut="0.0000000000000000e+00" cType="1" res="-1.9304662942886353e-02" rms="5.8729697018861771e-02" purity="5.3123362362384796e-02" nType="-99"/>
            <Node pos="r" depth="3" NCoef="0" IVar="-1" Cut="0.0000000000000000e+00" cType="1" res="1.5634506940841675e-02" rms="8.0936551094055176e-02" purity="9.1932046413421631e-01" nType="-99"/>
          </Node>
          <Node pos="r" depth="2" NCoef="0" IVar="2" Cut="-1.0609925270080566e+01" cType="1" res="1.6513671725988388e-03" rms="6.6717095673084259e-02" purity="9.4653481245040894e-01" nType="0">
            <Node pos="l" depth="3" NCoef="0" IVar="-1" Cut="0.0000000000000000e+00" cType="1" res="-5.0141997635364532e-03" rms="5.0638869404792786e-02" purity="9.8591262102127075e-01" nType="-99"/>
            <Node pos="r" depth="3" NCoef="0" IVar="-1" Cut="0.0000000000000000e+00" cType="1" res="3.7578534334897995e-02" rms="1.5780811011791229e-01" purity="5.0869983434677124e-01" nType="-99"/>
          </Node>
        </Node>
        <Node pos="r" depth="1" NCoef="0" IVar="8" Cut="-6.9100242853164673e-01" cType="1" res="3.3798518124967813e-03" rms="7.1553826332092285e-02" purity="2.0589138567447662e-01" nType="0">
          <Node pos="l" depth="2" NCoef="0" IVar="13" Cut="1.8996489048004150e+00" cType="1" res="9.3918154016137123e-03" rms="9.1596782207489014e-02" purity="3.0055215954780579e-01" nType="0">
            <Node pos="l" depth="3" NCoef="0" IVar="-1" Cut="0.0000000000000000e+00" cType="1" res="4.4463644735515118e-03" rms="4.5279335230588913e-02" purity="4.9829725176095963e-02" nType="-99"/>
            <Node pos="r" depth="3" NCoef="0" IVar="-1" Cut="0.0000000000000000e+00" cType="1" res="5.4704252630472183e-02" rms="1.2186308950185776e-01" purity="5.6271302700042725e-01" nType="-99"/>
          </Node>
          <Node pos="r" depth="2" NCoef="0" IVar="15" Cut="1.7899806499481201e+00" cType="1" res="1.2185823288746178e-04" rms="5.7599164545536041e-02" purity="1.5459299087524414e-01" nType="0">
            <Node pos="l" depth="3" NCoef="0" IVar="-1" Cut="0.0000000000000000e+00" cType="1" res="1.3537275791168213e-01" rms="7.3026806116104126e-02" purity="1.0739554651081562e-02" nType="-99"/>
            <Node pos="r" depth="3" NCoef="0" IVar="-1" Cut="0.0000000000000000e+00" cType="1" res="-1.5004593878984451e-02" rms="5.1050841808319092e-02" purity="2.0436386764049530e-01" nType="-99"/>
          </Node>
        </Node>
      </Node>
    </BinaryTree>
    <BinaryTree type="DecisionTree" boostWeight="1.0000000000000000e+00" itree="210">
      <Node pos="s" depth="0" NCoef="0" IVar="1" Cut="3.7152860164642334e+00" cType="1" res="6.2175444327294827e-04" rms="6.9037884473800659e-02" purity="5.0393658876419067e-01" nType="0">
        <Node pos="l" depth="1" NCoef="0" IVar="16" Cut="5.7375135421752930e+00" cType="1" res="-1.4356618048623204e-03" rms="6.0394290834665298e-02" purity="6.5041345357894897e-01" nType="0">
          <Node pos="l" depth="2" NCoef="0" IVar="2" Cut="-8.2929811477661133e+00" cType="1" res="-3.6897954996675253e-03" rms="7.5002975761890411e-02" purity="2.4764470756053925e-01" nType="0">
            <Node pos="l" depth="3" NCoef="0" IVar="-1" Cut="0.0000000000000000e+00" cType="1" res="-1.8938427790999413e-02" rms="9.4965592026710510e-02" purity="4.6760621666908264e-01" nType="-99"/>
            <Node pos="r" depth="3" NCoef="0" IVar="-1" Cut="0.0000000000000000e+00" cType="1" res="-1.2272899970412254e-02" rms="4.3629303574562073e-02" purity="7.3603680357336998e-03" nType="-99"/>
          </Node>
          <Node pos="r" depth="2" NCoef="0" IVar="-1" Cut="0.0000000000000000e+00" cType="1" res="7.8117917291820049e-03" rms="4.4660452753305435e-02" purity="9.8541462421417236e-01" nType="-99"/>
        </Node>
        <Node pos="r" depth="1" NCoef="0" IVar="6" Cut="8.3022499084472656e+00" cType="1" res="2.8258245438337326e-03" rms="7.7170863747596741e-02" purity="3.4701877832412720e-01" nType="0">
          <Node pos="l" depth="2" NCoef="0" IVar="7" Cut="1.3528144359588623e+00" cType="1" res="4.0274988859891891e-03" rms="7.8306205570697784e-02" purity="2.8158932924270630e-01" nType="0">
            <Node pos="l" depth="3" NCoef="0" IVar="-1" Cut="0.0000000000000000e+00" cType="1" res="7.3400713503360748e-02" rms="1.2050855904817581e-01" purity="8.3293065428733826e-02" nType="-99"/>
            <Node pos="r" depth="3" NCoef="0" IVar="-1" Cut="0.0000000000000000e+00" cType="1" res="2.0995287224650383e-02" rms="7.2823606431484222e-02" purity="3.0086094141006470e-01" nType="-99"/>
          </Node>
          <Node pos="r" depth="2" NCoef="0" IVar="9" Cut="5.5795578956604004e+00" cType="1" res="-3.2527551520615816e-03" rms="7.0839047431945801e-02" purity="6.7798888683319092e-01" nType="0">
            <Node pos="l" depth="3" NCoef="0" IVar="-1" Cut="0.0000000000000000e+00" cType="1" res="-1.8920613452792168e-02" rms="8.3910644054412842e-02" purity="4.5270475745201111e-01" nType="-99"/>
            <Node pos="r" depth="3" NCoef="0" IVar="-1" Cut="0.0000000000000000e+00" cType="1" res="-2.9606414958834648e-02" rms="6.3745401799678802e-02" purity="7.8429543972015381e-01" nType="-99"/>
          </Node>
        </Node>
      </Node>
    </BinaryTree>
    <BinaryTree type="DecisionTree" boostWeight="1.0000000000000000e+00" itree="211">
      <Node pos="s" depth="0" NCoef="0" IVar="6" Cut="7.3749923706054688e+00" cType="1" res="7.5912510510534048e-04" rms="7.0653207600116730e-02" purity="5.0026589632034302e-01" nType="0">
        <Node pos="l" depth="1" NCoef="0" IVar="8" Cut="6.2648832798004150e-01" cType="1" res="4.2451927438378334e-03" rms="7.7469959855079651e-02" purity="2.4199515581130981e-01" nType="0">
          <Node pos="l" depth="2" NCoef="0" IVar="7" Cut="3.6563630104064941e+00" cType="1" res="-1.5824909787625074e-03" rms="5.2787650376558304e-02" purity="2.9402488470077515e-01" nType="0">
            <Node pos="l" depth="3" NCoef="0" IVar="-1" Cut="0.0000000000000000e+00" cType="1" res="-3.4012105315923691e-02" rms="5.6848000735044479e-02" purity="6.5751977264881134e-02" nType="-99"/>
            <Node pos="r" depth="3" NCoef="0" IVar="-1" Cut="0.0000000000000000e+00" cType="1" res="2.0912276580929756e-02" rms="4.5087188482284546e-02" purity="6.6466540098190308e-01" nType="-99"/>
          </Node>
          <Node pos="r" depth="2" NCoef="0" IVar="16" Cut="3.9104676246643066e+00" cType="1" res="1.4713034033775330e-02" rms="1.0773110389709473e-01" purity="1.4853805303573608e-01" nType="0">
            <Node pos="l" depth="3" NCoef="0" IVar="-1" Cut="0.0000000000000000e+00" cType="1" res="-5.3113359957933426e-02" rms="8.1847701221704483e-03" purity="0.0000000000000000e+00" nType="-99"/>
            <Node pos="r" depth="3" NCoef="0" IVar="-1" Cut="0.0000000000000000e+00" cType="1" res="8.8255502283573151e-02" rms="1.5894341468811035e-01" purity="3.3340820670127869e-01" nType="-99"/>
          </Node>
        </Node>
        <Node pos="r" depth="1" NCoef="0" IVar="16" Cut="4.6297068595886230e+00" cType="1" res="-9.2130001576151699e-05" rms="6.8859435617923737e-02" purity="5.6333243846893311e-01" nType="0">
          <Node pos="l" depth="2" NCoef="0" IVar="2" Cut="-9.3799419403076172e+00" cType="1" res="1.5491922385990620e-03" rms="7.5294241309165955e-02" purity="6.7563809454441071e-02" nType="0">
            <Node pos="l" depth="3" NCoef="0" IVar="-1" Cut="0.0000000000000000e+00" cType="1" res="2.2923953831195831e-02" rms="1.2134182453155518e-01" purity="2.0221698284149170e-01" nType="-99"/>
            <Node pos="r" depth="3" NCoef="0" IVar="-1" Cut="0.0000000000000000e+00" cType="1" res="-1.6606068238615990e-02" rms="3.8160234689712524e-02" purity="5.2412436343729496e-03" nType="-99"/>
          </Node>
          <Node pos="r" depth="2" NCoef="0" IVar="3" Cut="1.0120429992675781e+00" cType="1" res="-1.1966947931796312e-03" rms="6.4143121242523193e-02" purity="8.9697116613388062e-01" nType="0">
            <Node pos="l" depth="3" NCoef="0" IVar="-1" Cut="0.0000000000000000e+00" cType="1" res="9.9858816247433424e-04" rms="5.3337696939706802e-02" purity="9.8175156116485596e-01" nType="-99"/>
            <Node pos="r" depth="3" NCoef="0" IVar="-1" Cut="0.0000000000000000e+00" cType="1" res="-2.7923887595534325e-02" rms="1.0474597662687302e-01" purity="4.3522247672080994e-01" nType="-99"/>
          </Node>
        </Node>
      </Node>
    </BinaryTree>
    <BinaryTree type="DecisionTree" boostWeight="1.0000000000000000e+00" itree="212">
      <Node pos="s" depth="0" NCoef="0" IVar="9" Cut="6.4744858741760254e+00" cType="1" res="2.5392841780558228e-04" rms="6.7560903728008270e-02" purity="4.9149936437606812e-01" nType="0">
        <Node pos="l" depth="1" NCoef="0" IVar="2" Cut="-1.0758885383605957e+01" cType="1" res="-4.8507683095522225e-04" rms="6.9722063839435577e-02" purity="3.5868325829505920e-01" nType="0">
          <Node pos="l" depth="2" NCoef="0" IVar="4" Cut="1.6810500621795654e+00" cType="1" res="-2.3952221963554621e-03" rms="7.6632387936115265e-02" purity="8.2173383235931396e-01" nType="0">
            <Node pos="l" depth="3" NCoef="0" IVar="-1" Cut="0.0000000000000000e+00" cType="1" res="-8.9538889005780220e-03" rms="6.4650207757949829e-02" purity="8.5368561744689941e-01" nType="-99"/>
            <Node pos="r" depth="3" NCoef="0" IVar="-1" Cut="0.0000000000000000e+00" cType="1" res="-4.1234426200389862e-02" rms="1.3442660868167877e-01" purity="5.8970481157302856e-01" nType="-99"/>
          </Node>
          <Node pos="r" depth="2" NCoef="0" IVar="14" Cut="4.3270578384399414e+00" cType="1" res="7.9980958253145218e-04" rms="6.4627841114997864e-02" purity="4.7205731272697449e-02" nType="0">
            <Node pos="l" depth="3" NCoef="0" IVar="-1" Cut="0.0000000000000000e+00" cType="1" res="-2.3599902633577585e-03" rms="5.3863584995269775e-02" purity="2.4471348151564598e-02" nType="-99"/>
            <Node pos="r" depth="3" NCoef="0" IVar="-1" Cut="0.0000000000000000e+00" cType="1" res="2.1696900948882103e-02" rms="1.2834696471691132e-01" purity="2.6841440796852112e-01" nType="-99"/>
          </Node>
        </Node>
        <Node pos="r" depth="1" NCoef="0" IVar="3" Cut="1.1465984582901001e+00" cType="1" res="1.9959954079240561e-03" rms="6.2135022133588791e-02" purity="8.0458855628967285e-01" nType="0">
          <Node pos="l" depth="2" NCoef="0" IVar="13" Cut="2.1893024444580078e+00" cType="1" res="2.9994125361554325e-04" rms="4.8244960606098175e-02" purity="9.1805785894393921e-01" nType="0">
            <Node pos="l" depth="3" NCoef="0" IVar="-1" Cut="0.0000000000000000e+00" cType="1" res="1.0786430910229683e-02" rms="8.8073603808879852e-02" purity="6.0366052389144897e-01" nType="-99"/>
            <Node pos="r" depth="3" NCoef="0" IVar="-1" Cut="0.0000000000000000e+00" cType="1" res="-4.4361664913594723e-03" rms="3.8091547787189484e-02" purity="9.6871811151504517e-01" nType="-99"/>
          </Node>
          <Node pos="r" depth="2" NCoef="0" IVar="-1" Cut="0.0000000000000000e+00" cType="1" res="3.5815786570310593e-02" rms="1.0566751658916473e-01" purity="2.5799831748008728e-01" nType="-99"/>
        </Node>
      </Node>
    </BinaryTree>
    <BinaryTree type="DecisionTree" boostWeight="1.0000000000000000e+00" itree="213">
      <Node pos="s" depth="0" NCoef="0" IVar="3" Cut="1.3213406801223755e+00" cType="1" res="1.0457541793584824e-03" rms="6.6324129700660706e-02" purity="5.0379091501235962e-01" nType="0">
        <Node pos="l" depth="1" NCoef="0" IVar="2" Cut="-1.1210976600646973e+01" cType="1" res="2.3826388642191887e-03" rms="7.2710730135440826e-02" purity="7.4113667011260986e-01" nType="0">
          <Node pos="l" depth="2" NCoef="0" IVar="-1" Cut="0.0000000000000000e+00" cType="1" res="4.3938262388110161e-03" rms="5.2438326179981232e-02" purity="9.7836023569107056e-01" nType="-99"/>
          <Node pos="r" depth="2" NCoef="0" IVar="16" Cut="4.2256202697753906e+00" cType="1" res="6.7633255384862423e-03" rms="1.0322359949350357e-01" purity="2.3655083775520325e-01" nType="0">
            <Node pos="l" depth="3" NCoef="0" IVar="-1" Cut="0.0000000000000000e+00" cType="1" res="2.7360892272554338e-04" rms="7.1374729275703430e-02" purity="3.8796484470367432e-02" nType="-99"/>
            <Node pos="r" depth="3" NCoef="0" IVar="-1" Cut="0.0000000000000000e+00" cType="1" res="3.0493564903736115e-02" rms="1.4375540614128113e-01" purity="6.0093367099761963e-01" nType="-99"/>
          </Node>
        </Node>
        <Node pos="r" depth="1" NCoef="0" IVar="16" Cut="4.6297068595886230e+00" cType="1" res="-1.5325627755373716e-03" rms="5.1732730120420456e-02" purity="4.6045746654272079e-02" nType="0">
          <Node pos="l" depth="2" NCoef="0" IVar="4" Cut="9.1810435056686401e-01" cType="1" res="-5.5609352421015501e-04" rms="3.3019706606864929e-02" purity="2.9167630709707737e-03" nType="0">
            <Node pos="l" depth="3" NCoef="0" IVar="-1" Cut="0.0000000000000000e+00" cType="1" res="2.5902768597006798e-02" rms="6.9792099297046661e-02" purity="1.6380829736590385e-02" nType="-99"/>
            <Node pos="r" depth="3" NCoef="0" IVar="-1" Cut="0.0000000000000000e+00" cType="1" res="-6.2298450618982315e-02" rms="1.6358928754925728e-02" purity="0.0000000000000000e+00" nType="-99"/>
          </Node>
          <Node pos="r" depth="2" NCoef="0" IVar="5" Cut="-3.5734429359436035e+00" cType="1" res="-6.3296835869550705e-03" rms="1.0217645764350891e-01" purity="2.5792640447616577e-01" nType="0">
            <Node pos="l" depth="3" NCoef="0" IVar="-1" Cut="0.0000000000000000e+00" cType="1" res="-2.7202185243368149e-02" rms="1.2091322243213654e-01" purity="4.8407444357872009e-01" nType="-99"/>
            <Node pos="r" depth="3" NCoef="0" IVar="-1" Cut="0.0000000000000000e+00" cType="1" res="1.2325421266723424e-04" rms="8.4193006157875061e-02" purity="8.1604465842247009e-02" nType="-99"/>
          </Node>
        </Node>
      </Node>
    </BinaryTree>
    <BinaryTree type="DecisionTree" boostWeight="1.0000000000000000e+00" itree="214">
      <Node pos="s" depth="0" NCoef="0" IVar="14" Cut="4.1548743247985840e+00" cType="1" res="1.2133801355957985e-03" rms="7.2810098528862000e-02" purity="5.0417441129684448e-01" nType="0">
        <Node pos="l" depth="1" NCoef="0" IVar="15" Cut="4.0041179656982422e+00" cType="1" res="2.7182481717318296e-03" rms="7.7259436249732971e-02" purity="8.6754076182842255e-02" nType="0">
          <Node pos="l" depth="2" NCoef="0" IVar="3" Cut="4.2633399367332458e-01" cType="1" res="1.6582022653892636e-03" rms="6.7330121994018555e-02" purity="4.2347382754087448e-02" nType="0">
            <Node pos="l" depth="3" NCoef="0" IVar="-1" Cut="0.0000000000000000e+00" cType="1" res="2.3568086326122284e-02" rms="1.4107801020145416e-01" purity="2.3544248938560486e-01" nType="-99"/>
            <Node pos="r" depth="3" NCoef="0" IVar="-1" Cut="0.0000000000000000e+00" cType="1" res="3.3864253200590611e-03" rms="4.5879974961280823e-02" purity="1.2033952400088310e-02" nType="-99"/>
          </Node>
          <Node pos="r" depth="2" NCoef="0" IVar="-1" Cut="0.0000000000000000e+00" cType="1" res="2.6738269254565239e-02" rms="1.5473118424415588e-01" purity="6.4867126941680908e-01" nType="-99"/>
        </Node>
        <Node pos="r" depth="1" NCoef="0" IVar="1" Cut="4.2839746475219727e+00" cType="1" res="-1.8016979447565973e-04" rms="6.8402864038944244e-02" purity="8.9071738719940186e-01" nType="0">
          <Node pos="l" depth="2" NCoef="0" IVar="16" Cut="5.8125839233398438e+00" cType="1" res="-9.2133949510753155e-04" rms="6.2238804996013641e-02" purity="9.0700560808181763e-01" nType="0">
            <Node pos="l" depth="3" NCoef="0" IVar="-1" Cut="0.0000000000000000e+00" cType="1" res="-3.0320122838020325e-02" rms="9.8262071609497070e-02" purity="6.2727099657058716e-01" nType="-99"/>
            <Node pos="r" depth="3" NCoef="0" IVar="-1" Cut="0.0000000000000000e+00" cType="1" res="1.9782925024628639e-02" rms="4.5316070318222046e-02" purity="9.9413335323333740e-01" nType="-99"/>
          </Node>
          <Node pos="r" depth="2" NCoef="0" IVar="-1" Cut="0.0000000000000000e+00" cType="1" res="2.7687894180417061e-02" rms="1.1782690137624741e-01" purity="7.0294135808944702e-01" nType="-99"/>
        </Node>
      </Node>
    </BinaryTree>
    <BinaryTree type="DecisionTree" boostWeight="1.0000000000000000e+00" itree="215">
      <Node pos="s" depth="0" NCoef="0" IVar="0" Cut="8.7668638229370117e+00" cType="1" res="9.0581492986530066e-04" rms="6.7965723574161530e-02" purity="5.0355035066604614e-01" nType="0">
        <Node pos="l" depth="1" NCoef="0" IVar="12" Cut="7.8229413032531738e+00" cType="1" res="-1.5475043619517237e-04" rms="6.6950462758541107e-02" purity="2.4099463224411011e-01" nType="0">
          <Node pos="l" depth="2" NCoef="0" IVar="14" Cut="4.1949648857116699e+00" cType="1" res="-1.1044668499380350e-03" rms="5.9882257133722305e-02" purity="2.3060275614261627e-01" nType="0">
            <Node pos="l" depth="3" NCoef="0" IVar="-1" Cut="0.0000000000000000e+00" cType="1" res="-2.4517336860299110e-02" rms="4.6004641801118851e-02" purity="2.4567004293203354e-02" nType="-99"/>
            <Node pos="r" depth="3" NCoef="0" IVar="-1" Cut="0.0000000000000000e+00" cType="1" res="1.0430307127535343e-02" rms="8.4471389651298523e-02" purity="7.3051893711090088e-01" nType="-99"/>
          </Node>
          <Node pos="r" depth="2" NCoef="0" IVar="12" Cut="8.0412473678588867e+00" cType="1" res="2.2519291378557682e-03" rms="8.2134388387203217e-02" purity="2.6732873916625977e-01" nType="0">
            <Node pos="l" depth="3" NCoef="0" IVar="-1" Cut="0.0000000000000000e+00" cType="1" res="3.7241257727146149e-02" rms="9.6766345202922821e-02" purity="2.7894294261932373e-01" nType="-99"/>
            <Node pos="r" depth="3" NCoef="0" IVar="-1" Cut="0.0000000000000000e+00" cType="1" res="-1.0159807279706001e-02" rms="6.3108906149864197e-02" purity="2.5518584251403809e-01" nType="-99"/>
          </Node>
        </Node>
        <Node pos="r" depth="1" NCoef="0" IVar="16" Cut="4.5770421028137207e+00" cType="1" res="2.6821270585060120e-03" rms="6.9596812129020691e-02" purity="9.4329774379730225e-01" nType="0">
          <Node pos="l" depth="2" NCoef="0" IVar="-1" Cut="0.0000000000000000e+00" cType="1" res="3.1233197078108788e-02" rms="1.6991762816905975e-01" purity="4.8920118808746338e-01" nType="-99"/>
          <Node pos="r" depth="2" NCoef="0" IVar="-1" Cut="0.0000000000000000e+00" cType="1" res="1.3815261423587799e-02" rms="5.2960634231567383e-02" purity="9.8130738735198975e-01" nType="-99"/>
        </Node>
      </Node>
    </BinaryTree>
    <BinaryTree type="DecisionTree" boostWeight="1.0000000000000000e+00" itree="216">
      <Node pos="s" depth="0" NCoef="0" IVar="10" Cut="7.6101050376892090e+00" cType="1" res="3.4225304261781275e-04" rms="6.9349169731140137e-02" purity="5.0230085849761963e-01" nType="0">
        <Node pos="l" depth="1" NCoef="0" IVar="10" Cut="6.4195909500122070e+00" cType="1" res="-1.0241961572319269e-03" rms="6.5311111509799957e-02" purity="3.2914343476295471e-01" nType="0">
          <Node pos="l" depth="2" NCoef="0" IVar="-1" Cut="0.0000000000000000e+00" cType="1" res="-5.4465878754854202e-02" rms="5.1825176924467087e-02" purity="1.5220555663108826e-01" nType="-99"/>
          <Node pos="r" depth="2" NCoef="0" IVar="4" Cut="9.6260291337966919e-01" cType="1" res="-7.2115490911528468e-04" rms="6.6049396991729736e-02" purity="3.4018126130104065e-01" nType="0">
            <Node pos="l" depth="3" NCoef="0" IVar="-1" Cut="0.0000000000000000e+00" cType="1" res="-1.3277770951390266e-02" rms="6.5776094794273376e-02" purity="6.5517199039459229e-01" nType="-99"/>
            <Node pos="r" depth="3" NCoef="0" IVar="-1" Cut="0.0000000000000000e+00" cType="1" res="3.5091966856271029e-04" rms="6.6183313727378845e-02" purity="1.7070925235748291e-01" nType="-99"/>
          </Node>
        </Node>
        <Node pos="r" depth="1" NCoef="0" IVar="7" Cut="1.6563566923141479e+00" cType="1" res="1.9340289290994406e-03" rms="7.3743008077144623e-02" purity="7.0401185750961304e-01" nType="0">
          <Node pos="l" depth="2" NCoef="0" IVar="-1" Cut="0.0000000000000000e+00" cType="1" res="4.5809127390384674e-02" rms="1.2301599234342575e-01" purity="2.8076827526092529e-01" nType="-99"/>
          <Node pos="r" depth="2" NCoef="0" IVar="3" Cut="1.5282151699066162e+00" cType="1" res="1.2388703180477023e-03" rms="6.9652572274208069e-02" purity="7.2924351692199707e-01" nType="0">
            <Node pos="l" depth="3" NCoef="0" IVar="-1" Cut="0.0000000000000000e+00" cType="1" res="-2.2538229823112488e-03" rms="5.6342296302318573e-02" purity="8.6645841598510742e-01" nType="-99"/>
            <Node pos="r" depth="3" NCoef="0" IVar="-1" Cut="0.0000000000000000e+00" cType="1" res="3.9075180888175964e-02" rms="1.1278921365737915e-01" purity="8.0610133707523346e-02" nType="-99"/>
          </Node>
        </Node>
      </Node>
    </BinaryTree>
    <BinaryTree type="DecisionTree" boostWeight="1.0000000000000000e+00" itree="217">
      <Node pos="s" depth="0" NCoef="0" IVar="11" Cut="6.8068943023681641e+00" cType="1" res="-9.1820140369236469e-04" rms="5.8699183166027069e-02" purity="5.0225871801376343e-01" nType="0">
        <Node pos="l" depth="1" NCoef="0" IVar="14" Cut="3.9619717597961426e+00" cType="1" res="-2.3294112179428339e-03" rms="5.8103680610656738e-02" purity="3.1796038150787354e-01" nType="0">
          <Node pos="l" depth="2" NCoef="0" IVar="9" Cut="6.3538570404052734e+00" cType="1" res="-1.3449469115585089e-03" rms="4.3512355536222458e-02" purity="3.2050613313913345e-02" nType="0">
            <Node pos="l" depth="3" NCoef="0" IVar="-1" Cut="0.0000000000000000e+00" cType="1" res="-6.3695907592773438e-03" rms="4.1472084820270538e-02" purity="2.2597713395953178e-02" nType="-99"/>
            <Node pos="r" depth="3" NCoef="0" IVar="-1" Cut="0.0000000000000000e+00" cType="1" res="-2.9379684478044510e-02" rms="5.1194712519645691e-02" purity="7.2471626102924347e-02" nType="-99"/>
          </Node>
          <Node pos="r" depth="2" NCoef="0" IVar="3" Cut="1.1466923952102661e+00" cType="1" res="-3.7277764640748501e-03" rms="7.4018910527229309e-02" purity="7.2407591342926025e-01" nType="0">
            <Node pos="l" depth="3" NCoef="0" IVar="-1" Cut="0.0000000000000000e+00" cType="1" res="-1.2611704878509045e-02" rms="6.8657360970973969e-02" purity="9.0676498413085938e-01" nType="-99"/>
            <Node pos="r" depth="3" NCoef="0" IVar="-1" Cut="0.0000000000000000e+00" cType="1" res="-4.7888085246086121e-02" rms="8.8849112391471863e-02" purity="1.3442108035087585e-01" nType="-99"/>
          </Node>
        </Node>
        <Node pos="r" depth="1" NCoef="0" IVar="9" Cut="5.4342546463012695e+00" cType="1" res="8.3169608842581511e-04" rms="5.9382766485214233e-02" purity="7.3078829050064087e-01" nType="0">
          <Node pos="l" depth="2" NCoef="0" IVar="8" Cut="-4.3646803498268127e-01" cType="1" res="-4.6479124575853348e-03" rms="6.9824896752834320e-02" purity="4.4206187129020691e-01" nType="0">
            <Node pos="l" depth="3" NCoef="0" IVar="-1" Cut="0.0000000000000000e+00" cType="1" res="-2.0294591784477234e-02" rms="6.6263191401958466e-02" purity="4.8306593298912048e-01" nType="-99"/>
            <Node pos="r" depth="3" NCoef="0" IVar="-1" Cut="0.0000000000000000e+00" cType="1" res="-5.1550693809986115e-02" rms="7.3262989521026611e-02" purity="4.0000045299530029e-01" nType="-99"/>
          </Node>
          <Node pos="r" depth="2" NCoef="0" IVar="7" Cut="2.4749007225036621e+00" cType="1" res="1.6189250163733959e-03" rms="5.7684883475303650e-02" purity="7.7226823568344116e-01" nType="0">
            <Node pos="l" depth="3" NCoef="0" IVar="-1" Cut="0.0000000000000000e+00" cType="1" res="2.1455517038702965e-02" rms="1.0392651706933975e-01" purity="3.8031587004661560e-01" nType="-99"/>
            <Node pos="r" depth="3" NCoef="0" IVar="-1" Cut="0.0000000000000000e+00" cType="1" res="8.0407448112964630e-03" rms="4.7964468598365784e-02" purity="8.2583415508270264e-01" nType="-99"/>
          </Node>
        </Node>
      </Node>
    </BinaryTree>
    <BinaryTree type="DecisionTree" boostWeight="1.0000000000000000e+00" itree="218">
      <Node pos="s" depth="0" NCoef="0" IVar="10" Cut="7.5893125534057617e+00" cType="1" res="-3.9366888813674450e-04" rms="6.2332659959793091e-02" purity="5.0710821151733398e-01" nType="0">
        <Node pos="l" depth="1" NCoef="0" IVar="6" Cut="8.3022499084472656e+00" cType="1" res="-1.4270080719143152e-03" rms="5.7499803602695465e-02" purity="3.3166593313217163e-01" nType="0">
          <Node pos="l" depth="2" NCoef="0" IVar="15" Cut="2.6844954490661621e+00" cType="1" res="-2.5054316502064466e-03" rms="5.1685519516468048e-02" purity="2.2645267844200134e-01" nType="0">
            <Node pos="l" depth="3" NCoef="0" IVar="-1" Cut="0.0000000000000000e+00" cType="1" res="-1.1972992680966854e-02" rms="4.0268324315547943e-02" purity="2.7946541085839272e-02" nType="-99"/>
            <Node pos="r" depth="3" NCoef="0" IVar="-1" Cut="0.0000000000000000e+00" cType="1" res="-2.6128413155674934e-02" rms="6.3697472214698792e-02" purity="4.8982051014900208e-01" nType="-99"/>
          </Node>
          <Node pos="r" depth="2" NCoef="0" IVar="14" Cut="3.2587292194366455e+00" cType="1" res="1.7424121033400297e-03" rms="7.1822717785835266e-02" purity="6.4088118076324463e-01" nType="0">
            <Node pos="l" depth="3" NCoef="0" IVar="-1" Cut="0.0000000000000000e+00" cType="1" res="-4.1094444692134857e-02" rms="5.5518608540296555e-02" purity="2.6896230876445770e-02" nType="-99"/>
            <Node pos="r" depth="3" NCoef="0" IVar="-1" Cut="0.0000000000000000e+00" cType="1" res="2.1472614258527756e-02" rms="7.5893759727478027e-02" purity="8.2336336374282837e-01" nType="-99"/>
          </Node>
        </Node>
        <Node pos="r" depth="1" NCoef="0" IVar="14" Cut="4.1658029556274414e+00" cType="1" res="7.4927584500983357e-04" rms="6.7256480455398560e-02" purity="7.0115947723388672e-01" nType="0">
          <Node pos="l" depth="2" NCoef="0" IVar="9" Cut="6.2618613243103027e+00" cType="1" res="5.2124685607850552e-03" rms="8.4117248654365540e-02" purity="1.6865272819995880e-01" nType="0">
            <Node pos="l" depth="3" NCoef="0" IVar="-1" Cut="0.0000000000000000e+00" cType="1" res="2.0085773430764675e-03" rms="6.9739848375320435e-02" purity="6.9958180189132690e-02" nType="-99"/>
            <Node pos="r" depth="3" NCoef="0" IVar="-1" Cut="0.0000000000000000e+00" cType="1" res="4.2359400540590286e-02" rms="1.2092348188161850e-01" purity="5.2331197261810303e-01" nType="-99"/>
          </Node>
          <Node pos="r" depth="2" NCoef="0" IVar="14" Cut="4.8182091712951660e+00" cType="1" res="-1.2545837089419365e-03" rms="5.8004897087812424e-02" purity="9.4024139642715454e-01" nType="0">
            <Node pos="l" depth="3" NCoef="0" IVar="-1" Cut="0.0000000000000000e+00" cType="1" res="-5.3862515836954117e-02" rms="7.9799346625804901e-02" purity="6.1192578077316284e-01" nType="-99"/>
            <Node pos="r" depth="3" NCoef="0" IVar="-1" Cut="0.0000000000000000e+00" cType="1" res="-2.9141551349312067e-03" rms="5.4452158510684967e-02" purity="9.8278963565826416e-01" nType="-99"/>
          </Node>
        </Node>
      </Node>
    </BinaryTree>
    <BinaryTree type="DecisionTree" boostWeight="1.0000000000000000e+00" itree="219">
      <Node pos="s" depth="0" NCoef="0" IVar="8" Cut="3.0684840679168701e-01" cType="1" res="1.0861050104722381e-03" rms="6.8592496216297150e-02" purity="5.0344401597976685e-01" nType="0">
        <Node pos="l" depth="1" NCoef="0" IVar="12" Cut="8.0355739593505859e+00" cType="1" res="2.2854360286146402e-03" rms="7.2346881031990051e-02" purity="5.8257818222045898e-01" nType="0">
          <Node pos="l" depth="2" NCoef="0" IVar="2" Cut="-9.0263299942016602e+00" cType="1" res="3.8375179283320904e-03" rms="7.5643211603164673e-02" purity="4.7976282238960266e-01" nType="0">
            <Node pos="l" depth="3" NCoef="0" IVar="-1" Cut="0.0000000000000000e+00" cType="1" res="3.0452715232968330e-02" rms="8.7674327194690704e-02" purity="7.3844790458679199e-01" nType="-99"/>
            <Node pos="r" depth="3" NCoef="0" IVar="-1" Cut="0.0000000000000000e+00" cType="1" res="-3.2919211662374437e-04" rms="4.6772997826337814e-02" purity="1.7548743635416031e-02" nType="-99"/>
          </Node>
          <Node pos="r" depth="2" NCoef="0" IVar="4" Cut="2.1935660839080811e+00" cType="1" res="-8.4135390352457762e-04" rms="6.5089806914329529e-02" purity="7.8970760107040405e-01" nType="0">
            <Node pos="l" depth="3" NCoef="0" IVar="-1" Cut="0.0000000000000000e+00" cType="1" res="3.2313885167241096e-03" rms="6.2183894217014313e-02" purity="8.8144093751907349e-01" nType="-99"/>
            <Node pos="r" depth="3" NCoef="0" IVar="-1" Cut="0.0000000000000000e+00" cType="1" res="-6.4623147249221802e-02" rms="8.2906529307365417e-02" purity="1.1292308568954468e-01" nType="-99"/>
          </Node>
        </Node>
        <Node pos="r" depth="1" NCoef="0" IVar="15" Cut="3.1315207481384277e+00" cType="1" res="-9.6018001204356551e-04" rms="6.1607427895069122e-02" purity="3.6842632293701172e-01" nType="0">
          <Node pos="l" depth="2" NCoef="0" IVar="14" Cut="3.8240349292755127e+00" cType="1" res="-3.4123051445931196e-03" rms="3.6487895995378494e-02" purity="4.6179976314306259e-02" nType="0">
            <Node pos="l" depth="3" NCoef="0" IVar="-1" Cut="0.0000000000000000e+00" cType="1" res="-4.2537946254014969e-02" rms="2.2061582654714584e-02" purity="4.1176532395184040e-03" nType="-99"/>
            <Node pos="r" depth="3" NCoef="0" IVar="-1" Cut="0.0000000000000000e+00" cType="1" res="-5.5155117064714432e-02" rms="6.3054710626602173e-02" purity="1.7963115870952606e-01" nType="-99"/>
          </Node>
          <Node pos="r" depth="2" NCoef="0" IVar="0" Cut="8.3474903106689453e+00" cType="1" res="2.3348389659076929e-03" rms="8.4188245236873627e-02" purity="8.0144166946411133e-01" nType="0">
            <Node pos="l" depth="3" NCoef="0" IVar="-1" Cut="0.0000000000000000e+00" cType="1" res="3.3224899321794510e-02" rms="1.0861619561910629e-01" purity="4.0883520245552063e-01" nType="-99"/>
            <Node pos="r" depth="3" NCoef="0" IVar="-1" Cut="0.0000000000000000e+00" cType="1" res="-1.9415125716477633e-03" rms="7.6133400201797485e-02" purity="9.0640473365783691e-01" nType="-99"/>
          </Node>
        </Node>
      </Node>
    </BinaryTree>
    <BinaryTree type="DecisionTree" boostWeight="1.0000000000000000e+00" itree="220">
      <Node pos="s" depth="0" NCoef="0" IVar="9" Cut="5.2617573738098145e+00" cType="1" res="6.8434787681326270e-04" rms="6.7365519702434540e-02" purity="5.0039535760879517e-01" nType="0">
        <Node pos="l" depth="1" NCoef="0" IVar="2" Cut="-1.0217724800109863e+01" cType="1" res="4.8390394076704979e-03" rms="8.3636291325092316e-02" purity="2.6771920919418335e-01" nType="0">
          <Node pos="l" depth="2" NCoef="0" IVar="-1" Cut="0.0000000000000000e+00" cType="1" res="3.8326472043991089e-02" rms="1.2385015189647675e-01" purity="6.4915645122528076e-01" nType="-99"/>
          <Node pos="r" depth="2" NCoef="0" IVar="15" Cut="2.2604079246520996e+00" cType="1" res="-2.9646357870660722e-04" rms="3.5391282290220261e-02" purity="8.1796748563647270e-03" nType="0">
            <Node pos="l" depth="3" NCoef="0" IVar="-1" Cut="0.0000000000000000e+00" cType="1" res="5.2822981029748917e-02" rms="3.6262765526771545e-02" purity="1.0618119500577450e-02" nType="-99"/>
            <Node pos="r" depth="3" NCoef="0" IVar="-1" Cut="0.0000000000000000e+00" cType="1" res="-5.0129342824220657e-02" rms="3.4107536077499390e-02" purity="5.6052100844681263e-03" nType="-99"/>
          </Node>
        </Node>
        <Node pos="r" depth="1" NCoef="0" IVar="10" Cut="6.6826577186584473e+00" cType="1" res="2.0989119366277009e-04" rms="6.5232984721660614e-02" purity="5.2696639299392700e-01" nType="0">
          <Node pos="l" depth="2" NCoef="0" IVar="2" Cut="-9.2188329696655273e+00" cType="1" res="-4.4923680834472179e-03" rms="5.6553274393081665e-02" purity="2.2792644798755646e-01" nType="0">
            <Node pos="l" depth="3" NCoef="0" IVar="-1" Cut="0.0000000000000000e+00" cType="1" res="-5.5092815309762955e-02" rms="7.2825185954570770e-02" purity="4.4116991758346558e-01" nType="-99"/>
            <Node pos="r" depth="3" NCoef="0" IVar="-1" Cut="0.0000000000000000e+00" cType="1" res="-6.7691160365939140e-03" rms="3.2880786806344986e-02" purity="1.6799647361040115e-02" nType="-99"/>
          </Node>
          <Node pos="r" depth="2" NCoef="0" IVar="8" Cut="-6.9084078073501587e-01" cType="1" res="5.4135243408381939e-04" rms="6.5788954496383667e-02" purity="5.4804575443267822e-01" nType="0">
            <Node pos="l" depth="3" NCoef="0" IVar="-1" Cut="0.0000000000000000e+00" cType="1" res="-7.3457998223602772e-03" rms="5.9473991394042969e-02" purity="6.4966058731079102e-01" nType="-99"/>
            <Node pos="r" depth="3" NCoef="0" IVar="-1" Cut="0.0000000000000000e+00" cType="1" res="1.0994178242981434e-02" rms="7.0172242820262909e-02" purity="4.7113808989524841e-01" nType="-99"/>
          </Node>
        </Node>
      </Node>
    </BinaryTree>
    <BinaryTree type="DecisionTree" boostWeight="1.0000000000000000e+00" itree="221">
      <Node pos="s" depth="0" NCoef="0" IVar="11" Cut="5.9127197265625000e+00" cType="1" res="1.5044425381347537e-03" rms="6.9635450839996338e-02" purity="4.9724504351615906e-01" nType="0">
        <Node pos="l" depth="1" NCoef="0" IVar="3" Cut="1.5009533166885376e+00" cType="1" res="9.0661132708191872e-03" rms="1.1092735826969147e-01" purity="2.2805413603782654e-01" nType="0">
          <Node pos="l" depth="2" NCoef="0" IVar="11" Cut="5.7263760566711426e+00" cType="1" res="1.9529722630977631e-02" rms="1.4889729022979736e-01" purity="4.2889091372489929e-01" nType="0">
            <Node pos="l" depth="3" NCoef="0" IVar="-1" Cut="0.0000000000000000e+00" cType="1" res="1.8402448622509837e-03" rms="7.2220146656036377e-02" purity="4.1706994175910950e-01" nType="-99"/>
            <Node pos="r" depth="3" NCoef="0" IVar="-1" Cut="0.0000000000000000e+00" cType="1" res="1.0091073065996170e-01" rms="1.9083219766616821e-01" purity="4.3923833966255188e-01" nType="-99"/>
          </Node>
          <Node pos="r" depth="2" NCoef="0" IVar="-1" Cut="0.0000000000000000e+00" cType="1" res="-7.1434050798416138e-02" rms="2.8928896412253380e-02" purity="0.0000000000000000e+00" nType="-99"/>
        </Node>
        <Node pos="r" depth="1" NCoef="0" IVar="4" Cut="2.1058486402034760e-01" cType="1" res="6.3654792029410601e-04" rms="6.3135087490081787e-02" purity="5.2814155817031860e-01" nType="0">
          <Node pos="l" depth="2" NCoef="0" IVar="8" Cut="-2.6290872693061829e-01" cType="1" res="3.1049118842929602e-03" rms="6.2479443848133087e-02" purity="8.3476471900939941e-01" nType="0">
            <Node pos="l" depth="3" NCoef="0" IVar="-1" Cut="0.0000000000000000e+00" cType="1" res="5.9302728623151779e-03" rms="5.5036023259162903e-02" purity="8.7161314487457275e-01" nType="-99"/>
            <Node pos="r" depth="3" NCoef="0" IVar="-1" Cut="0.0000000000000000e+00" cType="1" res="3.2319370657205582e-02" rms="7.0652320981025696e-02" purity="7.8827250003814697e-01" nType="-99"/>
          </Node>
          <Node pos="r" depth="2" NCoef="0" IVar="7" Cut="4.0544037818908691e+00" cType="1" res="-2.3759822943247855e-04" rms="6.3342586159706116e-02" purity="4.1955408453941345e-01" nType="0">
            <Node pos="l" depth="3" NCoef="0" IVar="-1" Cut="0.0000000000000000e+00" cType="1" res="-1.1837317608296871e-02" rms="6.2783442437648773e-02" purity="1.2606036663055420e-01" nType="-99"/>
            <Node pos="r" depth="3" NCoef="0" IVar="-1" Cut="0.0000000000000000e+00" cType="1" res="1.3057073578238487e-02" rms="6.4078576862812042e-02" purity="8.3545130491256714e-01" nType="-99"/>
          </Node>
        </Node>
      </Node>
    </BinaryTree>
    <BinaryTree type="DecisionTree" boostWeight="1.0000000000000000e+00" itree="222">
      <Node pos="s" depth="0" NCoef="0" IVar="7" Cut="1.6731534004211426e+00" cType="1" res="8.6039106827229261e-04" rms="6.8257555365562439e-02" purity="5.0588095188140869e-01" nType="0">
        <Node pos="l" depth="1" NCoef="0" IVar="0" Cut="8.3921585083007812e+00" cType="1" res="-4.1874428279697895e-03" rms="7.0607908070087433e-02" purity="1.4443564414978027e-01" nType="0">
          <Node pos="l" depth="2" NCoef="0" IVar="11" Cut="6.5050010681152344e+00" cType="1" res="2.8884751372970641e-04" rms="5.5690646171569824e-02" purity="3.2710842788219452e-02" nType="0">
            <Node pos="l" depth="3" NCoef="0" IVar="-1" Cut="0.0000000000000000e+00" cType="1" res="-2.6066582649946213e-02" rms="4.3328445404767990e-02" purity="2.6123456656932831e-02" nType="-99"/>
            <Node pos="r" depth="3" NCoef="0" IVar="-1" Cut="0.0000000000000000e+00" cType="1" res="1.7448749393224716e-02" rms="6.5655827522277832e-02" purity="3.9321068674325943e-02" nType="-99"/>
          </Node>
          <Node pos="r" depth="2" NCoef="0" IVar="-1" Cut="0.0000000000000000e+00" cType="1" res="-4.5015085488557816e-02" rms="8.8831022381782532e-02" purity="3.2160535454750061e-01" nType="-99"/>
        </Node>
        <Node pos="r" depth="1" NCoef="0" IVar="14" Cut="4.0602483749389648e+00" cType="1" res="1.3121407246217132e-03" rms="6.8025000393390656e-02" purity="5.3822803497314453e-01" nType="0">
          <Node pos="l" depth="2" NCoef="0" IVar="16" Cut="4.4918165206909180e+00" cType="1" res="3.1531122513115406e-03" rms="7.3440141975879669e-02" purity="9.1725081205368042e-02" nType="0">
            <Node pos="l" depth="3" NCoef="0" IVar="-1" Cut="0.0000000000000000e+00" cType="1" res="1.1147012934088707e-02" rms="5.5348061025142670e-02" purity="2.2099807858467102e-02" nType="-99"/>
            <Node pos="r" depth="3" NCoef="0" IVar="-1" Cut="0.0000000000000000e+00" cType="1" res="2.9819168150424957e-02" rms="1.2292281538248062e-01" purity="3.8484552502632141e-01" nType="-99"/>
          </Node>
          <Node pos="r" depth="2" NCoef="0" IVar="4" Cut="2.2442934513092041e+00" cType="1" res="-1.4812439621891826e-04" rms="6.3363581895828247e-02" purity="8.9239579439163208e-01" nType="0">
            <Node pos="l" depth="3" NCoef="0" IVar="-1" Cut="0.0000000000000000e+00" cType="1" res="4.2771063745021820e-03" rms="5.7449374347925186e-02" purity="9.4561403989791870e-01" nType="-99"/>
            <Node pos="r" depth="3" NCoef="0" IVar="-1" Cut="0.0000000000000000e+00" cType="1" res="-2.2259095683693886e-02" rms="1.1086247116327286e-01" purity="2.7272355556488037e-01" nType="-99"/>
          </Node>
        </Node>
      </Node>
    </BinaryTree>
    <BinaryTree type="DecisionTree" boostWeight="1.0000000000000000e+00" itree="223">
      <Node pos="s" depth="0" NCoef="0" IVar="9" Cut="5.0193514823913574e+00" cType="1" res="5.6024885270744562e-04" rms="6.7131400108337402e-02" purity="5.0291126966476440e-01" nType="0">
        <Node pos="l" depth="1" NCoef="0" IVar="11" Cut="6.5729131698608398e+00" cType="1" res="9.9636642262339592e-03" rms="1.0551831126213074e-01" purity="2.5468510389328003e-01" nType="0">
          <Node pos="l" depth="2" NCoef="0" IVar="-1" Cut="0.0000000000000000e+00" cType="1" res="-2.8045557439327240e-02" rms="5.0977844744920731e-02" purity="1.5697968006134033e-01" nType="-99"/>
          <Node pos="r" depth="2" NCoef="0" IVar="-1" Cut="0.0000000000000000e+00" cType="1" res="8.7439477443695068e-02" rms="1.3693740963935852e-01" purity="3.4513288736343384e-01" nType="-99"/>
        </Node>
        <Node pos="r" depth="1" NCoef="0" IVar="4" Cut="-8.8834780454635620e-01" cType="1" res="3.9109389035729691e-05" rms="6.4297400414943695e-02" purity="5.1666796207427979e-01" nType="0">
          <Node pos="l" depth="2" NCoef="0" IVar="-1" Cut="0.0000000000000000e+00" cType="1" res="3.0741343274712563e-02" rms="7.3722258210182190e-02" purity="8.6379820108413696e-01" nType="-99"/>
          <Node pos="r" depth="2" NCoef="0" IVar="16" Cut="6.2426395416259766e+00" cType="1" res="-5.3448451217263937e-04" rms="6.3106395304203033e-02" purity="4.7703233361244202e-01" nType="0">
            <Node pos="l" depth="3" NCoef="0" IVar="-1" Cut="0.0000000000000000e+00" cType="1" res="-1.3156558386981487e-02" rms="6.6384531557559967e-02" purity="2.1503905951976776e-01" nType="-99"/>
            <Node pos="r" depth="3" NCoef="0" IVar="-1" Cut="0.0000000000000000e+00" cType="1" res="2.6965206488966942e-02" rms="5.6159157305955887e-02" purity="9.8153227567672729e-01" nType="-99"/>
          </Node>
        </Node>
      </Node>
    </BinaryTree>
    <BinaryTree type="DecisionTree" boostWeight="1.0000000000000000e+00" itree="224">
      <Node pos="s" depth="0" NCoef="0" IVar="7" Cut="9.2822027206420898e-01" cType="1" res="9.0534990886226296e-04" rms="6.8290129303932190e-02" purity="5.0176358222961426e-01" nType="0">
        <Node pos="l" depth="1" NCoef="0" IVar="-1" Cut="0.0000000000000000e+00" cType="1" res="-3.4597214311361313e-02" rms="6.5507911145687103e-02" purity="1.4199566841125488e-01" nType="-99"/>
        <Node pos="r" depth="1" NCoef="0" IVar="7" Cut="3.0902450084686279e+00" cType="1" res="1.2226199032738805e-03" rms="6.8407952785491943e-02" purity="5.1941037178039551e-01" nType="0">
          <Node pos="l" depth="2" NCoef="0" IVar="15" Cut="2.0704660415649414e+00" cType="1" res="5.8248899877071381e-03" rms="9.6834212541580200e-02" purity="1.7685554921627045e-01" nType="0">
            <Node pos="l" depth="3" NCoef="0" IVar="-1" Cut="0.0000000000000000e+00" cType="1" res="-6.5996162593364716e-03" rms="4.5853149145841599e-02" purity="1.3342574238777161e-02" nType="-99"/>
            <Node pos="r" depth="3" NCoef="0" IVar="-1" Cut="0.0000000000000000e+00" cType="1" res="3.6312885582447052e-02" rms="1.2179390341043472e-01" purity="3.0074003338813782e-01" nType="-99"/>
          </Node>
          <Node pos="r" depth="2" NCoef="0" IVar="13" Cut="2.7932474613189697e+00" cType="1" res="-2.4830710026435554e-04" rms="5.6297801434993744e-02" purity="6.2889397144317627e-01" nType="0">
            <Node pos="l" depth="3" NCoef="0" IVar="-1" Cut="0.0000000000000000e+00" cType="1" res="-1.2789741158485413e-02" rms="6.1170224100351334e-02" purity="2.6498767733573914e-01" nType="-99"/>
            <Node pos="r" depth="3" NCoef="0" IVar="-1" Cut="0.0000000000000000e+00" cType="1" res="1.7818417400121689e-02" rms="5.1097806543111801e-02" purity="9.8085176944732666e-01" nType="-99"/>
          </Node>
        </Node>
      </Node>
    </BinaryTree>
    <BinaryTree type="DecisionTree" boostWeight="1.0000000000000000e+00" itree="225">
      <Node pos="s" depth="0" NCoef="0" IVar="16" Cut="4.6297068595886230e+00" cType="1" res="8.9087977539747953e-04" rms="6.7971691489219666e-02" purity="5.0398814678192139e-01" nType="0">
        <Node pos="l" depth="1" NCoef="0" IVar="15" Cut="3.3834671974182129e+00" cType="1" res="2.2359257563948631e-03" rms="6.8451128900051117e-02" purity="5.8666687458753586e-02" nType="0">
          <Node pos="l" depth="2" NCoef="0" IVar="14" Cut="4.2343969345092773e+00" cType="1" res="5.6394218700006604e-04" rms="5.6608114391565323e-02" purity="3.1634997576475143e-02" nType="0">
            <Node pos="l" depth="3" NCoef="0" IVar="-1" Cut="0.0000000000000000e+00" cType="1" res="-5.9491475112736225e-03" rms="4.2146258056163788e-02" purity="1.5338970348238945e-02" nType="-99"/>
            <Node pos="r" depth="3" NCoef="0" IVar="-1" Cut="0.0000000000000000e+00" cType="1" res="2.7711439877748489e-02" rms="1.2950420379638672e-01" purity="1.8767638504505157e-01" nType="-99"/>
          </Node>
          <Node pos="r" depth="2" NCoef="0" IVar="-1" Cut="0.0000000000000000e+00" cType="1" res="4.0726181119680405e-02" rms="1.4313590526580811e-01" purity="3.5371622443199158e-01" nType="-99"/>
        </Node>
        <Node pos="r" depth="1" NCoef="0" IVar="0" Cut="8.1872367858886719e+00" cType="1" res="-2.8447489603422582e-04" rms="6.7528024315834045e-02" purity="8.9312767982482910e-01" nType="0">
          <Node pos="l" depth="2" NCoef="0" IVar="-1" Cut="0.0000000000000000e+00" cType="1" res="2.2531865164637566e-02" rms="9.8259635269641876e-02" purity="6.2376606464385986e-01" nType="-99"/>
          <Node pos="r" depth="2" NCoef="0" IVar="16" Cut="5.5924582481384277e+00" cType="1" res="-1.2249377323314548e-03" rms="6.3175596296787262e-02" purity="9.2273122072219849e-01" nType="0">
            <Node pos="l" depth="3" NCoef="0" IVar="-1" Cut="0.0000000000000000e+00" cType="1" res="-3.6884590983390808e-02" rms="9.9303938448429108e-02" purity="6.4962494373321533e-01" nType="-99"/>
            <Node pos="r" depth="3" NCoef="0" IVar="-1" Cut="0.0000000000000000e+00" cType="1" res="2.9241896700114012e-03" rms="5.3651142865419388e-02" purity="9.7388845682144165e-01" nType="-99"/>
          </Node>
        </Node>
      </Node>
    </BinaryTree>
    <BinaryTree type="DecisionTree" boostWeight="1.0000000000000000e+00" itree="226">
      <Node pos="s" depth="0" NCoef="0" IVar="4" Cut="2.2034161090850830e+00" cType="1" res="4.9826834583655000e-04" rms="6.9314211606979370e-02" purity="5.0298112630844116e-01" nType="0">
        <Node pos="l" depth="1" NCoef="0" IVar="7" Cut="3.8085062503814697e+00" cType="1" res="1.4472111361101270e-03" rms="7.4247457087039948e-02" purity="6.3996028900146484e-01" nType="0">
          <Node pos="l" depth="2" NCoef="0" IVar="11" Cut="5.8698439598083496e+00" cType="1" res="4.2465254664421082e-03" rms="9.7021117806434631e-02" purity="2.6328182220458984e-01" nType="0">
            <Node pos="l" depth="3" NCoef="0" IVar="-1" Cut="0.0000000000000000e+00" cType="1" res="5.0579950213432312e-02" rms="1.2317175418138504e-01" purity="1.6459868848323822e-01" nType="-99"/>
            <Node pos="r" depth="3" NCoef="0" IVar="-1" Cut="0.0000000000000000e+00" cType="1" res="1.0900793597102165e-02" rms="9.2981249094009399e-02" purity="2.7601099014282227e-01" nType="-99"/>
          </Node>
          <Node pos="r" depth="2" NCoef="0" IVar="16" Cut="5.6107482910156250e+00" cType="1" res="-4.6569548430852592e-04" rms="5.3275983780622482e-02" purity="8.9736282825469971e-01" nType="0">
            <Node pos="l" depth="3" NCoef="0" IVar="-1" Cut="0.0000000000000000e+00" cType="1" res="-2.3394983261823654e-02" rms="8.0800622701644897e-02" purity="4.4863182306289673e-01" nType="-99"/>
            <Node pos="r" depth="3" NCoef="0" IVar="-1" Cut="0.0000000000000000e+00" cType="1" res="1.5910025686025620e-02" rms="4.5048963278532028e-02" purity="9.9480956792831421e-01" nType="-99"/>
          </Node>
        </Node>
        <Node pos="r" depth="1" NCoef="0" IVar="3" Cut="6.6721200942993164e-01" cType="1" res="-2.5158515200018883e-03" rms="5.0428014248609543e-02" purity="6.7895270884037018e-02" nType="0">
          <Node pos="l" depth="2" NCoef="0" IVar="-1" Cut="0.0000000000000000e+00" cType="1" res="-4.7648072242736816e-02" rms="8.9957982301712036e-02" purity="2.6931759715080261e-01" nType="-99"/>
          <Node pos="r" depth="2" NCoef="0" IVar="14" Cut="4.1528635025024414e+00" cType="1" res="-8.2408025627955794e-04" rms="3.5581249743700027e-02" purity="2.2107766941189766e-02" nType="0">
            <Node pos="l" depth="3" NCoef="0" IVar="-1" Cut="0.0000000000000000e+00" cType="1" res="-3.4248512238264084e-03" rms="2.1790679544210434e-02" purity="3.0289955902844667e-03" nType="-99"/>
            <Node pos="r" depth="3" NCoef="0" IVar="-1" Cut="0.0000000000000000e+00" cType="1" res="-1.8956089392304420e-02" rms="7.3958627879619598e-02" purity="1.2390239536762238e-01" nType="-99"/>
          </Node>
        </Node>
      </Node>
    </BinaryTree>
    <BinaryTree type="DecisionTree" boostWeight="1.0000000000000000e+00" itree="227">
      <Node pos="s" depth="0" NCoef="0" IVar="10" Cut="7.1234450340270996e+00" cType="1" res="8.3773973165079951e-04" rms="7.0441402494907379e-02" purity="5.0736439228057861e-01" nType="0">
        <Node pos="l" depth="1" NCoef="0" IVar="7" Cut="3.4183795452117920e+00" cType="1" res="-2.2265075240284204e-03" rms="5.2276104688644409e-02" purity="2.8369966149330139e-01" nType="0">
          <Node pos="l" depth="2" NCoef="0" IVar="11" Cut="6.9802999496459961e+00" cType="1" res="-4.6888878569006920e-03" rms="5.4970763623714447e-02" purity="9.3999825417995453e-02" nType="0">
            <Node pos="l" depth="3" NCoef="0" IVar="-1" Cut="0.0000000000000000e+00" cType="1" res="-1.3114185072481632e-02" rms="4.2955897748470306e-02" purity="4.8182927072048187e-02" nType="-99"/>
            <Node pos="r" depth="3" NCoef="0" IVar="-1" Cut="0.0000000000000000e+00" cType="1" res="-7.0886582136154175e-02" rms="7.1848817169666290e-02" purity="1.7919996380805969e-01" nType="-99"/>
          </Node>
          <Node pos="r" depth="2" NCoef="0" IVar="10" Cut="6.6871480941772461e+00" cType="1" res="-3.8582953857257962e-04" rms="5.0088346004486084e-02" purity="4.2550405859947205e-01" nType="0">
            <Node pos="l" depth="3" NCoef="0" IVar="-1" Cut="0.0000000000000000e+00" cType="1" res="2.1989688277244568e-02" rms="5.8482039719820023e-02" purity="3.0257216095924377e-01" nType="-99"/>
            <Node pos="r" depth="3" NCoef="0" IVar="-1" Cut="0.0000000000000000e+00" cType="1" res="-2.3960854858160019e-02" rms="4.6040337532758713e-02" purity="4.7631260752677917e-01" nType="-99"/>
          </Node>
        </Node>
        <Node pos="r" depth="1" NCoef="0" IVar="10" Cut="7.4276952743530273e+00" cType="1" res="1.7053036717697978e-03" rms="7.4764437973499298e-02" purity="5.7068938016891479e-01" nType="0">
          <Node pos="l" depth="2" NCoef="0" IVar="11" Cut="6.0078039169311523e+00" cType="1" res="5.2981311455368996e-03" rms="9.5695897936820984e-02" purity="3.5201257467269897e-01" nType="0">
            <Node pos="l" depth="3" NCoef="0" IVar="-1" Cut="0.0000000000000000e+00" cType="1" res="7.8959949314594269e-02" rms="1.3359056413173676e-01" purity="1.7019124329090118e-01" nType="-99"/>
            <Node pos="r" depth="3" NCoef="0" IVar="-1" Cut="0.0000000000000000e+00" cType="1" res="1.4804963022470474e-02" rms="8.5632972419261932e-02" purity="3.8919731974601746e-01" nType="-99"/>
          </Node>
          <Node pos="r" depth="2" NCoef="0" IVar="3" Cut="1.7369850873947144e+00" cType="1" res="5.6601135293021798e-04" rms="6.6730171442031860e-02" purity="6.4003223180770874e-01" nType="0">
            <Node pos="l" depth="3" NCoef="0" IVar="-1" Cut="0.0000000000000000e+00" cType="1" res="-3.0556693673133850e-03" rms="6.2047056853771210e-02" purity="7.5957304239273071e-01" nType="-99"/>
            <Node pos="r" depth="3" NCoef="0" IVar="-1" Cut="0.0000000000000000e+00" cType="1" res="3.4139286726713181e-02" rms="8.6161315441131592e-02" purity="4.6384934335947037e-02" nType="-99"/>
          </Node>
        </Node>
      </Node>
    </BinaryTree>
    <BinaryTree type="DecisionTree" boostWeight="1.0000000000000000e+00" itree="228">
      <Node pos="s" depth="0" NCoef="0" IVar="15" Cut="3.1171929836273193e+00" cType="1" res="1.3942594523541629e-04" rms="6.8277806043624878e-02" purity="4.9404689669609070e-01" nType="0">
        <Node pos="l" depth="1" NCoef="0" IVar="10" Cut="7.6369471549987793e+00" cType="1" res="1.4483857667073607e-03" rms="7.1200445294380188e-02" purity="8.7975598871707916e-02" nType="0">
          <Node pos="l" depth="2" NCoef="0" IVar="3" Cut="6.4671415090560913e-01" cType="1" res="-8.2862458657473326e-04" rms="5.3520888090133667e-02" purity="5.4165553301572800e-02" nType="0">
            <Node pos="l" depth="3" NCoef="0" IVar="-1" Cut="0.0000000000000000e+00" cType="1" res="-1.9833153113722801e-02" rms="8.5456132888793945e-02" purity="2.2227112948894501e-01" nType="-99"/>
            <Node pos="r" depth="3" NCoef="0" IVar="-1" Cut="0.0000000000000000e+00" cType="1" res="9.2623978853225708e-03" rms="4.3070513755083084e-02" purity="1.6290644183754921e-02" nType="-99"/>
          </Node>
          <Node pos="r" depth="2" NCoef="0" IVar="15" Cut="2.1281030178070068e+00" cType="1" res="7.1510081179440022e-03" rms="1.0269527882337570e-01" purity="1.7265062034130096e-01" nType="0">
            <Node pos="l" depth="3" NCoef="0" IVar="-1" Cut="0.0000000000000000e+00" cType="1" res="-1.3220887631177902e-02" rms="4.9487039446830750e-02" purity="5.6212879717350006e-02" nType="-99"/>
            <Node pos="r" depth="3" NCoef="0" IVar="-1" Cut="0.0000000000000000e+00" cType="1" res="5.8256540447473526e-02" rms="1.3650833070278168e-01" purity="2.9124236106872559e-01" nType="-99"/>
          </Node>
        </Node>
        <Node pos="r" depth="1" NCoef="0" IVar="7" Cut="3.0788037776947021e+00" cType="1" res="-1.0415570577606559e-03" rms="6.5506704151630402e-02" purity="8.6041665077209473e-01" nType="0">
          <Node pos="l" depth="2" NCoef="0" IVar="-1" Cut="0.0000000000000000e+00" cType="1" res="-2.1046841517090797e-02" rms="9.6199803054332733e-02" purity="5.7508617639541626e-01" nType="-99"/>
          <Node pos="r" depth="2" NCoef="0" IVar="15" Cut="4.1683931350708008e+00" cType="1" res="-2.8423895128071308e-04" rms="6.0379736125469208e-02" purity="8.9723211526870728e-01" nType="0">
            <Node pos="l" depth="3" NCoef="0" IVar="-1" Cut="0.0000000000000000e+00" cType="1" res="-1.6595318913459778e-02" rms="8.0557949841022491e-02" purity="5.4570490121841431e-01" nType="-99"/>
            <Node pos="r" depth="3" NCoef="0" IVar="-1" Cut="0.0000000000000000e+00" cType="1" res="9.0703358873724937e-03" rms="5.4044019430875778e-02" purity="9.8639136552810669e-01" nType="-99"/>
          </Node>
        </Node>
      </Node>
    </BinaryTree>
    <BinaryTree type="DecisionTree" boostWeight="1.0000000000000000e+00" itree="229">
      <Node pos="s" depth="0" NCoef="0" IVar="10" Cut="6.9904932975769043e+00" cType="1" res="1.3518713240046054e-04" rms="6.9074362516403198e-02" purity="5.0161480903625488e-01" nType="0">
        <Node pos="l" depth="1" NCoef="0" IVar="3" Cut="1.1162097454071045e+00" cType="1" res="-2.7990697417408228e-03" rms="5.5168554186820984e-02" purity="2.4943180382251740e-01" nType="0">
          <Node pos="l" depth="2" NCoef="0" IVar="9" Cut="5.8190302848815918e+00" cType="1" res="-6.1125019565224648e-03" rms="7.2002418339252472e-02" purity="5.7343953847885132e-01" nType="0">
            <Node pos="l" depth="3" NCoef="0" IVar="-1" Cut="0.0000000000000000e+00" cType="1" res="-5.0692126154899597e-02" rms="8.5771970450878143e-02" purity="5.1396644115447998e-01" nType="-99"/>
            <Node pos="r" depth="3" NCoef="0" IVar="-1" Cut="0.0000000000000000e+00" cType="1" res="-2.2468337789177895e-02" rms="5.9775806963443756e-02" purity="6.1723124980926514e-01" nType="-99"/>
          </Node>
          <Node pos="r" depth="2" NCoef="0" IVar="11" Cut="6.8181190490722656e+00" cType="1" res="-6.0042814584448934e-04" rms="4.0136359632015228e-02" purity="3.4435126930475235e-02" nType="0">
            <Node pos="l" depth="3" NCoef="0" IVar="-1" Cut="0.0000000000000000e+00" cType="1" res="-6.3872821629047394e-02" rms="2.8887992724776268e-02" purity="2.0481161773204803e-02" nType="-99"/>
            <Node pos="r" depth="3" NCoef="0" IVar="-1" Cut="0.0000000000000000e+00" cType="1" res="1.3087297789752483e-02" rms="5.2054625004529953e-02" purity="5.4387677460908890e-02" nType="-99"/>
          </Node>
        </Node>
        <Node pos="r" depth="1" NCoef="0" IVar="6" Cut="7.8603935241699219e+00" cType="1" res="6.9743284257128835e-04" rms="7.1416765451431274e-02" purity="5.4993665218353271e-01" nType="0">
          <Node pos="l" depth="2" NCoef="0" IVar="4" Cut="1.7146549224853516e+00" cType="1" res="-1.1366895632818341e-03" rms="6.5337598323822021e-02" purity="2.8594696521759033e-01" nType="0">
            <Node pos="l" depth="3" NCoef="0" IVar="-1" Cut="0.0000000000000000e+00" cType="1" res="-1.9612371921539307e-02" rms="6.4528271555900574e-02" purity="4.8662468791007996e-01" nType="-99"/>
            <Node pos="r" depth="3" NCoef="0" IVar="-1" Cut="0.0000000000000000e+00" cType="1" res="1.0853078216314316e-02" rms="6.6167689859867096e-02" purity="6.0765355825424194e-02" nType="-99"/>
          </Node>
          <Node pos="r" depth="2" NCoef="0" IVar="16" Cut="3.8794593811035156e+00" cType="1" res="2.5217649526894093e-03" rms="7.6945401728153229e-02" purity="8.1251722574234009e-01" nType="0">
            <Node pos="l" depth="3" NCoef="0" IVar="-1" Cut="0.0000000000000000e+00" cType="1" res="5.8588650077581406e-02" rms="1.4499141275882721e-01" purity="1.3524682819843292e-01" nType="-99"/>
            <Node pos="r" depth="3" NCoef="0" IVar="-1" Cut="0.0000000000000000e+00" cType="1" res="5.4460666142404079e-03" rms="6.3669331371784210e-02" purity="8.9470571279525757e-01" nType="-99"/>
          </Node>
        </Node>
      </Node>
    </BinaryTree>
    <BinaryTree type="DecisionTree" boostWeight="1.0000000000000000e+00" itree="230">
      <Node pos="s" depth="0" NCoef="0" IVar="4" Cut="2.4667820930480957e+00" cType="1" res="1.0817691218107939e-03" rms="6.5098881721496582e-02" purity="5.0829696655273438e-01" nType="0">
        <Node pos="l" depth="1" NCoef="0" IVar="2" Cut="-1.3064393997192383e+01" cType="1" res="1.7169835045933723e-03" rms="6.6425949335098267e-02" purity="6.0630041360855103e-01" nType="0">
          <Node pos="l" depth="2" NCoef="0" IVar="-1" Cut="0.0000000000000000e+00" cType="1" res="2.0241031888872385e-03" rms="4.0640302002429962e-02" purity="9.7825706005096436e-01" nType="-99"/>
          <Node pos="r" depth="2" NCoef="0" IVar="14" Cut="3.8859105110168457e+00" cType="1" res="2.9951008036732674e-03" rms="8.1153094768524170e-02" purity="3.1297844648361206e-01" nType="0">
            <Node pos="l" depth="3" NCoef="0" IVar="-1" Cut="0.0000000000000000e+00" cType="1" res="2.3027795832604170e-03" rms="6.1063762754201889e-02" purity="7.5161069631576538e-02" nType="-99"/>
            <Node pos="r" depth="3" NCoef="0" IVar="-1" Cut="0.0000000000000000e+00" cType="1" res="2.2752184420824051e-02" rms="1.0577500611543655e-01" purity="6.9849950075149536e-01" nType="-99"/>
          </Node>
        </Node>
        <Node pos="r" depth="1" NCoef="0" IVar="2" Cut="-9.0728893280029297e+00" cType="1" res="-1.9659895915538073e-03" rms="5.8216731995344162e-02" purity="3.8076300173997879e-02" nType="0">
          <Node pos="l" depth="2" NCoef="0" IVar="-1" Cut="0.0000000000000000e+00" cType="1" res="-5.6917760521173477e-02" rms="9.6487835049629211e-02" purity="1.5166290104389191e-01" nType="-99"/>
          <Node pos="r" depth="2" NCoef="0" IVar="0" Cut="7.9509429931640625e+00" cType="1" res="3.9105117321014404e-04" rms="4.1195880621671677e-02" purity="6.0994401574134827e-03" nType="0">
            <Node pos="l" depth="3" NCoef="0" IVar="-1" Cut="0.0000000000000000e+00" cType="1" res="1.0708880424499512e-01" rms="7.4169725179672241e-02" purity="9.4479918479919434e-03" nType="-99"/>
            <Node pos="r" depth="3" NCoef="0" IVar="-1" Cut="0.0000000000000000e+00" cType="1" res="-3.2910145819187164e-02" rms="1.8921857699751854e-02" purity="4.9337060190737247e-03" nType="-99"/>
          </Node>
        </Node>
      </Node>
    </BinaryTree>
    <BinaryTree type="DecisionTree" boostWeight="1.0000000000000000e+00" itree="231">
      <Node pos="s" depth="0" NCoef="0" IVar="11" Cut="5.9152913093566895e+00" cType="1" res="7.4407400097697973e-04" rms="6.8986713886260986e-02" purity="5.0513619184494019e-01" nType="0">
        <Node pos="l" depth="1" NCoef="0" IVar="11" Cut="5.7839579582214355e+00" cType="1" res="7.2346259839832783e-03" rms="1.0411854833364487e-01" purity="2.8049960732460022e-01" nType="0">
          <Node pos="l" depth="2" NCoef="0" IVar="7" Cut="3.7911634445190430e+00" cType="1" res="-4.7742840251885355e-04" rms="7.0781812071800232e-02" purity="2.7452251315116882e-01" nType="0">
            <Node pos="l" depth="3" NCoef="0" IVar="-1" Cut="0.0000000000000000e+00" cType="1" res="-2.5502867996692657e-02" rms="5.6994002312421799e-02" purity="6.3052609562873840e-02" nType="-99"/>
            <Node pos="r" depth="3" NCoef="0" IVar="-1" Cut="0.0000000000000000e+00" cType="1" res="1.5197049826383591e-02" rms="8.5698716342449188e-02" purity="5.5815565586090088e-01" nType="-99"/>
          </Node>
          <Node pos="r" depth="2" NCoef="0" IVar="-1" Cut="0.0000000000000000e+00" cType="1" res="1.0525541007518768e-01" rms="1.4171241223812103e-01" purity="2.9023450613021851e-01" nType="-99"/>
        </Node>
        <Node pos="r" depth="1" NCoef="0" IVar="4" Cut="2.1057733893394470e-01" cType="1" res="-6.1011407524347305e-05" rms="6.3237220048904419e-02" purity="5.3299999237060547e-01" nType="0">
          <Node pos="l" depth="2" NCoef="0" IVar="14" Cut="3.2729926109313965e+00" cType="1" res="2.6255836710333824e-03" rms="6.5562151372432709e-02" purity="8.4766423702239990e-01" nType="0">
            <Node pos="l" depth="3" NCoef="0" IVar="-1" Cut="0.0000000000000000e+00" cType="1" res="3.5782076418399811e-02" rms="1.1878391355276108e-01" purity="1.7400744557380676e-01" nType="-99"/>
            <Node pos="r" depth="3" NCoef="0" IVar="-1" Cut="0.0000000000000000e+00" cType="1" res="8.7353382259607315e-03" rms="5.5299740284681320e-02" purity="9.3100064992904663e-01" nType="-99"/>
          </Node>
          <Node pos="r" depth="2" NCoef="0" IVar="14" Cut="3.9878613948822021e+00" cType="1" res="-1.0572528699412942e-03" rms="6.2323633581399918e-02" purity="4.1631641983985901e-01" nType="0">
            <Node pos="l" depth="3" NCoef="0" IVar="-1" Cut="0.0000000000000000e+00" cType="1" res="-2.4604642763733864e-02" rms="4.3490786105394363e-02" purity="4.4842712581157684e-02" nType="-99"/>
            <Node pos="r" depth="3" NCoef="0" IVar="-1" Cut="0.0000000000000000e+00" cType="1" res="1.8575344001874328e-03" rms="7.7429078519344330e-02" purity="8.1050062179565430e-01" nType="-99"/>
          </Node>
        </Node>
      </Node>
    </BinaryTree>
    <BinaryTree type="DecisionTree" boostWeight="1.0000000000000000e+00" itree="232">
      <Node pos="s" depth="0" NCoef="0" IVar="0" Cut="7.6837229728698730e+00" cType="1" res="-7.5576514063868672e-05" rms="6.3484236598014832e-02" purity="5.0250399112701416e-01" nType="0">
        <Node pos="l" depth="1" NCoef="0" IVar="3" Cut="9.9427652359008789e-01" cType="1" res="-4.7160587273538113e-03" rms="3.5724006593227386e-02" purity="2.3959271609783173e-02" nType="0">
          <Node pos="l" depth="2" NCoef="0" IVar="-1" Cut="0.0000000000000000e+00" cType="1" res="-6.2083009630441666e-02" rms="5.9239551424980164e-02" purity="6.7596040666103363e-02" nType="-99"/>
          <Node pos="r" depth="2" NCoef="0" IVar="15" Cut="2.2600746154785156e+00" cType="1" res="-1.0937316110357642e-03" rms="1.2254091911017895e-02" purity="2.7392590418457985e-03" nType="0">
            <Node pos="l" depth="3" NCoef="0" IVar="-1" Cut="0.0000000000000000e+00" cType="1" res="-5.0300545990467072e-02" rms="1.1794733582064509e-03" purity="0.0000000000000000e+00" nType="-99"/>
            <Node pos="r" depth="3" NCoef="0" IVar="-1" Cut="0.0000000000000000e+00" cType="1" res="-5.7523939758539200e-02" rms="1.8470419570803642e-02" purity="6.2957247719168663e-03" nType="-99"/>
          </Node>
        </Node>
        <Node pos="r" depth="1" NCoef="0" IVar="7" Cut="1.7796300649642944e+00" cType="1" res="3.8030810537748039e-04" rms="6.5562829375267029e-02" purity="5.4951661825180054e-01" nType="0">
          <Node pos="l" depth="2" NCoef="0" IVar="14" Cut="3.6249096393585205e+00" cType="1" res="5.3667854517698288e-03" rms="9.7340211272239685e-02" purity="1.8375383317470551e-01" nType="0">
            <Node pos="l" depth="3" NCoef="0" IVar="-1" Cut="0.0000000000000000e+00" cType="1" res="-2.8323942795395851e-02" rms="5.2178505808115005e-02" purity="3.4608747810125351e-02" nType="-99"/>
            <Node pos="r" depth="3" NCoef="0" IVar="-1" Cut="0.0000000000000000e+00" cType="1" res="3.4367073327302933e-02" rms="1.3085174560546875e-01" purity="3.5667508840560913e-01" nType="-99"/>
          </Node>
          <Node pos="r" depth="2" NCoef="0" IVar="16" Cut="4.3092803955078125e+00" cType="1" res="-9.9016389867756516e-05" rms="6.1630040407180786e-02" purity="5.8467555046081543e-01" nType="0">
            <Node pos="l" depth="3" NCoef="0" IVar="-1" Cut="0.0000000000000000e+00" cType="1" res="-1.5547834336757660e-02" rms="4.8188149929046631e-02" purity="4.6069938689470291e-02" nType="-99"/>
            <Node pos="r" depth="3" NCoef="0" IVar="-1" Cut="0.0000000000000000e+00" cType="1" res="6.4765196293592453e-03" rms="6.7508034408092499e-02" purity="8.6253893375396729e-01" nType="-99"/>
          </Node>
        </Node>
      </Node>
    </BinaryTree>
    <BinaryTree type="DecisionTree" boostWeight="1.0000000000000000e+00" itree="233">
      <Node pos="s" depth="0" NCoef="0" IVar="4" Cut="-8.8833075761795044e-01" cType="1" res="5.0108518917113543e-04" rms="6.5698660910129547e-02" purity="4.9251732230186462e-01" nType="0">
        <Node pos="l" depth="1" NCoef="0" IVar="-1" Cut="0.0000000000000000e+00" cType="1" res="2.7922462671995163e-02" rms="7.7040165662765503e-02" purity="8.4504199028015137e-01" nType="-99"/>
        <Node pos="r" depth="1" NCoef="0" IVar="12" Cut="7.1519217491149902e+00" cType="1" res="8.3130516941309907e-06" rms="6.4356639981269836e-02" purity="4.5506069064140320e-01" nType="0">
          <Node pos="l" depth="2" NCoef="0" IVar="6" Cut="7.1598963737487793e+00" cType="1" res="3.4225047565996647e-03" rms="7.9213708639144897e-02" purity="2.4551114439964294e-01" nType="0">
            <Node pos="l" depth="3" NCoef="0" IVar="-1" Cut="0.0000000000000000e+00" cType="1" res="-2.4324368685483932e-02" rms="4.8803713172674179e-02" purity="2.1049547195434570e-01" nType="-99"/>
            <Node pos="r" depth="3" NCoef="0" IVar="-1" Cut="0.0000000000000000e+00" cType="1" res="5.9627369046211243e-02" rms="1.1248784512281418e-01" purity="3.0425843596458435e-01" nType="-99"/>
          </Node>
          <Node pos="r" depth="2" NCoef="0" IVar="9" Cut="6.7075643539428711e+00" cType="1" res="-3.3525688922964036e-04" rms="6.2656514346599579e-02" purity="4.7614768147468567e-01" nType="0">
            <Node pos="l" depth="3" NCoef="0" IVar="-1" Cut="0.0000000000000000e+00" cType="1" res="-6.9326264783740044e-03" rms="6.2560498714447021e-02" purity="3.8110691308975220e-01" nType="-99"/>
            <Node pos="r" depth="3" NCoef="0" IVar="-1" Cut="0.0000000000000000e+00" cType="1" res="2.3070501163601875e-02" rms="6.3024394214153290e-02" purity="9.1139954328536987e-01" nType="-99"/>
          </Node>
        </Node>
      </Node>
    </BinaryTree>
    <BinaryTree type="DecisionTree" boostWeight="1.0000000000000000e+00" itree="234">
      <Node pos="s" depth="0" NCoef="0" IVar="0" Cut="7.6115732192993164e+00" cType="1" res="3.0022839200682938e-04" rms="6.4809292554855347e-02" purity="5.0773829221725464e-01" nType="0">
        <Node pos="l" depth="1" NCoef="0" IVar="13" Cut="1.7528357505798340e+00" cType="1" res="-2.9690801165997982e-03" rms="3.2106932252645493e-02" purity="1.7463967204093933e-02" nType="0">
          <Node pos="l" depth="2" NCoef="0" IVar="-1" Cut="0.0000000000000000e+00" cType="1" res="5.4909661412239075e-03" rms="1.5689497813582420e-02" purity="8.3124190568923950e-03" nType="-99"/>
          <Node pos="r" depth="2" NCoef="0" IVar="-1" Cut="0.0000000000000000e+00" cType="1" res="-6.4348518848419189e-02" rms="4.3304391205310822e-02" purity="2.7588460594415665e-02" nType="-99"/>
        </Node>
        <Node pos="r" depth="1" NCoef="0" IVar="7" Cut="4.0236210823059082e+00" cType="1" res="5.6467787362635136e-04" rms="6.6750861704349518e-02" purity="5.4739582538604736e-01" nType="0">
          <Node pos="l" depth="2" NCoef="0" IVar="9" Cut="6.2386350631713867e+00" cType="1" res="1.5185914235189557e-03" rms="7.6661191880702972e-02" purity="2.1191650629043579e-01" nType="0">
            <Node pos="l" depth="3" NCoef="0" IVar="-1" Cut="0.0000000000000000e+00" cType="1" res="-9.8488002549856901e-04" rms="6.7538939416408539e-02" purity="1.2597186863422394e-01" nType="-99"/>
            <Node pos="r" depth="3" NCoef="0" IVar="-1" Cut="0.0000000000000000e+00" cType="1" res="1.9390758126974106e-02" rms="9.4240948557853699e-02" purity="4.0959241986274719e-01" nType="-99"/>
          </Node>
          <Node pos="r" depth="2" NCoef="0" IVar="16" Cut="5.0717644691467285e+00" cType="1" res="-3.9222755003720522e-04" rms="5.5028442293405533e-02" purity="8.8392740488052368e-01" nType="0">
            <Node pos="l" depth="3" NCoef="0" IVar="-1" Cut="0.0000000000000000e+00" cType="1" res="-4.3850380927324295e-02" rms="6.8348348140716553e-02" purity="1.7481261491775513e-01" nType="-99"/>
            <Node pos="r" depth="3" NCoef="0" IVar="-1" Cut="0.0000000000000000e+00" cType="1" res="8.9780120179057121e-03" rms="5.2893798798322678e-02" purity="9.8005712032318115e-01" nType="-99"/>
          </Node>
        </Node>
      </Node>
    </BinaryTree>
    <BinaryTree type="DecisionTree" boostWeight="1.0000000000000000e+00" itree="235">
      <Node pos="s" depth="0" NCoef="0" IVar="15" Cut="2.5947902202606201e+00" cType="1" res="5.4201501188799739e-04" rms="6.5282858908176422e-02" purity="5.0020939111709595e-01" nType="0">
        <Node pos="l" depth="1" NCoef="0" IVar="13" Cut="2.3971023559570312e+00" cType="1" res="-1.3648752355948091e-03" rms="4.4305369257926941e-02" purity="6.0909740626811981e-02" nType="0">
          <Node pos="l" depth="2" NCoef="0" IVar="14" Cut="4.2365117073059082e+00" cType="1" res="-5.9637334197759628e-04" rms="3.7134550511837006e-02" purity="2.1932978183031082e-02" nType="0">
            <Node pos="l" depth="3" NCoef="0" IVar="-1" Cut="0.0000000000000000e+00" cType="1" res="-2.3338407278060913e-02" rms="2.4531526491045952e-02" purity="9.9985962733626366e-03" nType="-99"/>
            <Node pos="r" depth="3" NCoef="0" IVar="-1" Cut="0.0000000000000000e+00" cType="1" res="1.8073787912726402e-02" rms="9.5604009926319122e-02" purity="1.4193420112133026e-01" nType="-99"/>
          </Node>
          <Node pos="r" depth="2" NCoef="0" IVar="-1" Cut="0.0000000000000000e+00" cType="1" res="-2.8724201023578644e-02" rms="7.7777378261089325e-02" purity="3.3588138222694397e-01" nType="-99"/>
        </Node>
        <Node pos="r" depth="1" NCoef="0" IVar="14" Cut="3.5300514698028564e+00" cType="1" res="1.5944319311529398e-03" rms="7.4347138404846191e-02" purity="7.4265980720520020e-01" nType="0">
          <Node pos="l" depth="2" NCoef="0" IVar="3" Cut="5.1349347829818726e-01" cType="1" res="8.4259165450930595e-03" rms="1.0259030014276505e-01" purity="1.2222615629434586e-01" nType="0">
            <Node pos="l" depth="3" NCoef="0" IVar="-1" Cut="0.0000000000000000e+00" cType="1" res="4.0799207985401154e-02" rms="1.7248079180717468e-01" purity="4.7154805064201355e-01" nType="-99"/>
            <Node pos="r" depth="3" NCoef="0" IVar="-1" Cut="0.0000000000000000e+00" cType="1" res="2.1371237933635712e-02" rms="7.4778959155082703e-02" purity="3.4875888377428055e-02" nType="-99"/>
          </Node>
          <Node pos="r" depth="2" NCoef="0" IVar="8" Cut="4.4735804200172424e-01" cType="1" res="-5.6592518376419321e-05" rms="6.5618269145488739e-02" purity="8.9260542392730713e-01" nType="0">
            <Node pos="l" depth="3" NCoef="0" IVar="-1" Cut="0.0000000000000000e+00" cType="1" res="-1.6519157215952873e-02" rms="5.7908508926630020e-02" purity="9.1396075487136841e-01" nType="-99"/>
            <Node pos="r" depth="3" NCoef="0" IVar="-1" Cut="0.0000000000000000e+00" cType="1" res="1.8932254984974861e-02" rms="8.4067910909652710e-02" purity="8.3017402887344360e-01" nType="-99"/>
          </Node>
        </Node>
      </Node>
    </BinaryTree>
    <BinaryTree type="DecisionTree" boostWeight="1.0000000000000000e+00" itree="236">
      <Node pos="s" depth="0" NCoef="0" IVar="7" Cut="2.9918208122253418e+00" cType="1" res="3.3175927819684148e-04" rms="6.7460224032402039e-02" purity="4.9830690026283264e-01" nType="0">
        <Node pos="l" depth="1" NCoef="0" IVar="16" Cut="4.6391706466674805e+00" cType="1" res="-2.1635161247104406e-03" rms="7.5295895338058472e-02" purity="1.5301397442817688e-01" nType="0">
          <Node pos="l" depth="2" NCoef="0" IVar="16" Cut="4.0252985954284668e+00" cType="1" res="4.1143484850181267e-05" rms="6.4322672784328461e-02" purity="5.8458600193262100e-02" nType="0">
            <Node pos="l" depth="3" NCoef="0" IVar="-1" Cut="0.0000000000000000e+00" cType="1" res="-2.0786708220839500e-02" rms="5.0637565553188324e-02" purity="2.9177881777286530e-02" nType="-99"/>
            <Node pos="r" depth="3" NCoef="0" IVar="-1" Cut="0.0000000000000000e+00" cType="1" res="3.3989030867815018e-02" rms="1.1239562183618546e-01" purity="2.2000585496425629e-01" nType="-99"/>
          </Node>
          <Node pos="r" depth="2" NCoef="0" IVar="-1" Cut="0.0000000000000000e+00" cType="1" res="-3.3882565796375275e-02" rms="1.1025151610374451e-01" purity="5.6016308069229126e-01" nType="-99"/>
        </Node>
        <Node pos="r" depth="1" NCoef="0" IVar="7" Cut="3.4344444274902344e+00" cType="1" res="1.1602055747061968e-03" rms="6.4627781510353088e-02" purity="6.1294615268707275e-01" nType="0">
          <Node pos="l" depth="2" NCoef="0" IVar="7" Cut="3.2870187759399414e+00" cType="1" res="5.8499062433838844e-03" rms="9.4099864363670349e-02" purity="1.9052730500698090e-01" nType="0">
            <Node pos="l" depth="3" NCoef="0" IVar="-1" Cut="0.0000000000000000e+00" cType="1" res="5.7342961430549622e-02" rms="1.0885803401470184e-01" purity="2.0056085288524628e-01" nType="-99"/>
            <Node pos="r" depth="3" NCoef="0" IVar="-1" Cut="0.0000000000000000e+00" cType="1" res="-3.9675176143646240e-02" rms="5.3950276225805283e-02" purity="1.7114974558353424e-01" nType="-99"/>
          </Node>
          <Node pos="r" depth="2" NCoef="0" IVar="0" Cut="7.7787532806396484e+00" cType="1" res="3.6885327426716685e-04" rms="5.8163810521364212e-02" purity="6.8422627449035645e-01" nType="0">
            <Node pos="l" depth="3" NCoef="0" IVar="-1" Cut="0.0000000000000000e+00" cType="1" res="-5.1886484026908875e-02" rms="3.4436695277690887e-02" purity="9.1601364314556122e-02" nType="-99"/>
            <Node pos="r" depth="3" NCoef="0" IVar="-1" Cut="0.0000000000000000e+00" cType="1" res="6.9998535327613354e-03" rms="5.9753514826297760e-02" purity="7.3523640632629395e-01" nType="-99"/>
          </Node>
        </Node>
      </Node>
    </BinaryTree>
    <BinaryTree type="DecisionTree" boostWeight="1.0000000000000000e+00" itree="237">
      <Node pos="s" depth="0" NCoef="0" IVar="1" Cut="3.2923908233642578e+00" cType="1" res="1.4259392628446221e-03" rms="7.0167019963264465e-02" purity="5.0834697484970093e-01" nType="0">
        <Node pos="l" depth="1" NCoef="0" IVar="3" Cut="8.8838011026382446e-01" cType="1" res="-1.0627270676195621e-03" rms="5.2500564604997635e-02" purity="7.8126442432403564e-01" nType="0">
          <Node pos="l" depth="2" NCoef="0" IVar="-1" Cut="0.0000000000000000e+00" cType="1" res="5.6305658072233200e-03" rms="4.7311037778854370e-02" purity="9.3728381395339966e-01" nType="-99"/>
          <Node pos="r" depth="2" NCoef="0" IVar="7" Cut="3.5518269538879395e+00" cType="1" res="-5.8672018349170685e-03" rms="6.5642029047012329e-02" purity="3.0438795685768127e-01" nType="0">
            <Node pos="l" depth="3" NCoef="0" IVar="-1" Cut="0.0000000000000000e+00" cType="1" res="-6.6922515630722046e-02" rms="6.7171424627304077e-02" purity="6.5305694937705994e-02" nType="-99"/>
            <Node pos="r" depth="3" NCoef="0" IVar="-1" Cut="0.0000000000000000e+00" cType="1" res="-9.9688377231359482e-03" rms="6.4152635633945465e-02" purity="4.8537170886993408e-01" nType="-99"/>
          </Node>
        </Node>
        <Node pos="r" depth="1" NCoef="0" IVar="10" Cut="7.8220515251159668e+00" cType="1" res="2.3021313827484846e-03" rms="7.5388595461845398e-02" purity="4.1226008534431458e-01" nType="0">
          <Node pos="l" depth="2" NCoef="0" IVar="9" Cut="6.5920286178588867e+00" cType="1" res="3.5948953591287136e-03" rms="8.0461375415325165e-02" purity="2.9800817370414734e-01" nType="0">
            <Node pos="l" depth="3" NCoef="0" IVar="-1" Cut="0.0000000000000000e+00" cType="1" res="1.7920425161719322e-02" rms="7.5257465243339539e-02" purity="2.5503236055374146e-01" nType="-99"/>
            <Node pos="r" depth="3" NCoef="0" IVar="-1" Cut="0.0000000000000000e+00" cType="1" res="5.4533261805772781e-02" rms="1.0920649766921997e-01" purity="5.9148770570755005e-01" nType="-99"/>
          </Node>
          <Node pos="r" depth="2" NCoef="0" IVar="7" Cut="3.5055384635925293e+00" cType="1" res="-1.3866107910871506e-03" rms="5.8388415724039078e-02" purity="7.3826384544372559e-01" nType="0">
            <Node pos="l" depth="3" NCoef="0" IVar="-1" Cut="0.0000000000000000e+00" cType="1" res="-3.9108026772737503e-02" rms="5.9422407299280167e-02" purity="2.6307448744773865e-01" nType="-99"/>
            <Node pos="r" depth="3" NCoef="0" IVar="-1" Cut="0.0000000000000000e+00" cType="1" res="-1.7314302967861295e-03" rms="5.8002457022666931e-02" purity="8.8884431123733521e-01" nType="-99"/>
          </Node>
        </Node>
      </Node>
    </BinaryTree>
    <BinaryTree type="DecisionTree" boostWeight="1.0000000000000000e+00" itree="238">
      <Node pos="s" depth="0" NCoef="0" IVar="0" Cut="8.7668638229370117e+00" cType="1" res="-9.3237678811419755e-05" rms="6.6040605306625366e-02" purity="5.0568056106567383e-01" nType="0">
        <Node pos="l" depth="1" NCoef="0" IVar="7" Cut="2.9918208122253418e+00" cType="1" res="-1.1743293143808842e-03" rms="6.1272561550140381e-02" purity="2.3991815745830536e-01" nType="0">
          <Node pos="l" depth="2" NCoef="0" IVar="2" Cut="-8.9856166839599609e+00" cType="1" res="-4.1798930615186691e-03" rms="5.1202662289142609e-02" purity="5.3713977336883545e-02" nType="0">
            <Node pos="l" depth="3" NCoef="0" IVar="-1" Cut="0.0000000000000000e+00" cType="1" res="-3.9527725428342819e-02" rms="7.2278074920177460e-02" purity="1.1916166543960571e-01" nType="-99"/>
            <Node pos="r" depth="3" NCoef="0" IVar="-1" Cut="0.0000000000000000e+00" cType="1" res="-1.7283758148550987e-02" rms="2.7913533151149750e-02" purity="7.9376799985766411e-03" nType="-99"/>
          </Node>
          <Node pos="r" depth="2" NCoef="0" IVar="11" Cut="7.2001533508300781e+00" cType="1" res="3.7000168231315911e-04" rms="6.5797142684459686e-02" purity="3.3559435606002808e-01" nType="0">
            <Node pos="l" depth="3" NCoef="0" IVar="-1" Cut="0.0000000000000000e+00" cType="1" res="-3.2668362837284803e-03" rms="6.3776418566703796e-02" purity="3.0358749628067017e-01" nType="-99"/>
            <Node pos="r" depth="3" NCoef="0" IVar="-1" Cut="0.0000000000000000e+00" cType="1" res="3.5236112773418427e-02" rms="8.1232234835624695e-02" purity="6.1915111541748047e-01" nType="-99"/>
          </Node>
        </Node>
        <Node pos="r" depth="1" NCoef="0" IVar="3" Cut="1.2700440883636475e+00" cType="1" res="1.6931762220337987e-03" rms="7.3207333683967590e-02" purity="9.4483089447021484e-01" nType="0">
          <Node pos="l" depth="2" NCoef="0" IVar="-1" Cut="0.0000000000000000e+00" cType="1" res="-4.3260292150080204e-03" rms="5.5996380746364594e-02" purity="9.8541319370269775e-01" nType="-99"/>
          <Node pos="r" depth="2" NCoef="0" IVar="-1" Cut="0.0000000000000000e+00" cType="1" res="3.1812477856874466e-02" rms="1.7364116013050079e-01" purity="4.8201587796211243e-01" nType="-99"/>
        </Node>
      </Node>
    </BinaryTree>
    <BinaryTree type="DecisionTree" boostWeight="1.0000000000000000e+00" itree="239">
      <Node pos="s" depth="0" NCoef="0" IVar="1" Cut="3.0666215419769287e+00" cType="1" res="9.5490616513416171e-04" rms="6.9473400712013245e-02" purity="5.0393545627593994e-01" nType="0">
        <Node pos="l" depth="1" NCoef="0" IVar="6" Cut="8.1959009170532227e+00" cType="1" res="-2.4553767871111631e-03" rms="4.9978204071521759e-02" purity="8.5219776630401611e-01" nType="0">
          <Node pos="l" depth="2" NCoef="0" IVar="-1" Cut="0.0000000000000000e+00" cType="1" res="-6.7191071808338165e-02" rms="6.4956635236740112e-02" purity="7.2573858499526978e-01" nType="-99"/>
          <Node pos="r" depth="2" NCoef="0" IVar="-1" Cut="0.0000000000000000e+00" cType="1" res="-1.2529926374554634e-02" rms="4.2417246848344803e-02" purity="9.0287047624588013e-01" nType="-99"/>
        </Node>
        <Node pos="r" depth="1" NCoef="0" IVar="11" Cut="5.7180790901184082e+00" cType="1" res="1.5659588389098644e-03" rms="7.2397217154502869e-02" purity="4.4153398275375366e-01" nType="0">
          <Node pos="l" depth="2" NCoef="0" IVar="-1" Cut="0.0000000000000000e+00" cType="1" res="-5.5392373353242874e-02" rms="5.6748166680335999e-02" purity="1.4199806749820709e-01" nType="-99"/>
          <Node pos="r" depth="2" NCoef="0" IVar="2" Cut="-1.1467813491821289e+01" cType="1" res="1.9179199589416385e-03" rms="7.3080018162727356e-02" purity="4.5663869380950928e-01" nType="0">
            <Node pos="l" depth="3" NCoef="0" IVar="-1" Cut="0.0000000000000000e+00" cType="1" res="3.5443648812361062e-04" rms="6.5183177590370178e-02" purity="9.2215061187744141e-01" nType="-99"/>
            <Node pos="r" depth="3" NCoef="0" IVar="-1" Cut="0.0000000000000000e+00" cType="1" res="2.0198103040456772e-02" rms="7.8821137547492981e-02" purity="8.2645483314990997e-02" nType="-99"/>
          </Node>
        </Node>
      </Node>
    </BinaryTree>
    <BinaryTree type="DecisionTree" boostWeight="1.0000000000000000e+00" itree="240">
      <Node pos="s" depth="0" NCoef="0" IVar="9" Cut="5.4335212707519531e+00" cType="1" res="7.0726976264268160e-04" rms="6.6497474908828735e-02" purity="4.9858173727989197e-01" nType="0">
        <Node pos="l" depth="1" NCoef="0" IVar="13" Cut="1.6777837276458740e+00" cType="1" res="-2.1587421651929617e-03" rms="6.7645311355590820e-02" purity="2.7716943621635437e-01" nType="0">
          <Node pos="l" depth="2" NCoef="0" IVar="13" Cut="1.4973263740539551e+00" cType="1" res="8.8283495279029012e-04" rms="6.1102297157049179e-02" purity="5.2088435739278793e-02" nType="0">
            <Node pos="l" depth="3" NCoef="0" IVar="-1" Cut="0.0000000000000000e+00" cType="1" res="-7.2787739336490631e-02" rms="4.0278539061546326e-02" purity="1.7872074618935585e-02" nType="-99"/>
            <Node pos="r" depth="3" NCoef="0" IVar="-1" Cut="0.0000000000000000e+00" cType="1" res="3.1979095190763474e-02" rms="7.3069222271442413e-02" purity="7.8666277229785919e-02" nType="-99"/>
          </Node>
          <Node pos="r" depth="2" NCoef="0" IVar="0" Cut="8.4387340545654297e+00" cType="1" res="-4.4450731948018074e-03" rms="7.2089739143848419e-02" purity="4.4636115431785583e-01" nType="0">
            <Node pos="l" depth="3" NCoef="0" IVar="-1" Cut="0.0000000000000000e+00" cType="1" res="-1.2650463031604886e-04" rms="5.0018288195133209e-02" purity="2.2968684136867523e-01" nType="-99"/>
            <Node pos="r" depth="3" NCoef="0" IVar="-1" Cut="0.0000000000000000e+00" cType="1" res="-5.3718224167823792e-02" rms="8.8788427412509918e-02" purity="6.6554909944534302e-01" nType="-99"/>
          </Node>
        </Node>
        <Node pos="r" depth="1" NCoef="0" IVar="9" Cut="5.6012744903564453e+00" cType="1" res="1.2108595110476017e-03" rms="6.6280931234359741e-02" purity="5.3748625516891479e-01" nType="0">
          <Node pos="l" depth="2" NCoef="0" IVar="4" Cut="1.5371667146682739e+00" cType="1" res="6.7415228113532066e-03" rms="9.6907220780849457e-02" purity="3.2729440927505493e-01" nType="0">
            <Node pos="l" depth="3" NCoef="0" IVar="-1" Cut="0.0000000000000000e+00" cType="1" res="-3.1883105635643005e-02" rms="6.0517154633998871e-02" purity="5.6995952129364014e-01" nType="-99"/>
            <Node pos="r" depth="3" NCoef="0" IVar="-1" Cut="0.0000000000000000e+00" cType="1" res="8.3903677761554718e-02" rms="1.1840192228555679e-01" purity="1.2458840012550354e-01" nType="-99"/>
          </Node>
          <Node pos="r" depth="2" NCoef="0" IVar="7" Cut="1.6407910585403442e+00" cType="1" res="7.2338752215728164e-04" rms="6.2846787273883820e-02" purity="5.5601257085800171e-01" nType="0">
            <Node pos="l" depth="3" NCoef="0" IVar="-1" Cut="0.0000000000000000e+00" cType="1" res="2.7179248631000519e-02" rms="9.0136051177978516e-02" purity="2.1930246055126190e-01" nType="-99"/>
            <Node pos="r" depth="3" NCoef="0" IVar="-1" Cut="0.0000000000000000e+00" cType="1" res="1.4613611856475472e-03" rms="5.9980783611536026e-02" purity="5.8409303426742554e-01" nType="-99"/>
          </Node>
        </Node>
      </Node>
    </BinaryTree>
    <BinaryTree type="DecisionTree" boostWeight="1.0000000000000000e+00" itree="241">
      <Node pos="s" depth="0" NCoef="0" IVar="15" Cut="3.5169081687927246e+00" cType="1" res="6.2391319079324603e-04" rms="6.5776295959949493e-02" purity="5.0799977779388428e-01" nType="0">
        <Node pos="l" depth="1" NCoef="0" IVar="16" Cut="4.3286452293395996e+00" cType="1" res="1.8201917409896851e-03" rms="7.1575313806533813e-02" purity="1.2151991575956345e-01" nType="0">
          <Node pos="l" depth="2" NCoef="0" IVar="2" Cut="-1.0615983963012695e+01" cType="1" res="-1.0735586329246871e-05" rms="5.5565770715475082e-02" purity="3.2877709716558456e-02" nType="0">
            <Node pos="l" depth="3" NCoef="0" IVar="-1" Cut="0.0000000000000000e+00" cType="1" res="1.6158793121576309e-02" rms="1.0595892369747162e-01" purity="1.9169372320175171e-01" nType="-99"/>
            <Node pos="r" depth="3" NCoef="0" IVar="-1" Cut="0.0000000000000000e+00" cType="1" res="-1.4929492026567459e-02" rms="4.2797885835170746e-02" purity="8.5315052419900894e-03" nType="-99"/>
          </Node>
          <Node pos="r" depth="2" NCoef="0" IVar="7" Cut="3.2825772762298584e+00" cType="1" res="7.8149121254682541e-03" rms="1.0835376381874084e-01" purity="4.1174736618995667e-01" nType="0">
            <Node pos="l" depth="3" NCoef="0" IVar="-1" Cut="0.0000000000000000e+00" cType="1" res="5.0958853214979172e-02" rms="1.5653891861438751e-01" purity="3.3180218935012817e-01" nType="-99"/>
            <Node pos="r" depth="3" NCoef="0" IVar="-1" Cut="0.0000000000000000e+00" cType="1" res="1.9184986595064402e-03" rms="8.4021411836147308e-02" purity="4.3976959586143494e-01" nType="-99"/>
          </Node>
        </Node>
        <Node pos="r" depth="1" NCoef="0" IVar="7" Cut="3.3807675838470459e+00" cType="1" res="-6.7043042508885264e-04" rms="5.8834511786699295e-02" purity="9.2616140842437744e-01" nType="0">
          <Node pos="l" depth="2" NCoef="0" IVar="-1" Cut="0.0000000000000000e+00" cType="1" res="-3.1721778213977814e-02" rms="9.8173148930072784e-02" purity="7.1385562419891357e-01" nType="-99"/>
          <Node pos="r" depth="2" NCoef="0" IVar="2" Cut="-1.0350928306579590e+01" cType="1" res="3.9349886355921626e-04" rms="5.1396891474723816e-02" purity="9.5400714874267578e-01" nType="0">
            <Node pos="l" depth="3" NCoef="0" IVar="-1" Cut="0.0000000000000000e+00" cType="1" res="-2.0271099638193846e-03" rms="4.5282587409019470e-02" purity="9.9171525239944458e-01" nType="-99"/>
            <Node pos="r" depth="3" NCoef="0" IVar="-1" Cut="0.0000000000000000e+00" cType="1" res="1.4968125149607658e-02" rms="1.0727602988481522e-01" purity="3.8461071252822876e-01" nType="-99"/>
          </Node>
        </Node>
      </Node>
    </BinaryTree>
    <BinaryTree type="DecisionTree" boostWeight="1.0000000000000000e+00" itree="242">
      <Node pos="s" depth="0" NCoef="0" IVar="11" Cut="6.5926566123962402e+00" cType="1" res="-4.7701661242172122e-04" rms="6.1851557344198227e-02" purity="5.0281620025634766e-01" nType="0">
        <Node pos="l" depth="1" NCoef="0" IVar="1" Cut="4.3071856498718262e+00" cType="1" res="-1.8342657713219523e-03" rms="6.1375126242637634e-02" purity="3.0002161860466003e-01" nType="0">
          <Node pos="l" depth="2" NCoef="0" IVar="11" Cut="6.4905252456665039e+00" cType="1" res="-2.8215951751917601e-03" rms="6.0724951326847076e-02" purity="3.5904321074485779e-01" nType="0">
            <Node pos="l" depth="3" NCoef="0" IVar="-1" Cut="0.0000000000000000e+00" cType="1" res="-2.8271477669477463e-02" rms="5.8532897382974625e-02" purity="3.4598153829574585e-01" nType="-99"/>
            <Node pos="r" depth="3" NCoef="0" IVar="-1" Cut="0.0000000000000000e+00" cType="1" res="5.9181787073612213e-03" rms="7.2146594524383545e-02" purity="4.3582642078399658e-01" nType="-99"/>
          </Node>
          <Node pos="r" depth="2" NCoef="0" IVar="12" Cut="7.7575778961181641e+00" cType="1" res="1.5507495263591409e-03" rms="6.3437201082706451e-02" purity="9.7668804228305817e-02" nType="0">
            <Node pos="l" depth="3" NCoef="0" IVar="-1" Cut="0.0000000000000000e+00" cType="1" res="-3.2427337020635605e-02" rms="3.1439784914255142e-02" purity="8.7095536291599274e-02" nType="-99"/>
            <Node pos="r" depth="3" NCoef="0" IVar="-1" Cut="0.0000000000000000e+00" cType="1" res="7.1200177073478699e-02" rms="1.0140169411897659e-01" purity="1.1980032920837402e-01" nType="-99"/>
          </Node>
        </Node>
        <Node pos="r" depth="1" NCoef="0" IVar="2" Cut="-1.0350360870361328e+01" cType="1" res="5.8262672973796725e-04" rms="6.2200397253036499e-02" purity="6.6114377975463867e-01" nType="0">
          <Node pos="l" depth="2" NCoef="0" IVar="16" Cut="4.7932271957397461e+00" cType="1" res="1.7043722327798605e-03" rms="6.3968382775783539e-02" purity="9.3020474910736084e-01" nType="0">
            <Node pos="l" depth="3" NCoef="0" IVar="-1" Cut="0.0000000000000000e+00" cType="1" res="2.7802906930446625e-02" rms="1.2357875704765320e-01" purity="4.8051428794860840e-01" nType="-99"/>
            <Node pos="r" depth="3" NCoef="0" IVar="-1" Cut="0.0000000000000000e+00" cType="1" res="2.2874162532389164e-03" rms="5.2562918514013290e-02" purity="9.8274642229080200e-01" nType="-99"/>
          </Node>
          <Node pos="r" depth="2" NCoef="0" IVar="5" Cut="-3.7687516212463379e+00" cType="1" res="-1.7918475205078721e-03" rms="5.8210067451000214e-02" purity="9.1604180634021759e-02" nType="0">
            <Node pos="l" depth="3" NCoef="0" IVar="-1" Cut="0.0000000000000000e+00" cType="1" res="-4.6552289277315140e-02" rms="6.5117143094539642e-02" purity="1.5106113255023956e-01" nType="-99"/>
            <Node pos="r" depth="3" NCoef="0" IVar="-1" Cut="0.0000000000000000e+00" cType="1" res="1.9194378983229399e-03" rms="5.6211732327938080e-02" purity="7.7108815312385559e-02" nType="-99"/>
          </Node>
        </Node>
      </Node>
    </BinaryTree>
    <BinaryTree type="DecisionTree" boostWeight="1.0000000000000000e+00" itree="243">
      <Node pos="s" depth="0" NCoef="0" IVar="15" Cut="3.1171929836273193e+00" cType="1" res="2.7773177134804428e-04" rms="6.7720033228397369e-02" purity="4.9557289481163025e-01" nType="0">
        <Node pos="l" depth="1" NCoef="0" IVar="0" Cut="8.6421079635620117e+00" cType="1" res="1.6519364435225725e-03" rms="6.9672562181949615e-02" purity="9.1287344694137573e-02" nType="0">
          <Node pos="l" depth="2" NCoef="0" IVar="5" Cut="-3.9021334648132324e+00" cType="1" res="5.8856856776401401e-04" rms="5.4517313838005066e-02" purity="2.6168601587414742e-02" nType="0">
            <Node pos="l" depth="3" NCoef="0" IVar="-1" Cut="0.0000000000000000e+00" cType="1" res="-3.1194945797324181e-02" rms="6.0113683342933655e-02" purity="7.0067733526229858e-02" nType="-99"/>
            <Node pos="r" depth="3" NCoef="0" IVar="-1" Cut="0.0000000000000000e+00" cType="1" res="3.1845953315496445e-02" rms="5.2972443401813507e-02" purity="1.5698537230491638e-02" nType="-99"/>
          </Node>
          <Node pos="r" depth="2" NCoef="0" IVar="12" Cut="8.0386981964111328e+00" cType="1" res="8.6882160976529121e-03" rms="1.3134410977363586e-01" purity="5.2217656373977661e-01" nType="0">
            <Node pos="l" depth="3" NCoef="0" IVar="-1" Cut="0.0000000000000000e+00" cType="1" res="3.7034127861261368e-02" rms="1.5773019194602966e-01" purity="4.3795505166053772e-01" nType="-99"/>
            <Node pos="r" depth="3" NCoef="0" IVar="-1" Cut="0.0000000000000000e+00" cType="1" res="-9.1367046115919948e-04" rms="9.9948488175868988e-02" purity="6.0050243139266968e-01" nType="-99"/>
          </Node>
        </Node>
        <Node pos="r" depth="1" NCoef="0" IVar="7" Cut="2.2579092979431152e+00" cType="1" res="-9.5776020316407084e-04" rms="6.5890774130821228e-02" purity="8.5904967784881592e-01" nType="0">
          <Node pos="l" depth="2" NCoef="0" IVar="-1" Cut="0.0000000000000000e+00" cType="1" res="-2.8690736740827560e-02" rms="1.1201885342597961e-01" purity="4.4825294613838196e-01" nType="-99"/>
          <Node pos="r" depth="2" NCoef="0" IVar="5" Cut="-3.2248651981353760e+00" cType="1" res="-4.0824461029842496e-04" rms="6.1864804476499557e-02" purity="8.8453710079193115e-01" nType="0">
            <Node pos="l" depth="3" NCoef="0" IVar="-1" Cut="0.0000000000000000e+00" cType="1" res="2.3330347612500191e-03" rms="5.7010859251022339e-02" purity="9.3545663356781006e-01" nType="-99"/>
            <Node pos="r" depth="3" NCoef="0" IVar="-1" Cut="0.0000000000000000e+00" cType="1" res="-3.2016217708587646e-02" rms="1.0406903922557831e-01" purity="2.6068168878555298e-01" nType="-99"/>
          </Node>
        </Node>
      </Node>
    </BinaryTree>
    <BinaryTree type="DecisionTree" boostWeight="1.0000000000000000e+00" itree="244">
      <Node pos="s" depth="0" NCoef="0" IVar="7" Cut="4.0087857246398926e+00" cType="1" res="-6.4646606915630400e-05" rms="6.6131338477134705e-02" purity="4.9713060259819031e-01" nType="0">
        <Node pos="l" depth="1" NCoef="0" IVar="14" Cut="4.4862189292907715e+00" cType="1" res="1.1998141417279840e-03" rms="7.4907697737216949e-02" purity="1.7832557857036591e-01" nType="0">
          <Node pos="l" depth="2" NCoef="0" IVar="11" Cut="5.8777260780334473e+00" cType="1" res="2.0957709057256579e-04" rms="6.6856510937213898e-02" purity="6.3956357538700104e-02" nType="0">
            <Node pos="l" depth="3" NCoef="0" IVar="-1" Cut="0.0000000000000000e+00" cType="1" res="6.0054995119571686e-02" rms="9.5538437366485596e-02" purity="3.2449450343847275e-02" nType="-99"/>
            <Node pos="r" depth="3" NCoef="0" IVar="-1" Cut="0.0000000000000000e+00" cType="1" res="-5.6002959609031677e-03" rms="6.1452921479940414e-02" purity="6.8593122065067291e-02" nType="-99"/>
          </Node>
          <Node pos="r" depth="2" NCoef="0" IVar="-1" Cut="0.0000000000000000e+00" cType="1" res="1.8525334075093269e-02" rms="1.0609465837478638e-01" purity="7.4688178300857544e-01" nType="-99"/>
        </Node>
        <Node pos="r" depth="1" NCoef="0" IVar="7" Cut="4.6468386650085449e+00" cType="1" res="-1.5009235357865691e-03" rms="5.4437771439552307e-02" purity="8.5925519466400146e-01" nType="0">
          <Node pos="l" depth="2" NCoef="0" IVar="14" Cut="3.1487815380096436e+00" cType="1" res="-6.5955924801528454e-03" rms="7.4167229235172272e-02" purity="4.4357037544250488e-01" nType="0">
            <Node pos="l" depth="3" NCoef="0" IVar="-1" Cut="0.0000000000000000e+00" cType="1" res="-3.1086776405572891e-02" rms="2.9117587953805923e-02" purity="1.9733261317014694e-02" nType="-99"/>
            <Node pos="r" depth="3" NCoef="0" IVar="-1" Cut="0.0000000000000000e+00" cType="1" res="-4.4125046581029892e-02" rms="8.8680990040302277e-02" purity="6.5998971462249756e-01" nType="-99"/>
          </Node>
          <Node pos="r" depth="2" NCoef="0" IVar="-1" Cut="0.0000000000000000e+00" cType="1" res="-2.1420104894787073e-03" rms="4.7551192343235016e-02" purity="9.7284197807312012e-01" nType="-99"/>
        </Node>
      </Node>
    </BinaryTree>
    <BinaryTree type="DecisionTree" boostWeight="1.0000000000000000e+00" itree="245">
      <Node pos="s" depth="0" NCoef="0" IVar="15" Cut="4.0041179656982422e+00" cType="1" res="4.2896618833765388e-04" rms="6.4077660441398621e-02" purity="4.9589887261390686e-01" nType="0">
        <Node pos="l" depth="1" NCoef="0" IVar="15" Cut="1.8845483064651489e+00" cType="1" res="-7.4804382165893912e-04" rms="6.4698867499828339e-02" purity="1.5606854856014252e-01" nType="0">
          <Node pos="l" depth="2" NCoef="0" IVar="15" Cut="1.6471534967422485e+00" cType="1" res="3.2155539374798536e-03" rms="6.1989512294530869e-02" purity="4.5146111398935318e-02" nType="0">
            <Node pos="l" depth="3" NCoef="0" IVar="-1" Cut="0.0000000000000000e+00" cType="1" res="-3.7941902875900269e-02" rms="2.5360725820064545e-02" purity="3.4630905836820602e-02" nType="-99"/>
            <Node pos="r" depth="3" NCoef="0" IVar="-1" Cut="0.0000000000000000e+00" cType="1" res="5.8603234589099884e-02" rms="8.9491307735443115e-02" purity="5.9104282408952713e-02" nType="-99"/>
          </Node>
          <Node pos="r" depth="2" NCoef="0" IVar="2" Cut="-8.4469385147094727e+00" cType="1" res="-2.5157344061881304e-03" rms="6.5794326364994049e-02" purity="2.0553790032863617e-01" nType="0">
            <Node pos="l" depth="3" NCoef="0" IVar="-1" Cut="0.0000000000000000e+00" cType="1" res="-1.8091550096869469e-02" rms="7.9885162413120270e-02" purity="3.4864604473114014e-01" nType="-99"/>
            <Node pos="r" depth="3" NCoef="0" IVar="-1" Cut="0.0000000000000000e+00" cType="1" res="-7.6117634307593107e-04" rms="3.7979472428560257e-02" purity="5.0357882864773273e-03" nType="-99"/>
          </Node>
        </Node>
        <Node pos="r" depth="1" NCoef="0" IVar="3" Cut="1.1712696552276611e+00" cType="1" res="2.0417908672243357e-03" rms="6.3180916011333466e-02" purity="9.6155911684036255e-01" nType="0">
          <Node pos="l" depth="2" NCoef="0" IVar="-1" Cut="0.0000000000000000e+00" cType="1" res="1.1671273969113827e-02" rms="4.8617314547300339e-02" purity="9.9159485101699829e-01" nType="-99"/>
          <Node pos="r" depth="2" NCoef="0" IVar="-1" Cut="0.0000000000000000e+00" cType="1" res="2.3424593731760979e-02" rms="1.4538666605949402e-01" purity="6.4075314998626709e-01" nType="-99"/>
        </Node>
      </Node>
    </BinaryTree>
    <BinaryTree type="DecisionTree" boostWeight="1.0000000000000000e+00" itree="246">
      <Node pos="s" depth="0" NCoef="0" IVar="11" Cut="6.1641802787780762e+00" cType="1" res="2.0431247321539558e-05" rms="6.2204260379076004e-02" purity="5.0154334306716919e-01" nType="0">
        <Node pos="l" depth="1" NCoef="0" IVar="6" Cut="8.0652751922607422e+00" cType="1" res="-2.8435327112674713e-03" rms="6.2248189002275467e-02" purity="2.7077010273933411e-01" nType="0">
          <Node pos="l" depth="2" NCoef="0" IVar="1" Cut="3.4115860462188721e+00" cType="1" res="-1.0300221620127559e-03" rms="5.6040637195110321e-02" purity="2.3602791130542755e-01" nType="0">
            <Node pos="l" depth="3" NCoef="0" IVar="-1" Cut="0.0000000000000000e+00" cType="1" res="1.9889349117875099e-02" rms="7.8097440302371979e-02" purity="4.2838826775550842e-01" nType="-99"/>
            <Node pos="r" depth="3" NCoef="0" IVar="-1" Cut="0.0000000000000000e+00" cType="1" res="-2.5880469009280205e-02" rms="4.8461046069860458e-02" purity="1.8525910377502441e-01" nType="-99"/>
          </Node>
          <Node pos="r" depth="2" NCoef="0" IVar="-1" Cut="0.0000000000000000e+00" cType="1" res="-7.7247962355613708e-02" rms="7.9538702964782715e-02" purity="3.8909980654716492e-01" nType="-99"/>
        </Node>
        <Node pos="r" depth="1" NCoef="0" IVar="14" Cut="3.2752351760864258e+00" cType="1" res="7.3581689503043890e-04" rms="6.2172695994377136e-02" purity="5.5918782949447632e-01" nType="0">
          <Node pos="l" depth="2" NCoef="0" IVar="9" Cut="5.2935967445373535e+00" cType="1" res="-1.6685834852978587e-03" rms="3.6696154624223709e-02" purity="2.9850659891963005e-02" nType="0">
            <Node pos="l" depth="3" NCoef="0" IVar="-1" Cut="0.0000000000000000e+00" cType="1" res="2.9782064259052277e-02" rms="4.1299484670162201e-02" purity="1.8669698387384415e-02" nType="-99"/>
            <Node pos="r" depth="3" NCoef="0" IVar="-1" Cut="0.0000000000000000e+00" cType="1" res="-3.1845428049564362e-02" rms="3.5588625818490982e-02" purity="3.2187189906835556e-02" nType="-99"/>
          </Node>
          <Node pos="r" depth="2" NCoef="0" IVar="6" Cut="7.6374330520629883e+00" cType="1" res="1.5716358320787549e-03" rms="6.8835563957691193e-02" purity="7.4319630861282349e-01" nType="0">
            <Node pos="l" depth="3" NCoef="0" IVar="-1" Cut="0.0000000000000000e+00" cType="1" res="2.9076330363750458e-02" rms="8.7536558508872986e-02" purity="4.3226394057273865e-01" nType="-99"/>
            <Node pos="r" depth="3" NCoef="0" IVar="-1" Cut="0.0000000000000000e+00" cType="1" res="2.9499214142560959e-03" rms="6.2530502676963806e-02" purity="8.3053433895111084e-01" nType="-99"/>
          </Node>
        </Node>
      </Node>
    </BinaryTree>
    <BinaryTree type="DecisionTree" boostWeight="1.0000000000000000e+00" itree="247">
      <Node pos="s" depth="0" NCoef="0" IVar="6" Cut="7.8603935241699219e+00" cType="1" res="5.2404898451641202e-04" rms="6.7833676934242249e-02" purity="5.0709283351898193e-01" nType="0">
        <Node pos="l" depth="1" NCoef="0" IVar="15" Cut="3.1171994209289551e+00" cType="1" res="-1.0340892476961017e-03" rms="6.2704987823963165e-02" purity="2.8630939126014709e-01" nType="0">
          <Node pos="l" depth="2" NCoef="0" IVar="16" Cut="4.5840253829956055e+00" cType="1" res="-2.2339497227221727e-03" rms="4.4352807104587555e-02" purity="3.1935922801494598e-02" nType="0">
            <Node pos="l" depth="3" NCoef="0" IVar="-1" Cut="0.0000000000000000e+00" cType="1" res="-2.1709725260734558e-02" rms="3.6754384636878967e-02" purity="8.3554452285170555e-03" nType="-99"/>
            <Node pos="r" depth="3" NCoef="0" IVar="-1" Cut="0.0000000000000000e+00" cType="1" res="-2.9693756252527237e-02" rms="8.7615892291069031e-02" purity="2.5251474976539612e-01" nType="-99"/>
          </Node>
          <Node pos="r" depth="2" NCoef="0" IVar="14" Cut="3.4744710922241211e+00" cType="1" res="1.3237659586593509e-03" rms="8.8229589164257050e-02" purity="7.8618067502975464e-01" nType="0">
            <Node pos="l" depth="3" NCoef="0" IVar="-1" Cut="0.0000000000000000e+00" cType="1" res="2.9528087005019188e-02" rms="9.6122466027736664e-02" purity="3.0581134557723999e-01" nType="-99"/>
            <Node pos="r" depth="3" NCoef="0" IVar="-1" Cut="0.0000000000000000e+00" cType="1" res="-6.3734119758009911e-03" rms="8.6290031671524048e-02" purity="8.8833618164062500e-01" nType="-99"/>
          </Node>
        </Node>
        <Node pos="r" depth="1" NCoef="0" IVar="7" Cut="2.8657712936401367e+00" cType="1" res="1.6931132413446903e-03" rms="7.1418039500713348e-02" purity="6.7274582386016846e-01" nType="0">
          <Node pos="l" depth="2" NCoef="0" IVar="6" Cut="8.2966814041137695e+00" cType="1" res="1.0033316910266876e-02" rms="1.2571223080158234e-01" purity="3.2924532890319824e-01" nType="0">
            <Node pos="l" depth="3" NCoef="0" IVar="-1" Cut="0.0000000000000000e+00" cType="1" res="6.4406193792819977e-02" rms="1.4076524972915649e-01" purity="2.0834191143512726e-01" nType="-99"/>
            <Node pos="r" depth="3" NCoef="0" IVar="-1" Cut="0.0000000000000000e+00" cType="1" res="-1.1132699437439442e-02" rms="1.0175130516290665e-01" purity="4.8378455638885498e-01" nType="-99"/>
          </Node>
          <Node pos="r" depth="2" NCoef="0" IVar="8" Cut="7.1412467956542969e-01" cType="1" res="2.4199239851441234e-04" rms="5.6781135499477386e-02" purity="7.3251175880432129e-01" nType="0">
            <Node pos="l" depth="3" NCoef="0" IVar="-1" Cut="0.0000000000000000e+00" cType="1" res="-5.7540684938430786e-03" rms="5.6180443614721298e-02" purity="7.7817368507385254e-01" nType="-99"/>
            <Node pos="r" depth="3" NCoef="0" IVar="-1" Cut="0.0000000000000000e+00" cType="1" res="2.5338076055049896e-02" rms="5.8653626590967178e-02" purity="5.8065211772918701e-01" nType="-99"/>
          </Node>
        </Node>
      </Node>
    </BinaryTree>
    <BinaryTree type="DecisionTree" boostWeight="1.0000000000000000e+00" itree="248">
      <Node pos="s" depth="0" NCoef="0" IVar="1" Cut="4.0329723358154297e+00" cType="1" res="6.6572698415257037e-05" rms="6.1745993793010712e-02" purity="4.9872237443923950e-01" nType="0">
        <Node pos="l" depth="1" NCoef="0" IVar="14" Cut="3.8566000461578369e+00" cType="1" res="7.1975600440055132e-04" rms="6.5811172127723694e-02" purity="5.9914386272430420e-01" nType="0">
          <Node pos="l" depth="2" NCoef="0" IVar="15" Cut="2.7128968238830566e+00" cType="1" res="2.9580162372440100e-03" rms="7.5702898204326630e-02" purity="9.0435989201068878e-02" nType="0">
            <Node pos="l" depth="3" NCoef="0" IVar="-1" Cut="0.0000000000000000e+00" cType="1" res="-7.7084065414965153e-03" rms="4.7502756118774414e-02" purity="1.5688121318817139e-02" nType="-99"/>
            <Node pos="r" depth="3" NCoef="0" IVar="-1" Cut="0.0000000000000000e+00" cType="1" res="2.4421526119112968e-02" rms="1.1073552072048187e-01" purity="2.3239260911941528e-01" nType="-99"/>
          </Node>
          <Node pos="r" depth="2" NCoef="0" IVar="0" Cut="8.2323474884033203e+00" cType="1" res="-4.4293206883594394e-04" rms="6.0000047087669373e-02" purity="8.6339759826660156e-01" nType="0">
            <Node pos="l" depth="3" NCoef="0" IVar="-1" Cut="0.0000000000000000e+00" cType="1" res="-4.0821012109518051e-02" rms="6.7738585174083710e-02" purity="3.1350070238113403e-01" nType="-99"/>
            <Node pos="r" depth="3" NCoef="0" IVar="-1" Cut="0.0000000000000000e+00" cType="1" res="2.8161958325654268e-03" rms="5.9166401624679565e-02" purity="9.1532087326049805e-01" nType="-99"/>
          </Node>
        </Node>
        <Node pos="r" depth="1" NCoef="0" IVar="7" Cut="1.4908126592636108e+00" cType="1" res="-1.5896448167040944e-03" rms="4.9939170479774475e-02" purity="2.4409267306327820e-01" nType="0">
          <Node pos="l" depth="2" NCoef="0" IVar="-1" Cut="0.0000000000000000e+00" cType="1" res="2.1009780466556549e-02" rms="5.4062079638242722e-02" purity="7.0971459150314331e-02" nType="-99"/>
          <Node pos="r" depth="2" NCoef="0" IVar="0" Cut="8.4801568984985352e+00" cType="1" res="-2.2657723166048527e-03" rms="4.9326647073030472e-02" purity="2.6706594228744507e-01" nType="0">
            <Node pos="l" depth="3" NCoef="0" IVar="-1" Cut="0.0000000000000000e+00" cType="1" res="-1.5088547021150589e-02" rms="3.7905365228652954e-02" purity="1.3993099331855774e-01" nType="-99"/>
            <Node pos="r" depth="3" NCoef="0" IVar="-1" Cut="0.0000000000000000e+00" cType="1" res="-4.2630683630704880e-02" rms="7.6991975307464600e-02" purity="7.1469652652740479e-01" nType="-99"/>
          </Node>
        </Node>
      </Node>
    </BinaryTree>
    <BinaryTree type="DecisionTree" boostWeight="1.0000000000000000e+00" itree="249">
      <Node pos="s" depth="0" NCoef="0" IVar="14" Cut="3.2315535545349121e+00" cType="1" res="9.5321104163303971e-04" rms="6.6102184355258942e-02" purity="5.0495719909667969e-01" nType="0">
        <Node pos="l" depth="1" NCoef="0" IVar="3" Cut="8.0419963598251343e-01" cType="1" res="-1.6370816156268120e-03" rms="3.7233248353004456e-02" purity="2.7189256623387337e-02" nType="0">
          <Node pos="l" depth="2" NCoef="0" IVar="15" Cut="2.3879399299621582e+00" cType="1" res="-5.8318017981946468e-03" rms="6.9197863340377808e-02" purity="1.2587149441242218e-01" nType="0">
            <Node pos="l" depth="3" NCoef="0" IVar="-1" Cut="0.0000000000000000e+00" cType="1" res="-4.1722953319549561e-02" rms="4.3089054524898529e-02" purity="1.9768962636590004e-02" nType="-99"/>
            <Node pos="r" depth="3" NCoef="0" IVar="-1" Cut="0.0000000000000000e+00" cType="1" res="-1.9625248387455940e-02" rms="8.8026054203510284e-02" purity="2.3311240971088409e-01" nType="-99"/>
          </Node>
          <Node pos="r" depth="2" NCoef="0" IVar="1" Cut="4.6743578910827637e+00" cType="1" res="-6.7508342908695340e-04" rms="2.4518316611647606e-02" purity="4.5579159632325172e-03" nType="0">
            <Node pos="l" depth="3" NCoef="0" IVar="-1" Cut="0.0000000000000000e+00" cType="1" res="-3.4073933959007263e-02" rms="1.9195573404431343e-02" purity="4.4186669401824474e-03" nType="-99"/>
            <Node pos="r" depth="3" NCoef="0" IVar="-1" Cut="0.0000000000000000e+00" cType="1" res="9.5683649182319641e-02" rms="4.4831689447164536e-02" purity="5.4104318842291832e-03" nType="-99"/>
          </Node>
        </Node>
        <Node pos="r" depth="1" NCoef="0" IVar="16" Cut="4.6413588523864746e+00" cType="1" res="1.8969709053635597e-03" rms="7.3844917118549347e-02" purity="6.7902958393096924e-01" nType="0">
          <Node pos="l" depth="2" NCoef="0" IVar="16" Cut="4.3344826698303223e+00" cType="1" res="5.1596728153526783e-03" rms="9.0116836130619049e-02" purity="1.1951842159032822e-01" nType="0">
            <Node pos="l" depth="3" NCoef="0" IVar="-1" Cut="0.0000000000000000e+00" cType="1" res="3.8428811822086573e-03" rms="7.0999279618263245e-02" purity="7.5444184243679047e-02" nType="-99"/>
            <Node pos="r" depth="3" NCoef="0" IVar="-1" Cut="0.0000000000000000e+00" cType="1" res="5.8518815785646439e-02" rms="1.6693095862865448e-01" purity="4.1669437289237976e-01" nType="-99"/>
          </Node>
          <Node pos="r" depth="2" NCoef="0" IVar="3" Cut="1.5424290895462036e+00" cType="1" res="3.4657146898098290e-04" rms="6.4636051654815674e-02" purity="9.4490295648574829e-01" nType="0">
            <Node pos="l" depth="3" NCoef="0" IVar="-1" Cut="0.0000000000000000e+00" cType="1" res="-1.6642116243019700e-03" rms="5.6441877037286758e-02" purity="9.8040562868118286e-01" nType="-99"/>
            <Node pos="r" depth="3" NCoef="0" IVar="-1" Cut="0.0000000000000000e+00" cType="1" res="1.0520836338400841e-02" rms="1.3996221125125885e-01" purity="3.9129245281219482e-01" nType="-99"/>
          </Node>
        </Node>
      </Node>
    </BinaryTree>
    <BinaryTree type="DecisionTree" boostWeight="1.0000000000000000e+00" itree="250">
      <Node pos="s" depth="0" NCoef="0" IVar="13" Cut="1.8552739620208740e+00" cType="1" res="2.6837224140763283e-04" rms="6.4727842807769775e-02" purity="5.0044518709182739e-01" nType="0">
        <Node pos="l" depth="1" NCoef="0" IVar="14" Cut="3.6834676265716553e+00" cType="1" res="-1.4596178662031889e-03" rms="5.3898923099040985e-02" purity="7.8250549733638763e-02" nType="0">
          <Node pos="l" depth="2" NCoef="0" IVar="7" Cut="4.1774425506591797e+00" cType="1" res="-2.9797392198815942e-04" rms="4.4684771448373795e-02" purity="2.4496644735336304e-02" nType="0">
            <Node pos="l" depth="3" NCoef="0" IVar="-1" Cut="0.0000000000000000e+00" cType="1" res="-1.3951507396996021e-02" rms="3.7086609750986099e-02" purity="1.8888099119067192e-02" nType="-99"/>
            <Node pos="r" depth="3" NCoef="0" IVar="-1" Cut="0.0000000000000000e+00" cType="1" res="4.4369794428348541e-02" rms="8.6164169013500214e-02" purity="7.3808304965496063e-02" nType="-99"/>
          </Node>
          <Node pos="r" depth="2" NCoef="0" IVar="3" Cut="1.4909766912460327e+00" cType="1" res="-4.6457471325993538e-03" rms="7.3366776108741760e-02" purity="2.2568549215793610e-01" nType="0">
            <Node pos="l" depth="3" NCoef="0" IVar="-1" Cut="0.0000000000000000e+00" cType="1" res="-2.4179246276617050e-02" rms="9.1207176446914673e-02" purity="4.3358400464057922e-01" nType="-99"/>
            <Node pos="r" depth="3" NCoef="0" IVar="-1" Cut="0.0000000000000000e+00" cType="1" res="-1.6969772055745125e-02" rms="4.7745551913976669e-02" purity="7.0687970146536827e-03" nType="-99"/>
          </Node>
        </Node>
        <Node pos="r" depth="1" NCoef="0" IVar="14" Cut="4.4138026237487793e+00" cType="1" res="1.2469788780435920e-03" rms="7.0103839039802551e-02" purity="7.3954528570175171e-01" nType="0">
          <Node pos="l" depth="2" NCoef="0" IVar="12" Cut="7.2358412742614746e+00" cType="1" res="4.3158484622836113e-03" rms="9.4027616083621979e-02" purity="2.3862878978252411e-01" nType="0">
            <Node pos="l" depth="3" NCoef="0" IVar="-1" Cut="0.0000000000000000e+00" cType="1" res="-5.4630480706691742e-02" rms="4.6412445604801178e-02" purity="1.3816577196121216e-01" nType="-99"/>
            <Node pos="r" depth="3" NCoef="0" IVar="-1" Cut="0.0000000000000000e+00" cType="1" res="2.4187255650758743e-02" rms="1.0267811268568039e-01" purity="2.6470026373863220e-01" nType="-99"/>
          </Node>
          <Node pos="r" depth="2" NCoef="0" IVar="2" Cut="-1.2073175430297852e+01" cType="1" res="-1.4040799578651786e-04" rms="5.5974930524826050e-02" purity="9.6600157022476196e-01" nType="0">
            <Node pos="l" depth="3" NCoef="0" IVar="-1" Cut="0.0000000000000000e+00" cType="1" res="1.2466088868677616e-02" rms="4.5665614306926727e-02" purity="9.9517554044723511e-01" nType="-99"/>
            <Node pos="r" depth="3" NCoef="0" IVar="-1" Cut="0.0000000000000000e+00" cType="1" res="-2.1762492135167122e-02" rms="9.9592804908752441e-02" purity="7.7607697248458862e-01" nType="-99"/>
          </Node>
        </Node>
      </Node>
    </BinaryTree>
    <BinaryTree type="DecisionTree" boostWeight="1.0000000000000000e+00" itree="251">
      <Node pos="s" depth="0" NCoef="0" IVar="14" Cut="4.0574474334716797e+00" cType="1" res="5.7446118444204330e-04" rms="6.3595570623874664e-02" purity="4.9994572997093201e-01" nType="0">
        <Node pos="l" depth="1" NCoef="0" IVar="15" Cut="3.6997663974761963e+00" cType="1" res="-7.0018001133576035e-04" rms="5.3139854222536087e-02" purity="6.7831374704837799e-02" nType="0">
          <Node pos="l" depth="2" NCoef="0" IVar="3" Cut="2.0490956306457520e-01" cType="1" res="-1.5077535063028336e-03" rms="4.2127117514610291e-02" purity="2.5184089317917824e-02" nType="0">
            <Node pos="l" depth="3" NCoef="0" IVar="-1" Cut="0.0000000000000000e+00" cType="1" res="-3.0302016064524651e-02" rms="7.2948351502418518e-02" purity="1.8342901766300201e-01" nType="-99"/>
            <Node pos="r" depth="3" NCoef="0" IVar="-1" Cut="0.0000000000000000e+00" cType="1" res="-1.0904607363045216e-02" rms="3.7366449832916260e-02" purity="8.6903152987360954e-03" nType="-99"/>
          </Node>
          <Node pos="r" depth="2" NCoef="0" IVar="-1" Cut="0.0000000000000000e+00" cType="1" res="1.4217538759112358e-02" rms="1.1673830449581146e-01" purity="5.1013320684432983e-01" nType="-99"/>
        </Node>
        <Node pos="r" depth="1" NCoef="0" IVar="16" Cut="4.3392734527587891e+00" cType="1" res="1.6793755348771811e-03" rms="7.1412846446037292e-02" purity="8.7452119588851929e-01" nType="0">
          <Node pos="l" depth="2" NCoef="0" IVar="2" Cut="-8.7413511276245117e+00" cType="1" res="1.3202841393649578e-02" rms="1.2201125919818878e-01" purity="2.3658196628093719e-01" nType="0">
            <Node pos="l" depth="3" NCoef="0" IVar="-1" Cut="0.0000000000000000e+00" cType="1" res="3.2837044447660446e-02" rms="1.6167700290679932e-01" purity="4.2087671160697937e-01" nType="-99"/>
            <Node pos="r" depth="3" NCoef="0" IVar="-1" Cut="0.0000000000000000e+00" cType="1" res="-3.3769484609365463e-02" rms="1.9095744937658310e-02" purity="5.9187537990510464e-03" nType="-99"/>
          </Node>
          <Node pos="r" depth="2" NCoef="0" IVar="2" Cut="-1.0350489616394043e+01" cType="1" res="1.3249220501165837e-04" rms="6.1366103589534760e-02" purity="9.6015661954879761e-01" nType="0">
            <Node pos="l" depth="3" NCoef="0" IVar="-1" Cut="0.0000000000000000e+00" cType="1" res="-6.6053816117346287e-03" rms="5.3921811282634735e-02" purity="9.8791521787643433e-01" nType="-99"/>
            <Node pos="r" depth="3" NCoef="0" IVar="-1" Cut="0.0000000000000000e+00" cType="1" res="1.7416922375559807e-02" rms="1.3616675138473511e-01" purity="4.7886225581169128e-01" nType="-99"/>
          </Node>
        </Node>
      </Node>
    </BinaryTree>
    <BinaryTree type="DecisionTree" boostWeight="1.0000000000000000e+00" itree="252">
      <Node pos="s" depth="0" NCoef="0" IVar="7" Cut="2.5913064479827881e+00" cType="1" res="9.2475442215800285e-04" rms="6.7293085157871246e-02" purity="5.0151515007019043e-01" nType="0">
        <Node pos="l" depth="1" NCoef="0" IVar="2" Cut="-8.9635629653930664e+00" cType="1" res="-2.9269671067595482e-03" rms="6.2623143196105957e-02" purity="1.3782899081707001e-01" nType="0">
          <Node pos="l" depth="2" NCoef="0" IVar="16" Cut="4.1044917106628418e+00" cType="1" res="-6.0725784860551357e-03" rms="7.8524768352508545e-02" purity="2.6105898618698120e-01" nType="0">
            <Node pos="l" depth="3" NCoef="0" IVar="-1" Cut="0.0000000000000000e+00" cType="1" res="-1.8901081755757332e-02" rms="4.9097687005996704e-02" purity="5.9313271194696426e-02" nType="-99"/>
            <Node pos="r" depth="3" NCoef="0" IVar="-1" Cut="0.0000000000000000e+00" cType="1" res="-3.1438056379556656e-02" rms="1.0862910002470016e-01" purity="5.6573420763015747e-01" nType="-99"/>
          </Node>
          <Node pos="r" depth="2" NCoef="0" IVar="10" Cut="7.2048435211181641e+00" cType="1" res="2.5213914341293275e-04" rms="4.0412500500679016e-02" purity="1.3286843895912170e-02" nType="0">
            <Node pos="l" depth="3" NCoef="0" IVar="-1" Cut="0.0000000000000000e+00" cType="1" res="3.6835152655839920e-02" rms="6.2627717852592468e-02" purity="2.5139974430203438e-02" nType="-99"/>
            <Node pos="r" depth="3" NCoef="0" IVar="-1" Cut="0.0000000000000000e+00" cType="1" res="-3.7419933825731277e-02" rms="2.4961244314908981e-02" purity="8.1582088023424149e-03" nType="-99"/>
          </Node>
        </Node>
        <Node pos="r" depth="1" NCoef="0" IVar="15" Cut="3.0907919406890869e+00" cType="1" res="1.7492581391707063e-03" rms="6.8222977221012115e-02" purity="5.7936620712280273e-01" nType="0">
          <Node pos="l" depth="2" NCoef="0" IVar="13" Cut="2.3710746765136719e+00" cType="1" res="4.4973921030759811e-03" rms="7.8819185495376587e-02" purity="1.1513082683086395e-01" nType="0">
            <Node pos="l" depth="3" NCoef="0" IVar="-1" Cut="0.0000000000000000e+00" cType="1" res="1.9627658650279045e-02" rms="5.8591730892658234e-02" purity="4.0973953902721405e-02" nType="-99"/>
            <Node pos="r" depth="3" NCoef="0" IVar="-1" Cut="0.0000000000000000e+00" cType="1" res="4.5947063714265823e-02" rms="1.4410266280174255e-01" purity="5.0948613882064819e-01" nType="-99"/>
          </Node>
          <Node pos="r" depth="2" NCoef="0" IVar="1" Cut="4.1942358016967773e+00" cType="1" res="-7.0930880610831082e-05" rms="6.0117222368717194e-02" purity="8.8684618473052979e-01" nType="0">
            <Node pos="l" depth="3" NCoef="0" IVar="-1" Cut="0.0000000000000000e+00" cType="1" res="3.7977756001055241e-03" rms="5.8641552925109863e-02" purity="9.0583288669586182e-01" nType="-99"/>
            <Node pos="r" depth="3" NCoef="0" IVar="-1" Cut="0.0000000000000000e+00" cType="1" res="-2.7963455766439438e-02" rms="7.2076901793479919e-02" purity="7.1373510360717773e-01" nType="-99"/>
          </Node>
        </Node>
      </Node>
    </BinaryTree>
    <BinaryTree type="DecisionTree" boostWeight="1.0000000000000000e+00" itree="253">
      <Node pos="s" depth="0" NCoef="0" IVar="9" Cut="5.9183335304260254e+00" cType="1" res="9.7592518432065845e-04" rms="6.3617371022701263e-02" purity="4.9518218636512756e-01" nType="0">
        <Node pos="l" depth="1" NCoef="0" IVar="1" Cut="3.1403143405914307e+00" cType="1" res="3.0345718841999769e-03" rms="7.0855222642421722e-02" purity="3.2758739590644836e-01" nType="0">
          <Node pos="l" depth="2" NCoef="0" IVar="-1" Cut="0.0000000000000000e+00" cType="1" res="4.4367197901010513e-02" rms="1.1213372647762299e-01" purity="5.4207849502563477e-01" nType="-99"/>
          <Node pos="r" depth="2" NCoef="0" IVar="10" Cut="7.3302245140075684e+00" cType="1" res="1.4906838769093156e-03" rms="6.3893541693687439e-02" purity="3.0157530307769775e-01" nType="0">
            <Node pos="l" depth="3" NCoef="0" IVar="-1" Cut="0.0000000000000000e+00" cType="1" res="2.6727488264441490e-02" rms="6.4588107168674469e-02" purity="2.4761462211608887e-01" nType="-99"/>
            <Node pos="r" depth="3" NCoef="0" IVar="-1" Cut="0.0000000000000000e+00" cType="1" res="-5.0961030647158623e-03" rms="6.3278704881668091e-02" purity="3.4209555387496948e-01" nType="-99"/>
          </Node>
        </Node>
        <Node pos="r" depth="1" NCoef="0" IVar="12" Cut="7.3344035148620605e+00" cType="1" res="-4.5365854748524725e-04" rms="5.8019831776618958e-02" purity="6.1156481504440308e-01" nType="0">
          <Node pos="l" depth="2" NCoef="0" IVar="10" Cut="7.3674669265747070e+00" cType="1" res="-4.0287096053361893e-03" rms="4.6464852988719940e-02" purity="3.4955009818077087e-01" nType="0">
            <Node pos="l" depth="3" NCoef="0" IVar="-1" Cut="0.0000000000000000e+00" cType="1" res="-6.4225174486637115e-02" rms="5.1352374255657196e-02" purity="1.6649264097213745e-01" nType="-99"/>
            <Node pos="r" depth="3" NCoef="0" IVar="-1" Cut="0.0000000000000000e+00" cType="1" res="-3.4768380224704742e-02" rms="4.4651959091424942e-02" purity="4.1140866279602051e-01" nType="-99"/>
          </Node>
          <Node pos="r" depth="2" NCoef="0" IVar="6" Cut="7.7780747413635254e+00" cType="1" res="5.3515145555138588e-04" rms="6.0792401432991028e-02" purity="6.8403446674346924e-01" nType="0">
            <Node pos="l" depth="3" NCoef="0" IVar="-1" Cut="0.0000000000000000e+00" cType="1" res="1.9697954878211021e-02" rms="8.5593581199645996e-02" purity="3.6941984295845032e-01" nType="-99"/>
            <Node pos="r" depth="3" NCoef="0" IVar="-1" Cut="0.0000000000000000e+00" cType="1" res="-7.9566044732928276e-03" rms="4.9478687345981598e-02" purity="7.9162085056304932e-01" nType="-99"/>
          </Node>
        </Node>
      </Node>
    </BinaryTree>
    <BinaryTree type="DecisionTree" boostWeight="1.0000000000000000e+00" itree="254">
      <Node pos="s" depth="0" NCoef="0" IVar="14" Cut="3.9384846687316895e+00" cType="1" res="3.2234584796242416e-04" rms="6.2938928604125977e-02" purity="5.0563859939575195e-01" nType="0">
        <Node pos="l" depth="1" NCoef="0" IVar="15" Cut="3.6997663974761963e+00" cType="1" res="-1.6149708535522223e-03" rms="5.2042014896869659e-02" purity="6.3126415014266968e-02" nType="0">
          <Node pos="l" depth="2" NCoef="0" IVar="4" Cut="2.9173260554671288e-02" cType="1" res="-9.1796164633706212e-04" rms="4.4363256543874741e-02" purity="2.3150283843278885e-02" nType="0">
            <Node pos="l" depth="3" NCoef="0" IVar="-1" Cut="0.0000000000000000e+00" cType="1" res="-2.9884889721870422e-02" rms="6.3371531665325165e-02" purity="1.1186942458152771e-01" nType="-99"/>
            <Node pos="r" depth="3" NCoef="0" IVar="-1" Cut="0.0000000000000000e+00" cType="1" res="-5.5113597773015499e-03" rms="4.2119480669498444e-02" purity="1.4909324236214161e-02" nType="-99"/>
          </Node>
          <Node pos="r" depth="2" NCoef="0" IVar="-1" Cut="0.0000000000000000e+00" cType="1" res="-2.4593925103545189e-02" rms="1.0273003578186035e-01" purity="4.9004843831062317e-01" nType="-99"/>
        </Node>
        <Node pos="r" depth="1" NCoef="0" IVar="6" Cut="7.5743594169616699e+00" cType="1" res="1.8260935321450233e-03" rms="7.0204459130764008e-02" purity="8.4911710023880005e-01" nType="0">
          <Node pos="l" depth="2" NCoef="0" IVar="0" Cut="8.1859588623046875e+00" cType="1" res="7.6168216764926910e-03" rms="9.1408699750900269e-02" purity="6.3777256011962891e-01" nType="0">
            <Node pos="l" depth="3" NCoef="0" IVar="-1" Cut="0.0000000000000000e+00" cType="1" res="2.5292721111327410e-03" rms="7.8559376299381256e-02" purity="3.9106234908103943e-01" nType="-99"/>
            <Node pos="r" depth="3" NCoef="0" IVar="-1" Cut="0.0000000000000000e+00" cType="1" res="3.8489118218421936e-02" rms="9.8447293043136597e-02" purity="7.9451036453247070e-01" nType="-99"/>
          </Node>
          <Node pos="r" depth="2" NCoef="0" IVar="15" Cut="2.2517797946929932e+00" cType="1" res="5.0815049326047301e-04" rms="6.4337812364101410e-02" purity="8.9721810817718506e-01" nType="0">
            <Node pos="l" depth="3" NCoef="0" IVar="-1" Cut="0.0000000000000000e+00" cType="1" res="-4.0886055678129196e-02" rms="7.5702697038650513e-02" purity="2.4052128195762634e-01" nType="-99"/>
            <Node pos="r" depth="3" NCoef="0" IVar="-1" Cut="0.0000000000000000e+00" cType="1" res="1.0208162479102612e-02" rms="6.3406340777873993e-02" purity="9.4354045391082764e-01" nType="-99"/>
          </Node>
        </Node>
      </Node>
    </BinaryTree>
    <BinaryTree type="DecisionTree" boostWeight="1.0000000000000000e+00" itree="255">
      <Node pos="s" depth="0" NCoef="0" IVar="11" Cut="6.5060296058654785e+00" cType="1" res="7.6325476402416825e-04" rms="6.4344458281993866e-02" purity="5.0182598829269409e-01" nType="0">
        <Node pos="l" depth="1" NCoef="0" IVar="12" Cut="7.6704812049865723e+00" cType="1" res="-1.1124652810394764e-03" rms="5.8274935930967331e-02" purity="3.0374458432197571e-01" nType="0">
          <Node pos="l" depth="2" NCoef="0" IVar="3" Cut="7.8188920021057129e-01" cType="1" res="-2.9272402171045542e-03" rms="4.6554192900657654e-02" purity="2.2150263190269470e-01" nType="0">
            <Node pos="l" depth="3" NCoef="0" IVar="-1" Cut="0.0000000000000000e+00" cType="1" res="-3.6712113767862320e-02" rms="6.5630868077278137e-02" purity="5.7031720876693726e-01" nType="-99"/>
            <Node pos="r" depth="3" NCoef="0" IVar="-1" Cut="0.0000000000000000e+00" cType="1" res="-2.3191336542367935e-02" rms="3.1972616910934448e-02" purity="3.5987187176942825e-02" nType="-99"/>
          </Node>
          <Node pos="r" depth="2" NCoef="0" IVar="1" Cut="3.3042607307434082e+00" cType="1" res="7.8645424218848348e-04" rms="6.8370759487152100e-02" purity="3.8979986310005188e-01" nType="0">
            <Node pos="l" depth="3" NCoef="0" IVar="-1" Cut="0.0000000000000000e+00" cType="1" res="2.3914346471428871e-02" rms="9.0953648090362549e-02" purity="6.0855168104171753e-01" nType="-99"/>
            <Node pos="r" depth="3" NCoef="0" IVar="-1" Cut="0.0000000000000000e+00" cType="1" res="-6.2870220281183720e-03" rms="5.9121020138263702e-02" purity="3.1871798634529114e-01" nType="-99"/>
          </Node>
        </Node>
        <Node pos="r" depth="1" NCoef="0" IVar="0" Cut="8.0934352874755859e+00" cType="1" res="1.9452063133940101e-03" rms="6.7864313721656799e-02" purity="6.2664335966110229e-01" nType="0">
          <Node pos="l" depth="2" NCoef="0" IVar="15" Cut="2.8853638172149658e+00" cType="1" res="6.2068304978311062e-03" rms="7.8655727207660675e-02" purity="1.3535851240158081e-01" nType="0">
            <Node pos="l" depth="3" NCoef="0" IVar="-1" Cut="0.0000000000000000e+00" cType="1" res="-2.9858170077204704e-02" rms="2.5523219257593155e-02" purity="1.0412991046905518e-02" nType="-99"/>
            <Node pos="r" depth="3" NCoef="0" IVar="-1" Cut="0.0000000000000000e+00" cType="1" res="5.5255446583032608e-02" rms="1.2327832728624344e-01" purity="3.4490156173706055e-01" nType="-99"/>
          </Node>
          <Node pos="r" depth="2" NCoef="0" IVar="2" Cut="-9.0961103439331055e+00" cType="1" res="1.0983932297676802e-03" rms="6.5475590527057648e-02" purity="7.2426497936248779e-01" nType="0">
            <Node pos="l" depth="3" NCoef="0" IVar="-1" Cut="0.0000000000000000e+00" cType="1" res="1.5266227535903454e-02" rms="7.1128435432910919e-02" purity="8.8506239652633667e-01" nType="-99"/>
            <Node pos="r" depth="3" NCoef="0" IVar="-1" Cut="0.0000000000000000e+00" cType="1" res="-4.0645431727170944e-02" rms="2.9721317812800407e-02" purity="2.0898643881082535e-02" nType="-99"/>
          </Node>
        </Node>
      </Node>
    </BinaryTree>
    <BinaryTree type="DecisionTree" boostWeight="1.0000000000000000e+00" itree="256">
      <Node pos="s" depth="0" NCoef="0" IVar="14" Cut="3.9501416683197021e+00" cType="1" res="7.5678799476008862e-05" rms="6.2447898089885712e-02" purity="4.9109888076782227e-01" nType="0">
        <Node pos="l" depth="1" NCoef="0" IVar="3" Cut="6.6721200942993164e-01" cType="1" res="1.1742558563128114e-03" rms="5.7231996208429337e-02" purity="6.4605079591274261e-02" nType="0">
          <Node pos="l" depth="2" NCoef="0" IVar="7" Cut="2.7166526317596436e+00" cType="1" res="7.4790688231587410e-03" rms="1.0437510907649994e-01" purity="2.7325150370597839e-01" nType="0">
            <Node pos="l" depth="3" NCoef="0" IVar="-1" Cut="0.0000000000000000e+00" cType="1" res="4.1852056980133057e-02" rms="1.3372078537940979e-01" purity="2.5255838036537170e-01" nType="-99"/>
            <Node pos="r" depth="3" NCoef="0" IVar="-1" Cut="0.0000000000000000e+00" cType="1" res="-1.4082619454711676e-03" rms="8.4312692284584045e-02" purity="2.8391334414482117e-01" nType="-99"/>
          </Node>
          <Node pos="r" depth="2" NCoef="0" IVar="16" Cut="4.6297068595886230e+00" cType="1" res="-3.1746499007567763e-04" rms="3.8226865231990814e-02" purity="1.5239260159432888e-02" nType="0">
            <Node pos="l" depth="3" NCoef="0" IVar="-1" Cut="0.0000000000000000e+00" cType="1" res="-3.1912822276353836e-02" rms="1.2540170922875404e-02" purity="3.6833260674029589e-03" nType="-99"/>
            <Node pos="r" depth="3" NCoef="0" IVar="-1" Cut="0.0000000000000000e+00" cType="1" res="1.0593088343739510e-02" rms="1.0390333086252213e-01" purity="9.8112024366855621e-02" nType="-99"/>
          </Node>
        </Node>
        <Node pos="r" depth="1" NCoef="0" IVar="0" Cut="7.9081444740295410e+00" cType="1" res="-8.3757442189380527e-04" rms="6.6459275782108307e-02" purity="8.4564548730850220e-01" nType="0">
          <Node pos="l" depth="2" NCoef="0" IVar="-1" Cut="0.0000000000000000e+00" cType="1" res="-4.1769403964281082e-02" rms="6.5510489046573639e-02" purity="2.2840794920921326e-01" nType="-99"/>
          <Node pos="r" depth="2" NCoef="0" IVar="7" Cut="3.7146112918853760e+00" cType="1" res="-4.0300984983332455e-04" rms="6.6489368677139282e-02" purity="8.8207125663757324e-01" nType="0">
            <Node pos="l" depth="3" NCoef="0" IVar="-1" Cut="0.0000000000000000e+00" cType="1" res="-1.2501757591962814e-02" rms="8.8265091180801392e-02" purity="5.5462795495986938e-01" nType="-99"/>
            <Node pos="r" depth="3" NCoef="0" IVar="-1" Cut="0.0000000000000000e+00" cType="1" res="3.4758229739964008e-03" rms="5.9387385845184326e-02" purity="9.6871757507324219e-01" nType="-99"/>
          </Node>
        </Node>
      </Node>
    </BinaryTree>
    <BinaryTree type="DecisionTree" boostWeight="1.0000000000000000e+00" itree="257">
      <Node pos="s" depth="0" NCoef="0" IVar="9" Cut="6.3560509681701660e+00" cType="1" res="5.5867503397166729e-04" rms="6.5635912120342255e-02" purity="4.9657666683197021e-01" nType="0">
        <Node pos="l" depth="1" NCoef="0" IVar="9" Cut="6.1059145927429199e+00" cType="1" res="1.4705468202009797e-03" rms="7.2975948452949524e-02" purity="3.6014458537101746e-01" nType="0">
          <Node pos="l" depth="2" NCoef="0" IVar="8" Cut="-2.8277404308319092e+00" cType="1" res="-1.8157214799430221e-04" rms="6.6280074417591095e-02" purity="3.3237886428833008e-01" nType="0">
            <Node pos="l" depth="3" NCoef="0" IVar="-1" Cut="0.0000000000000000e+00" cType="1" res="3.0936507508158684e-02" rms="8.7965801358222961e-02" purity="4.2368119955062866e-01" nType="-99"/>
            <Node pos="r" depth="3" NCoef="0" IVar="-1" Cut="0.0000000000000000e+00" cType="1" res="-8.7331729009747505e-03" rms="6.2061194330453873e-02" purity="3.1777533888816833e-01" nType="-99"/>
          </Node>
          <Node pos="r" depth="2" NCoef="0" IVar="8" Cut="-1.1178526878356934e+00" cType="1" res="7.4420203454792500e-03" rms="9.3006484210491180e-02" purity="4.6050190925598145e-01" nType="0">
            <Node pos="l" depth="3" NCoef="0" IVar="-1" Cut="0.0000000000000000e+00" cType="1" res="-3.1624011695384979e-02" rms="5.3054071962833405e-02" purity="5.4009461402893066e-01" nType="-99"/>
            <Node pos="r" depth="3" NCoef="0" IVar="-1" Cut="0.0000000000000000e+00" cType="1" res="6.7094907164573669e-02" rms="1.0744526237249374e-01" purity="4.1987109184265137e-01" nType="-99"/>
          </Node>
        </Node>
        <Node pos="r" depth="1" NCoef="0" IVar="16" Cut="4.6413588523864746e+00" cType="1" res="-1.1579218553379178e-03" rms="4.8870000988245010e-02" purity="7.5340974330902100e-01" nType="0">
          <Node pos="l" depth="2" NCoef="0" IVar="2" Cut="-9.1834383010864258e+00" cType="1" res="-5.8732270263135433e-03" rms="5.9782840311527252e-02" purity="1.2085940688848495e-01" nType="0">
            <Node pos="l" depth="3" NCoef="0" IVar="-1" Cut="0.0000000000000000e+00" cType="1" res="-4.3773699551820755e-02" rms="9.0828061103820801e-02" purity="3.2110649347305298e-01" nType="-99"/>
            <Node pos="r" depth="3" NCoef="0" IVar="-1" Cut="0.0000000000000000e+00" cType="1" res="-2.4330763146281242e-02" rms="3.0385199934244156e-02" purity="8.7023964151740074e-03" nType="-99"/>
          </Node>
          <Node pos="r" depth="2" NCoef="0" IVar="-1" Cut="0.0000000000000000e+00" cType="1" res="8.4658106788992882e-03" rms="4.4240146875381470e-02" purity="9.7768801450729370e-01" nType="-99"/>
        </Node>
      </Node>
    </BinaryTree>
    <BinaryTree type="DecisionTree" boostWeight="1.0000000000000000e+00" itree="258">
      <Node pos="s" depth="0" NCoef="0" IVar="6" Cut="7.7009735107421875e+00" cType="1" res="1.0485686361789703e-03" rms="6.5579526126384735e-02" purity="4.9685752391815186e-01" nType="0">
        <Node pos="l" depth="1" NCoef="0" IVar="14" Cut="3.9542624950408936e+00" cType="1" res="3.3220080658793449e-03" rms="6.9870851933956146e-02" purity="2.5842565298080444e-01" nType="0">
          <Node pos="l" depth="2" NCoef="0" IVar="11" Cut="5.8496866226196289e+00" cType="1" res="6.0801138170063496e-04" rms="5.1881030201911926e-02" purity="3.9299972355365753e-02" nType="0">
            <Node pos="l" depth="3" NCoef="0" IVar="-1" Cut="0.0000000000000000e+00" cType="1" res="5.4125618189573288e-02" rms="8.5759885609149933e-02" purity="6.8784639239311218e-02" nType="-99"/>
            <Node pos="r" depth="3" NCoef="0" IVar="-1" Cut="0.0000000000000000e+00" cType="1" res="-7.6748253777623177e-03" rms="4.5155670493841171e-02" purity="3.5246476531028748e-02" nType="-99"/>
          </Node>
          <Node pos="r" depth="2" NCoef="0" IVar="14" Cut="4.3388905525207520e+00" cType="1" res="8.0552799627184868e-03" rms="9.3094624578952789e-02" purity="6.4058578014373779e-01" nType="0">
            <Node pos="l" depth="3" NCoef="0" IVar="-1" Cut="0.0000000000000000e+00" cType="1" res="5.1079291850328445e-02" rms="1.2134184688329697e-01" purity="2.0688363909721375e-01" nType="-99"/>
            <Node pos="r" depth="3" NCoef="0" IVar="-1" Cut="0.0000000000000000e+00" cType="1" res="1.6936518251895905e-02" rms="8.0758251249790192e-02" purity="7.8891247510910034e-01" nType="-99"/>
          </Node>
        </Node>
        <Node pos="r" depth="1" NCoef="0" IVar="10" Cut="6.9162411689758301e+00" cType="1" res="-1.6758924175519496e-04" rms="6.3130736351013184e-02" purity="6.2440472841262817e-01" nType="0">
          <Node pos="l" depth="2" NCoef="0" IVar="11" Cut="7.1426439285278320e+00" cType="1" res="3.1732302159070969e-03" rms="6.3972912728786469e-02" purity="2.6657858490943909e-01" nType="0">
            <Node pos="l" depth="3" NCoef="0" IVar="-1" Cut="0.0000000000000000e+00" cType="1" res="3.5691864788532257e-02" rms="6.9140084087848663e-02" purity="1.5485616028308868e-01" nType="-99"/>
            <Node pos="r" depth="3" NCoef="0" IVar="-1" Cut="0.0000000000000000e+00" cType="1" res="-3.9801143109798431e-02" rms="5.2065152674913406e-02" purity="4.7804322838783264e-01" nType="-99"/>
          </Node>
          <Node pos="r" depth="2" NCoef="0" IVar="16" Cut="4.2179098129272461e+00" cType="1" res="-1.0719007113948464e-03" rms="6.2870308756828308e-02" purity="7.2126311063766479e-01" nType="0">
            <Node pos="l" depth="3" NCoef="0" IVar="-1" Cut="0.0000000000000000e+00" cType="1" res="-3.3664800226688385e-02" rms="5.2406724542379379e-02" purity="7.6813124120235443e-02" nType="-99"/>
            <Node pos="r" depth="3" NCoef="0" IVar="-1" Cut="0.0000000000000000e+00" cType="1" res="-1.3194071361795068e-03" rms="6.5441042184829712e-02" purity="8.9964133501052856e-01" nType="-99"/>
          </Node>
        </Node>
      </Node>
    </BinaryTree>
    <BinaryTree type="DecisionTree" boostWeight="1.0000000000000000e+00" itree="259">
      <Node pos="s" depth="0" NCoef="0" IVar="8" Cut="-4.8023796081542969e-01" cType="1" res="1.2041031004628167e-04" rms="6.0775008052587509e-02" purity="5.0924420356750488e-01" nType="0">
        <Node pos="l" depth="1" NCoef="0" IVar="15" Cut="4.2549562454223633e+00" cType="1" res="-1.2551996624097228e-03" rms="5.4464433342218399e-02" purity="5.9616655111312866e-01" nType="0">
          <Node pos="l" depth="2" NCoef="0" IVar="14" Cut="2.9547140598297119e+00" cType="1" res="-2.8261432889848948e-03" rms="5.8789085596799850e-02" purity="2.4986843764781952e-01" nType="0">
            <Node pos="l" depth="3" NCoef="0" IVar="-1" Cut="0.0000000000000000e+00" cType="1" res="6.9534932263195515e-03" rms="3.6463174968957901e-02" purity="3.2539807260036469e-02" nType="-99"/>
            <Node pos="r" depth="3" NCoef="0" IVar="-1" Cut="0.0000000000000000e+00" cType="1" res="-2.5643497705459595e-02" rms="6.5934643149375916e-02" purity="3.4167221188545227e-01" nType="-99"/>
          </Node>
          <Node pos="r" depth="2" NCoef="0" IVar="-1" Cut="0.0000000000000000e+00" cType="1" res="6.5854419954121113e-03" rms="4.9276690930128098e-02" purity="9.7272491455078125e-01" nType="-99"/>
        </Node>
        <Node pos="r" depth="1" NCoef="0" IVar="9" Cut="5.6994748115539551e+00" cType="1" res="1.2545873178169131e-03" rms="6.5500743687152863e-02" purity="4.3757745623588562e-01" nType="0">
          <Node pos="l" depth="2" NCoef="0" IVar="1" Cut="3.9300317764282227e+00" cType="1" res="4.6604876406490803e-03" rms="7.6972506940364838e-02" purity="2.7631869912147522e-01" nType="0">
            <Node pos="l" depth="3" NCoef="0" IVar="-1" Cut="0.0000000000000000e+00" cType="1" res="4.0488220751285553e-02" rms="9.3313597142696381e-02" purity="3.5287559032440186e-01" nType="-99"/>
            <Node pos="r" depth="3" NCoef="0" IVar="-1" Cut="0.0000000000000000e+00" cType="1" res="-1.4999881386756897e-02" rms="4.8162002116441727e-02" purity="1.7882853746414185e-01" nType="-99"/>
          </Node>
          <Node pos="r" depth="2" NCoef="0" IVar="1" Cut="3.7940452098846436e+00" cType="1" res="-1.6355606203433126e-04" rms="6.0024734586477280e-02" purity="5.0472217798233032e-01" nType="0">
            <Node pos="l" depth="3" NCoef="0" IVar="-1" Cut="0.0000000000000000e+00" cType="1" res="-2.1997204050421715e-02" rms="5.3563252091407776e-02" purity="6.5223073959350586e-01" nType="-99"/>
            <Node pos="r" depth="3" NCoef="0" IVar="-1" Cut="0.0000000000000000e+00" cType="1" res="1.7109539359807968e-02" rms="6.7585468292236328e-02" purity="3.0835184454917908e-01" nType="-99"/>
          </Node>
        </Node>
      </Node>
    </BinaryTree>
    <BinaryTree type="DecisionTree" boostWeight="1.0000000000000000e+00" itree="260">
      <Node pos="s" depth="0" NCoef="0" IVar="3" Cut="2.0489573478698730e-01" cType="1" res="5.6809749366948381e-05" rms="6.2832146883010864e-02" purity="5.0417041778564453e-01" nType="0">
        <Node pos="l" depth="1" NCoef="0" IVar="13" Cut="2.1570005416870117e+00" cType="1" res="1.8388915341347456e-03" rms="6.4431168138980865e-02" purity="8.8980275392532349e-01" nType="0">
          <Node pos="l" depth="2" NCoef="0" IVar="10" Cut="7.4269099235534668e+00" cType="1" res="9.3950750306248665e-03" rms="1.0395585745573044e-01" purity="5.2191185951232910e-01" nType="0">
            <Node pos="l" depth="3" NCoef="0" IVar="-1" Cut="0.0000000000000000e+00" cType="1" res="3.2993391156196594e-02" rms="1.3643874228000641e-01" purity="3.6198723316192627e-01" nType="-99"/>
            <Node pos="r" depth="3" NCoef="0" IVar="-1" Cut="0.0000000000000000e+00" cType="1" res="4.7973161563277245e-03" rms="7.0410907268524170e-02" purity="6.3857877254486084e-01" nType="-99"/>
          </Node>
          <Node pos="r" depth="2" NCoef="0" IVar="-1" Cut="0.0000000000000000e+00" cType="1" res="4.0822536684572697e-03" rms="5.2453320473432541e-02" purity="9.6639758348464966e-01" nType="-99"/>
        </Node>
        <Node pos="r" depth="1" NCoef="0" IVar="2" Cut="-1.0755655288696289e+01" cType="1" res="-8.8549975771456957e-04" rms="6.1949245631694794e-02" purity="3.0025997757911682e-01" nType="0">
          <Node pos="l" depth="2" NCoef="0" IVar="11" Cut="6.3080577850341797e+00" cType="1" res="-3.0493214726448059e-03" rms="7.8456863760948181e-02" purity="7.8183329105377197e-01" nType="0">
            <Node pos="l" depth="3" NCoef="0" IVar="-1" Cut="0.0000000000000000e+00" cType="1" res="-5.4156735539436340e-02" rms="9.0249270200729370e-02" purity="5.4778963327407837e-01" nType="-99"/>
            <Node pos="r" depth="3" NCoef="0" IVar="-1" Cut="0.0000000000000000e+00" cType="1" res="-8.5832728073000908e-03" rms="7.5175106525421143e-02" purity="8.3936578035354614e-01" nType="-99"/>
          </Node>
          <Node pos="r" depth="2" NCoef="0" IVar="0" Cut="8.7066478729248047e+00" cType="1" res="2.8499384643509984e-04" rms="5.0794053822755814e-02" purity="3.9758697152137756e-02" nType="0">
            <Node pos="l" depth="3" NCoef="0" IVar="-1" Cut="0.0000000000000000e+00" cType="1" res="-9.0028811246156693e-03" rms="4.0058296173810959e-02" purity="1.8501454964280128e-02" nType="-99"/>
            <Node pos="r" depth="3" NCoef="0" IVar="-1" Cut="0.0000000000000000e+00" cType="1" res="2.3307828232645988e-02" rms="1.2163974344730377e-01" purity="3.0968785285949707e-01" nType="-99"/>
          </Node>
        </Node>
      </Node>
    </BinaryTree>
    <BinaryTree type="DecisionTree" boostWeight="1.0000000000000000e+00" itree="261">
      <Node pos="s" depth="0" NCoef="0" IVar="5" Cut="-3.8544204235076904e+00" cType="1" res="-1.6204455459956080e-04" rms="6.1864815652370453e-02" purity="5.0042569637298584e-01" nType="0">
        <Node pos="l" depth="1" NCoef="0" IVar="16" Cut="5.1782259941101074e+00" cType="1" res="1.1514496291056275e-03" rms="6.4386576414108276e-02" purity="7.9921829700469971e-01" nType="0">
          <Node pos="l" depth="2" NCoef="0" IVar="16" Cut="4.1025352478027344e+00" cType="1" res="6.6813109442591667e-03" rms="9.8496817052364349e-02" purity="2.9507920145988464e-01" nType="0">
            <Node pos="l" depth="3" NCoef="0" IVar="-1" Cut="0.0000000000000000e+00" cType="1" res="5.3212950006127357e-03" rms="7.9613238573074341e-02" purity="1.0634502023458481e-01" nType="-99"/>
            <Node pos="r" depth="3" NCoef="0" IVar="-1" Cut="0.0000000000000000e+00" cType="1" res="2.7242677286267281e-02" rms="1.2132039666175842e-01" purity="5.8259528875350952e-01" nType="-99"/>
          </Node>
          <Node pos="r" depth="2" NCoef="0" IVar="-1" Cut="0.0000000000000000e+00" cType="1" res="-1.9162027165293694e-02" rms="4.5702397823333740e-02" purity="9.8446488380432129e-01" nType="-99"/>
        </Node>
        <Node pos="r" depth="1" NCoef="0" IVar="2" Cut="-1.0276980400085449e+01" cType="1" res="-1.4701288891956210e-03" rms="5.9217922389507294e-02" purity="2.0286379754543304e-01" nType="0">
          <Node pos="l" depth="2" NCoef="0" IVar="12" Cut="7.6692671775817871e+00" cType="1" res="-4.4724158942699432e-03" rms="8.7679356336593628e-02" purity="6.9640654325485229e-01" nType="0">
            <Node pos="l" depth="3" NCoef="0" IVar="-1" Cut="0.0000000000000000e+00" cType="1" res="-5.9350086376070976e-03" rms="7.9844653606414795e-02" purity="6.0275834798812866e-01" nType="-99"/>
            <Node pos="r" depth="3" NCoef="0" IVar="-1" Cut="0.0000000000000000e+00" cType="1" res="-4.5035142451524734e-02" rms="9.2983312904834747e-02" purity="7.6584428548812866e-01" nType="-99"/>
          </Node>
          <Node pos="r" depth="2" NCoef="0" IVar="8" Cut="1.4470717906951904e+00" cType="1" res="-4.3603713857010007e-04" rms="4.5415181666612625e-02" purity="3.2870601862668991e-02" nType="0">
            <Node pos="l" depth="3" NCoef="0" IVar="-1" Cut="0.0000000000000000e+00" cType="1" res="-1.9740257412195206e-02" rms="3.9598464965820312e-02" purity="3.5673048347234726e-02" nType="-99"/>
            <Node pos="r" depth="3" NCoef="0" IVar="-1" Cut="0.0000000000000000e+00" cType="1" res="4.4500999152660370e-02" rms="6.1938740313053131e-02" purity="2.2670470178127289e-02" nType="-99"/>
          </Node>
        </Node>
      </Node>
    </BinaryTree>
    <BinaryTree type="DecisionTree" boostWeight="1.0000000000000000e+00" itree="262">
      <Node pos="s" depth="0" NCoef="0" IVar="5" Cut="-3.8544204235076904e+00" cType="1" res="-3.6818011722061783e-05" rms="6.2829792499542236e-02" purity="5.0096225738525391e-01" nType="0">
        <Node pos="l" depth="1" NCoef="0" IVar="16" Cut="4.6413588523864746e+00" cType="1" res="1.7299217870458961e-03" rms="6.4920261502265930e-02" purity="7.9987347126007080e-01" nType="0">
          <Node pos="l" depth="2" NCoef="0" IVar="15" Cut="2.7247695922851562e+00" cType="1" res="7.9814447090029716e-03" rms="9.9716000258922577e-02" purity="2.2026243805885315e-01" nType="0">
            <Node pos="l" depth="3" NCoef="0" IVar="-1" Cut="0.0000000000000000e+00" cType="1" res="-5.2618836052715778e-03" rms="7.3856189846992493e-02" purity="7.3653787374496460e-02" nType="-99"/>
            <Node pos="r" depth="3" NCoef="0" IVar="-1" Cut="0.0000000000000000e+00" cType="1" res="3.9352189749479294e-02" rms="1.3159547746181488e-01" purity="4.7395119071006775e-01" nType="-99"/>
          </Node>
          <Node pos="r" depth="2" NCoef="0" IVar="-1" Cut="0.0000000000000000e+00" cType="1" res="-1.7527822637930512e-03" rms="4.9957092851400375e-02" purity="9.7226494550704956e-01" nType="-99"/>
        </Node>
        <Node pos="r" depth="1" NCoef="0" IVar="5" Cut="-3.6349639892578125e+00" cType="1" res="-1.7623557941988111e-03" rms="6.0669004917144775e-02" purity="2.0902197062969208e-01" nType="0">
          <Node pos="l" depth="2" NCoef="0" IVar="2" Cut="-9.0968685150146484e+00" cType="1" res="-5.8863144367933273e-03" rms="6.8407766520977020e-02" purity="4.7580847144126892e-01" nType="0">
            <Node pos="l" depth="3" NCoef="0" IVar="-1" Cut="0.0000000000000000e+00" cType="1" res="-6.3195876777172089e-02" rms="8.0530434846878052e-02" purity="7.2540611028671265e-01" nType="-99"/>
            <Node pos="r" depth="3" NCoef="0" IVar="-1" Cut="0.0000000000000000e+00" cType="1" res="-2.5887904688715935e-02" rms="3.6442022770643234e-02" purity="1.4778231270611286e-02" nType="-99"/>
          </Node>
          <Node pos="r" depth="2" NCoef="0" IVar="1" Cut="3.1403143405914307e+00" cType="1" res="-8.0278277164325118e-04" rms="5.8680702000856400e-02" purity="1.4694543182849884e-01" nType="0">
            <Node pos="l" depth="3" NCoef="0" IVar="-1" Cut="0.0000000000000000e+00" cType="1" res="2.4716757237911224e-02" rms="9.2294007539749146e-02" purity="5.0256681442260742e-01" nType="-99"/>
            <Node pos="r" depth="3" NCoef="0" IVar="-1" Cut="0.0000000000000000e+00" cType="1" res="-1.4541901648044586e-02" rms="5.4525293409824371e-02" purity="1.1428632587194443e-01" nType="-99"/>
          </Node>
        </Node>
      </Node>
    </BinaryTree>
    <BinaryTree type="DecisionTree" boostWeight="1.0000000000000000e+00" itree="263">
      <Node pos="s" depth="0" NCoef="0" IVar="7" Cut="3.4200530052185059e+00" cType="1" res="1.2295101769268513e-03" rms="6.7610293626785278e-02" purity="5.0536471605300903e-01" nType="0">
        <Node pos="l" depth="1" NCoef="0" IVar="14" Cut="3.9954848289489746e+00" cType="1" res="3.5289598163217306e-03" rms="8.4495507180690765e-02" purity="1.7383512854576111e-01" nType="0">
          <Node pos="l" depth="2" NCoef="0" IVar="12" Cut="7.8747143745422363e+00" cType="1" res="1.0052408324554563e-03" rms="6.3849620521068573e-02" purity="5.2309911698102951e-02" nType="0">
            <Node pos="l" depth="3" NCoef="0" IVar="-1" Cut="0.0000000000000000e+00" cType="1" res="-1.5125896781682968e-02" rms="4.1209045797586441e-02" purity="3.1752564013004303e-02" nType="-99"/>
            <Node pos="r" depth="3" NCoef="0" IVar="-1" Cut="0.0000000000000000e+00" cType="1" res="4.2952038347721100e-02" rms="1.0600232332944870e-01" purity="1.1482150107622147e-01" nType="-99"/>
          </Node>
          <Node pos="r" depth="2" NCoef="0" IVar="15" Cut="2.8122601509094238e+00" cType="1" res="1.0200642980635166e-02" rms="1.2318569421768188e-01" purity="4.9509823322296143e-01" nType="0">
            <Node pos="l" depth="3" NCoef="0" IVar="-1" Cut="0.0000000000000000e+00" cType="1" res="4.9831442534923553e-02" rms="1.3252259790897369e-01" purity="1.9355316460132599e-01" nType="-99"/>
            <Node pos="r" depth="3" NCoef="0" IVar="-1" Cut="0.0000000000000000e+00" cType="1" res="-8.2174601266160607e-04" rms="1.1302318423986435e-01" purity="7.6935815811157227e-01" nType="-99"/>
          </Node>
        </Node>
        <Node pos="r" depth="1" NCoef="0" IVar="15" Cut="4.2548961639404297e+00" cType="1" res="-2.0876519556622952e-05" rms="5.6303743273019791e-02" purity="6.8564265966415405e-01" nType="0">
          <Node pos="l" depth="2" NCoef="0" IVar="3" Cut="7.1659016609191895e-01" cType="1" res="-1.8949297955259681e-03" rms="6.1200078576803207e-02" purity="2.8554189205169678e-01" nType="0">
            <Node pos="l" depth="3" NCoef="0" IVar="-1" Cut="0.0000000000000000e+00" cType="1" res="1.9366909982636571e-03" rms="8.0251224339008331e-02" purity="7.1819108724594116e-01" nType="-99"/>
            <Node pos="r" depth="3" NCoef="0" IVar="-1" Cut="0.0000000000000000e+00" cType="1" res="-3.4105114638805389e-02" rms="4.8865031450986862e-02" purity="6.8242982029914856e-02" nType="-99"/>
          </Node>
          <Node pos="r" depth="2" NCoef="0" IVar="-1" Cut="0.0000000000000000e+00" cType="1" res="1.8863603472709656e-02" rms="5.2230749279260635e-02" purity="9.8979157209396362e-01" nType="-99"/>
        </Node>
      </Node>
    </BinaryTree>
    <BinaryTree type="DecisionTree" boostWeight="1.0000000000000000e+00" itree="264">
      <Node pos="s" depth="0" NCoef="0" IVar="8" Cut="1.4008808135986328e+00" cType="1" res="9.6623646095395088e-04" rms="6.4852468669414520e-02" purity="4.9644064903259277e-01" nType="0">
        <Node pos="l" depth="1" NCoef="0" IVar="6" Cut="7.3179445266723633e+00" cType="1" res="1.8488931236788630e-03" rms="6.7051753401756287e-02" purity="5.5039596557617188e-01" nType="0">
          <Node pos="l" depth="2" NCoef="0" IVar="15" Cut="2.6952481269836426e+00" cType="1" res="6.3204257749021053e-03" rms="8.8732443749904633e-02" purity="2.1485163271427155e-01" nType="0">
            <Node pos="l" depth="3" NCoef="0" IVar="-1" Cut="0.0000000000000000e+00" cType="1" res="-5.1901932805776596e-02" rms="2.1633191034197807e-02" purity="6.5662786364555359e-03" nType="-99"/>
            <Node pos="r" depth="3" NCoef="0" IVar="-1" Cut="0.0000000000000000e+00" cType="1" res="6.8543344736099243e-02" rms="1.3541421294212341e-01" purity="5.1623708009719849e-01" nType="-99"/>
          </Node>
          <Node pos="r" depth="2" NCoef="0" IVar="15" Cut="3.4353215694427490e+00" cType="1" res="1.0565102566033602e-03" rms="6.2395919114351273e-02" purity="6.0985642671585083e-01" nType="0">
            <Node pos="l" depth="3" NCoef="0" IVar="-1" Cut="0.0000000000000000e+00" cType="1" res="1.7217805609107018e-02" rms="7.1970120072364807e-02" purity="1.7616185545921326e-01" nType="-99"/>
            <Node pos="r" depth="3" NCoef="0" IVar="-1" Cut="0.0000000000000000e+00" cType="1" res="-4.8508769832551479e-03" rms="5.4306160658597946e-02" purity="9.2628407478332520e-01" nType="-99"/>
          </Node>
        </Node>
        <Node pos="r" depth="1" NCoef="0" IVar="16" Cut="4.5295081138610840e+00" cType="1" res="-4.5742308720946312e-03" rms="4.8469807952642441e-02" purity="1.5776151418685913e-01" nType="0">
          <Node pos="l" depth="2" NCoef="0" IVar="3" Cut="1.2909966707229614e+00" cType="1" res="-2.5265351869165897e-03" rms="2.8436578810214996e-02" purity="3.3307075500488281e-03" nType="0">
            <Node pos="l" depth="3" NCoef="0" IVar="-1" Cut="0.0000000000000000e+00" cType="1" res="-6.2275025993585587e-02" rms="5.0793644040822983e-02" purity="1.1844390071928501e-02" nType="-99"/>
            <Node pos="r" depth="3" NCoef="0" IVar="-1" Cut="0.0000000000000000e+00" cType="1" res="-5.6938007473945618e-02" rms="1.0293866507709026e-02" purity="0.0000000000000000e+00" nType="-99"/>
          </Node>
          <Node pos="r" depth="2" NCoef="0" IVar="-1" Cut="0.0000000000000000e+00" cType="1" res="-7.7910542488098145e-02" rms="8.1023104488849640e-02" purity="5.8466911315917969e-01" nType="-99"/>
        </Node>
      </Node>
    </BinaryTree>
    <BinaryTree type="DecisionTree" boostWeight="1.0000000000000000e+00" itree="265">
      <Node pos="s" depth="0" NCoef="0" IVar="14" Cut="4.5748763084411621e+00" cType="1" res="-2.4619256146252155e-04" rms="5.9667713940143585e-02" purity="4.9929368495941162e-01" nType="0">
        <Node pos="l" depth="1" NCoef="0" IVar="13" Cut="2.6263892650604248e+00" cType="1" res="-1.4708949020132422e-03" rms="5.9598330408334732e-02" purity="1.1733510345220566e-01" nType="0">
          <Node pos="l" depth="2" NCoef="0" IVar="15" Cut="3.6997663974761963e+00" cType="1" res="-7.5497274519875646e-04" rms="5.7929743081331253e-02" purity="7.9464994370937347e-02" nType="0">
            <Node pos="l" depth="3" NCoef="0" IVar="-1" Cut="0.0000000000000000e+00" cType="1" res="8.4511836757883430e-04" rms="4.9463234841823578e-02" purity="3.8135621696710587e-02" nType="-99"/>
            <Node pos="r" depth="3" NCoef="0" IVar="-1" Cut="0.0000000000000000e+00" cType="1" res="-2.3797012865543365e-02" rms="1.1139272898435593e-01" purity="4.9447113275527954e-01" nType="-99"/>
          </Node>
          <Node pos="r" depth="2" NCoef="0" IVar="-1" Cut="0.0000000000000000e+00" cType="1" res="-5.1144544035196304e-02" rms="7.5172998011112213e-02" purity="5.3586131334304810e-01" nType="-99"/>
        </Node>
        <Node pos="r" depth="1" NCoef="0" IVar="2" Cut="-1.1528184890747070e+01" cType="1" res="1.1972185457125306e-03" rms="5.9717148542404175e-02" purity="9.4946289062500000e-01" nType="0">
          <Node pos="l" depth="2" NCoef="0" IVar="-1" Cut="0.0000000000000000e+00" cType="1" res="6.1865540919825435e-04" rms="4.7846168279647827e-02" purity="9.9153202772140503e-01" nType="-99"/>
          <Node pos="r" depth="2" NCoef="0" IVar="-1" Cut="0.0000000000000000e+00" cType="1" res="2.2638086229562759e-02" rms="1.1544752866029739e-01" purity="6.2486064434051514e-01" nType="-99"/>
        </Node>
      </Node>
    </BinaryTree>
    <BinaryTree type="DecisionTree" boostWeight="1.0000000000000000e+00" itree="266">
      <Node pos="s" depth="0" NCoef="0" IVar="14" Cut="4.4476928710937500e+00" cType="1" res="6.2691967468708754e-04" rms="6.2521554529666901e-02" purity="4.9974751472473145e-01" nType="0">
        <Node pos="l" depth="1" NCoef="0" IVar="16" Cut="4.6391706466674805e+00" cType="1" res="1.8166250083595514e-03" rms="6.5719634294509888e-02" purity="1.0405284911394119e-01" nType="0">
          <Node pos="l" depth="2" NCoef="0" IVar="14" Cut="4.1585769653320312e+00" cType="1" res="3.7974707083776593e-04" rms="4.7081649303436279e-02" purity="3.1718615442514420e-02" nType="0">
            <Node pos="l" depth="3" NCoef="0" IVar="-1" Cut="0.0000000000000000e+00" cType="1" res="-5.9728077612817287e-03" rms="3.9619158953428268e-02" purity="2.1985672414302826e-02" nType="-99"/>
            <Node pos="r" depth="3" NCoef="0" IVar="-1" Cut="0.0000000000000000e+00" cType="1" res="3.7815105170011520e-02" rms="1.0912352800369263e-01" purity="1.8055620789527893e-01" nType="-99"/>
          </Node>
          <Node pos="r" depth="2" NCoef="0" IVar="15" Cut="2.4848148822784424e+00" cType="1" res="8.8382391259074211e-03" rms="1.2055477499961853e-01" purity="4.5752969384193420e-01" nType="0">
            <Node pos="l" depth="3" NCoef="0" IVar="-1" Cut="0.0000000000000000e+00" cType="1" res="-3.9606103673577309e-03" rms="6.9128088653087616e-02" purity="6.4106285572052002e-02" nType="-99"/>
            <Node pos="r" depth="3" NCoef="0" IVar="-1" Cut="0.0000000000000000e+00" cType="1" res="2.5548486039042473e-02" rms="1.3597249984741211e-01" purity="6.1924654245376587e-01" nType="-99"/>
          </Node>
        </Node>
        <Node pos="r" depth="1" NCoef="0" IVar="3" Cut="9.8838776350021362e-01" cType="1" res="-6.8307423498481512e-04" rms="5.8771409094333649e-02" purity="9.3545001745223999e-01" nType="0">
          <Node pos="l" depth="2" NCoef="0" IVar="-1" Cut="0.0000000000000000e+00" cType="1" res="6.5039992332458496e-03" rms="4.9526304006576538e-02" purity="9.8671430349349976e-01" nType="-99"/>
          <Node pos="r" depth="2" NCoef="0" IVar="-1" Cut="0.0000000000000000e+00" cType="1" res="-2.9812216758728027e-02" rms="1.0219779610633850e-01" purity="5.7386904954910278e-01" nType="-99"/>
        </Node>
      </Node>
    </BinaryTree>
    <BinaryTree type="DecisionTree" boostWeight="1.0000000000000000e+00" itree="267">
      <Node pos="s" depth="0" NCoef="0" IVar="3" Cut="2.2646434605121613e-01" cType="1" res="1.4750688569620252e-03" rms="6.7078180611133575e-02" purity="5.0810819864273071e-01" nType="0">
        <Node pos="l" depth="1" NCoef="0" IVar="2" Cut="-1.0467092514038086e+01" cType="1" res="-5.2473833784461021e-04" rms="5.3352128714323044e-02" purity="8.8815683126449585e-01" nType="0">
          <Node pos="l" depth="2" NCoef="0" IVar="-1" Cut="0.0000000000000000e+00" cType="1" res="1.3763874769210815e-02" rms="4.7000359743833542e-02" purity="9.8712080717086792e-01" nType="-99"/>
          <Node pos="r" depth="2" NCoef="0" IVar="-1" Cut="0.0000000000000000e+00" cType="1" res="-2.8277784585952759e-02" rms="8.1527568399906158e-02" purity="2.8358113765716553e-01" nType="-99"/>
        </Node>
        <Node pos="r" depth="1" NCoef="0" IVar="0" Cut="8.2309198379516602e+00" cType="1" res="2.5177162606269121e-03" rms="7.3199443519115448e-02" purity="3.0996075272560120e-01" nType="0">
          <Node pos="l" depth="2" NCoef="0" IVar="16" Cut="4.6297068595886230e+00" cType="1" res="8.2203564488736447e-07" rms="5.0168637186288834e-02" purity="6.9860935211181641e-02" nType="0">
            <Node pos="l" depth="3" NCoef="0" IVar="-1" Cut="0.0000000000000000e+00" cType="1" res="-5.4888747632503510e-02" rms="1.6199393197894096e-02" purity="2.1542548201978207e-03" nType="-99"/>
            <Node pos="r" depth="3" NCoef="0" IVar="-1" Cut="0.0000000000000000e+00" cType="1" res="2.1995371207594872e-02" rms="1.2474571913480759e-01" purity="4.6400716900825500e-01" nType="-99"/>
          </Node>
          <Node pos="r" depth="2" NCoef="0" IVar="16" Cut="5.3083744049072266e+00" cType="1" res="4.2587402276694775e-03" rms="8.5534490644931793e-02" purity="4.7604620456695557e-01" nType="0">
            <Node pos="l" depth="3" NCoef="0" IVar="-1" Cut="0.0000000000000000e+00" cType="1" res="3.1134635210037231e-02" rms="9.3757987022399902e-02" purity="1.2050164490938187e-01" nType="-99"/>
            <Node pos="r" depth="3" NCoef="0" IVar="-1" Cut="0.0000000000000000e+00" cType="1" res="1.4725484652444720e-03" rms="7.3771163821220398e-02" purity="9.2095166444778442e-01" nType="-99"/>
          </Node>
        </Node>
      </Node>
    </BinaryTree>
    <BinaryTree type="DecisionTree" boostWeight="1.0000000000000000e+00" itree="268">
      <Node pos="s" depth="0" NCoef="0" IVar="7" Cut="4.0286855697631836e+00" cType="1" res="3.0317201162688434e-04" rms="6.2028646469116211e-02" purity="5.0008767843246460e-01" nType="0">
        <Node pos="l" depth="1" NCoef="0" IVar="9" Cut="6.4545679092407227e+00" cType="1" res="-9.0933742467314005e-04" rms="6.1103999614715576e-02" purity="1.8195353448390961e-01" nType="0">
          <Node pos="l" depth="2" NCoef="0" IVar="0" Cut="8.4567193984985352e+00" cType="1" res="-1.9012531265616417e-03" rms="5.6558318436145782e-02" purity="1.2005641311407089e-01" nType="0">
            <Node pos="l" depth="3" NCoef="0" IVar="-1" Cut="0.0000000000000000e+00" cType="1" res="-6.1758426018059254e-03" rms="4.3900366872549057e-02" purity="3.3965867012739182e-02" nType="-99"/>
            <Node pos="r" depth="3" NCoef="0" IVar="-1" Cut="0.0000000000000000e+00" cType="1" res="-2.3048324510455132e-02" rms="8.1078670918941498e-02" purity="3.4975716471672058e-01" nType="-99"/>
          </Node>
          <Node pos="r" depth="2" NCoef="0" IVar="8" Cut="6.2672495841979980e-01" cType="1" res="3.2778044696897268e-03" rms="7.7264361083507538e-02" purity="4.4323778152465820e-01" nType="0">
            <Node pos="l" depth="3" NCoef="0" IVar="-1" Cut="0.0000000000000000e+00" cType="1" res="-1.0563425021246076e-03" rms="6.6196933388710022e-02" purity="5.0674378871917725e-01" nType="-99"/>
            <Node pos="r" depth="3" NCoef="0" IVar="-1" Cut="0.0000000000000000e+00" cType="1" res="2.9352344572544098e-02" rms="9.4497300684452057e-02" purity="3.2212871313095093e-01" nType="-99"/>
          </Node>
        </Node>
        <Node pos="r" depth="1" NCoef="0" IVar="3" Cut="1.2536214590072632e+00" cType="1" res="1.6882891068235040e-03" rms="6.3039802014827728e-02" purity="8.6351013183593750e-01" nType="0">
          <Node pos="l" depth="2" NCoef="0" IVar="15" Cut="3.8032541275024414e+00" cType="1" res="4.5253057032823563e-04" rms="5.2360430359840393e-02" purity="9.6221554279327393e-01" nType="0">
            <Node pos="l" depth="3" NCoef="0" IVar="-1" Cut="0.0000000000000000e+00" cType="1" res="2.0496925339102745e-02" rms="9.1483324766159058e-02" purity="7.6029837131500244e-01" nType="-99"/>
            <Node pos="r" depth="3" NCoef="0" IVar="-1" Cut="0.0000000000000000e+00" cType="1" res="-1.3613154180347919e-02" rms="4.2916562408208847e-02" purity="9.9427300691604614e-01" nType="-99"/>
          </Node>
          <Node pos="r" depth="2" NCoef="0" IVar="5" Cut="-3.2577953338623047e+00" cType="1" res="8.8143497705459595e-03" rms="1.0498159378767014e-01" purity="2.9432031512260437e-01" nType="0">
            <Node pos="l" depth="3" NCoef="0" IVar="-1" Cut="0.0000000000000000e+00" cType="1" res="3.2391339540481567e-02" rms="1.3086563348770142e-01" purity="4.8077538609504700e-01" nType="-99"/>
            <Node pos="r" depth="3" NCoef="0" IVar="-1" Cut="0.0000000000000000e+00" cType="1" res="-1.5242003835737705e-02" rms="4.6347051858901978e-02" purity="2.9212865978479385e-02" nType="-99"/>
          </Node>
        </Node>
      </Node>
    </BinaryTree>
    <BinaryTree type="DecisionTree" boostWeight="1.0000000000000000e+00" itree="269">
      <Node pos="s" depth="0" NCoef="0" IVar="11" Cut="6.1113042831420898e+00" cType="1" res="9.7234855638816953e-04" rms="6.5822184085845947e-02" purity="4.9799543619155884e-01" nType="0">
        <Node pos="l" depth="1" NCoef="0" IVar="13" Cut="1.7341896295547485e+00" cType="1" res="-1.9246747251600027e-03" rms="6.6042393445968628e-02" purity="2.4968405067920685e-01" nType="0">
          <Node pos="l" depth="2" NCoef="0" IVar="9" Cut="5.8037075996398926e+00" cType="1" res="1.8085748888552189e-03" rms="6.1126004904508591e-02" purity="3.1801871955394745e-02" nType="0">
            <Node pos="l" depth="3" NCoef="0" IVar="-1" Cut="0.0000000000000000e+00" cType="1" res="-6.1461571604013443e-02" rms="2.7590038254857063e-02" purity="4.8194974660873413e-03" nType="-99"/>
            <Node pos="r" depth="3" NCoef="0" IVar="-1" Cut="0.0000000000000000e+00" cType="1" res="3.6510515958070755e-02" rms="7.9720959067344666e-02" purity="5.5857479572296143e-02" nType="-99"/>
          </Node>
          <Node pos="r" depth="2" NCoef="0" IVar="12" Cut="7.6250405311584473e+00" cType="1" res="-4.6228705905377865e-03" rms="6.9253973662853241e-02" purity="4.0715777873992920e-01" nType="0">
            <Node pos="l" depth="3" NCoef="0" IVar="-1" Cut="0.0000000000000000e+00" cType="1" res="-5.1202494651079178e-02" rms="7.2618693113327026e-02" purity="2.6417052745819092e-01" nType="-99"/>
            <Node pos="r" depth="3" NCoef="0" IVar="-1" Cut="0.0000000000000000e+00" cType="1" res="-1.7961084842681885e-02" rms="6.7271336913108826e-02" purity="4.8559641838073730e-01" nType="-99"/>
          </Node>
        </Node>
        <Node pos="r" depth="1" NCoef="0" IVar="14" Cut="3.9878613948822021e+00" cType="1" res="1.5903948806226254e-03" rms="6.5758593380451202e-02" purity="5.5096977949142456e-01" nType="0">
          <Node pos="l" depth="2" NCoef="0" IVar="3" Cut="3.4013119339942932e-01" cType="1" res="-3.1408632639795542e-04" rms="5.6262068450450897e-02" purity="7.5565308332443237e-02" nType="0">
            <Node pos="l" depth="3" NCoef="0" IVar="-1" Cut="0.0000000000000000e+00" cType="1" res="1.3096953742206097e-02" rms="1.0431481152772903e-01" purity="3.7521201372146606e-01" nType="-99"/>
            <Node pos="r" depth="3" NCoef="0" IVar="-1" Cut="0.0000000000000000e+00" cType="1" res="-1.6888394951820374e-02" rms="4.3775148689746857e-02" purity="2.7343180030584335e-02" nType="-99"/>
          </Node>
          <Node pos="r" depth="2" NCoef="0" IVar="16" Cut="4.5063176155090332e+00" cType="1" res="2.9377676546573639e-03" rms="7.1691103279590607e-02" purity="8.8730663061141968e-01" nType="0">
            <Node pos="l" depth="3" NCoef="0" IVar="-1" Cut="0.0000000000000000e+00" cType="1" res="3.6876276135444641e-02" rms="1.3311865925788879e-01" purity="2.8266263008117676e-01" nType="-99"/>
            <Node pos="r" depth="3" NCoef="0" IVar="-1" Cut="0.0000000000000000e+00" cType="1" res="9.1275330632925034e-03" rms="5.7795464992523193e-02" purity="9.7196149826049805e-01" nType="-99"/>
          </Node>
        </Node>
      </Node>
    </BinaryTree>
    <BinaryTree type="DecisionTree" boostWeight="1.0000000000000000e+00" itree="270">
      <Node pos="s" depth="0" NCoef="0" IVar="3" Cut="3.4013885259628296e-01" cType="1" res="1.9708636682480574e-04" rms="6.2315009534358978e-02" purity="5.0159251689910889e-01" nType="0">
        <Node pos="l" depth="1" NCoef="0" IVar="2" Cut="-9.8690004348754883e+00" cType="1" res="2.4237944744527340e-03" rms="6.6608875989913940e-02" purity="8.8010340929031372e-01" nType="0">
          <Node pos="l" depth="2" NCoef="0" IVar="-1" Cut="0.0000000000000000e+00" cType="1" res="6.1850124038755894e-03" rms="5.0564419478178024e-02" purity="9.7975087165832520e-01" nType="-99"/>
          <Node pos="r" depth="2" NCoef="0" IVar="-1" Cut="0.0000000000000000e+00" cType="1" res="2.8311854228377342e-02" rms="1.3004536926746368e-01" purity="2.0830385386943817e-01" nType="-99"/>
        </Node>
        <Node pos="r" depth="1" NCoef="0" IVar="9" Cut="6.4689464569091797e+00" cType="1" res="-1.1931763729080558e-03" rms="5.9434827417135239e-02" purity="2.6526626944541931e-01" nType="0">
          <Node pos="l" depth="2" NCoef="0" IVar="16" Cut="4.6413588523864746e+00" cType="1" res="-2.0161629654467106e-03" rms="5.6812014430761337e-02" purity="1.8612393736839294e-01" nType="0">
            <Node pos="l" depth="3" NCoef="0" IVar="-1" Cut="0.0000000000000000e+00" cType="1" res="-1.6427263617515564e-02" rms="3.7882227450609207e-02" purity="9.3141598626971245e-03" nType="-99"/>
            <Node pos="r" depth="3" NCoef="0" IVar="-1" Cut="0.0000000000000000e+00" cType="1" res="-2.1142615005373955e-02" rms="8.8635414838790894e-02" purity="6.4396071434020996e-01" nType="-99"/>
          </Node>
          <Node pos="r" depth="2" NCoef="0" IVar="6" Cut="7.5241646766662598e+00" cType="1" res="2.2371006198227406e-03" rms="6.9200657308101654e-02" purity="5.9513807296752930e-01" nType="0">
            <Node pos="l" depth="3" NCoef="0" IVar="-1" Cut="0.0000000000000000e+00" cType="1" res="-5.0789020955562592e-02" rms="4.7331128269433975e-02" purity="1.9619438052177429e-01" nType="-99"/>
            <Node pos="r" depth="3" NCoef="0" IVar="-1" Cut="0.0000000000000000e+00" cType="1" res="2.8670569881796837e-02" rms="7.6947920024394989e-02" purity="7.7778500318527222e-01" nType="-99"/>
          </Node>
        </Node>
      </Node>
    </BinaryTree>
    <BinaryTree type="DecisionTree" boostWeight="1.0000000000000000e+00" itree="271">
      <Node pos="s" depth="0" NCoef="0" IVar="11" Cut="6.5926566123962402e+00" cType="1" res="2.0860637596342713e-04" rms="6.4531862735748291e-02" purity="4.9954882264137268e-01" nType="0">
        <Node pos="l" depth="1" NCoef="0" IVar="4" Cut="-5.4148381948471069e-01" cType="1" res="1.5054993564262986e-03" rms="6.9586917757987976e-02" purity="3.1450527906417847e-01" nType="0">
          <Node pos="l" depth="2" NCoef="0" IVar="-1" Cut="0.0000000000000000e+00" cType="1" res="-3.5802662372589111e-02" rms="6.1511274427175522e-02" purity="7.0490884780883789e-01" nType="-99"/>
          <Node pos="r" depth="2" NCoef="0" IVar="11" Cut="6.4905252456665039e+00" cType="1" res="2.1486277692019939e-03" rms="7.0325121283531189e-02" purity="2.7476787567138672e-01" nType="0">
            <Node pos="l" depth="3" NCoef="0" IVar="-1" Cut="0.0000000000000000e+00" cType="1" res="8.6569655686616898e-03" rms="6.6966302692890167e-02" purity="2.6529541611671448e-01" nType="-99"/>
            <Node pos="r" depth="3" NCoef="0" IVar="-1" Cut="0.0000000000000000e+00" cType="1" res="4.2247932404279709e-02" rms="8.7248273193836212e-02" purity="3.3034449815750122e-01" nType="-99"/>
          </Node>
        </Node>
        <Node pos="r" depth="1" NCoef="0" IVar="7" Cut="2.8914897441864014e+00" cType="1" res="-8.4816047456115484e-04" rms="6.0078512877225876e-02" purity="6.5033066272735596e-01" nType="0">
          <Node pos="l" depth="2" NCoef="0" IVar="11" Cut="7.2456245422363281e+00" cType="1" res="-4.8632277175784111e-03" rms="7.2619214653968811e-02" purity="2.5601485371589661e-01" nType="0">
            <Node pos="l" depth="3" NCoef="0" IVar="-1" Cut="0.0000000000000000e+00" cType="1" res="-1.2466766871511936e-02" rms="6.5646804869174957e-02" purity="1.7422871291637421e-01" nType="-99"/>
            <Node pos="r" depth="3" NCoef="0" IVar="-1" Cut="0.0000000000000000e+00" cType="1" res="-6.8812705576419830e-02" rms="8.9051365852355957e-02" purity="4.8765343427658081e-01" nType="-99"/>
          </Node>
          <Node pos="r" depth="2" NCoef="0" IVar="16" Cut="4.3130478858947754e+00" cType="1" res="1.4949125761631876e-04" rms="5.6488323956727982e-02" purity="7.4830907583236694e-01" nType="0">
            <Node pos="l" depth="3" NCoef="0" IVar="-1" Cut="0.0000000000000000e+00" cType="1" res="-4.4824641197919846e-02" rms="4.2366083711385727e-02" purity="2.6137253269553185e-02" nType="-99"/>
            <Node pos="r" depth="3" NCoef="0" IVar="-1" Cut="0.0000000000000000e+00" cType="1" res="1.1727201752364635e-02" rms="5.9488315135240555e-02" purity="9.3068313598632812e-01" nType="-99"/>
          </Node>
        </Node>
      </Node>
    </BinaryTree>
    <BinaryTree type="DecisionTree" boostWeight="1.0000000000000000e+00" itree="272">
      <Node pos="s" depth="0" NCoef="0" IVar="1" Cut="3.6307368278503418e+00" cType="1" res="1.5954756236169487e-04" rms="5.9740658849477768e-02" purity="4.9678781628608704e-01" nType="0">
        <Node pos="l" depth="1" NCoef="0" IVar="7" Cut="4.0544037818908691e+00" cType="1" res="-1.1952122440561652e-03" rms="5.3944274783134460e-02" purity="6.5974497795104980e-01" nType="0">
          <Node pos="l" depth="2" NCoef="0" IVar="7" Cut="2.0747067928314209e+00" cType="1" res="-3.4789901692420244e-03" rms="6.4839698374271393e-02" purity="3.0005291104316711e-01" nType="0">
            <Node pos="l" depth="3" NCoef="0" IVar="-1" Cut="0.0000000000000000e+00" cType="1" res="-3.4499689936637878e-02" rms="7.5241431593894958e-02" purity="2.1456514298915863e-01" nType="-99"/>
            <Node pos="r" depth="3" NCoef="0" IVar="-1" Cut="0.0000000000000000e+00" cType="1" res="-1.5014983713626862e-02" rms="6.2108155339956284e-02" purity="3.2017207145690918e-01" nType="-99"/>
          </Node>
          <Node pos="r" depth="2" NCoef="0" IVar="1" Cut="3.3083395957946777e+00" cType="1" res="4.3387166806496680e-04" rms="4.4501904398202896e-02" purity="9.1632354259490967e-01" nType="0">
            <Node pos="l" depth="3" NCoef="0" IVar="-1" Cut="0.0000000000000000e+00" cType="1" res="1.6905397176742554e-02" rms="4.2794067412614822e-02" purity="9.4297599792480469e-01" nType="-99"/>
            <Node pos="r" depth="3" NCoef="0" IVar="-1" Cut="0.0000000000000000e+00" cType="1" res="-1.3412292115390301e-02" rms="4.7589208930730820e-02" purity="8.6491477489471436e-01" nType="-99"/>
          </Node>
        </Node>
        <Node pos="r" depth="1" NCoef="0" IVar="13" Cut="2.1482491493225098e+00" cType="1" res="1.3277711113914847e-03" rms="6.4297966659069061e-02" purity="3.5626816749572754e-01" nType="0">
          <Node pos="l" depth="2" NCoef="0" IVar="15" Cut="3.6997821331024170e+00" cType="1" res="-4.8325229727197438e-05" rms="5.2978169173002243e-02" purity="6.5406724810600281e-02" nType="0">
            <Node pos="l" depth="3" NCoef="0" IVar="-1" Cut="0.0000000000000000e+00" cType="1" res="-1.4281314797699451e-02" rms="4.0957000106573105e-02" purity="2.3187525570392609e-02" nType="-99"/>
            <Node pos="r" depth="3" NCoef="0" IVar="-1" Cut="0.0000000000000000e+00" cType="1" res="1.5359497629106045e-02" rms="1.1847256124019623e-01" purity="4.8802593350410461e-01" nType="-99"/>
          </Node>
          <Node pos="r" depth="2" NCoef="0" IVar="4" Cut="1.8288000822067261e+00" cType="1" res="3.2097573857754469e-03" rms="7.7095262706279755e-02" purity="7.5405806303024292e-01" nType="0">
            <Node pos="l" depth="3" NCoef="0" IVar="-1" Cut="0.0000000000000000e+00" cType="1" res="9.2281280085444450e-03" rms="6.6155970096588135e-02" purity="8.8895237445831299e-01" nType="-99"/>
            <Node pos="r" depth="3" NCoef="0" IVar="-1" Cut="0.0000000000000000e+00" cType="1" res="3.2129254192113876e-02" rms="1.0461109131574631e-01" purity="3.1874528527259827e-01" nType="-99"/>
          </Node>
        </Node>
      </Node>
    </BinaryTree>
    <BinaryTree type="DecisionTree" boostWeight="1.0000000000000000e+00" itree="273">
      <Node pos="s" depth="0" NCoef="0" IVar="10" Cut="7.3726572990417480e+00" cType="1" res="-1.3256921374704689e-04" rms="5.7994261384010315e-02" purity="4.9079158902168274e-01" nType="0">
        <Node pos="l" depth="1" NCoef="0" IVar="9" Cut="6.6111598014831543e+00" cType="1" res="1.0091955773532391e-03" rms="6.1813771724700928e-02" purity="2.9289820790290833e-01" nType="0">
          <Node pos="l" depth="2" NCoef="0" IVar="9" Cut="6.4201078414916992e+00" cType="1" res="5.7956382079282776e-05" rms="5.7992823421955109e-02" purity="2.7116867899894714e-01" nType="0">
            <Node pos="l" depth="3" NCoef="0" IVar="-1" Cut="0.0000000000000000e+00" cType="1" res="5.0138155929744244e-03" rms="5.9072524309158325e-02" purity="2.5577098131179810e-01" nType="-99"/>
            <Node pos="r" depth="3" NCoef="0" IVar="-1" Cut="0.0000000000000000e+00" cType="1" res="-6.5138407051563263e-02" rms="4.8238113522529602e-02" purity="3.9372128248214722e-01" nType="-99"/>
          </Node>
          <Node pos="r" depth="2" NCoef="0" IVar="-1" Cut="0.0000000000000000e+00" cType="1" res="3.7122122943401337e-02" rms="8.6947105824947357e-02" purity="4.7370442748069763e-01" nType="-99"/>
        </Node>
        <Node pos="r" depth="1" NCoef="0" IVar="15" Cut="2.2517669200897217e+00" cType="1" res="-8.2583428593352437e-04" rms="5.5535648018121719e-02" purity="6.1094993352890015e-01" nType="0">
          <Node pos="l" depth="2" NCoef="0" IVar="3" Cut="8.9711737632751465e-01" cType="1" res="1.7118075629696250e-03" rms="5.2710331976413727e-02" purity="7.2066783905029297e-02" nType="0">
            <Node pos="l" depth="3" NCoef="0" IVar="-1" Cut="0.0000000000000000e+00" cType="1" res="2.6560895144939423e-02" rms="9.2796839773654938e-02" purity="2.8220251202583313e-01" nType="-99"/>
            <Node pos="r" depth="3" NCoef="0" IVar="-1" Cut="0.0000000000000000e+00" cType="1" res="-2.2925717756152153e-02" rms="3.0244473367929459e-02" purity="5.9219617396593094e-03" nType="-99"/>
          </Node>
          <Node pos="r" depth="2" NCoef="0" IVar="10" Cut="7.9377970695495605e+00" cType="1" res="-1.6289153136312962e-03" rms="5.6376505643129349e-02" purity="7.8148889541625977e-01" nType="0">
            <Node pos="l" depth="3" NCoef="0" IVar="-1" Cut="0.0000000000000000e+00" cType="1" res="-3.4304268658161163e-02" rms="6.1907295137643814e-02" purity="6.3430380821228027e-01" nType="-99"/>
            <Node pos="r" depth="3" NCoef="0" IVar="-1" Cut="0.0000000000000000e+00" cType="1" res="4.0384172461926937e-03" rms="5.0252024084329605e-02" purity="9.2670720815658569e-01" nType="-99"/>
          </Node>
        </Node>
      </Node>
    </BinaryTree>
    <BinaryTree type="DecisionTree" boostWeight="1.0000000000000000e+00" itree="274">
      <Node pos="s" depth="0" NCoef="0" IVar="2" Cut="-1.1211000442504883e+01" cType="1" res="7.0337025681510568e-04" rms="6.4545549452304840e-02" purity="4.9818187952041626e-01" nType="0">
        <Node pos="l" depth="1" NCoef="0" IVar="15" Cut="3.4170775413513184e+00" cType="1" res="-5.6702614529058337e-04" rms="5.9519641101360321e-02" purity="9.1905659437179565e-01" nType="0">
          <Node pos="l" depth="2" NCoef="0" IVar="9" Cut="5.9231228828430176e+00" cType="1" res="-5.5060912854969501e-03" rms="8.6773484945297241e-02" purity="5.4034453630447388e-01" nType="0">
            <Node pos="l" depth="3" NCoef="0" IVar="-1" Cut="0.0000000000000000e+00" cType="1" res="-3.8678649812936783e-02" rms="9.0730711817741394e-02" purity="3.2478031516075134e-01" nType="-99"/>
            <Node pos="r" depth="3" NCoef="0" IVar="-1" Cut="0.0000000000000000e+00" cType="1" res="-1.1497686617076397e-02" rms="8.3966337144374847e-02" purity="6.8116396665573120e-01" nType="-99"/>
          </Node>
          <Node pos="r" depth="2" NCoef="0" IVar="-1" Cut="0.0000000000000000e+00" cType="1" res="4.6443338505923748e-03" rms="5.3128015249967575e-02" purity="9.8695641756057739e-01" nType="-99"/>
        </Node>
        <Node pos="r" depth="1" NCoef="0" IVar="3" Cut="2.0489509403705597e-01" cType="1" res="1.9074585288763046e-03" rms="6.8950295448303223e-02" purity="9.9274672567844391e-02" nType="0">
          <Node pos="l" depth="2" NCoef="0" IVar="10" Cut="7.3180131912231445e+00" cType="1" res="1.2421267107129097e-02" rms="1.1672810465097427e-01" purity="4.5570155978202820e-01" nType="0">
            <Node pos="l" depth="3" NCoef="0" IVar="-1" Cut="0.0000000000000000e+00" cType="1" res="3.6492045968770981e-02" rms="1.4834448695182800e-01" purity="3.7123110890388489e-01" nType="-99"/>
            <Node pos="r" depth="3" NCoef="0" IVar="-1" Cut="0.0000000000000000e+00" cType="1" res="5.5317566730082035e-03" rms="8.7444968521595001e-02" purity="5.1308643817901611e-01" nType="-99"/>
          </Node>
          <Node pos="r" depth="2" NCoef="0" IVar="3" Cut="1.1040863990783691e+00" cType="1" res="4.0137232281267643e-04" rms="5.8866284787654877e-02" purity="4.8217087984085083e-02" nType="0">
            <Node pos="l" depth="3" NCoef="0" IVar="-1" Cut="0.0000000000000000e+00" cType="1" res="1.6737030819058418e-02" rms="9.7902268171310425e-02" purity="1.6140429675579071e-01" nType="-99"/>
            <Node pos="r" depth="3" NCoef="0" IVar="-1" Cut="0.0000000000000000e+00" cType="1" res="-1.1434688232839108e-02" rms="3.9825469255447388e-02" purity="1.3564668595790863e-02" nType="-99"/>
          </Node>
        </Node>
      </Node>
    </BinaryTree>
    <BinaryTree type="DecisionTree" boostWeight="1.0000000000000000e+00" itree="275">
      <Node pos="s" depth="0" NCoef="0" IVar="0" Cut="7.9682130813598633e+00" cType="1" res="9.0582441771402955e-04" rms="6.4354389905929565e-02" purity="4.9618828296661377e-01" nType="0">
        <Node pos="l" depth="1" NCoef="0" IVar="2" Cut="-8.9855833053588867e+00" cType="1" res="-1.9431239925324917e-03" rms="4.0146876126527786e-02" purity="6.8966425955295563e-02" nType="0">
          <Node pos="l" depth="2" NCoef="0" IVar="3" Cut="1.4593477249145508e+00" cType="1" res="-5.5820024572312832e-03" rms="4.4930025935173035e-02" purity="1.5537783503532410e-01" nType="0">
            <Node pos="l" depth="3" NCoef="0" IVar="-1" Cut="0.0000000000000000e+00" cType="1" res="-4.5196618884801865e-02" rms="6.1488892883062363e-02" purity="3.1118750572204590e-01" nType="-99"/>
            <Node pos="r" depth="3" NCoef="0" IVar="-1" Cut="0.0000000000000000e+00" cType="1" res="-5.9336952865123749e-02" rms="1.5078426338732243e-02" purity="0.0000000000000000e+00" nType="-99"/>
          </Node>
          <Node pos="r" depth="2" NCoef="0" IVar="13" Cut="2.0520370006561279e+00" cType="1" res="5.5308430455625057e-04" rms="3.6294717341661453e-02" purity="9.6896840259432793e-03" nType="0">
            <Node pos="l" depth="3" NCoef="0" IVar="-1" Cut="0.0000000000000000e+00" cType="1" res="-6.0281716287136078e-02" rms="1.4758974313735962e-02" purity="0.0000000000000000e+00" nType="-99"/>
            <Node pos="r" depth="3" NCoef="0" IVar="-1" Cut="0.0000000000000000e+00" cType="1" res="2.6060359552502632e-02" rms="6.2894828617572784e-02" purity="3.3190157264471054e-02" nType="-99"/>
          </Node>
        </Node>
        <Node pos="r" depth="1" NCoef="0" IVar="15" Cut="3.4211037158966064e+00" cType="1" res="1.5106615610420704e-03" rms="6.8384654819965363e-02" purity="5.8688825368881226e-01" nType="0">
          <Node pos="l" depth="2" NCoef="0" IVar="2" Cut="-8.8672399520874023e+00" cType="1" res="3.6818867083638906e-03" rms="7.7234394848346710e-02" purity="1.5758205950260162e-01" nType="0">
            <Node pos="l" depth="3" NCoef="0" IVar="-1" Cut="0.0000000000000000e+00" cType="1" res="2.3146582767367363e-02" rms="1.0256922990083694e-01" purity="3.2982140779495239e-01" nType="-99"/>
            <Node pos="r" depth="3" NCoef="0" IVar="-1" Cut="0.0000000000000000e+00" cType="1" res="2.9874260071665049e-03" rms="4.3683178722858429e-02" purity="5.2103013731539249e-03" nType="-99"/>
          </Node>
          <Node pos="r" depth="2" NCoef="0" IVar="3" Cut="1.4351786375045776e+00" cType="1" res="-2.0463741384446621e-04" rms="6.0429386794567108e-02" purity="9.2604631185531616e-01" nType="0">
            <Node pos="l" depth="3" NCoef="0" IVar="-1" Cut="0.0000000000000000e+00" cType="1" res="-1.4356860890984535e-02" rms="5.0361249595880508e-02" purity="9.7567147016525269e-01" nType="-99"/>
            <Node pos="r" depth="3" NCoef="0" IVar="-1" Cut="0.0000000000000000e+00" cType="1" res="1.4470539055764675e-02" rms="1.3443218171596527e-01" purity="2.8047046065330505e-01" nType="-99"/>
          </Node>
        </Node>
      </Node>
    </BinaryTree>
    <BinaryTree type="DecisionTree" boostWeight="1.0000000000000000e+00" itree="276">
      <Node pos="s" depth="0" NCoef="0" IVar="4" Cut="2.6958889961242676e+00" cType="1" res="1.0652218479663134e-03" rms="6.4117118716239929e-02" purity="4.9644988775253296e-01" nType="0">
        <Node pos="l" depth="1" NCoef="0" IVar="13" Cut="2.5099301338195801e+00" cType="1" res="1.6262505669146776e-03" rms="6.6164053976535797e-02" purity="5.6039959192276001e-01" nType="0">
          <Node pos="l" depth="2" NCoef="0" IVar="14" Cut="3.2288637161254883e+00" cType="1" res="3.2059622462838888e-03" rms="7.9234898090362549e-02" purity="1.8256892263889313e-01" nType="0">
            <Node pos="l" depth="3" NCoef="0" IVar="-1" Cut="0.0000000000000000e+00" cType="1" res="-1.1464733630418777e-02" rms="4.1404042392969131e-02" purity="2.2599669173359871e-02" nType="-99"/>
            <Node pos="r" depth="3" NCoef="0" IVar="-1" Cut="0.0000000000000000e+00" cType="1" res="2.2419832646846771e-02" rms="1.0134213417768478e-01" purity="3.2347044348716736e-01" nType="-99"/>
          </Node>
          <Node pos="r" depth="2" NCoef="0" IVar="14" Cut="5.0071539878845215e+00" cType="1" res="1.8165070287068374e-05" rms="4.9375444650650024e-02" purity="9.4501662254333496e-01" nType="0">
            <Node pos="l" depth="3" NCoef="0" IVar="-1" Cut="0.0000000000000000e+00" cType="1" res="-1.5780406072735786e-02" rms="7.9888708889484406e-02" purity="6.7090839147567749e-01" nType="-99"/>
            <Node pos="r" depth="3" NCoef="0" IVar="-1" Cut="0.0000000000000000e+00" cType="1" res="1.4020333066582680e-02" rms="4.1267331689596176e-02" purity="9.9590092897415161e-01" nType="-99"/>
          </Node>
        </Node>
        <Node pos="r" depth="1" NCoef="0" IVar="14" Cut="4.0205497741699219e+00" cType="1" res="-2.9992631170898676e-03" rms="4.6477969735860825e-02" purity="3.3153537660837173e-02" nType="0">
          <Node pos="l" depth="2" NCoef="0" IVar="3" Cut="1.3212760686874390e+00" cType="1" res="-1.2453692033886909e-03" rms="1.4514881186187267e-02" purity="1.7628604546189308e-03" nType="0">
            <Node pos="l" depth="3" NCoef="0" IVar="-1" Cut="0.0000000000000000e+00" cType="1" res="-4.6529620885848999e-02" rms="2.3814154788851738e-02" purity="5.1104682497680187e-03" nType="-99"/>
            <Node pos="r" depth="3" NCoef="0" IVar="-1" Cut="0.0000000000000000e+00" cType="1" res="-5.2363760769367218e-02" rms="4.6117547899484634e-03" purity="0.0000000000000000e+00" nType="-99"/>
          </Node>
          <Node pos="r" depth="2" NCoef="0" IVar="-1" Cut="0.0000000000000000e+00" cType="1" res="-4.1822969913482666e-02" rms="9.5752514898777008e-02" purity="1.4682900905609131e-01" nType="-99"/>
        </Node>
      </Node>
    </BinaryTree>
    <BinaryTree type="DecisionTree" boostWeight="1.0000000000000000e+00" itree="277">
      <Node pos="s" depth="0" NCoef="0" IVar="9" Cut="6.0768494606018066e+00" cType="1" res="1.1971100466325879e-03" rms="6.6889829933643341e-02" purity="5.0126200914382935e-01" nType="0">
        <Node pos="l" depth="1" NCoef="0" IVar="12" Cut="8.0778236389160156e+00" cType="1" res="-2.0935805514454842e-04" rms="6.4333528280258179e-02" purity="3.2567650079727173e-01" nType="0">
          <Node pos="l" depth="2" NCoef="0" IVar="13" Cut="1.6981952190399170e+00" cType="1" res="-1.3320894213393331e-03" rms="5.7379275560379028e-02" purity="2.6220029592514038e-01" nType="0">
            <Node pos="l" depth="3" NCoef="0" IVar="-1" Cut="0.0000000000000000e+00" cType="1" res="1.0636353865265846e-02" rms="5.7238843291997910e-02" purity="3.7334594875574112e-02" nType="-99"/>
            <Node pos="r" depth="3" NCoef="0" IVar="-1" Cut="0.0000000000000000e+00" cType="1" res="-2.5471854954957962e-02" rms="5.7427696883678436e-02" purity="4.2563533782958984e-01" nType="-99"/>
          </Node>
          <Node pos="r" depth="2" NCoef="0" IVar="5" Cut="-3.2857270240783691e+00" cType="1" res="3.3529335632920265e-03" rms="8.2508824765682220e-02" purity="5.2707892656326294e-01" nType="0">
            <Node pos="l" depth="3" NCoef="0" IVar="-1" Cut="0.0000000000000000e+00" cType="1" res="2.3170473054051399e-02" rms="9.1687336564064026e-02" purity="7.0692270994186401e-01" nType="-99"/>
            <Node pos="r" depth="3" NCoef="0" IVar="-1" Cut="0.0000000000000000e+00" cType="1" res="-5.0289671868085861e-02" rms="5.0967700779438019e-02" purity="6.1361640691757202e-02" nType="-99"/>
          </Node>
        </Node>
        <Node pos="r" depth="1" NCoef="0" IVar="7" Cut="4.0544037818908691e+00" cType="1" res="2.5410470552742481e-03" rms="6.9217674434185028e-02" purity="6.6904097795486450e-01" nType="0">
          <Node pos="l" depth="2" NCoef="0" IVar="7" Cut="2.5696597099304199e+00" cType="1" res="5.5339881218969822e-03" rms="9.1990374028682709e-02" purity="3.2329380512237549e-01" nType="0">
            <Node pos="l" depth="3" NCoef="0" IVar="-1" Cut="0.0000000000000000e+00" cType="1" res="-3.1354578677564859e-03" rms="6.4668282866477966e-02" purity="2.5581306219100952e-01" nType="-99"/>
            <Node pos="r" depth="3" NCoef="0" IVar="-1" Cut="0.0000000000000000e+00" cType="1" res="3.8209017366170883e-02" rms="1.0340359061956406e-01" purity="3.5894736647605896e-01" nType="-99"/>
          </Node>
          <Node pos="r" depth="2" NCoef="0" IVar="-1" Cut="0.0000000000000000e+00" cType="1" res="1.7281981417909265e-03" rms="4.2118243873119354e-02" purity="9.5193916559219360e-01" nType="-99"/>
        </Node>
      </Node>
    </BinaryTree>
    <BinaryTree type="DecisionTree" boostWeight="1.0000000000000000e+00" itree="278">
      <Node pos="s" depth="0" NCoef="0" IVar="15" Cut="2.6270151138305664e+00" cType="1" res="1.5641459322068840e-04" rms="6.1795234680175781e-02" purity="4.9876311421394348e-01" nType="0">
        <Node pos="l" depth="1" NCoef="0" IVar="14" Cut="3.9497482776641846e+00" cType="1" res="-1.5142870834097266e-03" rms="4.4608619064092636e-02" purity="5.3785879164934158e-02" nType="0">
          <Node pos="l" depth="2" NCoef="0" IVar="9" Cut="6.4459328651428223e+00" cType="1" res="-2.2192936739884317e-04" rms="3.2283462584018707e-02" purity="9.3371691182255745e-03" nType="0">
            <Node pos="l" depth="3" NCoef="0" IVar="-1" Cut="0.0000000000000000e+00" cType="1" res="7.3674540035426617e-03" rms="3.2608937472105026e-02" purity="7.4466932564973831e-03" nType="-99"/>
            <Node pos="r" depth="3" NCoef="0" IVar="-1" Cut="0.0000000000000000e+00" cType="1" res="-5.1224265247583389e-02" rms="2.9946271330118179e-02" purity="2.1149178966879845e-02" nType="-99"/>
          </Node>
          <Node pos="r" depth="2" NCoef="0" IVar="13" Cut="2.1444401741027832e+00" cType="1" res="-6.7308326251804829e-03" rms="7.6035216450691223e-02" purity="2.3320116102695465e-01" nType="0">
            <Node pos="l" depth="3" NCoef="0" IVar="-1" Cut="0.0000000000000000e+00" cType="1" res="-1.6240969300270081e-02" rms="5.9881217777729034e-02" purity="5.5240813642740250e-02" nType="-99"/>
            <Node pos="r" depth="3" NCoef="0" IVar="-1" Cut="0.0000000000000000e+00" cType="1" res="-4.3356850743293762e-02" rms="9.4759732484817505e-02" purity="4.9681335687637329e-01" nType="-99"/>
          </Node>
        </Node>
        <Node pos="r" depth="1" NCoef="0" IVar="7" Cut="2.5418162345886230e+00" cType="1" res="1.0963071836158633e-03" rms="6.9605946540832520e-02" purity="7.4909549951553345e-01" nType="0">
          <Node pos="l" depth="2" NCoef="0" IVar="10" Cut="7.2470855712890625e+00" cType="1" res="8.9686289429664612e-03" rms="1.1954654008150101e-01" purity="3.9041036367416382e-01" nType="0">
            <Node pos="l" depth="3" NCoef="0" IVar="-1" Cut="0.0000000000000000e+00" cType="1" res="5.7962302118539810e-02" rms="1.5569417178630829e-01" purity="2.1749362349510193e-01" nType="-99"/>
            <Node pos="r" depth="3" NCoef="0" IVar="-1" Cut="0.0000000000000000e+00" cType="1" res="-1.5736646950244904e-02" rms="8.2071460783481598e-02" purity="5.1503252983093262e-01" nType="-99"/>
          </Node>
          <Node pos="r" depth="2" NCoef="0" IVar="7" Cut="3.6644189357757568e+00" cType="1" res="2.1097228454891592e-04" rms="6.1440028250217438e-02" purity="7.8943383693695068e-01" nType="0">
            <Node pos="l" depth="3" NCoef="0" IVar="-1" Cut="0.0000000000000000e+00" cType="1" res="-2.5483589619398117e-02" rms="6.9135770201683044e-02" purity="4.0269780158996582e-01" nType="-99"/>
            <Node pos="r" depth="3" NCoef="0" IVar="-1" Cut="0.0000000000000000e+00" cType="1" res="1.2742860242724419e-02" rms="5.9591136872768402e-02" purity="8.7322694063186646e-01" nType="-99"/>
          </Node>
        </Node>
      </Node>
    </BinaryTree>
    <BinaryTree type="DecisionTree" boostWeight="1.0000000000000000e+00" itree="279">
      <Node pos="s" depth="0" NCoef="0" IVar="1" Cut="4.1582975387573242e+00" cType="1" res="4.2546278564259410e-04" rms="6.0284782201051712e-02" purity="5.0507557392120361e-01" nType="0">
        <Node pos="l" depth="1" NCoef="0" IVar="16" Cut="4.8250451087951660e+00" cType="1" res="-4.2556505650281906e-04" rms="5.7603172957897186e-02" purity="5.8335649967193604e-01" nType="0">
          <Node pos="l" depth="2" NCoef="0" IVar="7" Cut="2.8039848804473877e+00" cType="1" res="-1.7153178341686726e-03" rms="5.8233510702848434e-02" purity="8.4817551076412201e-02" nType="0">
            <Node pos="l" depth="3" NCoef="0" IVar="-1" Cut="0.0000000000000000e+00" cType="1" res="9.1213770210742950e-03" rms="6.7834109067916870e-02" purity="1.0789274424314499e-01" nType="-99"/>
            <Node pos="r" depth="3" NCoef="0" IVar="-1" Cut="0.0000000000000000e+00" cType="1" res="-3.0702076852321625e-02" rms="5.2246909588575363e-02" purity="7.2396650910377502e-02" nType="-99"/>
          </Node>
          <Node pos="r" depth="2" NCoef="0" IVar="2" Cut="-9.8691549301147461e+00" cType="1" res="4.8194866394624114e-04" rms="5.7138029485940933e-02" purity="9.3414539098739624e-01" nType="0">
            <Node pos="l" depth="3" NCoef="0" IVar="-1" Cut="0.0000000000000000e+00" cType="1" res="-1.2693101540207863e-02" rms="4.7035455703735352e-02" purity="9.8258590698242188e-01" nType="-99"/>
            <Node pos="r" depth="3" NCoef="0" IVar="-1" Cut="0.0000000000000000e+00" cType="1" res="2.7469307184219360e-02" rms="1.3241367042064667e-01" purity="2.6437854766845703e-01" nType="-99"/>
          </Node>
        </Node>
        <Node pos="r" depth="1" NCoef="0" IVar="3" Cut="1.4128057956695557e+00" cType="1" res="3.3313848543912172e-03" rms="6.8576924502849579e-02" purity="2.3777714371681213e-01" nType="0">
          <Node pos="l" depth="2" NCoef="0" IVar="12" Cut="7.7634282112121582e+00" cType="1" res="7.4808672070503235e-03" rms="8.9153259992599487e-02" purity="4.5977765321731567e-01" nType="0">
            <Node pos="l" depth="3" NCoef="0" IVar="-1" Cut="0.0000000000000000e+00" cType="1" res="1.2694299221038818e-02" rms="7.1121253073215485e-02" purity="3.7235990166664124e-01" nType="-99"/>
            <Node pos="r" depth="3" NCoef="0" IVar="-1" Cut="0.0000000000000000e+00" cType="1" res="4.8319671303033829e-02" rms="1.1570658534765244e-01" purity="6.2914222478866577e-01" nType="-99"/>
          </Node>
          <Node pos="r" depth="2" NCoef="0" IVar="16" Cut="4.1058611869812012e+00" cType="1" res="-1.0015094885602593e-03" rms="3.5736218094825745e-02" purity="5.9639797545969486e-03" nType="0">
            <Node pos="l" depth="3" NCoef="0" IVar="-1" Cut="0.0000000000000000e+00" cType="1" res="4.5831087976694107e-02" rms="2.5363592430949211e-02" purity="2.0045167766511440e-03" nType="-99"/>
            <Node pos="r" depth="3" NCoef="0" IVar="-1" Cut="0.0000000000000000e+00" cType="1" res="-8.3218052983283997e-02" rms="5.5519919842481613e-02" purity="1.7460161820054054e-02" nType="-99"/>
          </Node>
        </Node>
      </Node>
    </BinaryTree>
    <BinaryTree type="DecisionTree" boostWeight="1.0000000000000000e+00" itree="280">
      <Node pos="s" depth="0" NCoef="0" IVar="6" Cut="7.9444084167480469e+00" cType="1" res="7.6761085074394941e-04" rms="6.5373204648494720e-02" purity="5.0731265544891357e-01" nType="0">
        <Node pos="l" depth="1" NCoef="0" IVar="11" Cut="6.8428626060485840e+00" cType="1" res="2.8480037581175566e-03" rms="7.4377693235874176e-02" purity="3.1637939810752869e-01" nType="0">
          <Node pos="l" depth="2" NCoef="0" IVar="12" Cut="7.7394514083862305e+00" cType="1" res="1.3687725877389312e-03" rms="6.4715608954429626e-02" purity="2.7714595198631287e-01" nType="0">
            <Node pos="l" depth="3" NCoef="0" IVar="-1" Cut="0.0000000000000000e+00" cType="1" res="3.5539777018129826e-03" rms="5.8981966227293015e-02" purity="2.7649179100990295e-01" nType="-99"/>
            <Node pos="r" depth="3" NCoef="0" IVar="-1" Cut="0.0000000000000000e+00" cType="1" res="5.7780288159847260e-02" rms="9.6545383334159851e-02" purity="2.8192910552024841e-01" nType="-99"/>
          </Node>
          <Node pos="r" depth="2" NCoef="0" IVar="7" Cut="3.3935883045196533e+00" cType="1" res="9.4972196966409683e-03" rms="1.0732672363519669e-01" purity="4.9273571372032166e-01" nType="0">
            <Node pos="l" depth="3" NCoef="0" IVar="-1" Cut="0.0000000000000000e+00" cType="1" res="8.4968484938144684e-02" rms="1.5456230938434601e-01" purity="1.8724289536476135e-01" nType="-99"/>
            <Node pos="r" depth="3" NCoef="0" IVar="-1" Cut="0.0000000000000000e+00" cType="1" res="-1.7396535724401474e-02" rms="5.8239631354808807e-02" purity="6.8582916259765625e-01" nType="-99"/>
          </Node>
        </Node>
        <Node pos="r" depth="1" NCoef="0" IVar="7" Cut="1.5506607294082642e+00" cType="1" res="-1.2068152427673340e-03" rms="5.5419865995645523e-02" purity="6.8852055072784424e-01" nType="0">
          <Node pos="l" depth="2" NCoef="0" IVar="-1" Cut="0.0000000000000000e+00" cType="1" res="-5.5129826068878174e-02" rms="8.0096535384654999e-02" purity="1.8195486068725586e-01" nType="-99"/>
          <Node pos="r" depth="2" NCoef="0" IVar="5" Cut="-4.2172946929931641e+00" cType="1" res="-7.4859836604446173e-04" rms="5.3669672459363937e-02" purity="7.1684175729751587e-01" nType="0">
            <Node pos="l" depth="3" NCoef="0" IVar="-1" Cut="0.0000000000000000e+00" cType="1" res="1.8483858555555344e-02" rms="4.4981513172388077e-02" purity="9.5083910226821899e-01" nType="-99"/>
            <Node pos="r" depth="3" NCoef="0" IVar="-1" Cut="0.0000000000000000e+00" cType="1" res="-2.3983871564269066e-02" rms="5.9988338500261307e-02" purity="5.1861590147018433e-01" nType="-99"/>
          </Node>
        </Node>
      </Node>
    </BinaryTree>
    <BinaryTree type="DecisionTree" boostWeight="1.0000000000000000e+00" itree="281">
      <Node pos="s" depth="0" NCoef="0" IVar="9" Cut="5.9183335304260254e+00" cType="1" res="7.1598053909838200e-04" rms="6.1408050358295441e-02" purity="4.9757325649261475e-01" nType="0">
        <Node pos="l" depth="1" NCoef="0" IVar="1" Cut="3.7882347106933594e+00" cType="1" res="2.3937043733894825e-03" rms="7.2139523923397064e-02" purity="3.2729503512382507e-01" nType="0">
          <Node pos="l" depth="2" NCoef="0" IVar="8" Cut="-8.7358522415161133e-01" cType="1" res="4.8638614825904369e-03" rms="8.4481649100780487e-02" purity="4.2731931805610657e-01" nType="0">
            <Node pos="l" depth="3" NCoef="0" IVar="-1" Cut="0.0000000000000000e+00" cType="1" res="1.3375863200053573e-03" rms="6.1097722500562668e-02" purity="5.1551324129104614e-01" nType="-99"/>
            <Node pos="r" depth="3" NCoef="0" IVar="-1" Cut="0.0000000000000000e+00" cType="1" res="4.0316656231880188e-02" rms="9.7104348242282867e-02" purity="3.6728698015213013e-01" nType="-99"/>
          </Node>
          <Node pos="r" depth="2" NCoef="0" IVar="6" Cut="8.3391942977905273e+00" cType="1" res="-1.0595069034025073e-04" rms="5.6882046163082123e-02" purity="2.2607626020908356e-01" nType="0">
            <Node pos="l" depth="3" NCoef="0" IVar="-1" Cut="0.0000000000000000e+00" cType="1" res="7.9470174387097359e-03" rms="4.9994632601737976e-02" purity="1.9303938746452332e-01" nType="-99"/>
            <Node pos="r" depth="3" NCoef="0" IVar="-1" Cut="0.0000000000000000e+00" cType="1" res="-4.1092067956924438e-02" rms="8.7029039859771729e-02" purity="4.2245793342590332e-01" nType="-99"/>
          </Node>
        </Node>
        <Node pos="r" depth="1" NCoef="0" IVar="15" Cut="3.0255088806152344e+00" cType="1" res="-4.3743345304392278e-04" rms="5.2748475223779678e-02" purity="6.1463737487792969e-01" nType="0">
          <Node pos="l" depth="2" NCoef="0" IVar="5" Cut="-3.3977632522583008e+00" cType="1" res="-3.0619383323937654e-03" rms="4.8732228577136993e-02" purity="1.1596232652664185e-01" nType="0">
            <Node pos="l" depth="3" NCoef="0" IVar="-1" Cut="0.0000000000000000e+00" cType="1" res="-3.1554657965898514e-02" rms="6.2957659363746643e-02" purity="2.0898012816905975e-01" nType="-99"/>
            <Node pos="r" depth="3" NCoef="0" IVar="-1" Cut="0.0000000000000000e+00" cType="1" res="-9.8303584381937981e-03" rms="2.7301019057631493e-02" purity="2.1273450925946236e-02" nType="-99"/>
          </Node>
          <Node pos="r" depth="2" NCoef="0" IVar="16" Cut="4.8874430656433105e+00" cType="1" res="1.1242568725720048e-03" rms="5.4939839988946915e-02" purity="9.1137003898620605e-01" nType="0">
            <Node pos="l" depth="3" NCoef="0" IVar="-1" Cut="0.0000000000000000e+00" cType="1" res="2.1496439352631569e-02" rms="1.1523675918579102e-01" purity="4.0509182214736938e-01" nType="-99"/>
            <Node pos="r" depth="3" NCoef="0" IVar="-1" Cut="0.0000000000000000e+00" cType="1" res="-3.6202082410454750e-03" rms="3.8853179663419724e-02" purity="9.8515409231185913e-01" nType="-99"/>
          </Node>
        </Node>
      </Node>
    </BinaryTree>
    <BinaryTree type="DecisionTree" boostWeight="1.0000000000000000e+00" itree="282">
      <Node pos="s" depth="0" NCoef="0" IVar="1" Cut="3.7152860164642334e+00" cType="1" res="3.8418945041485131e-04" rms="6.2692664563655853e-02" purity="4.9709403514862061e-01" nType="0">
        <Node pos="l" depth="1" NCoef="0" IVar="3" Cut="3.7225627899169922e-01" cType="1" res="-7.5443036621436477e-04" rms="6.0091059654951096e-02" purity="6.4256006479263306e-01" nType="0">
          <Node pos="l" depth="2" NCoef="0" IVar="-1" Cut="0.0000000000000000e+00" cType="1" res="1.0063919238746166e-02" rms="5.5422544479370117e-02" purity="9.2816150188446045e-01" nType="-99"/>
          <Node pos="r" depth="2" NCoef="0" IVar="11" Cut="7.0943679809570312e+00" cType="1" res="-2.3395630996674299e-03" rms="6.4089573919773102e-02" purity="3.7683251500129700e-01" nType="0">
            <Node pos="l" depth="3" NCoef="0" IVar="-1" Cut="0.0000000000000000e+00" cType="1" res="-2.7142694219946861e-02" rms="5.7946182787418365e-02" purity="2.4698716402053833e-01" nType="-99"/>
            <Node pos="r" depth="3" NCoef="0" IVar="-1" Cut="0.0000000000000000e+00" cType="1" res="6.8356799893081188e-03" rms="7.7256746590137482e-02" purity="7.0185732841491699e-01" nType="-99"/>
          </Node>
        </Node>
        <Node pos="r" depth="1" NCoef="0" IVar="7" Cut="3.9386093616485596e+00" cType="1" res="1.5955759445205331e-03" rms="6.5325133502483368e-02" purity="3.4233152866363525e-01" nType="0">
          <Node pos="l" depth="2" NCoef="0" IVar="16" Cut="4.1044917106628418e+00" cType="1" res="3.1742164865136147e-03" rms="6.8693734705448151e-02" purity="1.1517800390720367e-01" nType="0">
            <Node pos="l" depth="3" NCoef="0" IVar="-1" Cut="0.0000000000000000e+00" cType="1" res="9.9845333024859428e-03" rms="4.6832628548145294e-02" purity="1.6931068152189255e-02" nType="-99"/>
            <Node pos="r" depth="3" NCoef="0" IVar="-1" Cut="0.0000000000000000e+00" cType="1" res="2.9471345245838165e-02" rms="1.0848092287778854e-01" purity="3.9196985960006714e-01" nType="-99"/>
          </Node>
          <Node pos="r" depth="2" NCoef="0" IVar="2" Cut="-1.0708274841308594e+01" cType="1" res="-1.1760187335312366e-03" rms="5.8844726532697678e-02" purity="7.4114149808883667e-01" nType="0">
            <Node pos="l" depth="3" NCoef="0" IVar="-1" Cut="0.0000000000000000e+00" cType="1" res="-1.1280988110229373e-03" rms="6.2814436852931976e-02" purity="9.3616306781768799e-01" nType="-99"/>
            <Node pos="r" depth="3" NCoef="0" IVar="-1" Cut="0.0000000000000000e+00" cType="1" res="-5.7043109089136124e-02" rms="4.0511921048164368e-02" purity="1.3537678867578506e-02" nType="-99"/>
          </Node>
        </Node>
      </Node>
    </BinaryTree>
    <BinaryTree type="DecisionTree" boostWeight="1.0000000000000000e+00" itree="283">
      <Node pos="s" depth="0" NCoef="0" IVar="13" Cut="2.3242678642272949e+00" cType="1" res="-3.0880677513778210e-04" rms="5.6887704879045486e-02" purity="5.0574803352355957e-01" nType="0">
        <Node pos="l" depth="1" NCoef="0" IVar="9" Cut="6.4545145034790039e+00" cType="1" res="-1.4748418470844626e-03" rms="5.7860266417264938e-02" purity="1.2234683334827423e-01" nType="0">
          <Node pos="l" depth="2" NCoef="0" IVar="15" Cut="3.1315207481384277e+00" cType="1" res="-2.0945938304066658e-03" rms="5.4003532975912094e-02" purity="8.6291186511516571e-02" nType="0">
            <Node pos="l" depth="3" NCoef="0" IVar="-1" Cut="0.0000000000000000e+00" cType="1" res="-7.2513096965849400e-03" rms="3.6163143813610077e-02" purity="2.0892843604087830e-02" nType="-99"/>
            <Node pos="r" depth="3" NCoef="0" IVar="-1" Cut="0.0000000000000000e+00" cType="1" res="-2.6772320270538330e-02" rms="9.5015503466129303e-02" purity="3.3659324049949646e-01" nType="-99"/>
          </Node>
          <Node pos="r" depth="2" NCoef="0" IVar="9" Cut="6.6893672943115234e+00" cType="1" res="2.1430680062621832e-03" rms="7.6491959393024445e-02" purity="3.3282804489135742e-01" nType="0">
            <Node pos="l" depth="3" NCoef="0" IVar="-1" Cut="0.0000000000000000e+00" cType="1" res="2.5946119800209999e-02" rms="7.9692341387271881e-02" purity="2.1268096566200256e-01" nType="-99"/>
            <Node pos="r" depth="3" NCoef="0" IVar="-1" Cut="0.0000000000000000e+00" cType="1" res="-2.3418946191668510e-02" rms="7.1408681571483612e-02" purity="4.9273306131362915e-01" nType="-99"/>
          </Node>
        </Node>
        <Node pos="r" depth="1" NCoef="0" IVar="3" Cut="5.6869685649871826e-01" cType="1" res="8.6754810763522983e-04" rms="5.5864732712507248e-02" purity="8.9254248142242432e-01" nType="0">
          <Node pos="l" depth="2" NCoef="0" IVar="-1" Cut="0.0000000000000000e+00" cType="1" res="-9.3582551926374435e-03" rms="4.3795622885227203e-02" purity="9.6982222795486450e-01" nType="-99"/>
          <Node pos="r" depth="2" NCoef="0" IVar="9" Cut="5.8942737579345703e+00" cType="1" res="4.1239736601710320e-03" rms="7.8387603163719177e-02" purity="6.9731760025024414e-01" nType="0">
            <Node pos="l" depth="3" NCoef="0" IVar="-1" Cut="0.0000000000000000e+00" cType="1" res="3.0086774379014969e-02" rms="1.0654101520776749e-01" purity="6.1403781175613403e-01" nType="-99"/>
            <Node pos="r" depth="3" NCoef="0" IVar="-1" Cut="0.0000000000000000e+00" cType="1" res="6.1259637586772442e-03" rms="6.0154683887958527e-02" purity="7.3721826076507568e-01" nType="-99"/>
          </Node>
        </Node>
      </Node>
    </BinaryTree>
    <BinaryTree type="DecisionTree" boostWeight="1.0000000000000000e+00" itree="284">
      <Node pos="s" depth="0" NCoef="0" IVar="8" Cut="-4.8007631301879883e-01" cType="1" res="1.0165899293497205e-03" rms="6.5920338034629822e-02" purity="4.9831506609916687e-01" nType="0">
        <Node pos="l" depth="1" NCoef="0" IVar="9" Cut="5.7467780113220215e+00" cType="1" res="-2.3938724189065397e-04" rms="5.9344716370105743e-02" purity="5.8664131164550781e-01" nType="0">
          <Node pos="l" depth="2" NCoef="0" IVar="0" Cut="8.5143766403198242e+00" cType="1" res="-3.4449920058250427e-03" rms="6.0203880071640015e-02" purity="3.7467771768569946e-01" nType="0">
            <Node pos="l" depth="3" NCoef="0" IVar="-1" Cut="0.0000000000000000e+00" cType="1" res="-7.1081370115280151e-03" rms="4.4474553316831589e-02" purity="1.7811723053455353e-01" nType="-99"/>
            <Node pos="r" depth="3" NCoef="0" IVar="-1" Cut="0.0000000000000000e+00" cType="1" res="-5.7832259684801102e-02" rms="7.7080219984054565e-02" purity="6.5429133176803589e-01" nType="-99"/>
          </Node>
          <Node pos="r" depth="2" NCoef="0" IVar="1" Cut="4.2496657371520996e+00" cType="1" res="9.9370686803013086e-04" rms="5.8964498341083527e-02" purity="6.6817700862884521e-01" nType="0">
            <Node pos="l" depth="3" NCoef="0" IVar="-1" Cut="0.0000000000000000e+00" cType="1" res="7.2113750502467155e-04" rms="5.4383479058742523e-02" purity="7.2300249338150024e-01" nType="-99"/>
            <Node pos="r" depth="3" NCoef="0" IVar="-1" Cut="0.0000000000000000e+00" cType="1" res="3.4789439290761948e-02" rms="8.1213384866714478e-02" purity="3.3510255813598633e-01" nType="-99"/>
          </Node>
        </Node>
        <Node pos="r" depth="1" NCoef="0" IVar="8" Cut="-3.4717640280723572e-01" cType="1" res="2.0611020736396313e-03" rms="7.0909105241298676e-02" purity="4.2486009001731873e-01" nType="0">
          <Node pos="l" depth="2" NCoef="0" IVar="-1" Cut="0.0000000000000000e+00" cType="1" res="8.8151425123214722e-02" rms="1.2306676059961319e-01" purity="5.5945163965225220e-01" nType="-99"/>
          <Node pos="r" depth="2" NCoef="0" IVar="16" Cut="4.2929563522338867e+00" cType="1" res="1.3886275701224804e-03" rms="6.6821455955505371e-02" purity="4.1748639941215515e-01" nType="0">
            <Node pos="l" depth="3" NCoef="0" IVar="-1" Cut="0.0000000000000000e+00" cType="1" res="-1.7812453210353851e-02" rms="4.6759556978940964e-02" purity="2.7958357706665993e-02" nType="-99"/>
            <Node pos="r" depth="3" NCoef="0" IVar="-1" Cut="0.0000000000000000e+00" cType="1" res="2.0593812689185143e-02" rms="8.0617859959602356e-02" purity="7.6728266477584839e-01" nType="-99"/>
          </Node>
        </Node>
      </Node>
    </BinaryTree>
    <BinaryTree type="DecisionTree" boostWeight="1.0000000000000000e+00" itree="285">
      <Node pos="s" depth="0" NCoef="0" IVar="14" Cut="3.5217468738555908e+00" cType="1" res="7.3621107731014490e-04" rms="6.4711466431617737e-02" purity="5.0362133979797363e-01" nType="0">
        <Node pos="l" depth="1" NCoef="0" IVar="3" Cut="5.2301967144012451e-01" cType="1" res="2.7906857430934906e-03" rms="6.4479127526283264e-02" purity="4.9323264509439468e-02" nType="0">
          <Node pos="l" depth="2" NCoef="0" IVar="15" Cut="2.5612943172454834e+00" cType="1" res="1.2757910415530205e-02" rms="1.2116158753633499e-01" purity="2.6157772541046143e-01" nType="0">
            <Node pos="l" depth="3" NCoef="0" IVar="-1" Cut="0.0000000000000000e+00" cType="1" res="1.5819011256098747e-02" rms="8.3155117928981781e-02" purity="5.1594316959381104e-02" nType="-99"/>
            <Node pos="r" depth="3" NCoef="0" IVar="-1" Cut="0.0000000000000000e+00" cType="1" res="3.1989868730306625e-02" rms="1.4871606230735779e-01" purity="4.6709358692169189e-01" nType="-99"/>
          </Node>
          <Node pos="r" depth="2" NCoef="0" IVar="9" Cut="6.4025764465332031e+00" cType="1" res="1.0500445496290922e-03" rms="4.7953657805919647e-02" purity="1.2255882844328880e-02" nType="0">
            <Node pos="l" depth="3" NCoef="0" IVar="-1" Cut="0.0000000000000000e+00" cType="1" res="-1.4866185374557972e-03" rms="3.8384117186069489e-02" purity="6.3981367275118828e-03" nType="-99"/>
            <Node pos="r" depth="3" NCoef="0" IVar="-1" Cut="0.0000000000000000e+00" cType="1" res="5.0351083278656006e-02" rms="8.8313281536102295e-02" purity="5.1701575517654419e-02" nType="-99"/>
          </Node>
        </Node>
        <Node pos="r" depth="1" NCoef="0" IVar="9" Cut="5.6326785087585449e+00" cType="1" res="-3.6280788481235504e-04" rms="6.4808674156665802e-02" purity="7.4664318561553955e-01" nType="0">
          <Node pos="l" depth="2" NCoef="0" IVar="14" Cut="4.3743700981140137e+00" cType="1" res="-3.5441429354250431e-03" rms="7.8092969954013824e-02" purity="5.6333136558532715e-01" nType="0">
            <Node pos="l" depth="3" NCoef="0" IVar="-1" Cut="0.0000000000000000e+00" cType="1" res="-7.1803003549575806e-02" rms="7.0167914032936096e-02" purity="9.7182594239711761e-02" nType="-99"/>
            <Node pos="r" depth="3" NCoef="0" IVar="-1" Cut="0.0000000000000000e+00" cType="1" res="-4.8125521279871464e-03" rms="8.2157991826534271e-02" purity="8.2919698953628540e-01" nType="-99"/>
          </Node>
          <Node pos="r" depth="2" NCoef="0" IVar="11" Cut="6.3787231445312500e+00" cType="1" res="3.3408321905881166e-04" rms="6.1494857072830200e-02" purity="7.8679877519607544e-01" nType="0">
            <Node pos="l" depth="3" NCoef="0" IVar="-1" Cut="0.0000000000000000e+00" cType="1" res="-1.7555443570017815e-02" rms="6.8316906690597534e-02" purity="5.5584120750427246e-01" nType="-99"/>
            <Node pos="r" depth="3" NCoef="0" IVar="-1" Cut="0.0000000000000000e+00" cType="1" res="1.1392330750823021e-02" rms="5.9260211884975433e-02" purity="8.5614114999771118e-01" nType="-99"/>
          </Node>
        </Node>
      </Node>
    </BinaryTree>
    <BinaryTree type="DecisionTree" boostWeight="1.0000000000000000e+00" itree="286">
      <Node pos="s" depth="0" NCoef="0" IVar="9" Cut="5.6994748115539551e+00" cType="1" res="8.3094048022758216e-05" rms="6.1223555356264114e-02" purity="4.9191278219223022e-01" nType="0">
        <Node pos="l" depth="1" NCoef="0" IVar="7" Cut="4.0087857246398926e+00" cType="1" res="2.8277200181037188e-03" rms="7.5105026364326477e-02" purity="3.0676496028900146e-01" nType="0">
          <Node pos="l" depth="2" NCoef="0" IVar="15" Cut="3.1315450668334961e+00" cType="1" res="-2.3722150945104659e-04" rms="6.5123766660690308e-02" purity="7.8538842499256134e-02" nType="0">
            <Node pos="l" depth="3" NCoef="0" IVar="-1" Cut="0.0000000000000000e+00" cType="1" res="1.6591196879744530e-02" rms="5.1698438823223114e-02" purity="2.2765960544347763e-02" nType="-99"/>
            <Node pos="r" depth="3" NCoef="0" IVar="-1" Cut="0.0000000000000000e+00" cType="1" res="-1.8573047593235970e-02" rms="1.0220813751220703e-01" purity="3.0073016881942749e-01" nType="-99"/>
          </Node>
          <Node pos="r" depth="2" NCoef="0" IVar="8" Cut="2.1207496523857117e-01" cType="1" res="8.0851754173636436e-03" rms="8.9431107044219971e-02" purity="6.9825321435928345e-01" nType="0">
            <Node pos="l" depth="3" NCoef="0" IVar="-1" Cut="0.0000000000000000e+00" cType="1" res="1.7049467191100121e-02" rms="8.0664761364459991e-02" purity="7.3456138372421265e-01" nType="-99"/>
            <Node pos="r" depth="3" NCoef="0" IVar="-1" Cut="0.0000000000000000e+00" cType="1" res="5.6901700794696808e-02" rms="1.0156523436307907e-01" purity="6.3968449831008911e-01" nType="-99"/>
          </Node>
        </Node>
        <Node pos="r" depth="1" NCoef="0" IVar="16" Cut="5.1782259941101074e+00" cType="1" res="-9.8353088833391666e-04" rms="5.4852642118930817e-02" purity="5.6386554241180420e-01" nType="0">
          <Node pos="l" depth="2" NCoef="0" IVar="3" Cut="1.3051827438175678e-02" cType="1" res="-2.2740038111805916e-03" rms="5.9750009328126907e-02" purity="1.1689303070306778e-01" nType="0">
            <Node pos="l" depth="3" NCoef="0" IVar="-1" Cut="0.0000000000000000e+00" cType="1" res="-2.6221649721264839e-02" rms="9.8854474723339081e-02" purity="4.2831182479858398e-01" nType="-99"/>
            <Node pos="r" depth="3" NCoef="0" IVar="-1" Cut="0.0000000000000000e+00" cType="1" res="-1.1559817008674145e-02" rms="5.2369154989719391e-02" purity="7.5709559023380280e-02" nType="-99"/>
          </Node>
          <Node pos="r" depth="2" NCoef="0" IVar="-1" Cut="0.0000000000000000e+00" cType="1" res="2.5524043012410402e-03" rms="4.9986906349658966e-02" purity="9.6783697605133057e-01" nType="-99"/>
        </Node>
      </Node>
    </BinaryTree>
    <BinaryTree type="DecisionTree" boostWeight="1.0000000000000000e+00" itree="287">
      <Node pos="s" depth="0" NCoef="0" IVar="6" Cut="8.0906267166137695e+00" cType="1" res="2.1547022333834320e-04" rms="6.2521375715732574e-02" purity="5.0112956762313843e-01" nType="0">
        <Node pos="l" depth="1" NCoef="0" IVar="8" Cut="3.0684840679168701e-01" cType="1" res="1.0830184910446405e-03" rms="6.5307386219501495e-02" purity="3.3701127767562866e-01" nType="0">
          <Node pos="l" depth="2" NCoef="0" IVar="0" Cut="8.3009738922119141e+00" cType="1" res="2.6428713463246822e-03" rms="6.9801382720470428e-02" purity="4.1483804583549500e-01" nType="0">
            <Node pos="l" depth="3" NCoef="0" IVar="-1" Cut="0.0000000000000000e+00" cType="1" res="-3.9106267504394054e-03" rms="5.6777395308017731e-02" purity="1.5533144772052765e-01" nType="-99"/>
            <Node pos="r" depth="3" NCoef="0" IVar="-1" Cut="0.0000000000000000e+00" cType="1" res="3.2885685563087463e-02" rms="8.0959051847457886e-02" purity="6.8288367986679077e-01" nType="-99"/>
          </Node>
          <Node pos="r" depth="2" NCoef="0" IVar="9" Cut="5.5855789184570312e+00" cType="1" res="-1.1244673514738679e-03" rms="5.8287795633077621e-02" purity="2.2687168419361115e-01" nType="0">
            <Node pos="l" depth="3" NCoef="0" IVar="-1" Cut="0.0000000000000000e+00" cType="1" res="3.9774525910615921e-02" rms="6.7178294062614441e-02" purity="1.6642692685127258e-01" nType="-99"/>
            <Node pos="r" depth="3" NCoef="0" IVar="-1" Cut="0.0000000000000000e+00" cType="1" res="-2.4078944697976112e-02" rms="5.5132936686277390e-02" purity="2.4586363136768341e-01" nType="-99"/>
          </Node>
        </Node>
        <Node pos="r" depth="1" NCoef="0" IVar="15" Cut="3.8232073783874512e+00" cType="1" res="-9.6133869374170899e-04" rms="5.8510098606348038e-02" purity="7.2375214099884033e-01" nType="0">
          <Node pos="l" depth="2" NCoef="0" IVar="6" Cut="8.2054405212402344e+00" cType="1" res="-3.3240497577935457e-03" rms="6.6419228911399841e-02" purity="2.7898904681205750e-01" nType="0">
            <Node pos="l" depth="3" NCoef="0" IVar="-1" Cut="0.0000000000000000e+00" cType="1" res="-6.3390418887138367e-02" rms="5.8313973248004913e-02" purity="9.8493836820125580e-02" nType="-99"/>
            <Node pos="r" depth="3" NCoef="0" IVar="-1" Cut="0.0000000000000000e+00" cType="1" res="-1.0748467408120632e-02" rms="6.9072619080543518e-02" purity="3.4473654627799988e-01" nType="-99"/>
          </Node>
          <Node pos="r" depth="2" NCoef="0" IVar="-1" Cut="0.0000000000000000e+00" cType="1" res="3.3428173046559095e-03" rms="5.3883124142885208e-02" purity="9.5584124326705933e-01" nType="-99"/>
        </Node>
      </Node>
    </BinaryTree>
    <BinaryTree type="DecisionTree" boostWeight="1.0000000000000000e+00" itree="288">
      <Node pos="s" depth="0" NCoef="0" IVar="16" Cut="5.1782259941101074e+00" cType="1" res="5.7594119425630197e-05" rms="6.2672235071659088e-02" purity="5.0282329320907593e-01" nType="0">
        <Node pos="l" depth="1" NCoef="0" IVar="10" Cut="7.1183829307556152e+00" cType="1" res="1.1389992432668805e-03" rms="6.7670054733753204e-02" purity="1.0319330543279648e-01" nType="0">
          <Node pos="l" depth="2" NCoef="0" IVar="13" Cut="2.0646722316741943e+00" cType="1" res="-2.3146737366914749e-03" rms="4.2466085404157639e-02" purity="4.4357880949974060e-02" nType="0">
            <Node pos="l" depth="3" NCoef="0" IVar="-1" Cut="0.0000000000000000e+00" cType="1" res="-1.2369536794722080e-02" rms="3.3817574381828308e-02" purity="1.0830028913915157e-02" nType="-99"/>
            <Node pos="r" depth="3" NCoef="0" IVar="-1" Cut="0.0000000000000000e+00" cType="1" res="-4.4791664928197861e-02" rms="6.6220909357070923e-02" purity="1.7778900265693665e-01" nType="-99"/>
          </Node>
          <Node pos="r" depth="2" NCoef="0" IVar="5" Cut="-4.1290931701660156e+00" cType="1" res="2.5551244616508484e-03" rms="7.5568124651908875e-02" purity="1.2731787562370300e-01" nType="0">
            <Node pos="l" depth="3" NCoef="0" IVar="-1" Cut="0.0000000000000000e+00" cType="1" res="2.8212737292051315e-02" rms="1.1642272770404816e-01" purity="4.3077424168586731e-01" nType="-99"/>
            <Node pos="r" depth="3" NCoef="0" IVar="-1" Cut="0.0000000000000000e+00" cType="1" res="5.8384505100548267e-03" rms="6.2691733241081238e-02" purity="5.9207238256931305e-02" nType="-99"/>
          </Node>
        </Node>
        <Node pos="r" depth="1" NCoef="0" IVar="7" Cut="3.5094878673553467e+00" cType="1" res="-1.1394944740459323e-03" rms="5.6603595614433289e-02" purity="9.4520372152328491e-01" nType="0">
          <Node pos="l" depth="2" NCoef="0" IVar="-1" Cut="0.0000000000000000e+00" cType="1" res="-3.5537548363208771e-02" rms="8.7249003350734711e-02" purity="7.2020584344863892e-01" nType="-99"/>
          <Node pos="r" depth="2" NCoef="0" IVar="-1" Cut="0.0000000000000000e+00" cType="1" res="-4.8450496979057789e-03" rms="5.1596671342849731e-02" purity="9.7253590822219849e-01" nType="-99"/>
        </Node>
      </Node>
    </BinaryTree>
    <BinaryTree type="DecisionTree" boostWeight="1.0000000000000000e+00" itree="289">
      <Node pos="s" depth="0" NCoef="0" IVar="7" Cut="1.6949150562286377e+00" cType="1" res="-2.4204648798331618e-04" rms="5.7207006961107254e-02" purity="4.9869558215141296e-01" nType="0">
        <Node pos="l" depth="1" NCoef="0" IVar="16" Cut="3.5676243305206299e+00" cType="1" res="4.6747676096856594e-03" rms="7.8156761825084686e-02" purity="1.6088972985744476e-01" nType="0">
          <Node pos="l" depth="2" NCoef="0" IVar="-1" Cut="0.0000000000000000e+00" cType="1" res="-3.7663523107767105e-02" rms="3.9623748511075974e-02" purity="1.2750709429383278e-02" nType="-99"/>
          <Node pos="r" depth="2" NCoef="0" IVar="-1" Cut="0.0000000000000000e+00" cType="1" res="2.9872527346014977e-02" rms="9.9133692681789398e-02" purity="2.8510305285453796e-01" nType="-99"/>
        </Node>
        <Node pos="r" depth="1" NCoef="0" IVar="12" Cut="7.5087699890136719e+00" cType="1" res="-7.0408493047580123e-04" rms="5.4805744439363480e-02" purity="5.3043949604034424e-01" nType="0">
          <Node pos="l" depth="2" NCoef="0" IVar="7" Cut="3.7459096908569336e+00" cType="1" res="-2.1889808122068644e-03" rms="5.0892107188701630e-02" purity="3.2788160443305969e-01" nType="0">
            <Node pos="l" depth="3" NCoef="0" IVar="-1" Cut="0.0000000000000000e+00" cType="1" res="-4.2840152978897095e-02" rms="4.9744896590709686e-02" purity="7.6555579900741577e-02" nType="-99"/>
            <Node pos="r" depth="3" NCoef="0" IVar="-1" Cut="0.0000000000000000e+00" cType="1" res="-3.5316064895596355e-05" rms="5.2346043288707733e-02" purity="6.7261046171188354e-01" nType="-99"/>
          </Node>
          <Node pos="r" depth="2" NCoef="0" IVar="0" Cut="7.9451618194580078e+00" cType="1" res="-5.4146606998983771e-05" rms="5.6421115994453430e-02" purity="6.1909908056259155e-01" nType="0">
            <Node pos="l" depth="3" NCoef="0" IVar="-1" Cut="0.0000000000000000e+00" cType="1" res="3.0715905129909515e-02" rms="6.3295081257820129e-02" purity="1.0014939308166504e-01" nType="-99"/>
            <Node pos="r" depth="3" NCoef="0" IVar="-1" Cut="0.0000000000000000e+00" cType="1" res="-5.1665939390659332e-03" rms="5.5589526891708374e-02" purity="6.7635565996170044e-01" nType="-99"/>
          </Node>
        </Node>
      </Node>
    </BinaryTree>
    <BinaryTree type="DecisionTree" boostWeight="1.0000000000000000e+00" itree="290">
      <Node pos="s" depth="0" NCoef="0" IVar="7" Cut="1.7796300649642944e+00" cType="1" res="1.6077073523774743e-03" rms="6.2141094356775284e-02" purity="5.0167405605316162e-01" nType="0">
        <Node pos="l" depth="1" NCoef="0" IVar="14" Cut="3.9482455253601074e+00" cType="1" res="5.6096403859555721e-03" rms="8.0884754657745361e-02" purity="1.4529517292976379e-01" nType="0">
          <Node pos="l" depth="2" NCoef="0" IVar="2" Cut="-8.6105651855468750e+00" cType="1" res="5.9974412579322234e-05" rms="4.8665620386600494e-02" purity="2.6446480304002762e-02" nType="0">
            <Node pos="l" depth="3" NCoef="0" IVar="-1" Cut="0.0000000000000000e+00" cType="1" res="-2.3515233770012856e-02" rms="5.6620307266712189e-02" purity="2.7483329176902771e-02" nType="-99"/>
            <Node pos="r" depth="3" NCoef="0" IVar="-1" Cut="0.0000000000000000e+00" cType="1" res="3.6975566297769547e-02" rms="3.4639168530702591e-02" purity="2.5030039250850677e-02" nType="-99"/>
          </Node>
          <Node pos="r" depth="2" NCoef="0" IVar="-1" Cut="0.0000000000000000e+00" cType="1" res="3.4609261900186539e-02" rms="1.2742929160594940e-01" purity="4.2843806743621826e-01" nType="-99"/>
        </Node>
        <Node pos="r" depth="1" NCoef="0" IVar="10" Cut="7.5800619125366211e+00" cType="1" res="1.2165912194177508e-03" rms="5.9981625527143478e-02" purity="5.3650361299514771e-01" nType="0">
          <Node pos="l" depth="2" NCoef="0" IVar="13" Cut="1.7715342044830322e+00" cType="1" res="2.5011119432747364e-03" rms="6.3333511352539062e-02" purity="3.5582616925239563e-01" nType="0">
            <Node pos="l" depth="3" NCoef="0" IVar="-1" Cut="0.0000000000000000e+00" cType="1" res="-1.5393999638035893e-03" rms="4.3973024934530258e-02" purity="3.4351009875535965e-02" nType="-99"/>
            <Node pos="r" depth="3" NCoef="0" IVar="-1" Cut="0.0000000000000000e+00" cType="1" res="2.4645727127790451e-02" rms="7.3235630989074707e-02" purity="5.6624442338943481e-01" nType="-99"/>
          </Node>
          <Node pos="r" depth="2" NCoef="0" IVar="5" Cut="-3.3077311515808105e+00" cType="1" res="-1.1539453407749534e-04" rms="5.6264545768499374e-02" purity="7.2385740280151367e-01" nType="0">
            <Node pos="l" depth="3" NCoef="0" IVar="-1" Cut="0.0000000000000000e+00" cType="1" res="-9.3135051429271698e-03" rms="5.1333032548427582e-02" purity="8.3102542161941528e-01" nType="-99"/>
            <Node pos="r" depth="3" NCoef="0" IVar="-1" Cut="0.0000000000000000e+00" cType="1" res="2.1670477464795113e-02" rms="7.6898671686649323e-02" purity="1.6574649512767792e-01" nType="-99"/>
          </Node>
        </Node>
      </Node>
    </BinaryTree>
    <BinaryTree type="DecisionTree" boostWeight="1.0000000000000000e+00" itree="291">
      <Node pos="s" depth="0" NCoef="0" IVar="7" Cut="1.6903573274612427e+00" cType="1" res="9.7241631010547280e-05" rms="6.2269691377878189e-02" purity="4.9375253915786743e-01" nType="0">
        <Node pos="l" depth="1" NCoef="0" IVar="5" Cut="-3.5344007015228271e+00" cType="1" res="-3.9771003648638725e-03" rms="5.9742063283920288e-02" purity="1.5807436406612396e-01" nType="0">
          <Node pos="l" depth="2" NCoef="0" IVar="-1" Cut="0.0000000000000000e+00" cType="1" res="-3.4611210227012634e-02" rms="8.0906182527542114e-02" purity="2.7368745207786560e-01" nType="-99"/>
          <Node pos="r" depth="2" NCoef="0" IVar="-1" Cut="0.0000000000000000e+00" cType="1" res="-2.8552073054015636e-03" rms="2.8571935370564461e-02" purity="5.2314493805170059e-02" nType="-99"/>
        </Node>
        <Node pos="r" depth="1" NCoef="0" IVar="14" Cut="4.5822038650512695e+00" cType="1" res="4.8002690891735256e-04" rms="6.2488261610269547e-02" purity="5.2528953552246094e-01" nType="0">
          <Node pos="l" depth="2" NCoef="0" IVar="10" Cut="7.2151045799255371e+00" cType="1" res="1.9181345123797655e-03" rms="6.9125808775424957e-02" purity="1.2539345026016235e-01" nType="0">
            <Node pos="l" depth="3" NCoef="0" IVar="-1" Cut="0.0000000000000000e+00" cType="1" res="-1.5342886559665203e-02" rms="4.8063047230243683e-02" purity="5.4094642400741577e-02" nType="-99"/>
            <Node pos="r" depth="3" NCoef="0" IVar="-1" Cut="0.0000000000000000e+00" cType="1" res="2.2605719044804573e-02" rms="7.8421436250209808e-02" purity="1.6534826159477234e-01" nType="-99"/>
          </Node>
          <Node pos="r" depth="2" NCoef="0" IVar="4" Cut="1.7573857307434082e+00" cType="1" res="-1.0721422731876373e-03" rms="5.4380677640438080e-02" purity="9.5690286159515381e-01" nType="0">
            <Node pos="l" depth="3" NCoef="0" IVar="-1" Cut="0.0000000000000000e+00" cType="1" res="-1.2856660177931190e-03" rms="4.1109748184680939e-02" purity="9.8671936988830566e-01" nType="-99"/>
            <Node pos="r" depth="3" NCoef="0" IVar="-1" Cut="0.0000000000000000e+00" cType="1" res="-3.2382689416408539e-02" rms="1.1266833543777466e-01" purity="7.2619020938873291e-01" nType="-99"/>
          </Node>
        </Node>
      </Node>
    </BinaryTree>
    <BinaryTree type="DecisionTree" boostWeight="1.0000000000000000e+00" itree="292">
      <Node pos="s" depth="0" NCoef="0" IVar="3" Cut="1.4357004165649414e+00" cType="1" res="1.4065961586311460e-03" rms="6.7489258944988251e-02" purity="5.0311321020126343e-01" nType="0">
        <Node pos="l" depth="1" NCoef="0" IVar="2" Cut="-9.1287622451782227e+00" cType="1" res="2.1630495029967278e-04" rms="6.4603023231029510e-02" purity="7.1631842851638794e-01" nType="0">
          <Node pos="l" depth="2" NCoef="0" IVar="4" Cut="2.1976823806762695e+00" cType="1" res="-5.3001852938905358e-04" rms="6.3373617827892303e-02" purity="8.9896982908248901e-01" nType="0">
            <Node pos="l" depth="3" NCoef="0" IVar="-1" Cut="0.0000000000000000e+00" cType="1" res="-5.0729780923575163e-04" rms="5.8636337518692017e-02" purity="9.1961610317230225e-01" nType="-99"/>
            <Node pos="r" depth="3" NCoef="0" IVar="-1" Cut="0.0000000000000000e+00" cType="1" res="-2.9972061514854431e-02" rms="1.2299972772598267e-01" purity="4.9885711073875427e-01" nType="-99"/>
          </Node>
          <Node pos="r" depth="2" NCoef="0" IVar="14" Cut="3.8129782676696777e+00" cType="1" res="3.0120818410068750e-03" rms="6.8942271173000336e-02" purity="3.2094217836856842e-02" nType="0">
            <Node pos="l" depth="3" NCoef="0" IVar="-1" Cut="0.0000000000000000e+00" cType="1" res="-1.5468018827959895e-03" rms="5.2043773233890533e-02" purity="1.0167493484914303e-02" nType="-99"/>
            <Node pos="r" depth="3" NCoef="0" IVar="-1" Cut="0.0000000000000000e+00" cType="1" res="3.3424511551856995e-02" rms="1.1059828847646713e-01" purity="1.1415352672338486e-01" nType="-99"/>
          </Node>
        </Node>
        <Node pos="r" depth="1" NCoef="0" IVar="16" Cut="4.6297068595886230e+00" cType="1" res="3.9660623297095299e-03" rms="7.3246151208877563e-02" purity="4.4661112129688263e-02" nType="0">
          <Node pos="l" depth="2" NCoef="0" IVar="5" Cut="-3.9664835929870605e+00" cType="1" res="1.7212498933076859e-03" rms="4.5642457902431488e-02" purity="7.4742091819643974e-03" nType="0">
            <Node pos="l" depth="3" NCoef="0" IVar="-1" Cut="0.0000000000000000e+00" cType="1" res="6.2789902091026306e-02" rms="1.1041976511478424e-01" purity="4.7499578446149826e-02" nType="-99"/>
            <Node pos="r" depth="3" NCoef="0" IVar="-1" Cut="0.0000000000000000e+00" cType="1" res="-6.1373021453619003e-02" rms="1.2407512404024601e-02" purity="0.0000000000000000e+00" nType="-99"/>
          </Node>
          <Node pos="r" depth="2" NCoef="0" IVar="9" Cut="5.7938961982727051e+00" cType="1" res="1.5225636772811413e-02" rms="1.4721985161304474e-01" purity="2.3118394613265991e-01" nType="0">
            <Node pos="l" depth="3" NCoef="0" IVar="-1" Cut="0.0000000000000000e+00" cType="1" res="7.9173095524311066e-02" rms="1.7764668166637421e-01" purity="1.2024742364883423e-01" nType="-99"/>
            <Node pos="r" depth="3" NCoef="0" IVar="-1" Cut="0.0000000000000000e+00" cType="1" res="4.9763331189751625e-03" rms="1.0325358808040619e-01" purity="3.5117912292480469e-01" nType="-99"/>
          </Node>
        </Node>
      </Node>
    </BinaryTree>
    <BinaryTree type="DecisionTree" boostWeight="1.0000000000000000e+00" itree="293">
      <Node pos="s" depth="0" NCoef="0" IVar="8" Cut="3.0667775869369507e-01" cType="1" res="2.3393722949549556e-04" rms="5.9710729867219925e-02" purity="5.0260454416275024e-01" nType="0">
        <Node pos="l" depth="1" NCoef="0" IVar="15" Cut="3.0405848026275635e+00" cType="1" res="9.6339045558124781e-04" rms="6.0615058988332748e-02" purity="5.7976102828979492e-01" nType="0">
          <Node pos="l" depth="2" NCoef="0" IVar="2" Cut="-9.7603206634521484e+00" cType="1" res="3.2980348914861679e-03" rms="6.7985147237777710e-02" purity="1.2371069937944412e-01" nType="0">
            <Node pos="l" depth="3" NCoef="0" IVar="-1" Cut="0.0000000000000000e+00" cType="1" res="2.7356777340173721e-02" rms="1.0267280042171478e-01" purity="4.0223667025566101e-01" nType="-99"/>
            <Node pos="r" depth="3" NCoef="0" IVar="-1" Cut="0.0000000000000000e+00" cType="1" res="3.7993537262082100e-03" rms="4.7108560800552368e-02" purity="1.2174390256404877e-02" nType="-99"/>
          </Node>
          <Node pos="r" depth="2" NCoef="0" IVar="10" Cut="6.7987399101257324e+00" cType="1" res="-5.5278430227190256e-04" rms="5.5252380669116974e-02" purity="8.7593120336532593e-01" nType="0">
            <Node pos="l" depth="3" NCoef="0" IVar="-1" Cut="0.0000000000000000e+00" cType="1" res="2.3936729878187180e-02" rms="7.5138166546821594e-02" purity="5.3325289487838745e-01" nType="-99"/>
            <Node pos="r" depth="3" NCoef="0" IVar="-1" Cut="0.0000000000000000e+00" cType="1" res="-1.4246879145503044e-02" rms="5.3171500563621521e-02" purity="9.0499430894851685e-01" nType="-99"/>
          </Node>
        </Node>
        <Node pos="r" depth="1" NCoef="0" IVar="3" Cut="1.6483949422836304e+00" cType="1" res="-9.8642241209745407e-04" rms="5.8145917952060699e-02" purity="3.7352350354194641e-01" nType="0">
          <Node pos="l" depth="2" NCoef="0" IVar="7" Cut="3.4590077400207520e+00" cType="1" res="-2.3560437839478254e-03" rms="5.9388875961303711e-02" purity="5.5089348554611206e-01" nType="0">
            <Node pos="l" depth="3" NCoef="0" IVar="-1" Cut="0.0000000000000000e+00" cType="1" res="-4.5975226908922195e-02" rms="5.8075912296772003e-02" purity="1.7829546332359314e-01" nType="-99"/>
            <Node pos="r" depth="3" NCoef="0" IVar="-1" Cut="0.0000000000000000e+00" cType="1" res="-2.3856766056269407e-03" rms="6.0001138597726822e-02" purity="7.5732493400573730e-01" nType="-99"/>
          </Node>
          <Node pos="r" depth="2" NCoef="0" IVar="15" Cut="2.9286441802978516e+00" cType="1" res="1.7352992435917258e-03" rms="5.5493239313364029e-02" purity="2.1052684634923935e-02" nType="0">
            <Node pos="l" depth="3" NCoef="0" IVar="-1" Cut="0.0000000000000000e+00" cType="1" res="-1.8966501578688622e-02" rms="2.5445755571126938e-02" purity="1.6554498579353094e-03" nType="-99"/>
            <Node pos="r" depth="3" NCoef="0" IVar="-1" Cut="0.0000000000000000e+00" cType="1" res="3.2851714640855789e-02" rms="1.1139551550149918e-01" purity="9.6195362508296967e-02" nType="-99"/>
          </Node>
        </Node>
      </Node>
    </BinaryTree>
    <BinaryTree type="DecisionTree" boostWeight="1.0000000000000000e+00" itree="294">
      <Node pos="s" depth="0" NCoef="0" IVar="6" Cut="7.0774474143981934e+00" cType="1" res="1.3916012831032276e-03" rms="6.5208584070205688e-02" purity="5.0205981731414795e-01" nType="0">
        <Node pos="l" depth="1" NCoef="0" IVar="16" Cut="3.9944624900817871e+00" cType="1" res="-3.4464534837752581e-03" rms="4.1550684720277786e-02" purity="1.6389985382556915e-01" nType="0">
          <Node pos="l" depth="2" NCoef="0" IVar="2" Cut="-8.4997425079345703e+00" cType="1" res="-1.2916043633595109e-03" rms="1.4433506876230240e-02" purity="0.0000000000000000e+00" nType="0">
            <Node pos="l" depth="3" NCoef="0" IVar="-1" Cut="0.0000000000000000e+00" cType="1" res="-6.1392445117235184e-02" rms="2.0100960507988930e-02" purity="0.0000000000000000e+00" nType="-99"/>
            <Node pos="r" depth="3" NCoef="0" IVar="-1" Cut="0.0000000000000000e+00" cType="1" res="-5.2299909293651581e-02" rms="4.2360168881714344e-03" purity="0.0000000000000000e+00" nType="-99"/>
          </Node>
          <Node pos="r" depth="2" NCoef="0" IVar="-1" Cut="0.0000000000000000e+00" cType="1" res="-6.9425493478775024e-02" rms="6.6655188798904419e-02" purity="4.5970997214317322e-01" nType="-99"/>
        </Node>
        <Node pos="r" depth="1" NCoef="0" IVar="2" Cut="-1.2071640968322754e+01" cType="1" res="1.8290810985490680e-03" rms="6.6919632256031036e-02" purity="5.3263783454895020e-01" nType="0">
          <Node pos="l" depth="2" NCoef="0" IVar="16" Cut="5.5375742912292480e+00" cType="1" res="-1.0542819654801860e-04" rms="5.5108804255723953e-02" purity="9.6036750078201294e-01" nType="0">
            <Node pos="l" depth="3" NCoef="0" IVar="-1" Cut="0.0000000000000000e+00" cType="1" res="-1.9988136366009712e-02" rms="9.8553687334060669e-02" purity="7.1207249164581299e-01" nType="-99"/>
            <Node pos="r" depth="3" NCoef="0" IVar="-1" Cut="0.0000000000000000e+00" cType="1" res="1.2298120185732841e-02" rms="4.5897703617811203e-02" purity="9.9482011795043945e-01" nType="-99"/>
          </Node>
          <Node pos="r" depth="2" NCoef="0" IVar="11" Cut="6.9802007675170898e+00" cType="1" res="3.4519063774496317e-03" rms="7.5375787913799286e-02" purity="1.7382310330867767e-01" nType="0">
            <Node pos="l" depth="3" NCoef="0" IVar="-1" Cut="0.0000000000000000e+00" cType="1" res="7.3285554535686970e-03" rms="6.6312305629253387e-02" purity="1.1471967399120331e-01" nType="-99"/>
            <Node pos="r" depth="3" NCoef="0" IVar="-1" Cut="0.0000000000000000e+00" cType="1" res="3.3502183854579926e-02" rms="9.9955148994922638e-02" purity="3.7570056319236755e-01" nType="-99"/>
          </Node>
        </Node>
      </Node>
    </BinaryTree>
    <BinaryTree type="DecisionTree" boostWeight="1.0000000000000000e+00" itree="295">
      <Node pos="s" depth="0" NCoef="0" IVar="2" Cut="-1.0047027587890625e+01" cType="1" res="1.4728284440934658e-03" rms="6.6727340221405029e-02" purity="4.9983090162277222e-01" nType="0">
        <Node pos="l" depth="1" NCoef="0" IVar="10" Cut="7.1444492340087891e+00" cType="1" res="-6.7665889218915254e-05" rms="6.6216833889484406e-02" purity="8.4138655662536621e-01" nType="0">
          <Node pos="l" depth="2" NCoef="0" IVar="4" Cut="1.1672424077987671e+00" cType="1" res="3.8141955155879259e-03" rms="7.6976768672466278e-02" purity="6.6699367761611938e-01" nType="0">
            <Node pos="l" depth="3" NCoef="0" IVar="-1" Cut="0.0000000000000000e+00" cType="1" res="4.4947476126253605e-03" rms="6.1447687447071075e-02" purity="7.4340099096298218e-01" nType="-99"/>
            <Node pos="r" depth="3" NCoef="0" IVar="-1" Cut="0.0000000000000000e+00" cType="1" res="2.7079086750745773e-02" rms="1.0302115231752396e-01" purity="4.9801665544509888e-01" nType="-99"/>
          </Node>
          <Node pos="r" depth="2" NCoef="0" IVar="14" Cut="5.0368747711181641e+00" cType="1" res="-7.8569829929620028e-04" rms="6.4002901315689087e-02" purity="8.7364429235458374e-01" nType="0">
            <Node pos="l" depth="3" NCoef="0" IVar="-1" Cut="0.0000000000000000e+00" cType="1" res="-1.7341110855340958e-02" rms="8.9590899646282196e-02" purity="5.6983971595764160e-01" nType="-99"/>
            <Node pos="r" depth="3" NCoef="0" IVar="-1" Cut="0.0000000000000000e+00" cType="1" res="9.3159181997179985e-03" rms="5.0595261156558990e-02" purity="9.9189966917037964e-01" nType="-99"/>
          </Node>
        </Node>
        <Node pos="r" depth="1" NCoef="0" IVar="3" Cut="2.0488254725933075e-01" cType="1" res="3.5352301783859730e-03" rms="6.7349612712860107e-02" purity="4.2558804154396057e-02" nType="0">
          <Node pos="l" depth="2" NCoef="0" IVar="-1" Cut="0.0000000000000000e+00" cType="1" res="3.8395922631025314e-02" rms="1.3560862839221954e-01" purity="2.6945367455482483e-01" nType="-99"/>
          <Node pos="r" depth="2" NCoef="0" IVar="16" Cut="4.6297068595886230e+00" cType="1" res="9.3542510876432061e-04" rms="5.3902629762887955e-02" purity="1.6946373507380486e-02" nType="0">
            <Node pos="l" depth="3" NCoef="0" IVar="-1" Cut="0.0000000000000000e+00" cType="1" res="-4.5724906958639622e-03" rms="2.8462613001465797e-02" purity="5.9126396663486958e-03" nType="-99"/>
            <Node pos="r" depth="3" NCoef="0" IVar="-1" Cut="0.0000000000000000e+00" cType="1" res="2.7166318148374557e-02" rms="1.3592040538787842e-01" purity="9.9327936768531799e-02" nType="-99"/>
          </Node>
        </Node>
      </Node>
    </BinaryTree>
    <BinaryTree type="DecisionTree" boostWeight="1.0000000000000000e+00" itree="296">
      <Node pos="s" depth="0" NCoef="0" IVar="10" Cut="7.5893125534057617e+00" cType="1" res="3.3124827314168215e-04" rms="6.1953119933605194e-02" purity="4.9864307045936584e-01" nType="0">
        <Node pos="l" depth="1" NCoef="0" IVar="12" Cut="7.5172905921936035e+00" cType="1" res="-1.9622135441750288e-03" rms="5.2652228623628616e-02" purity="3.2638645172119141e-01" nType="0">
          <Node pos="l" depth="2" NCoef="0" IVar="14" Cut="4.1641259193420410e+00" cType="1" res="2.1702714730054140e-04" rms="5.5842518806457520e-02" purity="2.0717628300189972e-01" nType="0">
            <Node pos="l" depth="3" NCoef="0" IVar="-1" Cut="0.0000000000000000e+00" cType="1" res="-1.3200242072343826e-02" rms="4.1058931499719620e-02" purity="1.9448118284344673e-02" nType="-99"/>
            <Node pos="r" depth="3" NCoef="0" IVar="-1" Cut="0.0000000000000000e+00" cType="1" res="1.6353009268641472e-02" rms="8.2104668021202087e-02" purity="6.8407601118087769e-01" nType="-99"/>
          </Node>
          <Node pos="r" depth="2" NCoef="0" IVar="13" Cut="2.5418856143951416e+00" cType="1" res="-2.8699573595076799e-03" rms="5.1237460225820541e-02" purity="3.7604242563247681e-01" nType="0">
            <Node pos="l" depth="3" NCoef="0" IVar="-1" Cut="0.0000000000000000e+00" cType="1" res="-3.2821375876665115e-02" rms="4.7516029328107834e-02" purity="9.3125097453594208e-02" nType="-99"/>
            <Node pos="r" depth="3" NCoef="0" IVar="-1" Cut="0.0000000000000000e+00" cType="1" res="-1.4973917976021767e-02" rms="5.7566400617361069e-02" purity="9.0844815969467163e-01" nType="-99"/>
          </Node>
        </Node>
        <Node pos="r" depth="1" NCoef="0" IVar="7" Cut="1.7796300649642944e+00" cType="1" res="2.9167369939386845e-03" rms="7.0902973413467407e-02" purity="6.9283324480056763e-01" nType="0">
          <Node pos="l" depth="2" NCoef="0" IVar="-1" Cut="0.0000000000000000e+00" cType="1" res="5.8789148926734924e-02" rms="1.2149826437234879e-01" purity="2.9170766472816467e-01" nType="-99"/>
          <Node pos="r" depth="2" NCoef="0" IVar="2" Cut="-1.0350593566894531e+01" cType="1" res="1.8396193627268076e-03" rms="6.5649405121803284e-02" purity="7.2168147563934326e-01" nType="0">
            <Node pos="l" depth="3" NCoef="0" IVar="-1" Cut="0.0000000000000000e+00" cType="1" res="5.9582229005172849e-04" rms="5.6082054972648621e-02" purity="9.3997555971145630e-01" nType="-99"/>
            <Node pos="r" depth="3" NCoef="0" IVar="-1" Cut="0.0000000000000000e+00" cType="1" res="4.0586050599813461e-02" rms="8.7175093591213226e-02" purity="9.8512694239616394e-02" nType="-99"/>
          </Node>
        </Node>
      </Node>
    </BinaryTree>
    <BinaryTree type="DecisionTree" boostWeight="1.0000000000000000e+00" itree="297">
      <Node pos="s" depth="0" NCoef="0" IVar="3" Cut="1.1039103269577026e+00" cType="1" res="8.3789171185344458e-05" rms="6.0106217861175537e-02" purity="4.9469929933547974e-01" nType="0">
        <Node pos="l" depth="1" NCoef="0" IVar="7" Cut="2.5272271633148193e+00" cType="1" res="1.1573750525712967e-03" rms="6.3748203217983246e-02" purity="7.7972233295440674e-01" nType="0">
          <Node pos="l" depth="2" NCoef="0" IVar="3" Cut="3.7610244750976562e-01" cType="1" res="7.9933907836675644e-03" rms="1.0967753082513809e-01" purity="3.9392027258872986e-01" nType="0">
            <Node pos="l" depth="3" NCoef="0" IVar="-1" Cut="0.0000000000000000e+00" cType="1" res="3.0736749991774559e-02" rms="1.2023770809173584e-01" purity="5.7522290945053101e-01" nType="-99"/>
            <Node pos="r" depth="3" NCoef="0" IVar="-1" Cut="0.0000000000000000e+00" cType="1" res="-4.0944614447653294e-03" rms="9.4598330557346344e-02" purity="1.7577505111694336e-01" nType="-99"/>
          </Node>
          <Node pos="r" depth="2" NCoef="0" IVar="7" Cut="2.9949083328247070e+00" cType="1" res="2.8341857250779867e-04" rms="5.5124953389167786e-02" purity="8.2904553413391113e-01" nType="0">
            <Node pos="l" depth="3" NCoef="0" IVar="-1" Cut="0.0000000000000000e+00" cType="1" res="-4.1949577629566193e-02" rms="6.4501613378524780e-02" purity="3.5570079088211060e-01" nType="-99"/>
            <Node pos="r" depth="3" NCoef="0" IVar="-1" Cut="0.0000000000000000e+00" cType="1" res="7.0924269966781139e-03" rms="5.4456073790788651e-02" purity="8.5832113027572632e-01" nType="-99"/>
          </Node>
        </Node>
        <Node pos="r" depth="1" NCoef="0" IVar="14" Cut="4.1502375602722168e+00" cType="1" res="-1.5148615930229425e-03" rms="5.4192248731851578e-02" purity="7.0278346538543701e-02" nType="0">
          <Node pos="l" depth="2" NCoef="0" IVar="9" Cut="5.9166884422302246e+00" cType="1" res="-1.5227445692289621e-04" rms="3.9044879376888275e-02" purity="9.6741141751408577e-03" nType="0">
            <Node pos="l" depth="3" NCoef="0" IVar="-1" Cut="0.0000000000000000e+00" cType="1" res="2.7771588414907455e-02" rms="4.6420745551586151e-02" purity="8.9699579402804375e-03" nType="-99"/>
            <Node pos="r" depth="3" NCoef="0" IVar="-1" Cut="0.0000000000000000e+00" cType="1" res="-4.9588393419981003e-02" rms="2.6248367503285408e-02" purity="1.0598561726510525e-02" nType="-99"/>
          </Node>
          <Node pos="r" depth="2" NCoef="0" IVar="3" Cut="1.9030297994613647e+00" cType="1" res="-8.0061983317136765e-03" rms="9.8050862550735474e-02" purity="3.5899564623832703e-01" nType="0">
            <Node pos="l" depth="3" NCoef="0" IVar="-1" Cut="0.0000000000000000e+00" cType="1" res="-4.9430381506681442e-02" rms="1.0539300739765167e-01" purity="5.0379657745361328e-01" nType="-99"/>
            <Node pos="r" depth="3" NCoef="0" IVar="-1" Cut="0.0000000000000000e+00" cType="1" res="-2.7488672640174627e-03" rms="8.4157124161720276e-02" purity="1.2163461744785309e-01" nType="-99"/>
          </Node>
        </Node>
      </Node>
    </BinaryTree>
    <BinaryTree type="DecisionTree" boostWeight="1.0000000000000000e+00" itree="298">
      <Node pos="s" depth="0" NCoef="0" IVar="11" Cut="5.9499688148498535e+00" cType="1" res="4.6503581688739359e-04" rms="6.1126142740249634e-02" purity="4.9864742159843445e-01" nType="0">
        <Node pos="l" depth="1" NCoef="0" IVar="2" Cut="-8.8949737548828125e+00" cType="1" res="-3.0250004492700100e-03" rms="5.5061921477317810e-02" purity="2.4445822834968567e-01" nType="0">
          <Node pos="l" depth="2" NCoef="0" IVar="2" Cut="-1.0598815917968750e+01" cType="1" res="-5.0382423214614391e-03" rms="7.0800654590129852e-02" purity="4.3718975782394409e-01" nType="0">
            <Node pos="l" depth="3" NCoef="0" IVar="-1" Cut="0.0000000000000000e+00" cType="1" res="-1.5751138329505920e-02" rms="7.8514412045478821e-02" purity="6.9656217098236084e-01" nType="-99"/>
            <Node pos="r" depth="3" NCoef="0" IVar="-1" Cut="0.0000000000000000e+00" cType="1" res="-6.0999296605587006e-02" rms="5.6600399315357208e-02" purity="3.2717965543270111e-02" nType="-99"/>
          </Node>
          <Node pos="r" depth="2" NCoef="0" IVar="11" Cut="5.7459144592285156e+00" cType="1" res="-6.0009892331436276e-04" rms="2.5200912728905678e-02" purity="1.2317767366766930e-02" nType="0">
            <Node pos="l" depth="3" NCoef="0" IVar="-1" Cut="0.0000000000000000e+00" cType="1" res="1.6853975132107735e-02" rms="2.7809366583824158e-02" purity="2.6306411251425743e-02" nType="-99"/>
            <Node pos="r" depth="3" NCoef="0" IVar="-1" Cut="0.0000000000000000e+00" cType="1" res="-6.4873024821281433e-02" rms="2.2530263289809227e-02" purity="0.0000000000000000e+00" nType="-99"/>
          </Node>
        </Node>
        <Node pos="r" depth="1" NCoef="0" IVar="10" Cut="7.7826962471008301e+00" cType="1" res="9.3764904886484146e-04" rms="6.1886560171842575e-02" purity="5.3306919336318970e-01" nType="0">
          <Node pos="l" depth="2" NCoef="0" IVar="7" Cut="4.0234994888305664e+00" cType="1" res="5.1369639550102875e-05" rms="6.0493700206279755e-02" purity="3.7006595730781555e-01" nType="0">
            <Node pos="l" depth="3" NCoef="0" IVar="-1" Cut="0.0000000000000000e+00" cType="1" res="-9.5915822312235832e-03" rms="5.5164612829685211e-02" purity="1.3609367609024048e-01" nType="-99"/>
            <Node pos="r" depth="3" NCoef="0" IVar="-1" Cut="0.0000000000000000e+00" cType="1" res="2.1554553881287575e-02" rms="6.8920843303203583e-02" purity="7.8731620311737061e-01" nType="-99"/>
          </Node>
          <Node pos="r" depth="2" NCoef="0" IVar="5" Cut="-3.4020502567291260e+00" cType="1" res="2.4551141541451216e-03" rms="6.4172841608524323e-02" purity="8.1215912103652954e-01" nType="0">
            <Node pos="l" depth="3" NCoef="0" IVar="-1" Cut="0.0000000000000000e+00" cType="1" res="1.0713299736380577e-02" rms="5.7336628437042236e-02" purity="9.0300506353378296e-01" nType="-99"/>
            <Node pos="r" depth="3" NCoef="0" IVar="-1" Cut="0.0000000000000000e+00" cType="1" res="4.1099704802036285e-02" rms="9.4589002430438995e-02" purity="2.7367004752159119e-01" nType="-99"/>
          </Node>
        </Node>
      </Node>
    </BinaryTree>
    <BinaryTree type="DecisionTree" boostWeight="1.0000000000000000e+00" itree="299">
      <Node pos="s" depth="0" NCoef="0" IVar="11" Cut="6.3091168403625488e+00" cType="1" res="7.9371780157089233e-04" rms="6.5018884837627411e-02" purity="5.0291168689727783e-01" nType="0">
        <Node pos="l" depth="1" NCoef="0" IVar="5" Cut="-3.5777342319488525e+00" cType="1" res="-1.3055276358500123e-03" rms="6.0555212199687958e-02" purity="2.7109137177467346e-01" nType="0">
          <Node pos="l" depth="2" NCoef="0" IVar="8" Cut="8.8364881277084351e-01" cType="1" res="-4.0186783298850060e-03" rms="6.4031191170215607e-02" purity="5.2438503503799438e-01" nType="0">
            <Node pos="l" depth="3" NCoef="0" IVar="-1" Cut="0.0000000000000000e+00" cType="1" res="-2.1618392318487167e-02" rms="6.2628425657749176e-02" purity="5.9804284572601318e-01" nType="-99"/>
            <Node pos="r" depth="3" NCoef="0" IVar="-1" Cut="0.0000000000000000e+00" cType="1" res="-6.4858980476856232e-02" rms="6.8281650543212891e-02" purity="2.8605294227600098e-01" nType="-99"/>
          </Node>
          <Node pos="r" depth="2" NCoef="0" IVar="13" Cut="2.0598657131195068e+00" cType="1" res="1.0552211897447705e-03" rms="5.7255085557699203e-02" purity="5.0697155296802521e-02" nType="0">
            <Node pos="l" depth="3" NCoef="0" IVar="-1" Cut="0.0000000000000000e+00" cType="1" res="-6.8236075341701508e-02" rms="2.1741347387433052e-02" purity="1.5301048988476396e-03" nType="-99"/>
            <Node pos="r" depth="3" NCoef="0" IVar="-1" Cut="0.0000000000000000e+00" cType="1" res="3.2638590782880783e-02" rms="1.0832688212394714e-01" purity="2.0060756802558899e-01" nType="-99"/>
          </Node>
        </Node>
        <Node pos="r" depth="1" NCoef="0" IVar="7" Cut="2.8914897441864014e+00" cType="1" res="1.5705687692388892e-03" rms="6.6578134894371033e-02" purity="5.8869957923889160e-01" nType="0">
          <Node pos="l" depth="2" NCoef="0" IVar="15" Cut="3.2155137062072754e+00" cType="1" res="5.3511625155806541e-03" rms="9.7197614610195160e-02" purity="2.0252670347690582e-01" nType="0">
            <Node pos="l" depth="3" NCoef="0" IVar="-1" Cut="0.0000000000000000e+00" cType="1" res="6.3153420342132449e-04" rms="6.0420326888561249e-02" purity="5.6178387254476547e-02" nType="-99"/>
            <Node pos="r" depth="3" NCoef="0" IVar="-1" Cut="0.0000000000000000e+00" cType="1" res="4.1307464241981506e-02" rms="1.6099885106086731e-01" purity="6.2631976604461670e-01" nType="-99"/>
          </Node>
          <Node pos="r" depth="2" NCoef="0" IVar="16" Cut="4.3130478858947754e+00" cType="1" res="5.1415618509054184e-04" rms="5.5011555552482605e-02" purity="6.9660800695419312e-01" nType="0">
            <Node pos="l" depth="3" NCoef="0" IVar="-1" Cut="0.0000000000000000e+00" cType="1" res="-2.5731533765792847e-02" rms="4.1551515460014343e-02" purity="2.2633297368884087e-02" nType="-99"/>
            <Node pos="r" depth="3" NCoef="0" IVar="-1" Cut="0.0000000000000000e+00" cType="1" res="1.2311903759837151e-02" rms="5.8692991733551025e-02" purity="9.1517752408981323e-01" nType="-99"/>
          </Node>
        </Node>
      </Node>
    </BinaryTree>
  </Weights>
</MethodSetup>
