<?xml version="1.0"?>
<MethodSetup Method="BDT::BDT">
  <GeneralInfo>
    <Info name="TMVA Release" value="4.2.1 [262657]"/>
    <Info name="ROOT Release" value="6.26/06 [399878]"/>
    <Info name="Creator" value="izaac"/>
    <Info name="Date" value="Mon Feb 26 11:41:57 2024"/>
    <Info name="Host" value="Darwin HMBRW-A-001-M1-004.local 21.5.0 Darwin Kernel Version 21.5.0: Tue Apr 26 21:08:29 PDT 2022; root:xnu-8020.121.3~4/RELEASE_ARM64_T8101 arm64"/>
    <Info name="Dir" value="/Users/izaac/data/lb"/>
    <Info name="Training events" value="350"/>
    <Info name="TrainingTime" value="6.89098835e-02"/>
    <Info name="AnalysisType" value="Classification"/>
  </GeneralInfo>
  <Options>
    <Option name="V" modified="Yes">False</Option>
    <Option name="VerbosityLevel" modified="No">Default</Option>
    <Option name="VarTransform" modified="No">None</Option>
    <Option name="H" modified="Yes">False</Option>
    <Option name="CreateMVAPdfs" modified="Yes">True</Option>
    <Option name="IgnoreNegWeightsInTraining" modified="No">False</Option>
    <Option name="NTrees" modified="Yes">500</Option>
    <Option name="MaxDepth" modified="Yes">2</Option>
    <Option name="MinNodeSize" modified="No">5%</Option>
    <Option name="nCuts" modified="No">20</Option>
    <Option name="BoostType" modified="Yes">Grad</Option>
    <Option name="AdaBoostR2Loss" modified="No">quadratic</Option>
    <Option name="UseBaggedBoost" modified="No">False</Option>
    <Option name="Shrinkage" modified="Yes">1.000000e-01</Option>
    <Option name="AdaBoostBeta" modified="No">5.000000e-01</Option>
    <Option name="UseRandomisedTrees" modified="No">False</Option>
    <Option name="UseNvars" modified="No">4</Option>
    <Option name="UsePoissonNvars" modified="No">True</Option>
    <Option name="BaggedSampleFraction" modified="No">6.000000e-01</Option>
    <Option name="UseYesNoLeaf" modified="No">True</Option>
    <Option name="NegWeightTreatment" modified="No">pray</Option>
    <Option name="Css" modified="No">1.000000e+00</Option>
    <Option name="Cts_sb" modified="No">1.000000e+00</Option>
    <Option name="Ctb_ss" modified="No">1.000000e+00</Option>
    <Option name="Cbb" modified="No">1.000000e+00</Option>
    <Option name="NodePurityLimit" modified="No">5.000000e-01</Option>
    <Option name="SeparationType" modified="No">giniindex</Option>
    <Option name="RegressionLossFunctionBDTG" modified="No">huber</Option>
    <Option name="HuberQuantile" modified="No">7.000000e-01</Option>
    <Option name="DoBoostMonitor" modified="No">False</Option>
    <Option name="UseFisherCuts" modified="No">False</Option>
    <Option name="MinLinCorrForFisher" modified="No">8.000000e-01</Option>
    <Option name="UseExclusiveVars" modified="No">False</Option>
    <Option name="DoPreselection" modified="No">False</Option>
    <Option name="SigToBkgFraction" modified="No">1.000000e+00</Option>
    <Option name="PruneMethod" modified="No">nopruning</Option>
    <Option name="PruneStrength" modified="No">0.000000e+00</Option>
    <Option name="PruningValFraction" modified="No">5.000000e-01</Option>
    <Option name="SkipNormalization" modified="No">False</Option>
    <Option name="nEventsMin" modified="No">0</Option>
    <Option name="UseBaggedGrad" modified="No">False</Option>
    <Option name="GradBaggingFraction" modified="No">6.000000e-01</Option>
    <Option name="UseNTrainEvents" modified="No">0</Option>
    <Option name="NNodesMax" modified="No">0</Option>
  </Options>
  <Variables NVar="13">
    <Variable VarIndex="0" Expression="Lb_PT" Label="Lb_PT" Title="Lb_PT" Unit="MeV" Internal="Lb_PT" Type="F" Min="1.02968213e+03" Max="2.49309023e+04"/>
    <Variable VarIndex="1" Expression="Lb_P" Label="Lb_P" Title="Lb_P" Unit="MeV" Internal="Lb_P" Type="F" Min="2.52432559e+04" Max="4.42116562e+05"/>
    <Variable VarIndex="2" Expression="Lb_MASS" Label="Lb_MASS" Title="Lb_MASS" Unit="MeV" Internal="Lb_MASS" Type="F" Min="5.12577881e+03" Max="6.11781396e+03"/>
    <Variable VarIndex="3" Expression="Lambda0_PT" Label="Lambda0_PT" Title="Lambda0_PT" Unit="MeV" Internal="Lambda0_PT" Type="F" Min="1.12151868e+03" Max="8.91953613e+03"/>
    <Variable VarIndex="4" Expression="Lambda0_LOGBPVIPCHI2" Label="Lambda0_LOGBPVIPCHI2" Title="Lambda0_LOGBPVIPCHI2" Unit="" Internal="Lambda0_LOGBPVIPCHI2" Type="F" Min="-6.90266550e-01" Max="1.19590998e+01"/>
    <Variable VarIndex="5" Expression="Lambda0_BPVIP" Label="Lambda0_BPVIP" Title="Lambda0_BPVIP" Unit="mm" Internal="Lambda0_BPVIP" Type="F" Min="5.08372933e-02" Max="2.71794529e+01"/>
    <Variable VarIndex="6" Expression="Lambda0_BPVFD" Label="Lambda0_BPVFD" Title="Lambda0_BPVFD" Unit="mm" Internal="Lambda0_BPVFD" Type="F" Min="5.44991732e+00" Max="1.62358179e+03"/>
    <Variable VarIndex="7" Expression="p_plus_P" Label="p_plus_P" Title="p_plus_P" Unit="MeV" Internal="p_plus_P" Type="F" Min="5.87462793e+03" Max="7.57258203e+04"/>
    <Variable VarIndex="8" Expression="p_plus_PT" Label="p_plus_PT" Title="p_plus_PT" Unit="MeV" Internal="p_plus_PT" Type="F" Min="1.01027600e+03" Max="6.97388037e+03"/>
    <Variable VarIndex="9" Expression="pi_minus_P" Label="pi_minus_P" Title="pi_minus_P" Unit="MeV" Internal="pi_minus_P" Type="F" Min="1.49976196e+03" Max="2.49389629e+04"/>
    <Variable VarIndex="10" Expression="pi_minus_PT" Label="pi_minus_PT" Title="pi_minus_PT" Unit="MeV" Internal="pi_minus_PT" Type="F" Min="1.05013443e+02" Max="1.94496753e+03"/>
    <Variable VarIndex="11" Expression="gamma_P" Label="gamma_P" Title="gamma_P" Unit="MeV" Internal="gamma_P" Type="F" Min="6.94238184e+03" Max="4.07655094e+05"/>
    <Variable VarIndex="12" Expression="gamma_PT" Label="gamma_PT" Title="gamma_PT" Unit="MeV" Internal="gamma_PT" Type="F" Min="2.00381030e+03" Max="1.62156572e+04"/>
  </Variables>
  <Spectators NSpec="0"/>
  <Classes NClass="2">
    <Class Name="Signal" Index="0"/>
    <Class Name="Background" Index="1"/>
  </Classes>
  <Transformations NTransformations="0"/>
  <MVAPdfs>
    <PDF Name="BDT_PDFSig" MinNSmooth="0" MaxNSmooth="0" InterpolMethod="2" KDE_type="1" KDE_iter="1" KDE_border="1" KDE_finefactor="1.0000000000000000e+00">
      <Histogram Name="BDT_tr_S_original" NBins="7" XMin="-9.9999833106994629e-01" XMax="9.9958062171936035e-01" HasEquidistantBins="1">
        0.00000000e+00 0.00000000e+00 0.00000000e+00 5.67687079e-02 7.56916105e-02 5.48764176e-01 2.81951249e+00 
      </Histogram>
    </PDF>
    <PDF Name="BDT_PDFBkg" MinNSmooth="0" MaxNSmooth="0" InterpolMethod="2" KDE_type="1" KDE_iter="1" KDE_border="1" KDE_finefactor="1.0000000000000000e+00">
      <Histogram Name="BDT_tr_B_original" NBins="7" XMin="-9.9999833106994629e-01" XMax="9.9958062171936035e-01" HasEquidistantBins="1">
        2.86035827e+00 3.41535316e-01 2.34805530e-01 4.26919145e-02 2.13459572e-02 0.00000000e+00 0.00000000e+00 
      </Histogram>
    </PDF>
  </MVAPdfs>
  <Weights NTrees="500" AnalysisType="1">
    <BinaryTree type="DecisionTree" boostWeight="1.0000000000000000e+00" itree="0">
      <Node pos="s" depth="0" NCoef="0" IVar="2" Cut="5.3619775390625000e+03" cType="1" res="-1.3957089944012161e-16" rms="5.0000000000000000e-01" purity="5.0000000000000000e-01" nType="0">
        <Node pos="l" depth="1" NCoef="0" IVar="11" Cut="4.9459464843750000e+04" cType="1" res="-4.1225254535675049e-01" rms="2.8292727470397949e-01" purity="8.7747447192668915e-02" nType="0">
          <Node pos="l" depth="2" NCoef="0" IVar="-1" Cut="0.0000000000000000e+00" cType="1" res="-9.5887660980224609e-02" rms="1.4191159605979919e-01" purity="2.0561683923006058e-02" nType="-99"/>
          <Node pos="r" depth="2" NCoef="0" IVar="-1" Cut="0.0000000000000000e+00" cType="1" res="-4.9351450055837631e-02" rms="4.3486878275871277e-01" purity="2.5324273109436035e-01" nType="-99"/>
        </Node>
        <Node pos="r" depth="1" NCoef="0" IVar="2" Cut="5.8305800781250000e+03" cType="1" res="9.2842511832714081e-02" rms="4.9130466580390930e-01" purity="5.9284245967864990e-01" nType="0">
          <Node pos="l" depth="2" NCoef="0" IVar="-1" Cut="0.0000000000000000e+00" cType="1" res="4.0646191686391830e-02" rms="4.5683386921882629e-01" purity="7.0323097705841064e-01" nType="-99"/>
          <Node pos="r" depth="2" NCoef="0" IVar="-1" Cut="0.0000000000000000e+00" cType="1" res="-7.2898164391517639e-02" rms="3.4226664900779724e-01" purity="1.3550919294357300e-01" nType="-99"/>
        </Node>
      </Node>
    </BinaryTree>
    <BinaryTree type="DecisionTree" boostWeight="1.0000000000000000e+00" itree="1">
      <Node pos="s" depth="0" NCoef="0" IVar="2" Cut="5.3619775390625000e+03" cType="1" res="-2.3075659555615857e-05" rms="4.8429021239280701e-01" purity="5.0000000000000000e-01" nType="0">
        <Node pos="l" depth="1" NCoef="0" IVar="11" Cut="4.9459464843750000e+04" cType="1" res="-3.7113720178604126e-01" rms="2.7918833494186401e-01" purity="8.7747447192668915e-02" nType="0">
          <Node pos="l" depth="2" NCoef="0" IVar="-1" Cut="0.0000000000000000e+00" cType="1" res="-8.7124347686767578e-02" rms="1.4191159605979919e-01" purity="2.0561683923006058e-02" nType="-99"/>
          <Node pos="r" depth="2" NCoef="0" IVar="-1" Cut="0.0000000000000000e+00" cType="1" res="-4.4528588652610779e-02" rms="4.3486878275871277e-01" purity="2.5324273109436035e-01" nType="-99"/>
        </Node>
        <Node pos="r" depth="1" NCoef="0" IVar="2" Cut="5.8305800781250000e+03" cType="1" res="8.3554737269878387e-02" rms="4.8145648837089539e-01" purity="5.9284245967864990e-01" nType="0">
          <Node pos="l" depth="2" NCoef="0" IVar="-1" Cut="0.0000000000000000e+00" cType="1" res="3.6644283682107925e-02" rms="4.5683383941650391e-01" purity="7.0323097705841064e-01" nType="-99"/>
          <Node pos="r" depth="2" NCoef="0" IVar="-1" Cut="0.0000000000000000e+00" cType="1" res="-6.5970569849014282e-02" rms="3.4226664900779724e-01" purity="1.3550919294357300e-01" nType="-99"/>
        </Node>
      </Node>
    </BinaryTree>
    <BinaryTree type="DecisionTree" boostWeight="1.0000000000000000e+00" itree="2">
      <Node pos="s" depth="0" NCoef="0" IVar="2" Cut="5.3147377929687500e+03" cType="1" res="-9.3849383119959384e-05" rms="4.7123330831527710e-01" purity="5.0000000000000000e-01" nType="0">
        <Node pos="l" depth="1" NCoef="0" IVar="3" Cut="2.0956357421875000e+03" cType="1" res="-3.6898279190063477e-01" rms="2.1346588432788849e-01" purity="5.1217984408140182e-02" nType="0">
          <Node pos="l" depth="2" NCoef="0" IVar="-1" Cut="0.0000000000000000e+00" cType="1" res="-8.6552754044532776e-02" rms="1.9460203126072884e-02" purity="0.0000000000000000e+00" nType="-99"/>
          <Node pos="r" depth="2" NCoef="0" IVar="-1" Cut="0.0000000000000000e+00" cType="1" res="-5.6830331683158875e-02" rms="3.3476555347442627e-01" purity="1.4186850190162659e-01" nType="-99"/>
        </Node>
        <Node pos="r" depth="1" NCoef="0" IVar="2" Cut="5.8519233398437500e+03" cType="1" res="6.8844072520732880e-02" rms="4.7419506311416626e-01" purity="5.8386832475662231e-01" nType="0">
          <Node pos="l" depth="2" NCoef="0" IVar="-1" Cut="0.0000000000000000e+00" cType="1" res="2.9484635218977928e-02" rms="4.6239304542541504e-01" purity="6.7835110425949097e-01" nType="-99"/>
          <Node pos="r" depth="2" NCoef="0" IVar="-1" Cut="0.0000000000000000e+00" cType="1" res="-6.4574010670185089e-02" rms="3.1815794110298157e-01" purity="1.1428571492433548e-01" nType="-99"/>
        </Node>
      </Node>
    </BinaryTree>
    <BinaryTree type="DecisionTree" boostWeight="1.0000000000000000e+00" itree="3">
      <Node pos="s" depth="0" NCoef="0" IVar="2" Cut="5.3619775390625000e+03" cType="1" res="-1.9081470964010805e-04" rms="4.6085837483406067e-01" purity="5.0000000000000000e-01" nType="0">
        <Node pos="l" depth="1" NCoef="0" IVar="11" Cut="4.9459464843750000e+04" cType="1" res="-3.0529633164405823e-01" rms="2.6987385749816895e-01" purity="8.7747447192668915e-02" nType="0">
          <Node pos="l" depth="2" NCoef="0" IVar="-1" Cut="0.0000000000000000e+00" cType="1" res="-7.6131559908390045e-02" rms="1.3606636226177216e-01" purity="2.0561683923006058e-02" nType="-99"/>
          <Node pos="r" depth="2" NCoef="0" IVar="-1" Cut="0.0000000000000000e+00" cType="1" res="-3.6034815013408661e-02" rms="4.2799934744834900e-01" purity="2.5324273109436035e-01" nType="-99"/>
        </Node>
        <Node pos="r" depth="1" NCoef="0" IVar="2" Cut="5.8305800781250000e+03" cType="1" res="6.8521343171596527e-02" rms="4.6704849600791931e-01" purity="5.9284245967864990e-01" nType="0">
          <Node pos="l" depth="2" NCoef="0" IVar="-1" Cut="0.0000000000000000e+00" cType="1" res="3.0352506786584854e-02" rms="4.5683386921882629e-01" purity="7.0323097705841064e-01" nType="-99"/>
          <Node pos="r" depth="2" NCoef="0" IVar="-1" Cut="0.0000000000000000e+00" cType="1" res="-5.5921945720911026e-02" rms="3.4003275632858276e-01" purity="1.3550919294357300e-01" nType="-99"/>
        </Node>
      </Node>
    </BinaryTree>
    <BinaryTree type="DecisionTree" boostWeight="1.0000000000000000e+00" itree="4">
      <Node pos="s" depth="0" NCoef="0" IVar="0" Cut="5.5822954101562500e+03" cType="1" res="-2.8502714121714234e-04" rms="4.5167458057403564e-01" purity="5.0000000000000000e-01" nType="0">
        <Node pos="l" depth="1" NCoef="0" IVar="2" Cut="5.3547060546875000e+03" cType="1" res="-7.9965047538280487e-02" rms="4.4912612438201904e-01" purity="4.1276991367340088e-01" nType="0">
          <Node pos="l" depth="2" NCoef="0" IVar="-1" Cut="0.0000000000000000e+00" cType="1" res="-6.9651380181312561e-02" rms="1.8010108172893524e-01" purity="3.6920305341482162e-02" nType="-99"/>
          <Node pos="r" depth="2" NCoef="0" IVar="-1" Cut="0.0000000000000000e+00" cType="1" res="-4.5141051523387432e-03" rms="4.7524940967559814e-01" purity="5.0447678565979004e-01" nType="-99"/>
        </Node>
        <Node pos="r" depth="1" NCoef="0" IVar="0" Cut="7.5032065429687500e+03" cType="1" res="2.2938449680805206e-01" rms="3.7360247969627380e-01" purity="7.5143182277679443e-01" nType="0">
          <Node pos="l" depth="2" NCoef="0" IVar="-1" Cut="0.0000000000000000e+00" cType="1" res="2.5628147646784782e-02" rms="4.2238211631774902e-01" purity="6.2555623054504395e-01" nType="-99"/>
          <Node pos="r" depth="2" NCoef="0" IVar="-1" Cut="0.0000000000000000e+00" cType="1" res="7.9356506466865540e-02" rms="1.9795045256614685e-01" purity="9.4072651863098145e-01" nType="-99"/>
        </Node>
      </Node>
    </BinaryTree>
    <BinaryTree type="DecisionTree" boostWeight="1.0000000000000000e+00" itree="5">
      <Node pos="s" depth="0" NCoef="0" IVar="0" Cut="5.5822954101562500e+03" cType="1" res="-3.1249976018443704e-04" rms="4.4480568170547485e-01" purity="5.0000000000000000e-01" nType="0">
        <Node pos="l" depth="1" NCoef="0" IVar="2" Cut="5.3547060546875000e+03" cType="1" res="-7.2100624442100525e-02" rms="4.4629254937171936e-01" purity="4.1276991367340088e-01" nType="0">
          <Node pos="l" depth="2" NCoef="0" IVar="-1" Cut="0.0000000000000000e+00" cType="1" res="-6.5699741244316101e-02" rms="1.8035493791103363e-01" purity="3.6920305341482162e-02" nType="-99"/>
          <Node pos="r" depth="2" NCoef="0" IVar="-1" Cut="0.0000000000000000e+00" cType="1" res="-4.0606204420328140e-03" rms="4.7526022791862488e-01" purity="5.0447678565979004e-01" nType="-99"/>
        </Node>
        <Node pos="r" depth="1" NCoef="0" IVar="0" Cut="7.5032065429687500e+03" cType="1" res="2.0660944283008575e-01" rms="3.6927202343940735e-01" purity="7.5143182277679443e-01" nType="0">
          <Node pos="l" depth="2" NCoef="0" IVar="-1" Cut="0.0000000000000000e+00" cType="1" res="2.3089606314897537e-02" rms="4.2223724722862244e-01" purity="6.2555623054504395e-01" nType="-99"/>
          <Node pos="r" depth="2" NCoef="0" IVar="-1" Cut="0.0000000000000000e+00" cType="1" res="7.3153965175151825e-02" rms="1.9794172048568726e-01" purity="9.4072651863098145e-01" nType="-99"/>
        </Node>
      </Node>
    </BinaryTree>
    <BinaryTree type="DecisionTree" boostWeight="1.0000000000000000e+00" itree="6">
      <Node pos="s" depth="0" NCoef="0" IVar="2" Cut="5.3147377929687500e+03" cType="1" res="-3.2606540480628610e-04" rms="4.3919330835342407e-01" purity="5.0000000000000000e-01" nType="0">
        <Node pos="l" depth="1" NCoef="0" IVar="3" Cut="2.0956357421875000e+03" cType="1" res="-2.5673624873161316e-01" rms="2.0995028316974640e-01" purity="5.1217984408140182e-02" nType="0">
          <Node pos="l" depth="2" NCoef="0" IVar="-1" Cut="0.0000000000000000e+00" cType="1" res="-7.2110049426555634e-02" rms="3.9850365370512009e-02" purity="0.0000000000000000e+00" nType="-99"/>
          <Node pos="r" depth="2" NCoef="0" IVar="-1" Cut="0.0000000000000000e+00" cType="1" res="-4.1449960321187973e-02" rms="3.3095037937164307e-01" purity="1.4186850190162659e-01" nType="-99"/>
        </Node>
        <Node pos="r" depth="1" NCoef="0" IVar="2" Cut="5.7379702148437500e+03" cType="1" res="4.7591842710971832e-02" rms="4.5400211215019226e-01" purity="5.8386832475662231e-01" nType="0">
          <Node pos="l" depth="2" NCoef="0" IVar="-1" Cut="0.0000000000000000e+00" cType="1" res="2.6666175574064255e-02" rms="4.4435817003250122e-01" purity="7.0118159055709839e-01" nType="-99"/>
          <Node pos="r" depth="2" NCoef="0" IVar="-1" Cut="0.0000000000000000e+00" cType="1" res="-4.1903968900442123e-02" rms="3.8892135024070740e-01" purity="2.3044495284557343e-01" nType="-99"/>
        </Node>
      </Node>
    </BinaryTree>
    <BinaryTree type="DecisionTree" boostWeight="1.0000000000000000e+00" itree="7">
      <Node pos="s" depth="0" NCoef="0" IVar="0" Cut="5.5822954101562500e+03" cType="1" res="-3.9017078233882785e-04" rms="4.3282377719879150e-01" purity="5.0000000000000000e-01" nType="0">
        <Node pos="l" depth="1" NCoef="0" IVar="4" Cut="1.7191365957260132e+00" cType="1" res="-6.3939154148101807e-02" rms="4.3867477774620056e-01" purity="4.1276991367340088e-01" nType="0">
          <Node pos="l" depth="2" NCoef="0" IVar="-1" Cut="0.0000000000000000e+00" cType="1" res="-6.7457824945449829e-02" rms="3.2112684845924377e-01" purity="1.4036287367343903e-01" nType="-99"/>
          <Node pos="r" depth="2" NCoef="0" IVar="-1" Cut="0.0000000000000000e+00" cType="1" res="-5.9190853498876095e-03" rms="4.4206884503364563e-01" purity="4.5310756564140320e-01" nType="-99"/>
        </Node>
        <Node pos="r" depth="1" NCoef="0" IVar="8" Cut="1.8740670166015625e+03" cType="1" res="1.8278329074382782e-01" rms="3.5699537396430969e-01" purity="7.5143182277679443e-01" nType="0">
          <Node pos="l" depth="2" NCoef="0" IVar="-1" Cut="0.0000000000000000e+00" cType="1" res="7.8609399497509003e-03" rms="4.0879398584365845e-01" purity="5.8751279115676880e-01" nType="-99"/>
          <Node pos="r" depth="2" NCoef="0" IVar="-1" Cut="0.0000000000000000e+00" cType="1" res="5.7572003453969955e-02" rms="2.8916010260581970e-01" purity="8.4896463155746460e-01" nType="-99"/>
        </Node>
      </Node>
    </BinaryTree>
    <BinaryTree type="DecisionTree" boostWeight="1.0000000000000000e+00" itree="8">
      <Node pos="s" depth="0" NCoef="0" IVar="2" Cut="5.3619775390625000e+03" cType="1" res="-3.2719859154894948e-04" rms="4.2817205190658569e-01" purity="5.0000000000000000e-01" nType="0">
        <Node pos="l" depth="1" NCoef="0" IVar="10" Cut="3.7575247192382812e+02" cType="1" res="-2.1059212088584900e-01" rms="2.5676676630973816e-01" purity="8.7747447192668915e-02" nType="0">
          <Node pos="l" depth="2" NCoef="0" IVar="-1" Cut="0.0000000000000000e+00" cType="1" res="-6.6812612116336823e-02" rms="1.4893181622028351e-01" purity="2.3906704038381577e-02" nType="-99"/>
          <Node pos="r" depth="2" NCoef="0" IVar="-1" Cut="0.0000000000000000e+00" cType="1" res="-2.8446085751056671e-02" rms="3.4797590970993042e-01" purity="1.8833255767822266e-01" nType="-99"/>
        </Node>
        <Node pos="r" depth="1" NCoef="0" IVar="2" Cut="5.9023886718750000e+03" cType="1" res="4.7026112675666809e-02" rms="4.4449084997177124e-01" purity="5.9284245967864990e-01" nType="0">
          <Node pos="l" depth="2" NCoef="0" IVar="-1" Cut="0.0000000000000000e+00" cType="1" res="2.1486144512891769e-02" rms="4.4513741135597229e-01" purity="6.8131250143051147e-01" nType="-99"/>
          <Node pos="r" depth="2" NCoef="0" IVar="-1" Cut="0.0000000000000000e+00" cType="1" res="-6.2535800039768219e-02" rms="2.5540566444396973e-01" purity="6.8447403609752655e-02" nType="-99"/>
        </Node>
      </Node>
    </BinaryTree>
    <BinaryTree type="DecisionTree" boostWeight="1.0000000000000000e+00" itree="9">
      <Node pos="s" depth="0" NCoef="0" IVar="0" Cut="7.8586020507812500e+03" cType="1" res="-4.2511700303293765e-04" rms="4.2250657081604004e-01" purity="5.0000000000000000e-01" nType="0">
        <Node pos="l" depth="1" NCoef="0" IVar="3" Cut="2.1745737304687500e+03" cType="1" res="-3.0980113893747330e-02" rms="4.2920917272567749e-01" purity="4.5284247398376465e-01" nType="0">
          <Node pos="l" depth="2" NCoef="0" IVar="-1" Cut="0.0000000000000000e+00" cType="1" res="-2.5666249915957451e-02" rms="4.0958800911903381e-01" purity="3.4525123238563538e-01" nType="-99"/>
          <Node pos="r" depth="2" NCoef="0" IVar="-1" Cut="0.0000000000000000e+00" cType="1" res="1.3371608220040798e-02" rms="4.3091222643852234e-01" purity="5.7078009843826294e-01" nType="-99"/>
        </Node>
        <Node pos="r" depth="1" NCoef="0" IVar="-1" Cut="0.0000000000000000e+00" cType="1" res="6.8665437400341034e-02" rms="1.4593075215816498e-01" purity="9.6677386760711670e-01" nType="-99"/>
      </Node>
    </BinaryTree>
    <BinaryTree type="DecisionTree" boostWeight="1.0000000000000000e+00" itree="10">
      <Node pos="s" depth="0" NCoef="0" IVar="0" Cut="5.5822954101562500e+03" cType="1" res="-3.2427531550638378e-04" rms="4.1894668340682983e-01" purity="5.0000000000000000e-01" nType="0">
        <Node pos="l" depth="1" NCoef="0" IVar="12" Cut="2.7208906250000000e+03" cType="1" res="-5.3347326815128326e-02" rms="4.3121051788330078e-01" purity="4.1276991367340088e-01" nType="0">
          <Node pos="l" depth="2" NCoef="0" IVar="-1" Cut="0.0000000000000000e+00" cType="1" res="-4.0612999349832535e-02" rms="3.8704389333724976e-01" purity="2.4950391054153442e-01" nType="-99"/>
          <Node pos="r" depth="2" NCoef="0" IVar="-1" Cut="0.0000000000000000e+00" cType="1" res="2.2900579497218132e-03" rms="4.3796655535697937e-01" purity="4.9456518888473511e-01" nType="-99"/>
        </Node>
        <Node pos="r" depth="1" NCoef="0" IVar="8" Cut="1.8740670166015625e+03" cType="1" res="1.5250925719738007e-01" rms="3.3764204382896423e-01" purity="7.5143182277679443e-01" nType="0">
          <Node pos="l" depth="2" NCoef="0" IVar="-1" Cut="0.0000000000000000e+00" cType="1" res="7.1557015180587769e-03" rms="3.9088320732116699e-01" purity="5.8751279115676880e-01" nType="-99"/>
          <Node pos="r" depth="2" NCoef="0" IVar="-1" Cut="0.0000000000000000e+00" cType="1" res="5.0531636923551559e-02" rms="2.7792185544967651e-01" purity="8.4896463155746460e-01" nType="-99"/>
        </Node>
      </Node>
    </BinaryTree>
    <BinaryTree type="DecisionTree" boostWeight="1.0000000000000000e+00" itree="11">
      <Node pos="s" depth="0" NCoef="0" IVar="2" Cut="5.3619775390625000e+03" cType="1" res="-2.6758041349239647e-04" rms="4.1536101698875427e-01" purity="5.0000000000000000e-01" nType="0">
        <Node pos="l" depth="1" NCoef="0" IVar="9" Cut="4.0781894531250000e+03" cType="1" res="-1.8345136940479279e-01" rms="2.5364255905151367e-01" purity="8.7747447192668915e-02" nType="0">
          <Node pos="l" depth="2" NCoef="0" IVar="-1" Cut="0.0000000000000000e+00" cType="1" res="-6.4100995659828186e-02" rms="1.5316396951675415e-01" purity="2.7655985206365585e-02" nType="-99"/>
          <Node pos="r" depth="2" NCoef="0" IVar="-1" Cut="0.0000000000000000e+00" cType="1" res="-2.9003316536545753e-02" rms="3.1546196341514587e-01" purity="1.5518546104431152e-01" nType="-99"/>
        </Node>
        <Node pos="r" depth="1" NCoef="0" IVar="2" Cut="5.9023886718750000e+03" cType="1" res="4.0986850857734680e-02" rms="4.3316394090652466e-01" purity="5.9284245967864990e-01" nType="0">
          <Node pos="l" depth="2" NCoef="0" IVar="-1" Cut="0.0000000000000000e+00" cType="1" res="1.9102424383163452e-02" rms="4.3767815828323364e-01" purity="6.8131250143051147e-01" nType="-99"/>
          <Node pos="r" depth="2" NCoef="0" IVar="-1" Cut="0.0000000000000000e+00" cType="1" res="-5.7884000241756439e-02" rms="2.5582396984100342e-01" purity="6.8447403609752655e-02" nType="-99"/>
        </Node>
      </Node>
    </BinaryTree>
    <BinaryTree type="DecisionTree" boostWeight="1.0000000000000000e+00" itree="12">
      <Node pos="s" depth="0" NCoef="0" IVar="4" Cut="1.7191365957260132e+00" cType="1" res="-3.6201780312694609e-04" rms="4.1095477342605591e-01" purity="5.0000000000000000e-01" nType="0">
        <Node pos="l" depth="1" NCoef="0" IVar="9" Cut="4.2508598632812500e+03" cType="1" res="-2.3062816262245178e-01" rms="3.4016558527946472e-01" purity="1.9036564230918884e-01" nType="0">
          <Node pos="l" depth="2" NCoef="0" IVar="-1" Cut="0.0000000000000000e+00" cType="1" res="-3.4805979579687119e-02" rms="3.5526520013809204e-01" purity="2.5324273109436035e-01" nType="-99"/>
          <Node pos="r" depth="2" NCoef="0" IVar="-1" Cut="0.0000000000000000e+00" cType="1" res="-6.9057889282703400e-02" rms="3.0775198340415955e-01" purity="1.3464696705341339e-01" nType="-99"/>
        </Node>
        <Node pos="r" depth="1" NCoef="0" IVar="6" Cut="3.6551250457763672e+01" cType="1" res="2.8963768854737282e-02" rms="4.0993016958236694e-01" purity="5.3943377733230591e-01" nType="0">
          <Node pos="l" depth="2" NCoef="0" IVar="-1" Cut="0.0000000000000000e+00" cType="1" res="-4.0514625608921051e-02" rms="3.9888253808021545e-01" purity="2.8450748324394226e-01" nType="-99"/>
          <Node pos="r" depth="2" NCoef="0" IVar="-1" Cut="0.0000000000000000e+00" cType="1" res="2.1584410220384598e-02" rms="3.9049965143203735e-01" purity="6.2215477228164673e-01" nType="-99"/>
        </Node>
      </Node>
    </BinaryTree>
    <BinaryTree type="DecisionTree" boostWeight="1.0000000000000000e+00" itree="13">
      <Node pos="s" depth="0" NCoef="0" IVar="0" Cut="5.5822954101562500e+03" cType="1" res="-3.4015852725133300e-04" rms="4.0612301230430603e-01" purity="5.0000000000000000e-01" nType="0">
        <Node pos="l" depth="1" NCoef="0" IVar="12" Cut="2.3623503417968750e+03" cType="1" res="-4.7554153949022293e-02" rms="4.2171779274940491e-01" purity="4.1276991367340088e-01" nType="0">
          <Node pos="l" depth="2" NCoef="0" IVar="-1" Cut="0.0000000000000000e+00" cType="1" res="-4.8219908028841019e-02" rms="3.5410147905349731e-01" purity="1.8833255767822266e-01" nType="-99"/>
          <Node pos="r" depth="2" NCoef="0" IVar="-1" Cut="0.0000000000000000e+00" cType="1" res="-2.1760577801615000e-03" rms="4.2767128348350525e-01" purity="4.6618923544883728e-01" nType="-99"/>
        </Node>
        <Node pos="r" depth="1" NCoef="0" IVar="8" Cut="1.8740670166015625e+03" cType="1" res="1.3574935495853424e-01" rms="3.2059079408645630e-01" purity="7.5143182277679443e-01" nType="0">
          <Node pos="l" depth="2" NCoef="0" IVar="-1" Cut="0.0000000000000000e+00" cType="1" res="7.3016239330172539e-03" rms="3.7515267729759216e-01" purity="5.8751279115676880e-01" nType="-99"/>
          <Node pos="r" depth="2" NCoef="0" IVar="-1" Cut="0.0000000000000000e+00" cType="1" res="4.6747427433729172e-02" rms="2.6465871930122375e-01" purity="8.4896463155746460e-01" nType="-99"/>
        </Node>
      </Node>
    </BinaryTree>
    <BinaryTree type="DecisionTree" boostWeight="1.0000000000000000e+00" itree="14">
      <Node pos="s" depth="0" NCoef="0" IVar="2" Cut="5.3147377929687500e+03" cType="1" res="-2.8742451104335487e-04" rms="4.0332511067390442e-01" purity="5.0000000000000000e-01" nType="0">
        <Node pos="l" depth="1" NCoef="0" IVar="6" Cut="1.5137452697753906e+02" cType="1" res="-1.7967763543128967e-01" rms="2.0360228419303894e-01" purity="5.1217984408140182e-02" nType="0">
          <Node pos="l" depth="2" NCoef="0" IVar="-1" Cut="0.0000000000000000e+00" cType="1" res="-6.8575210869312286e-02" rms="7.5392089784145355e-02" purity="0.0000000000000000e+00" nType="-99"/>
          <Node pos="r" depth="2" NCoef="0" IVar="-1" Cut="0.0000000000000000e+00" cType="1" res="-3.8493826985359192e-02" rms="2.4894402921199799e-01" purity="8.9227415621280670e-02" nType="-99"/>
        </Node>
        <Node pos="r" depth="1" NCoef="0" IVar="2" Cut="5.7379702148437500e+03" cType="1" res="3.3236999064683914e-02" rms="4.2212128639221191e-01" purity="5.8386832475662231e-01" nType="0">
          <Node pos="l" depth="2" NCoef="0" IVar="-1" Cut="0.0000000000000000e+00" cType="1" res="2.0262641832232475e-02" rms="4.2306435108184814e-01" purity="7.0118159055709839e-01" nType="-99"/>
          <Node pos="r" depth="2" NCoef="0" IVar="-1" Cut="0.0000000000000000e+00" cType="1" res="-3.4070927649736404e-02" rms="3.6318194866180420e-01" purity="2.3044495284557343e-01" nType="-99"/>
        </Node>
      </Node>
    </BinaryTree>
    <BinaryTree type="DecisionTree" boostWeight="1.0000000000000000e+00" itree="15">
      <Node pos="s" depth="0" NCoef="0" IVar="0" Cut="7.8586020507812500e+03" cType="1" res="-3.3780664671212435e-04" rms="3.9980715513229370e-01" purity="5.0000000000000000e-01" nType="0">
        <Node pos="l" depth="1" NCoef="0" IVar="3" Cut="2.1745737304687500e+03" cType="1" res="-2.3634973913431168e-02" rms="4.1017335653305054e-01" purity="4.5284247398376465e-01" nType="0">
          <Node pos="l" depth="2" NCoef="0" IVar="-1" Cut="0.0000000000000000e+00" cType="1" res="-2.2452069446444511e-02" rms="3.9618092775344849e-01" purity="3.4525123238563538e-01" nType="-99"/>
          <Node pos="r" depth="2" NCoef="0" IVar="-1" Cut="0.0000000000000000e+00" cType="1" res="1.2770853936672211e-02" rms="4.1029176115989685e-01" purity="5.7078009843826294e-01" nType="-99"/>
        </Node>
        <Node pos="r" depth="1" NCoef="0" IVar="-1" Cut="0.0000000000000000e+00" cType="1" res="6.0843169689178467e-02" rms="1.3486269116401672e-01" purity="9.6677386760711670e-01" nType="-99"/>
      </Node>
    </BinaryTree>
    <BinaryTree type="DecisionTree" boostWeight="1.0000000000000000e+00" itree="16">
      <Node pos="s" depth="0" NCoef="0" IVar="4" Cut="1.7191365957260132e+00" cType="1" res="-2.4937049602158368e-04" rms="3.9741447567939758e-01" purity="5.0000000000000000e-01" nType="0">
        <Node pos="l" depth="1" NCoef="0" IVar="7" Cut="2.3088937500000000e+04" cType="1" res="-1.9852446019649506e-01" rms="3.3440712094306946e-01" purity="1.9036564230918884e-01" nType="0">
          <Node pos="l" depth="2" NCoef="0" IVar="-1" Cut="0.0000000000000000e+00" cType="1" res="-3.1594563275575638e-02" rms="3.1324431300163269e-01" purity="2.2714678943157196e-01" nType="-99"/>
          <Node pos="r" depth="2" NCoef="0" IVar="-1" Cut="0.0000000000000000e+00" cType="1" res="-6.3456729054450989e-02" rms="3.3755758404731750e-01" purity="1.4990858733654022e-01" nType="-99"/>
        </Node>
        <Node pos="r" depth="1" NCoef="0" IVar="6" Cut="3.6551250457763672e+01" cType="1" res="2.5002161040902138e-02" rms="3.9770126342773438e-01" purity="5.3943377733230591e-01" nType="0">
          <Node pos="l" depth="2" NCoef="0" IVar="-1" Cut="0.0000000000000000e+00" cType="1" res="-3.6732286214828491e-02" rms="3.9241915941238403e-01" purity="2.8450748324394226e-01" nType="-99"/>
          <Node pos="r" depth="2" NCoef="0" IVar="-1" Cut="0.0000000000000000e+00" cType="1" res="1.9452236592769623e-02" rms="3.8130906224250793e-01" purity="6.2215477228164673e-01" nType="-99"/>
        </Node>
      </Node>
    </BinaryTree>
    <BinaryTree type="DecisionTree" boostWeight="1.0000000000000000e+00" itree="17">
      <Node pos="s" depth="0" NCoef="0" IVar="4" Cut="8.9473457336425781e+00" cType="1" res="-2.3880985099822283e-04" rms="3.9357596635818481e-01" purity="5.0000000000000000e-01" nType="0">
        <Node pos="l" depth="1" NCoef="0" IVar="6" Cut="8.2503814697265625e+01" cType="1" res="1.7080115154385567e-02" rms="3.9183330535888672e-01" purity="5.2158498764038086e-01" nType="0">
          <Node pos="l" depth="2" NCoef="0" IVar="-1" Cut="0.0000000000000000e+00" cType="1" res="-1.7203969880938530e-02" rms="4.0005889534950256e-01" purity="4.1908004879951477e-01" nType="-99"/>
          <Node pos="r" depth="2" NCoef="0" IVar="-1" Cut="0.0000000000000000e+00" cType="1" res="1.9890418276190758e-02" rms="3.7134391069412231e-01" purity="5.9843093156814575e-01" nType="-99"/>
        </Node>
        <Node pos="r" depth="1" NCoef="0" IVar="-1" Cut="0.0000000000000000e+00" cType="1" res="-7.1584261953830719e-02" rms="3.0010685324668884e-01" purity="1.4186850190162659e-01" nType="-99"/>
      </Node>
    </BinaryTree>
    <BinaryTree type="DecisionTree" boostWeight="1.0000000000000000e+00" itree="18">
      <Node pos="s" depth="0" NCoef="0" IVar="2" Cut="5.8816152343750000e+03" cType="1" res="-2.2035362781025469e-04" rms="3.9067608118057251e-01" purity="5.0000000000000000e-01" nType="0">
        <Node pos="l" depth="1" NCoef="0" IVar="2" Cut="5.4415161132812500e+03" cType="1" res="2.6331519708037376e-02" rms="3.9689987897872925e-01" purity="5.6077378988265991e-01" nType="0">
          <Node pos="l" depth="2" NCoef="0" IVar="-1" Cut="0.0000000000000000e+00" cType="1" res="-3.1327378004789352e-02" rms="3.1319308280944824e-01" purity="2.1340273320674896e-01" nType="-99"/>
          <Node pos="r" depth="2" NCoef="0" IVar="-1" Cut="0.0000000000000000e+00" cType="1" res="1.8661154434084892e-02" rms="4.1247466206550598e-01" purity="7.0290702581405640e-01" nType="-99"/>
        </Node>
        <Node pos="r" depth="1" NCoef="0" IVar="8" Cut="1.8465969238281250e+03" cType="1" res="-1.7429725825786591e-01" rms="2.9251801967620850e-01" purity="1.0156056284904480e-01" nType="0">
          <Node pos="l" depth="2" NCoef="0" IVar="-1" Cut="0.0000000000000000e+00" cType="1" res="-6.0032371431589127e-02" rms="1.8642023205757141e-01" purity="3.5436473786830902e-02" nType="-99"/>
          <Node pos="r" depth="2" NCoef="0" IVar="-1" Cut="0.0000000000000000e+00" cType="1" res="-2.3516749963164330e-02" rms="3.7729075551033020e-01" purity="1.9036564230918884e-01" nType="-99"/>
        </Node>
      </Node>
    </BinaryTree>
    <BinaryTree type="DecisionTree" boostWeight="1.0000000000000000e+00" itree="19">
      <Node pos="s" depth="0" NCoef="0" IVar="0" Cut="5.5822954101562500e+03" cType="1" res="-2.5601472589187324e-04" rms="3.8790953159332275e-01" purity="5.0000000000000000e-01" nType="0">
        <Node pos="l" depth="1" NCoef="0" IVar="12" Cut="2.7208906250000000e+03" cType="1" res="-3.9243962615728378e-02" rms="4.0756365656852722e-01" purity="4.1276991367340088e-01" nType="0">
          <Node pos="l" depth="2" NCoef="0" IVar="-1" Cut="0.0000000000000000e+00" cType="1" res="-3.3407673239707947e-02" rms="3.7123346328735352e-01" purity="2.4950391054153442e-01" nType="-99"/>
          <Node pos="r" depth="2" NCoef="0" IVar="-1" Cut="0.0000000000000000e+00" cType="1" res="2.1255456376820803e-03" rms="4.1621339321136475e-01" purity="4.9456518888473511e-01" nType="-99"/>
        </Node>
        <Node pos="r" depth="1" NCoef="0" IVar="7" Cut="2.6719562500000000e+04" cType="1" res="1.1212276667356491e-01" rms="2.9731968045234680e-01" purity="7.5143182277679443e-01" nType="0">
          <Node pos="l" depth="2" NCoef="0" IVar="-1" Cut="0.0000000000000000e+00" cType="1" res="1.7965527251362801e-02" rms="3.2445964217185974e-01" purity="6.7908900976181030e-01" nType="-99"/>
          <Node pos="r" depth="2" NCoef="0" IVar="-1" Cut="0.0000000000000000e+00" cType="1" res="5.9030767530202866e-02" rms="1.5527088940143585e-01" purity="9.5487624406814575e-01" nType="-99"/>
        </Node>
      </Node>
    </BinaryTree>
    <BinaryTree type="DecisionTree" boostWeight="1.0000000000000000e+00" itree="20">
      <Node pos="s" depth="0" NCoef="0" IVar="8" Cut="1.8622194824218750e+03" cType="1" res="-2.0406395196914673e-04" rms="3.8578853011131287e-01" purity="5.0000000000000000e-01" nType="0">
        <Node pos="l" depth="1" NCoef="0" IVar="12" Cut="4.0172053222656250e+03" cType="1" res="-5.8872330933809280e-02" rms="3.8677677512168884e-01" purity="3.9366996288299561e-01" nType="0">
          <Node pos="l" depth="2" NCoef="0" IVar="-1" Cut="0.0000000000000000e+00" cType="1" res="-2.9514834284782410e-02" rms="3.5753551125526428e-01" purity="2.8022915124893188e-01" nType="-99"/>
          <Node pos="r" depth="2" NCoef="0" IVar="-1" Cut="0.0000000000000000e+00" cType="1" res="6.1630439013242722e-03" rms="4.1029760241508484e-01" purity="5.5669510364532471e-01" nType="-99"/>
        </Node>
        <Node pos="r" depth="1" NCoef="0" IVar="6" Cut="5.3986244201660156e+01" cType="1" res="7.2408244013786316e-02" rms="3.7196138501167297e-01" purity="6.3160210847854614e-01" nType="0">
          <Node pos="l" depth="2" NCoef="0" IVar="-1" Cut="0.0000000000000000e+00" cType="1" res="-1.2889229692518711e-02" rms="4.0204098820686340e-01" purity="4.3756672739982605e-01" nType="-99"/>
          <Node pos="r" depth="2" NCoef="0" IVar="-1" Cut="0.0000000000000000e+00" cType="1" res="3.8928899914026260e-02" rms="3.2108381390571594e-01" purity="7.6779025793075562e-01" nType="-99"/>
        </Node>
      </Node>
    </BinaryTree>
    <BinaryTree type="DecisionTree" boostWeight="1.0000000000000000e+00" itree="21">
      <Node pos="s" depth="0" NCoef="0" IVar="4" Cut="1.7191365957260132e+00" cType="1" res="-1.6371313540730625e-04" rms="3.8285040855407715e-01" purity="5.0000000000000000e-01" nType="0">
        <Node pos="l" depth="1" NCoef="0" IVar="9" Cut="4.2508598632812500e+03" cType="1" res="-1.7950098216533661e-01" rms="3.2458242774009705e-01" purity="1.9036564230918884e-01" nType="0">
          <Node pos="l" depth="2" NCoef="0" IVar="-1" Cut="0.0000000000000000e+00" cType="1" res="-2.6614354923367500e-02" rms="3.3386191725730896e-01" purity="2.5324273109436035e-01" nType="-99"/>
          <Node pos="r" depth="2" NCoef="0" IVar="-1" Cut="0.0000000000000000e+00" cType="1" res="-5.9726115316152573e-02" rms="3.0012905597686768e-01" purity="1.3464696705341339e-01" nType="-99"/>
        </Node>
        <Node pos="r" depth="1" NCoef="0" IVar="6" Cut="3.6551250457763672e+01" cType="1" res="2.2675972431898117e-02" rms="3.8367497920989990e-01" purity="5.3943377733230591e-01" nType="0">
          <Node pos="l" depth="2" NCoef="0" IVar="-1" Cut="0.0000000000000000e+00" cType="1" res="-3.0580583959817886e-02" rms="3.9171928167343140e-01" purity="2.8450748324394226e-01" nType="-99"/>
          <Node pos="r" depth="2" NCoef="0" IVar="-1" Cut="0.0000000000000000e+00" cType="1" res="1.7048781737685204e-02" rms="3.6839392781257629e-01" purity="6.2215477228164673e-01" nType="-99"/>
        </Node>
      </Node>
    </BinaryTree>
    <BinaryTree type="DecisionTree" boostWeight="1.0000000000000000e+00" itree="22">
      <Node pos="s" depth="0" NCoef="0" IVar="4" Cut="8.9473457336425781e+00" cType="1" res="-1.6573915490880609e-04" rms="3.7994012236595154e-01" purity="5.0000000000000000e-01" nType="0">
        <Node pos="l" depth="1" NCoef="0" IVar="2" Cut="5.7398959960937500e+03" cType="1" res="1.5099347569048405e-02" rms="3.7882742285728455e-01" purity="5.2158498764038086e-01" nType="0">
          <Node pos="l" depth="2" NCoef="0" IVar="-1" Cut="0.0000000000000000e+00" cType="1" res="1.2678633444011211e-02" rms="3.7775495648384094e-01" purity="6.0245788097381592e-01" nType="-99"/>
          <Node pos="r" depth="2" NCoef="0" IVar="-1" Cut="0.0000000000000000e+00" cType="1" res="-2.9083931818604469e-02" rms="3.5178497433662415e-01" purity="2.3384031653404236e-01" nType="-99"/>
        </Node>
        <Node pos="r" depth="1" NCoef="0" IVar="-1" Cut="0.0000000000000000e+00" cType="1" res="-6.6002890467643738e-02" rms="3.0058076977729797e-01" purity="1.4186850190162659e-01" nType="-99"/>
      </Node>
    </BinaryTree>
    <BinaryTree type="DecisionTree" boostWeight="1.0000000000000000e+00" itree="23">
      <Node pos="s" depth="0" NCoef="0" IVar="2" Cut="5.3147377929687500e+03" cType="1" res="-1.7435563495382667e-04" rms="3.7765744328498840e-01" purity="5.0000000000000000e-01" nType="0">
        <Node pos="l" depth="1" NCoef="0" IVar="6" Cut="1.5137452697753906e+02" cType="1" res="-1.4145831763744354e-01" rms="1.9467596709728241e-01" purity="5.1217984408140182e-02" nType="0">
          <Node pos="l" depth="2" NCoef="0" IVar="-1" Cut="0.0000000000000000e+00" cType="1" res="-6.5588943660259247e-02" rms="8.3524562418460846e-02" purity="0.0000000000000000e+00" nType="-99"/>
          <Node pos="r" depth="2" NCoef="0" IVar="-1" Cut="0.0000000000000000e+00" cType="1" res="-3.2795634120702744e-02" rms="2.3641178011894226e-01" purity="8.9227415621280670e-02" nType="-99"/>
        </Node>
        <Node pos="r" depth="1" NCoef="0" IVar="2" Cut="5.7379702148437500e+03" cType="1" res="2.6228776201605797e-02" rms="3.9720138907432556e-01" purity="5.8386832475662231e-01" nType="0">
          <Node pos="l" depth="2" NCoef="0" IVar="-1" Cut="0.0000000000000000e+00" cType="1" res="1.6169229522347450e-02" rms="4.0201684832572937e-01" purity="7.0118159055709839e-01" nType="-99"/>
          <Node pos="r" depth="2" NCoef="0" IVar="-1" Cut="0.0000000000000000e+00" cType="1" res="-2.7102027088403702e-02" rms="3.4955614805221558e-01" purity="2.3044495284557343e-01" nType="-99"/>
        </Node>
      </Node>
    </BinaryTree>
    <BinaryTree type="DecisionTree" boostWeight="1.0000000000000000e+00" itree="24">
      <Node pos="s" depth="0" NCoef="0" IVar="8" Cut="1.8622194824218750e+03" cType="1" res="-2.2307567996904254e-04" rms="3.7556046247482300e-01" purity="5.0000000000000000e-01" nType="0">
        <Node pos="l" depth="1" NCoef="0" IVar="11" Cut="3.2763306640625000e+04" cType="1" res="-5.2345871925354004e-02" rms="3.7835612893104553e-01" purity="3.9366996288299561e-01" nType="0">
          <Node pos="l" depth="2" NCoef="0" IVar="-1" Cut="0.0000000000000000e+00" cType="1" res="-3.0246540904045105e-02" rms="3.5045173764228821e-01" purity="2.8154507279396057e-01" nType="-99"/>
          <Node pos="r" depth="2" NCoef="0" IVar="-1" Cut="0.0000000000000000e+00" cType="1" res="2.2810965310782194e-03" rms="3.9276927709579468e-01" purity="4.9856600165367126e-01" nType="-99"/>
        </Node>
        <Node pos="r" depth="1" NCoef="0" IVar="6" Cut="5.3986244201660156e+01" cType="1" res="6.4288057386875153e-02" rms="3.6181876063346863e-01" purity="6.3160210847854614e-01" nType="0">
          <Node pos="l" depth="2" NCoef="0" IVar="-1" Cut="0.0000000000000000e+00" cType="1" res="-1.0298765264451504e-02" rms="3.9860948920249939e-01" purity="4.3756672739982605e-01" nType="-99"/>
          <Node pos="r" depth="2" NCoef="0" IVar="-1" Cut="0.0000000000000000e+00" cType="1" res="3.5011470317840576e-02" rms="3.1292518973350525e-01" purity="7.6779025793075562e-01" nType="-99"/>
        </Node>
      </Node>
    </BinaryTree>
    <BinaryTree type="DecisionTree" boostWeight="1.0000000000000000e+00" itree="25">
      <Node pos="s" depth="0" NCoef="0" IVar="4" Cut="1.7191365957260132e+00" cType="1" res="-1.8092342361342162e-04" rms="3.7327909469604492e-01" purity="5.0000000000000000e-01" nType="0">
        <Node pos="l" depth="1" NCoef="0" IVar="7" Cut="2.3088937500000000e+04" cType="1" res="-1.5998975932598114e-01" rms="3.2072323560714722e-01" purity="1.9036564230918884e-01" nType="0">
          <Node pos="l" depth="2" NCoef="0" IVar="-1" Cut="0.0000000000000000e+00" cType="1" res="-2.5047730654478073e-02" rms="3.0047133564949036e-01" purity="2.2714678943157196e-01" nType="-99"/>
          <Node pos="r" depth="2" NCoef="0" IVar="-1" Cut="0.0000000000000000e+00" cType="1" res="-5.6461840867996216e-02" rms="3.2423019409179688e-01" purity="1.4990858733654022e-01" nType="-99"/>
        </Node>
        <Node pos="r" depth="1" NCoef="0" IVar="6" Cut="3.6551250457763672e+01" cType="1" res="2.0171700045466423e-02" rms="3.7458735704421997e-01" purity="5.3943377733230591e-01" nType="0">
          <Node pos="l" depth="2" NCoef="0" IVar="-1" Cut="0.0000000000000000e+00" cType="1" res="-2.6817999780178070e-02" rms="3.9013525843620300e-01" purity="2.8450748324394226e-01" nType="-99"/>
          <Node pos="r" depth="2" NCoef="0" IVar="-1" Cut="0.0000000000000000e+00" cType="1" res="1.5270075760781765e-02" rms="3.5991746187210083e-01" purity="6.2215477228164673e-01" nType="-99"/>
        </Node>
      </Node>
    </BinaryTree>
    <BinaryTree type="DecisionTree" boostWeight="1.0000000000000000e+00" itree="26">
      <Node pos="s" depth="0" NCoef="0" IVar="4" Cut="8.9473457336425781e+00" cType="1" res="-1.7719085735734552e-04" rms="3.7098979949951172e-01" purity="5.0000000000000000e-01" nType="0">
        <Node pos="l" depth="1" NCoef="0" IVar="4" Cut="2.9624569416046143e+00" cType="1" res="1.3813530094921589e-02" rms="3.7002480030059814e-01" purity="5.2158498764038086e-01" nType="0">
          <Node pos="l" depth="2" NCoef="0" IVar="-1" Cut="0.0000000000000000e+00" cType="1" res="-2.7725243940949440e-02" rms="3.1487604975700378e-01" purity="2.9214575886726379e-01" nType="-99"/>
          <Node pos="r" depth="2" NCoef="0" IVar="-1" Cut="0.0000000000000000e+00" cType="1" res="1.1350144632160664e-02" rms="3.7738838791847229e-01" purity="5.8428853750228882e-01" nType="-99"/>
        </Node>
        <Node pos="r" depth="1" NCoef="0" IVar="-1" Cut="0.0000000000000000e+00" cType="1" res="-6.3423454761505127e-02" rms="3.0391782522201538e-01" purity="1.4186850190162659e-01" nType="-99"/>
      </Node>
    </BinaryTree>
    <BinaryTree type="DecisionTree" boostWeight="1.0000000000000000e+00" itree="27">
      <Node pos="s" depth="0" NCoef="0" IVar="0" Cut="2.1678354492187500e+03" cType="1" res="-1.7630057118367404e-04" rms="3.6908745765686035e-01" purity="5.0000000000000000e-01" nType="0">
        <Node pos="l" depth="1" NCoef="0" IVar="11" Cut="3.4242796875000000e+04" cType="1" res="-9.2217855155467987e-02" rms="3.5530793666839600e-01" purity="3.1297710537910461e-01" nType="0">
          <Node pos="l" depth="2" NCoef="0" IVar="-1" Cut="0.0000000000000000e+00" cType="1" res="-4.7426998615264893e-02" rms="2.9548624157905579e-01" purity="1.8061673641204834e-01" nType="-99"/>
          <Node pos="r" depth="2" NCoef="0" IVar="-1" Cut="0.0000000000000000e+00" cType="1" res="8.7995268404483795e-03" rms="4.0137982368469238e-01" purity="5.2429670095443726e-01" nType="-99"/>
        </Node>
        <Node pos="r" depth="1" NCoef="0" IVar="3" Cut="2.2355212402343750e+03" cType="1" res="3.3223818987607956e-02" rms="3.6831778287887573e-01" purity="5.6786704063415527e-01" nType="0">
          <Node pos="l" depth="2" NCoef="0" IVar="-1" Cut="0.0000000000000000e+00" cType="1" res="-7.0737488567829132e-03" rms="3.8739633560180664e-01" purity="4.4204851984977722e-01" nType="-99"/>
          <Node pos="r" depth="2" NCoef="0" IVar="-1" Cut="0.0000000000000000e+00" cType="1" res="2.5615300983190536e-02" rms="3.3471158146858215e-01" purity="7.0085465908050537e-01" nType="-99"/>
        </Node>
      </Node>
    </BinaryTree>
    <BinaryTree type="DecisionTree" boostWeight="1.0000000000000000e+00" itree="28">
      <Node pos="s" depth="0" NCoef="0" IVar="0" Cut="7.8586020507812500e+03" cType="1" res="-1.6581457748543471e-04" rms="3.6674046516418457e-01" purity="5.0000000000000000e-01" nType="0">
        <Node pos="l" depth="1" NCoef="0" IVar="2" Cut="5.7398959960937500e+03" cType="1" res="-1.7109667882323265e-02" rms="3.7861669063568115e-01" purity="4.5284247398376465e-01" nType="0">
          <Node pos="l" depth="2" NCoef="0" IVar="-1" Cut="0.0000000000000000e+00" cType="1" res="2.7700080536305904e-03" rms="3.8385337591171265e-01" purity="5.2700203657150269e-01" nType="-99"/>
          <Node pos="r" depth="2" NCoef="0" IVar="-1" Cut="0.0000000000000000e+00" cType="1" res="-3.0792016535997391e-02" rms="3.4070262312889099e-01" purity="1.8890899419784546e-01" nType="-99"/>
        </Node>
        <Node pos="r" depth="1" NCoef="0" IVar="-1" Cut="0.0000000000000000e+00" cType="1" res="5.5219084024429321e-02" rms="1.2613539397716522e-01" purity="9.6677386760711670e-01" nType="-99"/>
      </Node>
    </BinaryTree>
    <BinaryTree type="DecisionTree" boostWeight="1.0000000000000000e+00" itree="29">
      <Node pos="s" depth="0" NCoef="0" IVar="2" Cut="5.3619775390625000e+03" cType="1" res="-1.2608891120180488e-04" rms="3.6536288261413574e-01" purity="5.0000000000000000e-01" nType="0">
        <Node pos="l" depth="1" NCoef="0" IVar="10" Cut="3.7575247192382812e+02" cType="1" res="-1.1149645596742630e-01" rms="2.3287133872509003e-01" purity="8.7747447192668915e-02" nType="0">
          <Node pos="l" depth="2" NCoef="0" IVar="-1" Cut="0.0000000000000000e+00" cType="1" res="-5.8467373251914978e-02" rms="1.4785361289978027e-01" purity="2.3906704038381577e-02" nType="-99"/>
          <Node pos="r" depth="2" NCoef="0" IVar="-1" Cut="0.0000000000000000e+00" cType="1" res="-1.2224997393786907e-02" rms="3.1116256117820740e-01" purity="1.8833255767822266e-01" nType="-99"/>
        </Node>
        <Node pos="r" depth="1" NCoef="0" IVar="2" Cut="5.9023886718750000e+03" cType="1" res="2.4955393746495247e-02" rms="3.8460084795951843e-01" purity="5.9284245967864990e-01" nType="0">
          <Node pos="l" depth="2" NCoef="0" IVar="-1" Cut="0.0000000000000000e+00" cType="1" res="1.2416562996804714e-02" rms="3.9501172304153442e-01" purity="6.8131250143051147e-01" nType="-99"/>
          <Node pos="r" depth="2" NCoef="0" IVar="-1" Cut="0.0000000000000000e+00" cType="1" res="-4.3487403541803360e-02" rms="2.6024910807609558e-01" purity="6.8447403609752655e-02" nType="-99"/>
        </Node>
      </Node>
    </BinaryTree>
    <BinaryTree type="DecisionTree" boostWeight="1.0000000000000000e+00" itree="30">
      <Node pos="s" depth="0" NCoef="0" IVar="4" Cut="8.9473457336425781e+00" cType="1" res="-2.0253482216503471e-04" rms="3.6360594630241394e-01" purity="5.0000000000000000e-01" nType="0">
        <Node pos="l" depth="1" NCoef="0" IVar="6" Cut="8.2503814697265625e+01" cType="1" res="1.2200607918202877e-02" rms="3.6350426077842712e-01" purity="5.2158498764038086e-01" nType="0">
          <Node pos="l" depth="2" NCoef="0" IVar="-1" Cut="0.0000000000000000e+00" cType="1" res="-1.5025120228528976e-02" rms="3.8059738278388977e-01" purity="4.1908004879951477e-01" nType="-99"/>
          <Node pos="r" depth="2" NCoef="0" IVar="-1" Cut="0.0000000000000000e+00" cType="1" res="1.7097042873501778e-02" rms="3.4061002731323242e-01" purity="5.9843093156814575e-01" nType="-99"/>
        </Node>
        <Node pos="r" depth="1" NCoef="0" IVar="-1" Cut="0.0000000000000000e+00" cType="1" res="-5.9461049735546112e-02" rms="2.9754748940467834e-01" purity="1.4186850190162659e-01" nType="-99"/>
      </Node>
    </BinaryTree>
    <BinaryTree type="DecisionTree" boostWeight="1.0000000000000000e+00" itree="31">
      <Node pos="s" depth="0" NCoef="0" IVar="0" Cut="5.5822954101562500e+03" cType="1" res="-1.8748878210317343e-04" rms="3.6164397001266479e-01" purity="5.0000000000000000e-01" nType="0">
        <Node pos="l" depth="1" NCoef="0" IVar="12" Cut="2.3623503417968750e+03" cType="1" res="-2.9131645336747169e-02" rms="3.8444614410400391e-01" purity="4.1276991367340088e-01" nType="0">
          <Node pos="l" depth="2" NCoef="0" IVar="-1" Cut="0.0000000000000000e+00" cType="1" res="-4.1090622544288635e-02" rms="3.2666903734207153e-01" purity="1.8833255767822266e-01" nType="-99"/>
          <Node pos="r" depth="2" NCoef="0" IVar="-1" Cut="0.0000000000000000e+00" cType="1" res="8.8504923041909933e-05" rms="3.9122366905212402e-01" purity="4.6618923544883728e-01" nType="-99"/>
        </Node>
        <Node pos="r" depth="1" NCoef="0" IVar="8" Cut="2.1573898925781250e+03" cType="1" res="8.3241090178489685e-02" rms="2.6902508735656738e-01" purity="7.5143182277679443e-01" nType="0">
          <Node pos="l" depth="2" NCoef="0" IVar="-1" Cut="0.0000000000000000e+00" cType="1" res="6.9094700738787651e-03" rms="3.1201809644699097e-01" purity="6.2205368280410767e-01" nType="-99"/>
          <Node pos="r" depth="2" NCoef="0" IVar="-1" Cut="0.0000000000000000e+00" cType="1" res="4.0984690189361572e-02" rms="2.1141430735588074e-01" purity="8.6605858802795410e-01" nType="-99"/>
        </Node>
      </Node>
    </BinaryTree>
    <BinaryTree type="DecisionTree" boostWeight="1.0000000000000000e+00" itree="32">
      <Node pos="s" depth="0" NCoef="0" IVar="4" Cut="1.7191365957260132e+00" cType="1" res="-1.5886503388173878e-04" rms="3.6009857058525085e-01" purity="5.0000000000000000e-01" nType="0">
        <Node pos="l" depth="1" NCoef="0" IVar="7" Cut="2.3088937500000000e+04" cType="1" res="-1.3339197635650635e-01" rms="3.1489720940589905e-01" purity="1.9036564230918884e-01" nType="0">
          <Node pos="l" depth="2" NCoef="0" IVar="-1" Cut="0.0000000000000000e+00" cType="1" res="-2.0597217604517937e-02" rms="2.9442468285560608e-01" purity="2.2714678943157196e-01" nType="-99"/>
          <Node pos="r" depth="2" NCoef="0" IVar="-1" Cut="0.0000000000000000e+00" cType="1" res="-5.0838876515626907e-02" rms="3.2123798131942749e-01" purity="1.4990858733654022e-01" nType="-99"/>
        </Node>
        <Node pos="r" depth="1" NCoef="0" IVar="6" Cut="6.7652587890625000e+01" cType="1" res="1.6809176653623581e-02" rms="3.6195036768913269e-01" purity="5.3943377733230591e-01" nType="0">
          <Node pos="l" depth="2" NCoef="0" IVar="-1" Cut="0.0000000000000000e+00" cType="1" res="-1.6213001683354378e-02" rms="3.8732627034187317e-01" purity="4.0033161640167236e-01" nType="-99"/>
          <Node pos="r" depth="2" NCoef="0" IVar="-1" Cut="0.0000000000000000e+00" cType="1" res="1.8764328211545944e-02" rms="3.3329504728317261e-01" purity="6.3263797760009766e-01" nType="-99"/>
        </Node>
      </Node>
    </BinaryTree>
    <BinaryTree type="DecisionTree" boostWeight="1.0000000000000000e+00" itree="33">
      <Node pos="s" depth="0" NCoef="0" IVar="2" Cut="5.3147377929687500e+03" cType="1" res="-1.4630251098424196e-04" rms="3.5816234350204468e-01" purity="5.0000000000000000e-01" nType="0">
        <Node pos="l" depth="1" NCoef="0" IVar="6" Cut="1.5137452697753906e+02" cType="1" res="-1.0930630564689636e-01" rms="1.8573337793350220e-01" purity="5.1217984408140182e-02" nType="0">
          <Node pos="l" depth="2" NCoef="0" IVar="-1" Cut="0.0000000000000000e+00" cType="1" res="-6.3827656209468842e-02" rms="8.9916832745075226e-02" purity="0.0000000000000000e+00" nType="-99"/>
          <Node pos="r" depth="2" NCoef="0" IVar="-1" Cut="0.0000000000000000e+00" cType="1" res="-2.6526024565100670e-02" rms="2.2256137430667877e-01" purity="8.9227415621280670e-02" nType="-99"/>
        </Node>
        <Node pos="r" depth="1" NCoef="0" IVar="2" Cut="5.7379702148437500e+03" cType="1" res="2.0253507420420647e-02" rms="3.7836951017379761e-01" purity="5.8386832475662231e-01" nType="0">
          <Node pos="l" depth="2" NCoef="0" IVar="-1" Cut="0.0000000000000000e+00" cType="1" res="1.3019166886806488e-02" rms="3.8536214828491211e-01" purity="7.0118159055709839e-01" nType="-99"/>
          <Node pos="r" depth="2" NCoef="0" IVar="-1" Cut="0.0000000000000000e+00" cType="1" res="-2.2277556359767914e-02" rms="3.3677497506141663e-01" purity="2.3044495284557343e-01" nType="-99"/>
        </Node>
      </Node>
    </BinaryTree>
    <BinaryTree type="DecisionTree" boostWeight="1.0000000000000000e+00" itree="34">
      <Node pos="s" depth="0" NCoef="0" IVar="4" Cut="8.9473457336425781e+00" cType="1" res="-1.8475105753168464e-04" rms="3.5688343644142151e-01" purity="5.0000000000000000e-01" nType="0">
        <Node pos="l" depth="1" NCoef="0" IVar="6" Cut="8.2503814697265625e+01" cType="1" res="1.1280084960162640e-02" rms="3.5703724622726440e-01" purity="5.2158498764038086e-01" nType="0">
          <Node pos="l" depth="2" NCoef="0" IVar="-1" Cut="0.0000000000000000e+00" cType="1" res="-1.2531186453998089e-02" rms="3.7579038739204407e-01" purity="4.1908004879951477e-01" nType="-99"/>
          <Node pos="r" depth="2" NCoef="0" IVar="-1" Cut="0.0000000000000000e+00" cType="1" res="1.5005983412265778e-02" rms="3.3553999662399292e-01" purity="5.9843093156814575e-01" nType="-99"/>
        </Node>
        <Node pos="r" depth="1" NCoef="0" IVar="-1" Cut="0.0000000000000000e+00" cType="1" res="-5.6626830250024796e-02" rms="2.9526120424270630e-01" purity="1.4186850190162659e-01" nType="-99"/>
      </Node>
    </BinaryTree>
    <BinaryTree type="DecisionTree" boostWeight="1.0000000000000000e+00" itree="35">
      <Node pos="s" depth="0" NCoef="0" IVar="8" Cut="1.8622194824218750e+03" cType="1" res="-1.7226560157723725e-04" rms="3.5532259941101074e-01" purity="5.0000000000000000e-01" nType="0">
        <Node pos="l" depth="1" NCoef="0" IVar="12" Cut="4.0172053222656250e+03" cType="1" res="-4.1997905820608139e-02" rms="3.5990226268768311e-01" purity="3.9366996288299561e-01" nType="0">
          <Node pos="l" depth="2" NCoef="0" IVar="-1" Cut="0.0000000000000000e+00" cType="1" res="-2.4330347776412964e-02" rms="3.3126813173294067e-01" purity="2.8022915124893188e-01" nType="-99"/>
          <Node pos="r" depth="2" NCoef="0" IVar="-1" Cut="0.0000000000000000e+00" cType="1" res="5.7344059459865093e-03" rms="3.8827642798423767e-01" purity="5.5669510364532471e-01" nType="-99"/>
        </Node>
        <Node pos="r" depth="1" NCoef="0" IVar="4" Cut="5.4148464202880859e+00" cType="1" res="5.1594328135251999e-02" rms="3.4257149696350098e-01" purity="6.3160210847854614e-01" nType="0">
          <Node pos="l" depth="2" NCoef="0" IVar="-1" Cut="0.0000000000000000e+00" cType="1" res="3.4413866698741913e-02" rms="3.0946773290634155e-01" purity="7.1343123912811279e-01" nType="-99"/>
          <Node pos="r" depth="2" NCoef="0" IVar="-1" Cut="0.0000000000000000e+00" cType="1" res="-2.7866763412021101e-04" rms="3.5382953286170959e-01" purity="5.7597041130065918e-01" nType="-99"/>
        </Node>
      </Node>
    </BinaryTree>
    <BinaryTree type="DecisionTree" boostWeight="1.0000000000000000e+00" itree="36">
      <Node pos="s" depth="0" NCoef="0" IVar="4" Cut="1.7191365957260132e+00" cType="1" res="-1.5025961329229176e-04" rms="3.5381308197975159e-01" purity="5.0000000000000000e-01" nType="0">
        <Node pos="l" depth="1" NCoef="0" IVar="7" Cut="2.3088937500000000e+04" cType="1" res="-1.2495176494121552e-01" rms="3.1064781546592712e-01" purity="1.9036564230918884e-01" nType="0">
          <Node pos="l" depth="2" NCoef="0" IVar="-1" Cut="0.0000000000000000e+00" cType="1" res="-1.9306708127260208e-02" rms="2.9138174653053284e-01" purity="2.2714678943157196e-01" nType="-99"/>
          <Node pos="r" depth="2" NCoef="0" IVar="-1" Cut="0.0000000000000000e+00" cType="1" res="-4.9069970846176147e-02" rms="3.1668245792388916e-01" purity="1.4990858733654022e-01" nType="-99"/>
        </Node>
        <Node pos="r" depth="1" NCoef="0" IVar="6" Cut="6.7652587890625000e+01" cType="1" res="1.5743967145681381e-02" rms="3.5580927133560181e-01" purity="5.3943377733230591e-01" nType="0">
          <Node pos="l" depth="2" NCoef="0" IVar="-1" Cut="0.0000000000000000e+00" cType="1" res="-1.3374763540923595e-02" rms="3.8471314311027527e-01" purity="4.0033161640167236e-01" nType="-99"/>
          <Node pos="r" depth="2" NCoef="0" IVar="-1" Cut="0.0000000000000000e+00" cType="1" res="1.6679316759109497e-02" rms="3.2743942737579346e-01" purity="6.3263797760009766e-01" nType="-99"/>
        </Node>
      </Node>
    </BinaryTree>
    <BinaryTree type="DecisionTree" boostWeight="1.0000000000000000e+00" itree="37">
      <Node pos="s" depth="0" NCoef="0" IVar="0" Cut="2.1678354492187500e+03" cType="1" res="-1.3958399358671159e-04" rms="3.5229194164276123e-01" purity="5.0000000000000000e-01" nType="0">
        <Node pos="l" depth="1" NCoef="0" IVar="11" Cut="3.4242796875000000e+04" cType="1" res="-7.3381632566452026e-02" rms="3.4048900008201599e-01" purity="3.1297710537910461e-01" nType="0">
          <Node pos="l" depth="2" NCoef="0" IVar="-1" Cut="0.0000000000000000e+00" cType="1" res="-4.2106948792934418e-02" rms="2.8405079245567322e-01" purity="1.8061673641204834e-01" nType="-99"/>
          <Node pos="r" depth="2" NCoef="0" IVar="-1" Cut="0.0000000000000000e+00" cType="1" res="9.0790214017033577e-03" rms="3.9037188887596130e-01" purity="5.2429670095443726e-01" nType="-99"/>
        </Node>
        <Node pos="r" depth="1" NCoef="0" IVar="4" Cut="5.8063836097717285e+00" cType="1" res="2.6438554748892784e-02" rms="3.5273757576942444e-01" purity="5.6786704063415527e-01" nType="0">
          <Node pos="l" depth="2" NCoef="0" IVar="-1" Cut="0.0000000000000000e+00" cType="1" res="2.1753488108515739e-02" rms="3.4590876102447510e-01" purity="6.1560517549514771e-01" nType="-99"/>
          <Node pos="r" depth="2" NCoef="0" IVar="-1" Cut="0.0000000000000000e+00" cType="1" res="-9.5697110518813133e-03" rms="3.5020628571510315e-01" purity="5.1410657167434692e-01" nType="-99"/>
        </Node>
      </Node>
    </BinaryTree>
    <BinaryTree type="DecisionTree" boostWeight="1.0000000000000000e+00" itree="38">
      <Node pos="s" depth="0" NCoef="0" IVar="8" Cut="2.1462006835937500e+03" cType="1" res="-1.3793303514830768e-04" rms="3.5030716657638550e-01" purity="5.0000000000000000e-01" nType="0">
        <Node pos="l" depth="1" NCoef="0" IVar="4" Cut="7.1402935981750488e+00" cType="1" res="-3.2092258334159851e-02" rms="3.5752442479133606e-01" purity="4.2910337448120117e-01" nType="0">
          <Node pos="l" depth="2" NCoef="0" IVar="-1" Cut="0.0000000000000000e+00" cType="1" res="-3.0656732269562781e-04" rms="3.5814970731735229e-01" purity="4.7941285371780396e-01" nType="-99"/>
          <Node pos="r" depth="2" NCoef="0" IVar="-1" Cut="0.0000000000000000e+00" cType="1" res="-4.7121636569499969e-02" rms="3.2360994815826416e-01" purity="2.1601682901382446e-01" nType="-99"/>
        </Node>
        <Node pos="r" depth="1" NCoef="0" IVar="5" Cut="5.9068810939788818e-01" cType="1" res="5.9604328125715256e-02" rms="3.2815518975257874e-01" purity="6.3254940509796143e-01" nType="0">
          <Node pos="l" depth="2" NCoef="0" IVar="-1" Cut="0.0000000000000000e+00" cType="1" res="2.9384198132902384e-03" rms="3.4218069911003113e-01" purity="5.5744391679763794e-01" nType="-99"/>
          <Node pos="r" depth="2" NCoef="0" IVar="-1" Cut="0.0000000000000000e+00" cType="1" res="5.0118032842874527e-02" rms="2.6280000805854797e-01" purity="8.0122137069702148e-01" nType="-99"/>
        </Node>
      </Node>
    </BinaryTree>
    <BinaryTree type="DecisionTree" boostWeight="1.0000000000000000e+00" itree="39">
      <Node pos="s" depth="0" NCoef="0" IVar="0" Cut="7.8586020507812500e+03" cType="1" res="-1.1101535346824676e-04" rms="3.4833809733390808e-01" purity="5.0000000000000000e-01" nType="0">
        <Node pos="l" depth="1" NCoef="0" IVar="8" Cut="2.0242182617187500e+03" cType="1" res="-1.3553814031183720e-02" rms="3.6079099774360657e-01" purity="4.5284247398376465e-01" nType="0">
          <Node pos="l" depth="2" NCoef="0" IVar="-1" Cut="0.0000000000000000e+00" cType="1" res="-1.2723362073302269e-02" rms="3.6108458042144775e-01" purity="3.8642790913581848e-01" nType="-99"/>
          <Node pos="r" depth="2" NCoef="0" IVar="-1" Cut="0.0000000000000000e+00" cType="1" res="1.3505220413208008e-02" rms="3.5130766034126282e-01" purity="5.7674801349639893e-01" nType="-99"/>
        </Node>
        <Node pos="r" depth="1" NCoef="0" IVar="-1" Cut="0.0000000000000000e+00" cType="1" res="5.1851335912942886e-02" rms="1.2015854567289352e-01" purity="9.6677386760711670e-01" nType="-99"/>
      </Node>
    </BinaryTree>
    <BinaryTree type="DecisionTree" boostWeight="1.0000000000000000e+00" itree="40">
      <Node pos="s" depth="0" NCoef="0" IVar="12" Cut="2.6805649414062500e+03" cType="1" res="-6.1323873524088413e-05" rms="3.4736496210098267e-01" purity="5.0000000000000000e-01" nType="0">
        <Node pos="l" depth="1" NCoef="0" IVar="3" Cut="2.4827722167968750e+03" cType="1" res="-7.5108252465724945e-02" rms="3.3606177568435669e-01" purity="2.7538958191871643e-01" nType="0">
          <Node pos="l" depth="2" NCoef="0" IVar="-1" Cut="0.0000000000000000e+00" cType="1" res="-6.0143522918224335e-02" rms="2.0857554674148560e-01" purity="5.7322613894939423e-02" nType="-99"/>
          <Node pos="r" depth="2" NCoef="0" IVar="-1" Cut="0.0000000000000000e+00" cType="1" res="-2.4146500509232283e-03" rms="3.8086870312690735e-01" purity="4.1152083873748779e-01" nType="-99"/>
        </Node>
        <Node pos="r" depth="1" NCoef="0" IVar="10" Cut="2.0361727905273438e+02" cType="1" res="2.4164581671357155e-02" rms="3.4749260544776917e-01" purity="5.7250648736953735e-01" nType="0">
          <Node pos="l" depth="2" NCoef="0" IVar="-1" Cut="0.0000000000000000e+00" cType="1" res="-3.6716431379318237e-02" rms="3.3648151159286499e-01" purity="2.7424749732017517e-01" nType="-99"/>
          <Node pos="r" depth="2" NCoef="0" IVar="-1" Cut="0.0000000000000000e+00" cType="1" res="1.2020164169371128e-02" rms="3.4388360381126404e-01" purity="6.1191028356552124e-01" nType="-99"/>
        </Node>
      </Node>
    </BinaryTree>
    <BinaryTree type="DecisionTree" boostWeight="1.0000000000000000e+00" itree="41">
      <Node pos="s" depth="0" NCoef="0" IVar="9" Cut="2.6159143066406250e+03" cType="1" res="-9.1190348030067980e-05" rms="3.4554168581962585e-01" purity="5.0000000000000000e-01" nType="0">
        <Node pos="l" depth="1" NCoef="0" IVar="4" Cut="5.8063836097717285e+00" cType="1" res="9.8431363701820374e-02" rms="3.3926993608474731e-01" purity="5.8519178628921509e-01" nType="0">
          <Node pos="l" depth="2" NCoef="0" IVar="-1" Cut="0.0000000000000000e+00" cType="1" res="6.3914746046066284e-02" rms="2.4059922993183136e-01" purity="7.3832297325134277e-01" nType="-99"/>
          <Node pos="r" depth="2" NCoef="0" IVar="-1" Cut="0.0000000000000000e+00" cType="1" res="1.2691521551460028e-03" rms="3.6126834154129028e-01" purity="4.8466938734054565e-01" nType="-99"/>
        </Node>
        <Node pos="r" depth="1" NCoef="0" IVar="4" Cut="1.3225860595703125e+00" cType="1" res="-1.7069481313228607e-02" rms="3.4377056360244751e-01" purity="4.8531895875930786e-01" nType="0">
          <Node pos="l" depth="2" NCoef="0" IVar="-1" Cut="0.0000000000000000e+00" cType="1" res="-6.5713256597518921e-02" rms="2.2227635979652405e-01" purity="4.6697035431861877e-02" nType="-99"/>
          <Node pos="r" depth="2" NCoef="0" IVar="-1" Cut="0.0000000000000000e+00" cType="1" res="-6.0096196830272675e-04" rms="3.4621581435203552e-01" purity="5.1706230640411377e-01" nType="-99"/>
        </Node>
      </Node>
    </BinaryTree>
    <BinaryTree type="DecisionTree" boostWeight="1.0000000000000000e+00" itree="42">
      <Node pos="s" depth="0" NCoef="0" IVar="2" Cut="5.3147377929687500e+03" cType="1" res="-9.9721015430986881e-05" rms="3.4338214993476868e-01" purity="5.0000000000000000e-01" nType="0">
        <Node pos="l" depth="1" NCoef="0" IVar="6" Cut="1.5137452697753906e+02" cType="1" res="-9.5148235559463501e-02" rms="1.7900167405605316e-01" purity="5.1217984408140182e-02" nType="0">
          <Node pos="l" depth="2" NCoef="0" IVar="-1" Cut="0.0000000000000000e+00" cType="1" res="-6.3421957194805145e-02" rms="9.4809405505657196e-02" purity="0.0000000000000000e+00" nType="-99"/>
          <Node pos="r" depth="2" NCoef="0" IVar="-1" Cut="0.0000000000000000e+00" cType="1" res="-2.3825168609619141e-02" rms="2.1178235113620758e-01" purity="8.9227415621280670e-02" nType="-99"/>
        </Node>
        <Node pos="r" depth="1" NCoef="0" IVar="2" Cut="5.7379702148437500e+03" cType="1" res="1.7662934958934784e-02" rms="3.6325582861900330e-01" purity="5.8386832475662231e-01" nType="0">
          <Node pos="l" depth="2" NCoef="0" IVar="-1" Cut="0.0000000000000000e+00" cType="1" res="1.2158457189798355e-02" rms="3.6990952491760254e-01" purity="7.0118159055709839e-01" nType="-99"/>
          <Node pos="r" depth="2" NCoef="0" IVar="-1" Cut="0.0000000000000000e+00" cType="1" res="-2.1466080099344254e-02" rms="3.2539138197898865e-01" purity="2.3044495284557343e-01" nType="-99"/>
        </Node>
      </Node>
    </BinaryTree>
    <BinaryTree type="DecisionTree" boostWeight="1.0000000000000000e+00" itree="43">
      <Node pos="s" depth="0" NCoef="0" IVar="4" Cut="8.9473457336425781e+00" cType="1" res="-1.3712821237277240e-04" rms="3.4229278564453125e-01" purity="5.0000000000000000e-01" nType="0">
        <Node pos="l" depth="1" NCoef="0" IVar="4" Cut="2.9624569416046143e+00" cType="1" res="9.1994088143110275e-03" rms="3.4363991022109985e-01" purity="5.2158498764038086e-01" nType="0">
          <Node pos="l" depth="2" NCoef="0" IVar="-1" Cut="0.0000000000000000e+00" cType="1" res="-2.4078741669654846e-02" rms="2.8691920638084412e-01" purity="2.9214575886726379e-01" nType="-99"/>
          <Node pos="r" depth="2" NCoef="0" IVar="-1" Cut="0.0000000000000000e+00" cType="1" res="9.0829422697424889e-03" rms="3.5374811291694641e-01" purity="5.8428853750228882e-01" nType="-99"/>
        </Node>
        <Node pos="r" depth="1" NCoef="0" IVar="-1" Cut="0.0000000000000000e+00" cType="1" res="-5.0548713654279709e-02" rms="2.7638712525367737e-01" purity="1.4186850190162659e-01" nType="-99"/>
      </Node>
    </BinaryTree>
    <BinaryTree type="DecisionTree" boostWeight="1.0000000000000000e+00" itree="44">
      <Node pos="s" depth="0" NCoef="0" IVar="0" Cut="7.8586020507812500e+03" cType="1" res="-1.3657328963745385e-04" rms="3.4120398759841919e-01" purity="5.0000000000000000e-01" nType="0">
        <Node pos="l" depth="1" NCoef="0" IVar="12" Cut="2.7879470214843750e+03" cType="1" res="-1.2011002749204636e-02" rms="3.5404101014137268e-01" purity="4.5284247398376465e-01" nType="0">
          <Node pos="l" depth="2" NCoef="0" IVar="-1" Cut="0.0000000000000000e+00" cType="1" res="-2.1227350458502769e-02" rms="3.3462122082710266e-01" purity="2.8547418117523193e-01" nType="-99"/>
          <Node pos="r" depth="2" NCoef="0" IVar="-1" Cut="0.0000000000000000e+00" cType="1" res="4.0000546723604202e-03" rms="3.5871803760528564e-01" purity="5.2480000257492065e-01" nType="-99"/>
        </Node>
        <Node pos="r" depth="1" NCoef="0" IVar="-1" Cut="0.0000000000000000e+00" cType="1" res="5.0238683819770813e-02" rms="1.1344561725854874e-01" purity="9.6677386760711670e-01" nType="-99"/>
      </Node>
    </BinaryTree>
    <BinaryTree type="DecisionTree" boostWeight="1.0000000000000000e+00" itree="45">
      <Node pos="s" depth="0" NCoef="0" IVar="9" Cut="2.6159143066406250e+03" cType="1" res="-9.5182193035725504e-05" rms="3.4034574031829834e-01" purity="5.0000000000000000e-01" nType="0">
        <Node pos="l" depth="1" NCoef="0" IVar="4" Cut="5.8063836097717285e+00" cType="1" res="8.8733129203319550e-02" rms="3.3120927214622498e-01" purity="5.8519178628921509e-01" nType="0">
          <Node pos="l" depth="2" NCoef="0" IVar="-1" Cut="0.0000000000000000e+00" cType="1" res="5.9501748532056808e-02" rms="2.3022784292697906e-01" purity="7.3832297325134277e-01" nType="-99"/>
          <Node pos="r" depth="2" NCoef="0" IVar="-1" Cut="0.0000000000000000e+00" cType="1" res="1.2541570467874408e-03" rms="3.5922059416770935e-01" purity="4.8466938734054565e-01" nType="-99"/>
        </Node>
        <Node pos="r" depth="1" NCoef="0" IVar="0" Cut="5.5822954101562500e+03" cType="1" res="-1.5402873978018761e-02" rms="3.3955630660057068e-01" purity="4.8531895875930786e-01" nType="0">
          <Node pos="l" depth="2" NCoef="0" IVar="-1" Cut="0.0000000000000000e+00" cType="1" res="-1.2046299874782562e-02" rms="3.6082905530929565e-01" purity="3.8164892792701721e-01" nType="-99"/>
          <Node pos="r" depth="2" NCoef="0" IVar="-1" Cut="0.0000000000000000e+00" cType="1" res="2.3382985964417458e-02" rms="2.4546824395656586e-01" purity="7.9870128631591797e-01" nType="-99"/>
        </Node>
      </Node>
    </BinaryTree>
    <BinaryTree type="DecisionTree" boostWeight="1.0000000000000000e+00" itree="46">
      <Node pos="s" depth="0" NCoef="0" IVar="2" Cut="5.3619775390625000e+03" cType="1" res="-6.3777166360523552e-05" rms="3.3878135681152344e-01" purity="5.0000000000000000e-01" nType="0">
        <Node pos="l" depth="1" NCoef="0" IVar="9" Cut="5.1095605468750000e+03" cType="1" res="-7.7027387917041779e-02" rms="2.2239086031913757e-01" purity="8.7747447192668915e-02" nType="0">
          <Node pos="l" depth="2" NCoef="0" IVar="-1" Cut="0.0000000000000000e+00" cType="1" res="-4.7782201319932938e-02" rms="1.7505884170532227e-01" purity="6.2027227133512497e-02" nType="-99"/>
          <Node pos="r" depth="2" NCoef="0" IVar="-1" Cut="0.0000000000000000e+00" cType="1" res="6.3990121707320213e-03" rms="2.8841349482536316e-01" purity="1.4990858733654022e-01" nType="-99"/>
        </Node>
        <Node pos="r" depth="1" NCoef="0" IVar="10" Cut="2.0833163452148438e+02" cType="1" res="1.7269033938646317e-02" rms="3.5755819082260132e-01" purity="5.9284245967864990e-01" nType="0">
          <Node pos="l" depth="2" NCoef="0" IVar="-1" Cut="0.0000000000000000e+00" cType="1" res="-3.6503072828054428e-02" rms="3.7638413906097412e-01" purity="3.5528594255447388e-01" nType="-99"/>
          <Node pos="r" depth="2" NCoef="0" IVar="-1" Cut="0.0000000000000000e+00" cType="1" res="9.1125238686800003e-03" rms="3.5123381018638611e-01" purity="6.1711454391479492e-01" nType="-99"/>
        </Node>
      </Node>
    </BinaryTree>
    <BinaryTree type="DecisionTree" boostWeight="1.0000000000000000e+00" itree="47">
      <Node pos="s" depth="0" NCoef="0" IVar="2" Cut="5.7871357421875000e+03" cType="1" res="-8.8671076809987426e-05" rms="3.3756414055824280e-01" purity="5.0000000000000000e-01" nType="0">
        <Node pos="l" depth="1" NCoef="0" IVar="6" Cut="3.7283832550048828e+01" cType="1" res="1.6835365444421768e-02" rms="3.4009829163551331e-01" purity="5.6803071498870850e-01" nType="0">
          <Node pos="l" depth="2" NCoef="0" IVar="-1" Cut="0.0000000000000000e+00" cType="1" res="-2.3983016610145569e-02" rms="3.7214595079421997e-01" purity="3.2277110219001770e-01" nType="-99"/>
          <Node pos="r" depth="2" NCoef="0" IVar="-1" Cut="0.0000000000000000e+00" cType="1" res="1.2614835053682327e-02" rms="3.2585102319717407e-01" purity="6.3067412376403809e-01" nType="-99"/>
        </Node>
        <Node pos="r" depth="1" NCoef="0" IVar="9" Cut="4.1435532226562500e+03" cType="1" res="-7.6519213616847992e-02" rms="3.1473618745803833e-01" purity="1.9276672601699829e-01" nType="0">
          <Node pos="l" depth="2" NCoef="0" IVar="-1" Cut="0.0000000000000000e+00" cType="1" res="1.3479888439178467e-02" rms="4.0078946948051453e-01" purity="3.9805823564529419e-01" nType="-99"/>
          <Node pos="r" depth="2" NCoef="0" IVar="-1" Cut="0.0000000000000000e+00" cType="1" res="-4.6070247888565063e-02" rms="2.3683172464370728e-01" purity="8.9227423071861267e-02" nType="-99"/>
        </Node>
      </Node>
    </BinaryTree>
    <BinaryTree type="DecisionTree" boostWeight="1.0000000000000000e+00" itree="48">
      <Node pos="s" depth="0" NCoef="0" IVar="8" Cut="2.1462006835937500e+03" cType="1" res="-1.1065520811825991e-04" rms="3.3597111701965332e-01" purity="5.0000000000000000e-01" nType="0">
        <Node pos="l" depth="1" NCoef="0" IVar="4" Cut="7.1402935981750488e+00" cType="1" res="-2.5507062673568726e-02" rms="3.4379705786705017e-01" purity="4.2910337448120117e-01" nType="0">
          <Node pos="l" depth="2" NCoef="0" IVar="-1" Cut="0.0000000000000000e+00" cType="1" res="3.1924218637868762e-04" rms="3.4464439749717712e-01" purity="4.7941285371780396e-01" nType="-99"/>
          <Node pos="r" depth="2" NCoef="0" IVar="-1" Cut="0.0000000000000000e+00" cType="1" res="-4.2929083108901978e-02" rms="3.1616437435150146e-01" purity="2.1601682901382446e-01" nType="-99"/>
        </Node>
        <Node pos="r" depth="1" NCoef="0" IVar="5" Cut="5.9068810939788818e-01" cType="1" res="4.7370828688144684e-02" rms="3.1538903713226318e-01" purity="6.3254940509796143e-01" nType="0">
          <Node pos="l" depth="2" NCoef="0" IVar="-1" Cut="0.0000000000000000e+00" cType="1" res="1.7485311254858971e-03" rms="3.2935738563537598e-01" purity="5.5744391679763794e-01" nType="-99"/>
          <Node pos="r" depth="2" NCoef="0" IVar="-1" Cut="0.0000000000000000e+00" cType="1" res="4.6189919114112854e-02" rms="2.5838837027549744e-01" purity="8.0122137069702148e-01" nType="-99"/>
        </Node>
      </Node>
    </BinaryTree>
    <BinaryTree type="DecisionTree" boostWeight="1.0000000000000000e+00" itree="49">
      <Node pos="s" depth="0" NCoef="0" IVar="4" Cut="1.7191365957260132e+00" cType="1" res="-8.9206710981670767e-05" rms="3.3447897434234619e-01" purity="5.0000000000000000e-01" nType="0">
        <Node pos="l" depth="1" NCoef="0" IVar="7" Cut="2.3088937500000000e+04" cType="1" res="-9.6721284091472626e-02" rms="2.8445628285408020e-01" purity="1.9036564230918884e-01" nType="0">
          <Node pos="l" depth="2" NCoef="0" IVar="-1" Cut="0.0000000000000000e+00" cType="1" res="-1.6512965783476830e-02" rms="2.6036912202835083e-01" purity="2.2714678943157196e-01" nType="-99"/>
          <Node pos="r" depth="2" NCoef="0" IVar="-1" Cut="0.0000000000000000e+00" cType="1" res="-4.0880076587200165e-02" rms="2.9998838901519775e-01" purity="1.4990858733654022e-01" nType="-99"/>
        </Node>
        <Node pos="r" depth="1" NCoef="0" IVar="4" Cut="5.1828784942626953e+00" cType="1" res="1.2217473238706589e-02" rms="3.3834677934646606e-01" purity="5.3943377733230591e-01" nType="0">
          <Node pos="l" depth="2" NCoef="0" IVar="-1" Cut="0.0000000000000000e+00" cType="1" res="2.1652067080140114e-02" rms="3.2143938541412354e-01" purity="6.1728394031524658e-01" nType="-99"/>
          <Node pos="r" depth="2" NCoef="0" IVar="-1" Cut="0.0000000000000000e+00" cType="1" res="-7.3385206051170826e-03" rms="3.4230169653892517e-01" purity="4.9406257271766663e-01" nType="-99"/>
        </Node>
      </Node>
    </BinaryTree>
    <BinaryTree type="DecisionTree" boostWeight="1.0000000000000000e+00" itree="50">
      <Node pos="s" depth="0" NCoef="0" IVar="2" Cut="5.3147377929687500e+03" cType="1" res="-8.3429149526637048e-05" rms="3.3328416943550110e-01" purity="5.0000000000000000e-01" nType="0">
        <Node pos="l" depth="1" NCoef="0" IVar="6" Cut="1.5137452697753906e+02" cType="1" res="-8.0423325300216675e-02" rms="1.7444361746311188e-01" purity="5.1217984408140182e-02" nType="0">
          <Node pos="l" depth="2" NCoef="0" IVar="-1" Cut="0.0000000000000000e+00" cType="1" res="-6.2406569719314575e-02" rms="9.3374349176883698e-02" purity="0.0000000000000000e+00" nType="-99"/>
          <Node pos="r" depth="2" NCoef="0" IVar="-1" Cut="0.0000000000000000e+00" cType="1" res="-2.0474618300795555e-02" rms="2.0713008940219879e-01" purity="8.9227415621280670e-02" nType="-99"/>
        </Node>
        <Node pos="r" depth="1" NCoef="0" IVar="10" Cut="2.0833163452148438e+02" cType="1" res="1.4930481091141701e-02" rms="3.5315456986427307e-01" purity="5.8386832475662231e-01" nType="0">
          <Node pos="l" depth="2" NCoef="0" IVar="-1" Cut="0.0000000000000000e+00" cType="1" res="-3.3812578767538071e-02" rms="3.7403836846351624e-01" purity="3.5528594255447388e-01" nType="-99"/>
          <Node pos="r" depth="2" NCoef="0" IVar="-1" Cut="0.0000000000000000e+00" cType="1" res="8.1155523657798767e-03" rms="3.4751212596893311e-01" purity="6.0642069578170776e-01" nType="-99"/>
        </Node>
      </Node>
    </BinaryTree>
    <BinaryTree type="DecisionTree" boostWeight="1.0000000000000000e+00" itree="51">
      <Node pos="s" depth="0" NCoef="0" IVar="9" Cut="2.6159143066406250e+03" cType="1" res="-1.1198160791536793e-04" rms="3.3228081464767456e-01" purity="5.0000000000000000e-01" nType="0">
        <Node pos="l" depth="1" NCoef="0" IVar="4" Cut="6.3969879150390625e+00" cType="1" res="8.4713131189346313e-02" rms="3.1745943427085876e-01" purity="5.8519178628921509e-01" nType="0">
          <Node pos="l" depth="2" NCoef="0" IVar="-1" Cut="0.0000000000000000e+00" cType="1" res="4.5051973313093185e-02" rms="2.8583222627639771e-01" purity="7.0800626277923584e-01" nType="-99"/>
          <Node pos="r" depth="2" NCoef="0" IVar="-1" Cut="0.0000000000000000e+00" cType="1" res="-7.7253696508705616e-03" rms="3.2364106178283691e-01" purity="4.2355370521545410e-01" nType="-99"/>
        </Node>
        <Node pos="r" depth="1" NCoef="0" IVar="4" Cut="1.3225860595703125e+00" cType="1" res="-1.4729806222021580e-02" rms="3.3259049057960510e-01" purity="4.8531895875930786e-01" nType="0">
          <Node pos="l" depth="2" NCoef="0" IVar="-1" Cut="0.0000000000000000e+00" cType="1" res="-5.9577878564596176e-02" rms="2.1118032932281494e-01" purity="4.6697035431861877e-02" nType="-99"/>
          <Node pos="r" depth="2" NCoef="0" IVar="-1" Cut="0.0000000000000000e+00" cType="1" res="-7.4607157148420811e-04" rms="3.3645057678222656e-01" purity="5.1706230640411377e-01" nType="-99"/>
        </Node>
      </Node>
    </BinaryTree>
    <BinaryTree type="DecisionTree" boostWeight="1.0000000000000000e+00" itree="52">
      <Node pos="s" depth="0" NCoef="0" IVar="0" Cut="2.1678354492187500e+03" cType="1" res="-1.1550337512744591e-04" rms="3.3074057102203369e-01" purity="5.0000000000000000e-01" nType="0">
        <Node pos="l" depth="1" NCoef="0" IVar="11" Cut="3.4242796875000000e+04" cType="1" res="-5.5498573929071426e-02" rms="3.2205358147621155e-01" purity="3.1297710537910461e-01" nType="0">
          <Node pos="l" depth="2" NCoef="0" IVar="-1" Cut="0.0000000000000000e+00" cType="1" res="-3.7316333502531052e-02" rms="2.7095839381217957e-01" purity="1.8061673641204834e-01" nType="-99"/>
          <Node pos="r" depth="2" NCoef="0" IVar="-1" Cut="0.0000000000000000e+00" cType="1" res="9.4735538586974144e-03" rms="3.7156605720520020e-01" purity="5.2429670095443726e-01" nType="-99"/>
        </Node>
        <Node pos="r" depth="1" NCoef="0" IVar="4" Cut="5.8063836097717285e+00" cType="1" res="1.9981954246759415e-02" rms="3.3155724406242371e-01" purity="5.6786704063415527e-01" nType="0">
          <Node pos="l" depth="2" NCoef="0" IVar="-1" Cut="0.0000000000000000e+00" cType="1" res="1.9261458888649940e-02" rms="3.2460054755210876e-01" purity="6.1560517549514771e-01" nType="-99"/>
          <Node pos="r" depth="2" NCoef="0" IVar="-1" Cut="0.0000000000000000e+00" cType="1" res="-9.5736905932426453e-03" rms="3.3152580261230469e-01" purity="5.1410657167434692e-01" nType="-99"/>
        </Node>
      </Node>
    </BinaryTree>
    <BinaryTree type="DecisionTree" boostWeight="1.0000000000000000e+00" itree="53">
      <Node pos="s" depth="0" NCoef="0" IVar="2" Cut="5.7871357421875000e+03" cType="1" res="-1.1188457574462518e-04" rms="3.2925876975059509e-01" purity="5.0000000000000000e-01" nType="0">
        <Node pos="l" depth="1" NCoef="0" IVar="6" Cut="3.7283832550048828e+01" cType="1" res="1.5393937006592751e-02" rms="3.3233368396759033e-01" purity="5.6803071498870850e-01" nType="0">
          <Node pos="l" depth="2" NCoef="0" IVar="-1" Cut="0.0000000000000000e+00" cType="1" res="-2.2120159119367599e-02" rms="3.6585995554924011e-01" purity="3.2277110219001770e-01" nType="-99"/>
          <Node pos="r" depth="2" NCoef="0" IVar="-1" Cut="0.0000000000000000e+00" cType="1" res="1.1777504347264767e-02" rms="3.1855359673500061e-01" purity="6.3067412376403809e-01" nType="-99"/>
        </Node>
        <Node pos="r" depth="1" NCoef="0" IVar="4" Cut="5.6752882003784180e+00" cType="1" res="-7.0137634873390198e-02" rms="3.0534347891807556e-01" purity="1.9276672601699829e-01" nType="0">
          <Node pos="l" depth="2" NCoef="0" IVar="-1" Cut="0.0000000000000000e+00" cType="1" res="2.8859276790171862e-03" rms="3.1940862536430359e-01" purity="2.9570859670639038e-01" nType="-99"/>
          <Node pos="r" depth="2" NCoef="0" IVar="-1" Cut="0.0000000000000000e+00" cType="1" res="-4.5956060290336609e-02" rms="2.6809331774711609e-01" purity="8.9227415621280670e-02" nType="-99"/>
        </Node>
      </Node>
    </BinaryTree>
    <BinaryTree type="DecisionTree" boostWeight="1.0000000000000000e+00" itree="54">
      <Node pos="s" depth="0" NCoef="0" IVar="9" Cut="2.6159143066406250e+03" cType="1" res="-1.2298712681513280e-04" rms="3.2790943980216980e-01" purity="5.0000000000000000e-01" nType="0">
        <Node pos="l" depth="1" NCoef="0" IVar="4" Cut="6.3969879150390625e+00" cType="1" res="7.7231317758560181e-02" rms="3.0989816784858704e-01" purity="5.8519178628921509e-01" nType="0">
          <Node pos="l" depth="2" NCoef="0" IVar="-1" Cut="0.0000000000000000e+00" cType="1" res="4.0903002023696899e-02" rms="2.8015542030334473e-01" purity="7.0800626277923584e-01" nType="-99"/>
          <Node pos="r" depth="2" NCoef="0" IVar="-1" Cut="0.0000000000000000e+00" cType="1" res="-5.5384542793035507e-03" rms="3.2142648100852966e-01" purity="4.2355370521545410e-01" nType="-99"/>
        </Node>
        <Node pos="r" depth="1" NCoef="0" IVar="0" Cut="5.5822954101562500e+03" cType="1" res="-1.3453375548124313e-02" rms="3.2908266782760620e-01" purity="4.8531895875930786e-01" nType="0">
          <Node pos="l" depth="2" NCoef="0" IVar="-1" Cut="0.0000000000000000e+00" cType="1" res="-1.0794172994792461e-02" rms="3.5127845406532288e-01" purity="3.8164892792701721e-01" nType="-99"/>
          <Node pos="r" depth="2" NCoef="0" IVar="-1" Cut="0.0000000000000000e+00" cType="1" res="2.1254189312458038e-02" rms="2.3515656590461731e-01" purity="7.9870128631591797e-01" nType="-99"/>
        </Node>
      </Node>
    </BinaryTree>
    <BinaryTree type="DecisionTree" boostWeight="1.0000000000000000e+00" itree="55">
      <Node pos="s" depth="0" NCoef="0" IVar="2" Cut="5.3147377929687500e+03" cType="1" res="-9.3170972832012922e-05" rms="3.2682177424430847e-01" purity="5.0000000000000000e-01" nType="0">
        <Node pos="l" depth="1" NCoef="0" IVar="12" Cut="2.8847011718750000e+03" cType="1" res="-7.4356622993946075e-02" rms="1.7107044160366058e-01" purity="5.1217984408140182e-02" nType="0">
          <Node pos="l" depth="2" NCoef="0" IVar="-1" Cut="0.0000000000000000e+00" cType="1" res="-1.1777887120842934e-02" rms="2.2624613344669342e-01" purity="8.9227423071861267e-02" nType="-99"/>
          <Node pos="r" depth="2" NCoef="0" IVar="-1" Cut="0.0000000000000000e+00" cType="1" res="-5.2461575716733932e-02" rms="1.1332277953624725e-01" purity="2.7655985206365585e-02" nType="-99"/>
        </Node>
        <Node pos="r" depth="1" NCoef="0" IVar="10" Cut="2.0833163452148438e+02" cType="1" res="1.3785175047814846e-02" rms="3.4652742743492126e-01" purity="5.8386832475662231e-01" nType="0">
          <Node pos="l" depth="2" NCoef="0" IVar="-1" Cut="0.0000000000000000e+00" cType="1" res="-3.2332461327314377e-02" rms="3.6534965038299561e-01" purity="3.5528594255447388e-01" nType="-99"/>
          <Node pos="r" depth="2" NCoef="0" IVar="-1" Cut="0.0000000000000000e+00" cType="1" res="7.7500175684690475e-03" rms="3.4143158793449402e-01" purity="6.0642069578170776e-01" nType="-99"/>
        </Node>
      </Node>
    </BinaryTree>
    <BinaryTree type="DecisionTree" boostWeight="1.0000000000000000e+00" itree="56">
      <Node pos="s" depth="0" NCoef="0" IVar="8" Cut="2.1462006835937500e+03" cType="1" res="-1.1527037713676691e-04" rms="3.2594120502471924e-01" purity="5.0000000000000000e-01" nType="0">
        <Node pos="l" depth="1" NCoef="0" IVar="4" Cut="7.1402935981750488e+00" cType="1" res="-2.3063650354743004e-02" rms="3.3438077569007874e-01" purity="4.2910337448120117e-01" nType="0">
          <Node pos="l" depth="2" NCoef="0" IVar="-1" Cut="0.0000000000000000e+00" cType="1" res="-2.0825382671318948e-04" rms="3.3544316887855530e-01" purity="4.7941285371780396e-01" nType="-99"/>
          <Node pos="r" depth="2" NCoef="0" IVar="-1" Cut="0.0000000000000000e+00" cType="1" res="-3.8101810961961746e-02" rms="3.1262499094009399e-01" purity="2.1601682901382446e-01" nType="-99"/>
        </Node>
        <Node pos="r" depth="1" NCoef="0" IVar="5" Cut="5.9068810939788818e-01" cType="1" res="4.2789347469806671e-02" rms="3.0494785308837891e-01" purity="6.3254940509796143e-01" nType="0">
          <Node pos="l" depth="2" NCoef="0" IVar="-1" Cut="0.0000000000000000e+00" cType="1" res="1.0539948707446456e-03" rms="3.1768479943275452e-01" purity="5.5744391679763794e-01" nType="-99"/>
          <Node pos="r" depth="2" NCoef="0" IVar="-1" Cut="0.0000000000000000e+00" cType="1" res="4.5337758958339691e-02" rms="2.5283339619636536e-01" purity="8.0122137069702148e-01" nType="-99"/>
        </Node>
      </Node>
    </BinaryTree>
    <BinaryTree type="DecisionTree" boostWeight="1.0000000000000000e+00" itree="57">
      <Node pos="s" depth="0" NCoef="0" IVar="12" Cut="2.6805649414062500e+03" cType="1" res="-9.2901704192627221e-05" rms="3.2470571994781494e-01" purity="5.0000000000000000e-01" nType="0">
        <Node pos="l" depth="1" NCoef="0" IVar="4" Cut="4.9674768447875977e+00" cType="1" res="-5.3742516785860062e-02" rms="3.1605401635169983e-01" purity="2.7538958191871643e-01" nType="0">
          <Node pos="l" depth="2" NCoef="0" IVar="-1" Cut="0.0000000000000000e+00" cType="1" res="1.0214809328317642e-02" rms="2.7735075354576111e-01" purity="3.5309705138206482e-01" nType="-99"/>
          <Node pos="r" depth="2" NCoef="0" IVar="-1" Cut="0.0000000000000000e+00" cType="1" res="-3.2949861139059067e-02" rms="3.2753622531890869e-01" purity="2.2237287461757660e-01" nType="-99"/>
        </Node>
        <Node pos="r" depth="1" NCoef="0" IVar="2" Cut="5.8874956054687500e+03" cType="1" res="1.7225733026862144e-02" rms="3.2556760311126709e-01" purity="5.7250648736953735e-01" nType="0">
          <Node pos="l" depth="2" NCoef="0" IVar="-1" Cut="0.0000000000000000e+00" cType="1" res="9.1293230652809143e-03" rms="3.2945418357849121e-01" purity="6.2665051221847534e-01" nType="-99"/>
          <Node pos="r" depth="2" NCoef="0" IVar="-1" Cut="0.0000000000000000e+00" cType="1" res="-3.3812474459409714e-02" rms="2.6109454035758972e-01" purity="1.0314465314149857e-01" nType="-99"/>
        </Node>
      </Node>
    </BinaryTree>
    <BinaryTree type="DecisionTree" boostWeight="1.0000000000000000e+00" itree="58">
      <Node pos="s" depth="0" NCoef="0" IVar="4" Cut="2.9238381385803223e+00" cType="1" res="-1.0371095413574949e-04" rms="3.2359045743942261e-01" purity="5.0000000000000000e-01" nType="0">
        <Node pos="l" depth="1" NCoef="0" IVar="2" Cut="5.4587187500000000e+03" cType="1" res="-6.2114357948303223e-02" rms="2.6474019885063171e-01" purity="2.9661297798156738e-01" nType="0">
          <Node pos="l" depth="2" NCoef="0" IVar="-1" Cut="0.0000000000000000e+00" cType="1" res="-6.2029458582401276e-02" rms="1.7396022379398346e-01" purity="3.4067302942276001e-02" nType="-99"/>
          <Node pos="r" depth="2" NCoef="0" IVar="-1" Cut="0.0000000000000000e+00" cType="1" res="-6.8351265508681536e-04" rms="2.9517546296119690e-01" purity="4.6857139468193054e-01" nType="-99"/>
        </Node>
        <Node pos="r" depth="1" NCoef="0" IVar="6" Cut="6.7652587890625000e+01" cType="1" res="1.5339281409978867e-02" rms="3.3486893773078918e-01" purity="5.5065107345581055e-01" nType="0">
          <Node pos="l" depth="2" NCoef="0" IVar="-1" Cut="0.0000000000000000e+00" cType="1" res="-1.3292755931615829e-02" rms="3.5677319765090942e-01" purity="3.9576756954193115e-01" nType="-99"/>
          <Node pos="r" depth="2" NCoef="0" IVar="-1" Cut="0.0000000000000000e+00" cType="1" res="1.9359972327947617e-02" rms="3.0793723464012146e-01" purity="6.7291909456253052e-01" nType="-99"/>
        </Node>
      </Node>
    </BinaryTree>
    <BinaryTree type="DecisionTree" boostWeight="1.0000000000000000e+00" itree="59">
      <Node pos="s" depth="0" NCoef="0" IVar="8" Cut="2.1462006835937500e+03" cType="1" res="-1.1671904212562367e-04" rms="3.2198351621627808e-01" purity="5.0000000000000000e-01" nType="0">
        <Node pos="l" depth="1" NCoef="0" IVar="4" Cut="7.1402935981750488e+00" cType="1" res="-2.2457852959632874e-02" rms="3.3061209321022034e-01" purity="4.2910337448120117e-01" nType="0">
          <Node pos="l" depth="2" NCoef="0" IVar="-1" Cut="0.0000000000000000e+00" cType="1" res="-6.2707904726266861e-04" rms="3.3198779821395874e-01" purity="4.7941285371780396e-01" nType="-99"/>
          <Node pos="r" depth="2" NCoef="0" IVar="-1" Cut="0.0000000000000000e+00" cType="1" res="-3.5771094262599945e-02" rms="3.1033700704574585e-01" purity="2.1601682901382446e-01" nType="-99"/>
        </Node>
        <Node pos="r" depth="1" NCoef="0" IVar="5" Cut="5.9068810939788818e-01" cType="1" res="4.1652582585811615e-02" rms="3.0077871680259705e-01" purity="6.3254940509796143e-01" nType="0">
          <Node pos="l" depth="2" NCoef="0" IVar="-1" Cut="0.0000000000000000e+00" cType="1" res="2.1169404499232769e-03" rms="3.1325191259384155e-01" purity="5.5744391679763794e-01" nType="-99"/>
          <Node pos="r" depth="2" NCoef="0" IVar="-1" Cut="0.0000000000000000e+00" cType="1" res="4.2974758893251419e-02" rms="2.5389689207077026e-01" purity="8.0122137069702148e-01" nType="-99"/>
        </Node>
      </Node>
    </BinaryTree>
    <BinaryTree type="DecisionTree" boostWeight="1.0000000000000000e+00" itree="60">
      <Node pos="s" depth="0" NCoef="0" IVar="4" Cut="8.9473457336425781e+00" cType="1" res="-9.5729665190447122e-05" rms="3.2093656063079834e-01" purity="5.0000000000000000e-01" nType="0">
        <Node pos="l" depth="1" NCoef="0" IVar="6" Cut="8.2503814697265625e+01" cType="1" res="7.1681970730423927e-03" rms="3.2315739989280701e-01" purity="5.2158498764038086e-01" nType="0">
          <Node pos="l" depth="2" NCoef="0" IVar="-1" Cut="0.0000000000000000e+00" cType="1" res="-1.0095221921801567e-02" rms="3.4351298213005066e-01" purity="4.1908004879951477e-01" nType="-99"/>
          <Node pos="r" depth="2" NCoef="0" IVar="-1" Cut="0.0000000000000000e+00" cType="1" res="1.1918165720999241e-02" rms="3.0327892303466797e-01" purity="5.9843093156814575e-01" nType="-99"/>
        </Node>
        <Node pos="r" depth="1" NCoef="0" IVar="-1" Cut="0.0000000000000000e+00" cType="1" res="-4.5915585011243820e-02" rms="2.5271829962730408e-01" purity="1.4186850190162659e-01" nType="-99"/>
      </Node>
    </BinaryTree>
    <BinaryTree type="DecisionTree" boostWeight="1.0000000000000000e+00" itree="61">
      <Node pos="s" depth="0" NCoef="0" IVar="3" Cut="1.4928527832031250e+03" cType="1" res="-9.1129819338675588e-05" rms="3.2002997398376465e-01" purity="5.0000000000000000e-01" nType="0">
        <Node pos="l" depth="1" NCoef="0" IVar="8" Cut="1.1106138916015625e+03" cType="1" res="-7.1696624159812927e-02" rms="3.3542770147323608e-01" purity="2.8727829456329346e-01" nType="0">
          <Node pos="l" depth="2" NCoef="0" IVar="-1" Cut="0.0000000000000000e+00" cType="1" res="1.1656168848276138e-02" rms="2.8263369202613831e-01" purity="4.4244605302810669e-01" nType="-99"/>
          <Node pos="r" depth="2" NCoef="0" IVar="-1" Cut="0.0000000000000000e+00" cType="1" res="-4.3048374354839325e-02" rms="3.4704983234405518e-01" purity="1.9799932837486267e-01" nType="-99"/>
        </Node>
        <Node pos="r" depth="1" NCoef="0" IVar="6" Cut="3.6551250457763672e+01" cType="1" res="1.2517201714217663e-02" rms="3.1556347012519836e-01" purity="5.3745615482330322e-01" nType="0">
          <Node pos="l" depth="2" NCoef="0" IVar="-1" Cut="0.0000000000000000e+00" cType="1" res="-1.7652826383709908e-02" rms="3.6303466558456421e-01" purity="2.7837049961090088e-01" nType="-99"/>
          <Node pos="r" depth="2" NCoef="0" IVar="-1" Cut="0.0000000000000000e+00" cType="1" res="1.0810840874910355e-02" rms="2.9556202888488770e-01" purity="6.1860162019729614e-01" nType="-99"/>
        </Node>
      </Node>
    </BinaryTree>
    <BinaryTree type="DecisionTree" boostWeight="1.0000000000000000e+00" itree="62">
      <Node pos="s" depth="0" NCoef="0" IVar="4" Cut="1.7191365957260132e+00" cType="1" res="-8.9378205302637070e-05" rms="3.1886804103851318e-01" purity="5.0000000000000000e-01" nType="0">
        <Node pos="l" depth="1" NCoef="0" IVar="9" Cut="4.2508598632812500e+03" cType="1" res="-8.3906643092632294e-02" rms="2.6711338758468628e-01" purity="1.9036564230918884e-01" nType="0">
          <Node pos="l" depth="2" NCoef="0" IVar="-1" Cut="0.0000000000000000e+00" cType="1" res="-1.1617252603173256e-02" rms="2.6603811979293823e-01" purity="2.5324273109436035e-01" nType="-99"/>
          <Node pos="r" depth="2" NCoef="0" IVar="-1" Cut="0.0000000000000000e+00" cType="1" res="-3.9401192218065262e-02" rms="2.6027852296829224e-01" purity="1.3464696705341339e-01" nType="-99"/>
        </Node>
        <Node pos="r" depth="1" NCoef="0" IVar="4" Cut="5.1828784942626953e+00" cType="1" res="1.0585256852209568e-02" rms="3.2331180572509766e-01" purity="5.3943377733230591e-01" nType="0">
          <Node pos="l" depth="2" NCoef="0" IVar="-1" Cut="0.0000000000000000e+00" cType="1" res="1.8121652305126190e-02" rms="3.0857589840888977e-01" purity="6.1728394031524658e-01" nType="-99"/>
          <Node pos="r" depth="2" NCoef="0" IVar="-1" Cut="0.0000000000000000e+00" cType="1" res="-5.5689034052193165e-03" rms="3.2822513580322266e-01" purity="4.9406257271766663e-01" nType="-99"/>
        </Node>
      </Node>
    </BinaryTree>
    <BinaryTree type="DecisionTree" boostWeight="1.0000000000000000e+00" itree="63">
      <Node pos="s" depth="0" NCoef="0" IVar="9" Cut="2.6159143066406250e+03" cType="1" res="-8.5598927398677915e-05" rms="3.1804883480072021e-01" purity="5.0000000000000000e-01" nType="0">
        <Node pos="l" depth="1" NCoef="0" IVar="4" Cut="6.3969879150390625e+00" cType="1" res="7.1359030902385712e-02" rms="3.0063000321388245e-01" purity="5.8519178628921509e-01" nType="0">
          <Node pos="l" depth="2" NCoef="0" IVar="-1" Cut="0.0000000000000000e+00" cType="1" res="3.9073355495929718e-02" rms="2.7605056762695312e-01" purity="7.0800626277923584e-01" nType="-99"/>
          <Node pos="r" depth="2" NCoef="0" IVar="-1" Cut="0.0000000000000000e+00" cType="1" res="-5.1934164948761463e-03" rms="3.0931758880615234e-01" purity="4.2355370521545410e-01" nType="-99"/>
        </Node>
        <Node pos="r" depth="1" NCoef="0" IVar="4" Cut="1.3225860595703125e+00" cType="1" res="-1.2397578917443752e-02" rms="3.1934463977813721e-01" purity="4.8531895875930786e-01" nType="0">
          <Node pos="l" depth="2" NCoef="0" IVar="-1" Cut="0.0000000000000000e+00" cType="1" res="-5.5166982114315033e-02" rms="1.9863535463809967e-01" purity="4.6697035431861877e-02" nType="-99"/>
          <Node pos="r" depth="2" NCoef="0" IVar="-1" Cut="0.0000000000000000e+00" cType="1" res="-6.3062360277399421e-04" rms="3.2391187548637390e-01" purity="5.1706230640411377e-01" nType="-99"/>
        </Node>
      </Node>
    </BinaryTree>
    <BinaryTree type="DecisionTree" boostWeight="1.0000000000000000e+00" itree="64">
      <Node pos="s" depth="0" NCoef="0" IVar="2" Cut="5.3147377929687500e+03" cType="1" res="-9.0321736934129149e-05" rms="3.1693425774574280e-01" purity="5.0000000000000000e-01" nType="0">
        <Node pos="l" depth="1" NCoef="0" IVar="9" Cut="4.7275668945312500e+03" cType="1" res="-6.7548245191574097e-02" rms="1.6624313592910767e-01" purity="5.1217984408140182e-02" nType="0">
          <Node pos="l" depth="2" NCoef="0" IVar="-1" Cut="0.0000000000000000e+00" cType="1" res="-5.2952609956264496e-02" rms="1.1520882695913315e-01" purity="2.6814909651875496e-02" nType="-99"/>
          <Node pos="r" depth="2" NCoef="0" IVar="-1" Cut="0.0000000000000000e+00" cType="1" res="-8.6628245189785957e-03" rms="2.2030861675739288e-01" purity="9.3982815742492676e-02" nType="-99"/>
        </Node>
        <Node pos="r" depth="1" NCoef="0" IVar="10" Cut="2.0833163452148438e+02" cType="1" res="1.2516207061707973e-02" rms="3.3622136712074280e-01" purity="5.8386832475662231e-01" nType="0">
          <Node pos="l" depth="2" NCoef="0" IVar="-1" Cut="0.0000000000000000e+00" cType="1" res="-2.9665512964129448e-02" rms="3.5968518257141113e-01" purity="3.5528594255447388e-01" nType="-99"/>
          <Node pos="r" depth="2" NCoef="0" IVar="-1" Cut="0.0000000000000000e+00" cType="1" res="7.2657610289752483e-03" rms="3.3119046688079834e-01" purity="6.0642069578170776e-01" nType="-99"/>
        </Node>
      </Node>
    </BinaryTree>
    <BinaryTree type="DecisionTree" boostWeight="1.0000000000000000e+00" itree="65">
      <Node pos="s" depth="0" NCoef="0" IVar="0" Cut="2.1678354492187500e+03" cType="1" res="-1.1031752364942804e-04" rms="3.1615576148033142e-01" purity="5.0000000000000000e-01" nType="0">
        <Node pos="l" depth="1" NCoef="0" IVar="11" Cut="3.4242796875000000e+04" cType="1" res="-4.7350488603115082e-02" rms="3.1041550636291504e-01" purity="3.1297710537910461e-01" nType="0">
          <Node pos="l" depth="2" NCoef="0" IVar="-1" Cut="0.0000000000000000e+00" cType="1" res="-3.4015096724033356e-02" rms="2.6027014851570129e-01" purity="1.8061673641204834e-01" nType="-99"/>
          <Node pos="r" depth="2" NCoef="0" IVar="-1" Cut="0.0000000000000000e+00" cType="1" res="7.9188775271177292e-03" rms="3.6360982060432434e-01" purity="5.2429670095443726e-01" nType="-99"/>
        </Node>
        <Node pos="r" depth="1" NCoef="0" IVar="3" Cut="2.2355212402343750e+03" cType="1" res="1.7032237723469734e-02" rms="3.1647425889968872e-01" purity="5.6786704063415527e-01" nType="0">
          <Node pos="l" depth="2" NCoef="0" IVar="-1" Cut="0.0000000000000000e+00" cType="1" res="-6.1304066330194473e-03" rms="3.3805122971534729e-01" purity="4.4204851984977722e-01" nType="-99"/>
          <Node pos="r" depth="2" NCoef="0" IVar="-1" Cut="0.0000000000000000e+00" cType="1" res="1.9148444756865501e-02" rms="2.8654196858406067e-01" purity="7.0085465908050537e-01" nType="-99"/>
        </Node>
      </Node>
    </BinaryTree>
    <BinaryTree type="DecisionTree" boostWeight="1.0000000000000000e+00" itree="66">
      <Node pos="s" depth="0" NCoef="0" IVar="2" Cut="5.7398959960937500e+03" cType="1" res="-1.0291225771652535e-04" rms="3.1519150733947754e-01" purity="5.0000000000000000e-01" nType="0">
        <Node pos="l" depth="1" NCoef="0" IVar="2" Cut="5.3584111328125000e+03" cType="1" res="1.4600614085793495e-02" rms="3.1728512048721313e-01" purity="5.7164198160171509e-01" nType="0">
          <Node pos="l" depth="2" NCoef="0" IVar="-1" Cut="0.0000000000000000e+00" cType="1" res="-3.4832537174224854e-02" rms="1.8999302387237549e-01" purity="7.4208140373229980e-02" nType="-99"/>
          <Node pos="r" depth="2" NCoef="0" IVar="-1" Cut="0.0000000000000000e+00" cType="1" res="1.0721748694777489e-02" rms="3.4257316589355469e-01" purity="7.1960806846618652e-01" nType="-99"/>
        </Node>
        <Node pos="r" depth="1" NCoef="0" IVar="9" Cut="4.1435532226562500e+03" cType="1" res="-5.5425360798835754e-02" rms="3.0081462860107422e-01" purity="2.3044495284557343e-01" nType="0">
          <Node pos="l" depth="2" NCoef="0" IVar="-1" Cut="0.0000000000000000e+00" cType="1" res="1.2028658762574196e-02" rms="3.7574270367622375e-01" purity="4.0413996577262878e-01" nType="-99"/>
          <Node pos="r" depth="2" NCoef="0" IVar="-1" Cut="0.0000000000000000e+00" cType="1" res="-3.4947212785482407e-02" rms="2.4595211446285248e-01" purity="1.4990858733654022e-01" nType="-99"/>
        </Node>
      </Node>
    </BinaryTree>
    <BinaryTree type="DecisionTree" boostWeight="1.0000000000000000e+00" itree="67">
      <Node pos="s" depth="0" NCoef="0" IVar="9" Cut="2.6159143066406250e+03" cType="1" res="-1.2684572720900178e-04" rms="3.1434693932533264e-01" purity="5.0000000000000000e-01" nType="0">
        <Node pos="l" depth="1" NCoef="0" IVar="4" Cut="5.8063836097717285e+00" cType="1" res="6.6252589225769043e-02" rms="2.9259577393531799e-01" purity="5.8519178628921509e-01" nType="0">
          <Node pos="l" depth="2" NCoef="0" IVar="-1" Cut="0.0000000000000000e+00" cType="1" res="4.9539078027009964e-02" rms="2.0812790095806122e-01" purity="7.3832297325134277e-01" nType="-99"/>
          <Node pos="r" depth="2" NCoef="0" IVar="-1" Cut="0.0000000000000000e+00" cType="1" res="2.6298910379409790e-03" rms="3.2401368021965027e-01" purity="4.8466938734054565e-01" nType="-99"/>
        </Node>
        <Node pos="r" depth="1" NCoef="0" IVar="3" Cut="3.3495236816406250e+03" cType="1" res="-1.1565946973860264e-02" rms="3.1654202938079834e-01" purity="4.8531895875930786e-01" nType="0">
          <Node pos="l" depth="2" NCoef="0" IVar="-1" Cut="0.0000000000000000e+00" cType="1" res="-8.4208855405449867e-03" rms="3.2035103440284729e-01" purity="4.4265517592430115e-01" nType="-99"/>
          <Node pos="r" depth="2" NCoef="0" IVar="-1" Cut="0.0000000000000000e+00" cType="1" res="2.5110654532909393e-02" rms="2.8207629919052124e-01" purity="7.0944482088088989e-01" nType="-99"/>
        </Node>
      </Node>
    </BinaryTree>
    <BinaryTree type="DecisionTree" boostWeight="1.0000000000000000e+00" itree="68">
      <Node pos="s" depth="0" NCoef="0" IVar="12" Cut="2.6805649414062500e+03" cType="1" res="-9.9495904578361660e-05" rms="3.1336727738380432e-01" purity="5.0000000000000000e-01" nType="0">
        <Node pos="l" depth="1" NCoef="0" IVar="4" Cut="4.9674768447875977e+00" cType="1" res="-4.7961160540580750e-02" rms="3.0404651165008545e-01" purity="2.7538958191871643e-01" nType="0">
          <Node pos="l" depth="2" NCoef="0" IVar="-1" Cut="0.0000000000000000e+00" cType="1" res="9.7975889220833778e-03" rms="2.5996640324592590e-01" purity="3.5309705138206482e-01" nType="-99"/>
          <Node pos="r" depth="2" NCoef="0" IVar="-1" Cut="0.0000000000000000e+00" cType="1" res="-3.0821884050965309e-02" rms="3.2056328654289246e-01" purity="2.2237287461757660e-01" nType="-99"/>
        </Node>
        <Node pos="r" depth="1" NCoef="0" IVar="9" Cut="8.8247343750000000e+03" cType="1" res="1.5350731089711189e-02" rms="3.1476747989654541e-01" purity="5.7250648736953735e-01" nType="0">
          <Node pos="l" depth="2" NCoef="0" IVar="-1" Cut="0.0000000000000000e+00" cType="1" res="1.5171439154073596e-03" rms="3.1106179952621460e-01" purity="5.6370478868484497e-01" nType="-99"/>
          <Node pos="r" depth="2" NCoef="0" IVar="-1" Cut="0.0000000000000000e+00" cType="1" res="5.4287616163492203e-02" rms="3.2893291115760803e-01" purity="6.9627690315246582e-01" nType="-99"/>
        </Node>
      </Node>
    </BinaryTree>
    <BinaryTree type="DecisionTree" boostWeight="1.0000000000000000e+00" itree="69">
      <Node pos="s" depth="0" NCoef="0" IVar="0" Cut="7.8586020507812500e+03" cType="1" res="-9.2046946519985795e-05" rms="3.1212311983108521e-01" purity="5.0000000000000000e-01" nType="0">
        <Node pos="l" depth="1" NCoef="0" IVar="8" Cut="2.0242182617187500e+03" cType="1" res="-8.4568150341510773e-03" rms="3.2492628693580627e-01" purity="4.5284247398376465e-01" nType="0">
          <Node pos="l" depth="2" NCoef="0" IVar="-1" Cut="0.0000000000000000e+00" cType="1" res="-1.0260843671858311e-02" rms="3.2628113031387329e-01" purity="3.8642790913581848e-01" nType="-99"/>
          <Node pos="r" depth="2" NCoef="0" IVar="-1" Cut="0.0000000000000000e+00" cType="1" res="1.1792254634201527e-02" rms="3.1706401705741882e-01" purity="5.7674801349639893e-01" nType="-99"/>
        </Node>
        <Node pos="r" depth="1" NCoef="0" IVar="-1" Cut="0.0000000000000000e+00" cType="1" res="4.6995840966701508e-02" rms="9.5609247684478760e-02" purity="9.6677386760711670e-01" nType="-99"/>
      </Node>
    </BinaryTree>
    <BinaryTree type="DecisionTree" boostWeight="1.0000000000000000e+00" itree="70">
      <Node pos="s" depth="0" NCoef="0" IVar="2" Cut="5.7871357421875000e+03" cType="1" res="-5.8681500377133489e-05" rms="3.1159278750419617e-01" purity="5.0000000000000000e-01" nType="0">
        <Node pos="l" depth="1" NCoef="0" IVar="2" Cut="5.4395346679687500e+03" cType="1" res="1.2286928482353687e-02" rms="3.1416779756546021e-01" purity="5.6803071498870850e-01" nType="0">
          <Node pos="l" depth="2" NCoef="0" IVar="-1" Cut="0.0000000000000000e+00" cType="1" res="-2.0120626315474510e-02" rms="2.3472097516059875e-01" purity="2.0745672285556793e-01" nType="-99"/>
          <Node pos="r" depth="2" NCoef="0" IVar="-1" Cut="0.0000000000000000e+00" cType="1" res="1.0483034886419773e-02" rms="3.3963230252265930e-01" purity="7.2308748960494995e-01" nType="-99"/>
        </Node>
        <Node pos="r" depth="1" NCoef="0" IVar="9" Cut="4.1435532226562500e+03" cType="1" res="-5.5812615901231766e-02" rms="2.9328525066375732e-01" purity="1.9276672601699829e-01" nType="0">
          <Node pos="l" depth="2" NCoef="0" IVar="-1" Cut="0.0000000000000000e+00" cType="1" res="1.3031569309532642e-02" rms="3.7170684337615967e-01" purity="3.9805823564529419e-01" nType="-99"/>
          <Node pos="r" depth="2" NCoef="0" IVar="-1" Cut="0.0000000000000000e+00" cType="1" res="-4.1189718991518021e-02" rms="2.2826470434665680e-01" purity="8.9227423071861267e-02" nType="-99"/>
        </Node>
      </Node>
    </BinaryTree>
    <BinaryTree type="DecisionTree" boostWeight="1.0000000000000000e+00" itree="71">
      <Node pos="s" depth="0" NCoef="0" IVar="4" Cut="8.9473457336425781e+00" cType="1" res="-7.9140721936710179e-05" rms="3.1078928709030151e-01" purity="5.0000000000000000e-01" nType="0">
        <Node pos="l" depth="1" NCoef="0" IVar="6" Cut="8.2503814697265625e+01" cType="1" res="6.1530494131147861e-03" rms="3.1318947672843933e-01" purity="5.2158498764038086e-01" nType="0">
          <Node pos="l" depth="2" NCoef="0" IVar="-1" Cut="0.0000000000000000e+00" cType="1" res="-9.9250003695487976e-03" rms="3.3400532603263855e-01" purity="4.1908004879951477e-01" nType="-99"/>
          <Node pos="r" depth="2" NCoef="0" IVar="-1" Cut="0.0000000000000000e+00" cType="1" res="1.1560956947505474e-02" rms="2.9330617189407349e-01" purity="5.9843093156814575e-01" nType="-99"/>
        </Node>
        <Node pos="r" depth="1" NCoef="0" IVar="-1" Cut="0.0000000000000000e+00" cType="1" res="-4.2573213577270508e-02" rms="2.4577316641807556e-01" purity="1.4186850190162659e-01" nType="-99"/>
      </Node>
    </BinaryTree>
    <BinaryTree type="DecisionTree" boostWeight="1.0000000000000000e+00" itree="72">
      <Node pos="s" depth="0" NCoef="0" IVar="4" Cut="2.9238381385803223e+00" cType="1" res="-7.5066585850436240e-05" rms="3.0998930335044861e-01" purity="5.0000000000000000e-01" nType="0">
        <Node pos="l" depth="1" NCoef="0" IVar="1" Cut="8.8475765625000000e+04" cType="1" res="-5.1742278039455414e-02" rms="2.4805444478988647e-01" purity="2.9661297798156738e-01" nType="0">
          <Node pos="l" depth="2" NCoef="0" IVar="-1" Cut="0.0000000000000000e+00" cType="1" res="-3.7345062009990215e-03" rms="2.3204523324966431e-01" purity="3.0597013235092163e-01" nType="-99"/>
          <Node pos="r" depth="2" NCoef="0" IVar="-1" Cut="0.0000000000000000e+00" cType="1" res="-5.0369262695312500e-02" rms="2.5618433952331543e-01" purity="2.7424749732017517e-01" nType="-99"/>
        </Node>
        <Node pos="r" depth="1" NCoef="0" IVar="4" Cut="5.5139341354370117e+00" cType="1" res="1.2792020104825497e-02" rms="3.2228919863700867e-01" purity="5.5065107345581055e-01" nType="0">
          <Node pos="l" depth="2" NCoef="0" IVar="-1" Cut="0.0000000000000000e+00" cType="1" res="2.1660424768924713e-02" rms="3.1435412168502808e-01" purity="6.8208748102188110e-01" nType="-99"/>
          <Node pos="r" depth="2" NCoef="0" IVar="-1" Cut="0.0000000000000000e+00" cType="1" res="-6.5384632907807827e-03" rms="3.2196199893951416e-01" purity="4.7692698240280151e-01" nType="-99"/>
        </Node>
      </Node>
    </BinaryTree>
    <BinaryTree type="DecisionTree" boostWeight="1.0000000000000000e+00" itree="73">
      <Node pos="s" depth="0" NCoef="0" IVar="9" Cut="2.6159143066406250e+03" cType="1" res="-6.4051113440655172e-05" rms="3.0883789062500000e-01" purity="5.0000000000000000e-01" nType="0">
        <Node pos="l" depth="1" NCoef="0" IVar="4" Cut="6.3969879150390625e+00" cType="1" res="6.1217986047267914e-02" rms="2.8752732276916504e-01" purity="5.8519178628921509e-01" nType="0">
          <Node pos="l" depth="2" NCoef="0" IVar="-1" Cut="0.0000000000000000e+00" cType="1" res="3.5083923488855362e-02" rms="2.6159679889678955e-01" purity="7.0800626277923584e-01" nType="-99"/>
          <Node pos="r" depth="2" NCoef="0" IVar="-1" Cut="0.0000000000000000e+00" cType="1" res="-3.5125256981700659e-03" rms="3.0404621362686157e-01" purity="4.2355370521545410e-01" nType="-99"/>
        </Node>
        <Node pos="r" depth="1" NCoef="0" IVar="0" Cut="5.5822954101562500e+03" cType="1" res="-1.0624722577631474e-02" rms="3.1114667654037476e-01" purity="4.8531895875930786e-01" nType="0">
          <Node pos="l" depth="2" NCoef="0" IVar="-1" Cut="0.0000000000000000e+00" cType="1" res="-9.0835746377706528e-03" rms="3.3408099412918091e-01" purity="3.8164892792701721e-01" nType="-99"/>
          <Node pos="r" depth="2" NCoef="0" IVar="-1" Cut="0.0000000000000000e+00" cType="1" res="1.8395327031612396e-02" rms="2.1846584975719452e-01" purity="7.9870128631591797e-01" nType="-99"/>
        </Node>
      </Node>
    </BinaryTree>
    <BinaryTree type="DecisionTree" boostWeight="1.0000000000000000e+00" itree="74">
      <Node pos="s" depth="0" NCoef="0" IVar="3" Cut="1.4928527832031250e+03" cType="1" res="-4.4693289964925498e-05" rms="3.0813944339752197e-01" purity="5.0000000000000000e-01" nType="0">
        <Node pos="l" depth="1" NCoef="0" IVar="9" Cut="4.7694833984375000e+03" cType="1" res="-5.9258323162794113e-02" rms="3.2132661342620850e-01" purity="2.8727829456329346e-01" nType="0">
          <Node pos="l" depth="2" NCoef="0" IVar="-1" Cut="0.0000000000000000e+00" cType="1" res="2.8212107717990875e-03" rms="3.3277800679206848e-01" purity="3.7740585207939148e-01" nType="-99"/>
          <Node pos="r" depth="2" NCoef="0" IVar="-1" Cut="0.0000000000000000e+00" cType="1" res="-5.1824446767568588e-02" rms="2.9013013839721680e-01" purity="1.8833255767822266e-01" nType="-99"/>
        </Node>
        <Node pos="r" depth="1" NCoef="0" IVar="6" Cut="3.6551250457763672e+01" cType="1" res="1.0381672531366348e-02" rms="3.0456885695457458e-01" purity="5.3745615482330322e-01" nType="0">
          <Node pos="l" depth="2" NCoef="0" IVar="-1" Cut="0.0000000000000000e+00" cType="1" res="-1.6676736995577812e-02" rms="3.5546860098838806e-01" purity="2.7837049961090088e-01" nType="-99"/>
          <Node pos="r" depth="2" NCoef="0" IVar="-1" Cut="0.0000000000000000e+00" cType="1" res="9.9708344787359238e-03" rms="2.8383797407150269e-01" purity="6.1860162019729614e-01" nType="-99"/>
        </Node>
      </Node>
    </BinaryTree>
    <BinaryTree type="DecisionTree" boostWeight="1.0000000000000000e+00" itree="75">
      <Node pos="s" depth="0" NCoef="0" IVar="4" Cut="2.9238381385803223e+00" cType="1" res="-4.3920299503952265e-05" rms="3.0709576606750488e-01" purity="5.0000000000000000e-01" nType="0">
        <Node pos="l" depth="1" NCoef="0" IVar="2" Cut="5.4587187500000000e+03" cType="1" res="-4.8018936067819595e-02" rms="2.4325883388519287e-01" purity="2.9661297798156738e-01" nType="0">
          <Node pos="l" depth="2" NCoef="0" IVar="-1" Cut="0.0000000000000000e+00" cType="1" res="-5.9354946017265320e-02" rms="1.5877236425876617e-01" purity="3.4067302942276001e-02" nType="-99"/>
          <Node pos="r" depth="2" NCoef="0" IVar="-1" Cut="0.0000000000000000e+00" cType="1" res="7.4377737473696470e-04" rms="2.7390736341476440e-01" purity="4.6857139468193054e-01" nType="-99"/>
        </Node>
        <Node pos="r" depth="1" NCoef="0" IVar="6" Cut="6.7652587890625000e+01" cType="1" res="1.1903669685125351e-02" rms="3.1990826129913330e-01" purity="5.5065107345581055e-01" nType="0">
          <Node pos="l" depth="2" NCoef="0" IVar="-1" Cut="0.0000000000000000e+00" cType="1" res="-1.0438279248774052e-02" rms="3.4438273310661316e-01" purity="3.9576756954193115e-01" nType="-99"/>
          <Node pos="r" depth="2" NCoef="0" IVar="-1" Cut="0.0000000000000000e+00" cType="1" res="1.5894949436187744e-02" rms="2.9410883784294128e-01" purity="6.7291909456253052e-01" nType="-99"/>
        </Node>
      </Node>
    </BinaryTree>
    <BinaryTree type="DecisionTree" boostWeight="1.0000000000000000e+00" itree="76">
      <Node pos="s" depth="0" NCoef="0" IVar="2" Cut="5.7398959960937500e+03" cType="1" res="-6.0751546698156744e-05" rms="3.0601575970649719e-01" purity="5.0000000000000000e-01" nType="0">
        <Node pos="l" depth="1" NCoef="0" IVar="2" Cut="5.3584111328125000e+03" cType="1" res="1.2304553762078285e-02" rms="3.0840614438056946e-01" purity="5.7164198160171509e-01" nType="0">
          <Node pos="l" depth="2" NCoef="0" IVar="-1" Cut="0.0000000000000000e+00" cType="1" res="-3.2173682004213333e-02" rms="1.8200623989105225e-01" purity="7.4208140373229980e-02" nType="-99"/>
          <Node pos="r" depth="2" NCoef="0" IVar="-1" Cut="0.0000000000000000e+00" cType="1" res="9.3950424343347549e-03" rms="3.3431729674339294e-01" purity="7.1960806846618652e-01" nType="-99"/>
        </Node>
        <Node pos="r" depth="1" NCoef="0" IVar="5" Cut="2.7261134982109070e-01" cType="1" res="-4.6585574746131897e-02" rms="2.9219809174537659e-01" purity="2.3044495284557343e-01" nType="0">
          <Node pos="l" depth="2" NCoef="0" IVar="-1" Cut="0.0000000000000000e+00" cType="1" res="-4.1755434125661850e-02" rms="2.2426201403141022e-01" purity="1.2363362312316895e-01" nType="-99"/>
          <Node pos="r" depth="2" NCoef="0" IVar="-1" Cut="0.0000000000000000e+00" cType="1" res="2.6303096092306077e-04" rms="3.2367721199989319e-01" purity="3.0597016215324402e-01" nType="-99"/>
        </Node>
      </Node>
    </BinaryTree>
    <BinaryTree type="DecisionTree" boostWeight="1.0000000000000000e+00" itree="77">
      <Node pos="s" depth="0" NCoef="0" IVar="8" Cut="2.1462006835937500e+03" cType="1" res="-8.5038474935572594e-05" rms="3.0540639162063599e-01" purity="5.0000000000000000e-01" nType="0">
        <Node pos="l" depth="1" NCoef="0" IVar="1" Cut="1.2449880468750000e+05" cType="1" res="-1.7627870664000511e-02" rms="3.1371748447418213e-01" purity="4.2910337448120117e-01" nType="0">
          <Node pos="l" depth="2" NCoef="0" IVar="-1" Cut="0.0000000000000000e+00" cType="1" res="-1.0417473502457142e-02" rms="3.0841374397277832e-01" purity="4.0157166123390198e-01" nType="-99"/>
          <Node pos="r" depth="2" NCoef="0" IVar="-1" Cut="0.0000000000000000e+00" cType="1" res="2.9868446290493011e-02" rms="3.3072072267532349e-01" purity="6.3813227415084839e-01" nType="-99"/>
        </Node>
        <Node pos="r" depth="1" NCoef="0" IVar="5" Cut="5.9068810939788818e-01" cType="1" res="3.2713294029235840e-02" rms="2.8635931015014648e-01" purity="6.3254940509796143e-01" nType="0">
          <Node pos="l" depth="2" NCoef="0" IVar="-1" Cut="0.0000000000000000e+00" cType="1" res="1.6280327690765262e-04" rms="2.9455822706222534e-01" purity="5.5744391679763794e-01" nType="-99"/>
          <Node pos="r" depth="2" NCoef="0" IVar="-1" Cut="0.0000000000000000e+00" cType="1" res="4.2020149528980255e-02" rms="2.5245180726051331e-01" purity="8.0122137069702148e-01" nType="-99"/>
        </Node>
      </Node>
    </BinaryTree>
    <BinaryTree type="DecisionTree" boostWeight="1.0000000000000000e+00" itree="78">
      <Node pos="s" depth="0" NCoef="0" IVar="4" Cut="8.9473457336425781e+00" cType="1" res="-6.0927584854653105e-05" rms="3.0455693602561951e-01" purity="5.0000000000000000e-01" nType="0">
        <Node pos="l" depth="1" NCoef="0" IVar="11" Cut="8.3268609375000000e+04" cType="1" res="5.9188343584537506e-03" rms="3.0670547485351562e-01" purity="5.2158498764038086e-01" nType="0">
          <Node pos="l" depth="2" NCoef="0" IVar="-1" Cut="0.0000000000000000e+00" cType="1" res="-1.6238425159826875e-03" rms="3.0691239237785339e-01" purity="5.0306749343872070e-01" nType="-99"/>
          <Node pos="r" depth="2" NCoef="0" IVar="-1" Cut="0.0000000000000000e+00" cType="1" res="2.8533095493912697e-02" rms="2.9353129863739014e-01" purity="6.5506416559219360e-01" nType="-99"/>
        </Node>
        <Node pos="r" depth="1" NCoef="0" IVar="-1" Cut="0.0000000000000000e+00" cType="1" res="-4.2200200259685516e-02" rms="2.4602417647838593e-01" purity="1.4186850190162659e-01" nType="-99"/>
      </Node>
    </BinaryTree>
    <BinaryTree type="DecisionTree" boostWeight="1.0000000000000000e+00" itree="79">
      <Node pos="s" depth="0" NCoef="0" IVar="7" Cut="3.9137101562500000e+04" cType="1" res="-5.8578720199875534e-05" rms="3.0390697717666626e-01" purity="5.0000000000000000e-01" nType="0">
        <Node pos="l" depth="1" NCoef="0" IVar="7" Cut="1.0564618164062500e+04" cType="1" res="7.1688727475702763e-03" rms="2.9918000102043152e-01" purity="5.0317645072937012e-01" nType="0">
          <Node pos="l" depth="2" NCoef="0" IVar="-1" Cut="0.0000000000000000e+00" cType="1" res="3.9233434945344925e-02" rms="2.7326950430870056e-01" purity="6.3813227415084839e-01" nType="-99"/>
          <Node pos="r" depth="2" NCoef="0" IVar="-1" Cut="0.0000000000000000e+00" cType="1" res="-1.1460639070719481e-03" rms="2.9919788241386414e-01" purity="4.9088260531425476e-01" nType="-99"/>
        </Node>
        <Node pos="r" depth="1" NCoef="0" IVar="-1" Cut="0.0000000000000000e+00" cType="1" res="-2.3509718477725983e-02" rms="3.3902102708816528e-01" purity="4.6857142448425293e-01" nType="-99"/>
      </Node>
    </BinaryTree>
    <BinaryTree type="DecisionTree" boostWeight="1.0000000000000000e+00" itree="80">
      <Node pos="s" depth="0" NCoef="0" IVar="8" Cut="2.1462006835937500e+03" cType="1" res="-4.6191860747057945e-05" rms="3.0313450098037720e-01" purity="5.0000000000000000e-01" nType="0">
        <Node pos="l" depth="1" NCoef="0" IVar="1" Cut="1.2449880468750000e+05" cType="1" res="-1.6329618170857430e-02" rms="3.1115314364433289e-01" purity="4.2910337448120117e-01" nType="0">
          <Node pos="l" depth="2" NCoef="0" IVar="-1" Cut="0.0000000000000000e+00" cType="1" res="-9.4329379498958588e-03" rms="3.0665454268455505e-01" purity="4.0157166123390198e-01" nType="-99"/>
          <Node pos="r" depth="2" NCoef="0" IVar="-1" Cut="0.0000000000000000e+00" cType="1" res="2.6164473965764046e-02" rms="3.2728245854377747e-01" purity="6.3813227415084839e-01" nType="-99"/>
        </Node>
        <Node pos="r" depth="1" NCoef="0" IVar="5" Cut="5.9068810939788818e-01" cType="1" res="3.0397536233067513e-02" rms="2.8505918383598328e-01" purity="6.3254940509796143e-01" nType="0">
          <Node pos="l" depth="2" NCoef="0" IVar="-1" Cut="0.0000000000000000e+00" cType="1" res="3.5217482945881784e-04" rms="2.9418209195137024e-01" purity="5.5744391679763794e-01" nType="-99"/>
          <Node pos="r" depth="2" NCoef="0" IVar="-1" Cut="0.0000000000000000e+00" cType="1" res="3.9285652339458466e-02" rms="2.5121462345123291e-01" purity="8.0122137069702148e-01" nType="-99"/>
        </Node>
      </Node>
    </BinaryTree>
    <BinaryTree type="DecisionTree" boostWeight="1.0000000000000000e+00" itree="81">
      <Node pos="s" depth="0" NCoef="0" IVar="12" Cut="2.6805649414062500e+03" cType="1" res="-2.8258340535103343e-05" rms="3.0245703458786011e-01" purity="5.0000000000000000e-01" nType="0">
        <Node pos="l" depth="1" NCoef="0" IVar="12" Cut="2.3903623046875000e+03" cType="1" res="-4.0572881698608398e-02" rms="2.9142761230468750e-01" purity="2.7538958191871643e-01" nType="0">
          <Node pos="l" depth="2" NCoef="0" IVar="-1" Cut="0.0000000000000000e+00" cType="1" res="-2.9238713905215263e-02" rms="2.7360227704048157e-01" purity="2.1340273320674896e-01" nType="-99"/>
          <Node pos="r" depth="2" NCoef="0" IVar="-1" Cut="0.0000000000000000e+00" cType="1" res="1.2472150847315788e-02" rms="3.0328890681266785e-01" purity="3.7627956271171570e-01" nType="-99"/>
        </Node>
        <Node pos="r" depth="1" NCoef="0" IVar="9" Cut="8.8247343750000000e+03" cType="1" res="1.3059954158961773e-02" rms="3.0478313565254211e-01" purity="5.7250648736953735e-01" nType="0">
          <Node pos="l" depth="2" NCoef="0" IVar="-1" Cut="0.0000000000000000e+00" cType="1" res="1.0701102437451482e-03" rms="3.0127868056297302e-01" purity="5.6370478868484497e-01" nType="-99"/>
          <Node pos="r" depth="2" NCoef="0" IVar="-1" Cut="0.0000000000000000e+00" cType="1" res="5.2852261811494827e-02" rms="3.1981000304222107e-01" purity="6.9627690315246582e-01" nType="-99"/>
        </Node>
      </Node>
    </BinaryTree>
    <BinaryTree type="DecisionTree" boostWeight="1.0000000000000000e+00" itree="82">
      <Node pos="s" depth="0" NCoef="0" IVar="4" Cut="8.9473457336425781e+00" cType="1" res="-2.7534661057870835e-05" rms="3.0142036080360413e-01" purity="5.0000000000000000e-01" nType="0">
        <Node pos="l" depth="1" NCoef="0" IVar="6" Cut="8.2503814697265625e+01" cType="1" res="5.5758347734808922e-03" rms="3.0397516489028931e-01" purity="5.2158498764038086e-01" nType="0">
          <Node pos="l" depth="2" NCoef="0" IVar="-1" Cut="0.0000000000000000e+00" cType="1" res="-8.4839416667819023e-03" rms="3.2516011595726013e-01" purity="4.1908004879951477e-01" nType="-99"/>
          <Node pos="r" depth="2" NCoef="0" IVar="-1" Cut="0.0000000000000000e+00" cType="1" res="1.0307854041457176e-02" rms="2.8464531898498535e-01" purity="5.9843093156814575e-01" nType="-99"/>
        </Node>
        <Node pos="r" depth="1" NCoef="0" IVar="-1" Cut="0.0000000000000000e+00" cType="1" res="-4.0398109704256058e-02" rms="2.3670260608196259e-01" purity="1.4186850190162659e-01" nType="-99"/>
      </Node>
    </BinaryTree>
    <BinaryTree type="DecisionTree" boostWeight="1.0000000000000000e+00" itree="83">
      <Node pos="s" depth="0" NCoef="0" IVar="10" Cut="3.6786401367187500e+02" cType="1" res="-2.8526734240585938e-05" rms="3.0079191923141479e-01" purity="5.0000000000000000e-01" nType="0">
        <Node pos="l" depth="1" NCoef="0" IVar="9" Cut="7.4832329101562500e+03" cType="1" res="-2.3288276046514511e-02" rms="3.0417740345001221e-01" purity="4.2085811495780945e-01" nType="0">
          <Node pos="l" depth="2" NCoef="0" IVar="-1" Cut="0.0000000000000000e+00" cType="1" res="-1.3051503337919712e-02" rms="3.0553644895553589e-01" purity="4.1738453507423401e-01" nType="-99"/>
          <Node pos="r" depth="2" NCoef="0" IVar="-1" Cut="0.0000000000000000e+00" cType="1" res="2.9848830774426460e-02" rms="2.6978096365928650e-01" purity="4.4492673873901367e-01" nType="-99"/>
        </Node>
        <Node pos="r" depth="1" NCoef="0" IVar="2" Cut="5.9032426757812500e+03" cType="1" res="2.1360605955123901e-02" rms="2.9603609442710876e-01" purity="5.7277709245681763e-01" nType="0">
          <Node pos="l" depth="2" NCoef="0" IVar="-1" Cut="0.0000000000000000e+00" cType="1" res="1.1657307855784893e-02" rms="3.0218535661697388e-01" purity="6.4235860109329224e-01" nType="-99"/>
          <Node pos="r" depth="2" NCoef="0" IVar="-1" Cut="0.0000000000000000e+00" cType="1" res="-3.9562139660120010e-02" rms="2.1588280797004700e-01" purity="4.4348292052745819e-02" nType="-99"/>
        </Node>
      </Node>
    </BinaryTree>
    <BinaryTree type="DecisionTree" boostWeight="1.0000000000000000e+00" itree="84">
      <Node pos="s" depth="0" NCoef="0" IVar="9" Cut="2.6159143066406250e+03" cType="1" res="-3.6111843655817211e-05" rms="2.9986643791198730e-01" purity="5.0000000000000000e-01" nType="0">
        <Node pos="l" depth="1" NCoef="0" IVar="4" Cut="6.3969879150390625e+00" cType="1" res="5.3355976939201355e-02" rms="2.8076282143592834e-01" purity="5.8519178628921509e-01" nType="0">
          <Node pos="l" depth="2" NCoef="0" IVar="-1" Cut="0.0000000000000000e+00" cType="1" res="3.3331546932458878e-02" rms="2.5614434480667114e-01" purity="7.0800626277923584e-01" nType="-99"/>
          <Node pos="r" depth="2" NCoef="0" IVar="-1" Cut="0.0000000000000000e+00" cType="1" res="-5.7474640198051929e-03" rms="2.9620313644409180e-01" purity="4.2355370521545410e-01" nType="-99"/>
        </Node>
        <Node pos="r" depth="1" NCoef="0" IVar="4" Cut="3.0953383445739746e+00" cType="1" res="-9.2371162027120590e-03" rms="3.0208519101142883e-01" purity="4.8531895875930786e-01" nType="0">
          <Node pos="l" depth="2" NCoef="0" IVar="-1" Cut="0.0000000000000000e+00" cType="1" res="-2.5009399279952049e-02" rms="2.4265509843826294e-01" purity="2.9661297798156738e-01" nType="-99"/>
          <Node pos="r" depth="2" NCoef="0" IVar="-1" Cut="0.0000000000000000e+00" cType="1" res="2.4850640911608934e-03" rms="3.1609609723091125e-01" purity="5.4288291931152344e-01" nType="-99"/>
        </Node>
      </Node>
    </BinaryTree>
    <BinaryTree type="DecisionTree" boostWeight="1.0000000000000000e+00" itree="85">
      <Node pos="s" depth="0" NCoef="0" IVar="7" Cut="3.9137101562500000e+04" cType="1" res="-3.0095323381829076e-05" rms="2.9915225505828857e-01" purity="5.0000000000000000e-01" nType="0">
        <Node pos="l" depth="1" NCoef="0" IVar="7" Cut="1.0564618164062500e+04" cType="1" res="6.8720146082341671e-03" rms="2.9520726203918457e-01" purity="5.0317645072937012e-01" nType="0">
          <Node pos="l" depth="2" NCoef="0" IVar="-1" Cut="0.0000000000000000e+00" cType="1" res="3.4935809671878815e-02" rms="2.6729074120521545e-01" purity="6.3813227415084839e-01" nType="-99"/>
          <Node pos="r" depth="2" NCoef="0" IVar="-1" Cut="0.0000000000000000e+00" cType="1" res="-7.9357030335813761e-04" rms="2.9591232538223267e-01" purity="4.9088260531425476e-01" nType="-99"/>
        </Node>
        <Node pos="r" depth="1" NCoef="0" IVar="-1" Cut="0.0000000000000000e+00" cType="1" res="-2.2834539413452148e-02" rms="3.2795816659927368e-01" purity="4.6857142448425293e-01" nType="-99"/>
      </Node>
    </BinaryTree>
    <BinaryTree type="DecisionTree" boostWeight="1.0000000000000000e+00" itree="86">
      <Node pos="s" depth="0" NCoef="0" IVar="8" Cut="2.1462006835937500e+03" cType="1" res="-2.1399075194494799e-05" rms="2.9851782321929932e-01" purity="5.0000000000000000e-01" nType="0">
        <Node pos="l" depth="1" NCoef="0" IVar="12" Cut="3.0015578613281250e+03" cType="1" res="-1.6102408990263939e-02" rms="3.0591845512390137e-01" purity="4.2910337448120117e-01" nType="0">
          <Node pos="l" depth="2" NCoef="0" IVar="-1" Cut="0.0000000000000000e+00" cType="1" res="-2.9610669240355492e-02" rms="2.8952464461326599e-01" purity="1.9916096329689026e-01" nType="-99"/>
          <Node pos="r" depth="2" NCoef="0" IVar="-1" Cut="0.0000000000000000e+00" cType="1" res="7.7856070129200816e-04" rms="3.0814498662948608e-01" purity="4.9696967005729675e-01" nType="-99"/>
        </Node>
        <Node pos="r" depth="1" NCoef="0" IVar="4" Cut="4.9412879943847656e+00" cType="1" res="3.0043886974453926e-02" rms="2.8171315789222717e-01" purity="6.3254940509796143e-01" nType="0">
          <Node pos="l" depth="2" NCoef="0" IVar="-1" Cut="0.0000000000000000e+00" cType="1" res="3.0274676159024239e-02" rms="2.4222709238529205e-01" purity="6.7048239707946777e-01" nType="-99"/>
          <Node pos="r" depth="2" NCoef="0" IVar="-1" Cut="0.0000000000000000e+00" cType="1" res="3.0897842952981591e-04" rms="2.9630187153816223e-01" purity="6.1255562305450439e-01" nType="-99"/>
        </Node>
      </Node>
    </BinaryTree>
    <BinaryTree type="DecisionTree" boostWeight="1.0000000000000000e+00" itree="87">
      <Node pos="s" depth="0" NCoef="0" IVar="2" Cut="5.3147377929687500e+03" cType="1" res="-2.1128080334165134e-05" rms="2.9778611660003662e-01" purity="5.0000000000000000e-01" nType="0">
        <Node pos="l" depth="1" NCoef="0" IVar="9" Cut="4.7275668945312500e+03" cType="1" res="-5.0225380808115005e-02" rms="1.5532419085502625e-01" purity="5.1217984408140182e-02" nType="0">
          <Node pos="l" depth="2" NCoef="0" IVar="-1" Cut="0.0000000000000000e+00" cType="1" res="-5.2491631358861923e-02" rms="1.0884574800729752e-01" purity="2.6814909651875496e-02" nType="-99"/>
          <Node pos="r" depth="2" NCoef="0" IVar="-1" Cut="0.0000000000000000e+00" cType="1" res="2.1295403130352497e-03" rms="2.0294204354286194e-01" purity="9.3982815742492676e-02" nType="-99"/>
        </Node>
        <Node pos="r" depth="1" NCoef="0" IVar="10" Cut="2.0833163452148438e+02" cType="1" res="9.3610370531678200e-03" rms="3.1651350855827332e-01" purity="5.8386832475662231e-01" nType="0">
          <Node pos="l" depth="2" NCoef="0" IVar="-1" Cut="0.0000000000000000e+00" cType="1" res="-2.7159832417964935e-02" rms="3.4536993503570557e-01" purity="3.5528594255447388e-01" nType="-99"/>
          <Node pos="r" depth="2" NCoef="0" IVar="-1" Cut="0.0000000000000000e+00" cType="1" res="6.3415132462978363e-03" rms="3.1147399544715881e-01" purity="6.0642069578170776e-01" nType="-99"/>
        </Node>
      </Node>
    </BinaryTree>
    <BinaryTree type="DecisionTree" boostWeight="1.0000000000000000e+00" itree="88">
      <Node pos="s" depth="0" NCoef="0" IVar="0" Cut="7.8586020507812500e+03" cType="1" res="-4.2500574636505917e-05" rms="2.9712519049644470e-01" purity="5.0000000000000000e-01" nType="0">
        <Node pos="l" depth="1" NCoef="0" IVar="12" Cut="5.6631152343750000e+03" cType="1" res="-6.6833142191171646e-03" rms="3.0971202254295349e-01" purity="4.5284247398376465e-01" nType="0">
          <Node pos="l" depth="2" NCoef="0" IVar="-1" Cut="0.0000000000000000e+00" cType="1" res="5.7346676476299763e-04" rms="3.0853572487831116e-01" purity="4.6354407072067261e-01" nType="-99"/>
          <Node pos="r" depth="2" NCoef="0" IVar="-1" Cut="0.0000000000000000e+00" cType="1" res="-4.2036727070808411e-02" rms="2.9883533716201782e-01" purity="2.8924161195755005e-01" nType="-99"/>
        </Node>
        <Node pos="r" depth="1" NCoef="0" IVar="-1" Cut="0.0000000000000000e+00" cType="1" res="4.4218778610229492e-02" rms="8.9007310569286346e-02" purity="9.6677386760711670e-01" nType="-99"/>
      </Node>
    </BinaryTree>
    <BinaryTree type="DecisionTree" boostWeight="1.0000000000000000e+00" itree="89">
      <Node pos="s" depth="0" NCoef="0" IVar="2" Cut="5.7398959960937500e+03" cType="1" res="-2.1587353330687620e-05" rms="2.9655230045318604e-01" purity="5.0000000000000000e-01" nType="0">
        <Node pos="l" depth="1" NCoef="0" IVar="2" Cut="5.3584111328125000e+03" cType="1" res="1.0674612596631050e-02" rms="2.9896602034568787e-01" purity="5.7164198160171509e-01" nType="0">
          <Node pos="l" depth="2" NCoef="0" IVar="-1" Cut="0.0000000000000000e+00" cType="1" res="-2.9807746410369873e-02" rms="1.7283238470554352e-01" purity="7.4208140373229980e-02" nType="-99"/>
          <Node pos="r" depth="2" NCoef="0" IVar="-1" Cut="0.0000000000000000e+00" cType="1" res="8.3746640011668205e-03" rms="3.2519474625587463e-01" purity="7.1960806846618652e-01" nType="-99"/>
        </Node>
        <Node pos="r" depth="1" NCoef="0" IVar="4" Cut="5.6752882003784180e+00" cType="1" res="-4.0266353636980057e-02" rms="2.8369849920272827e-01" purity="2.3044495284557343e-01" nType="0">
          <Node pos="l" depth="2" NCoef="0" IVar="-1" Cut="0.0000000000000000e+00" cType="1" res="4.3457467108964920e-03" rms="2.8965654969215393e-01" purity="3.1436154246330261e-01" nType="-99"/>
          <Node pos="r" depth="2" NCoef="0" IVar="-1" Cut="0.0000000000000000e+00" cType="1" res="-3.4855358302593231e-02" rms="2.6489028334617615e-01" purity="1.3603185117244720e-01" nType="-99"/>
        </Node>
      </Node>
    </BinaryTree>
    <BinaryTree type="DecisionTree" boostWeight="1.0000000000000000e+00" itree="90">
      <Node pos="s" depth="0" NCoef="0" IVar="4" Cut="8.9473457336425781e+00" cType="1" res="-4.1390765545656905e-05" rms="2.9601475596427917e-01" purity="5.0000000000000000e-01" nType="0">
        <Node pos="l" depth="1" NCoef="0" IVar="6" Cut="8.2503814697265625e+01" cType="1" res="5.0920490175485611e-03" rms="2.9870223999023438e-01" purity="5.2158498764038086e-01" nType="0">
          <Node pos="l" depth="2" NCoef="0" IVar="-1" Cut="0.0000000000000000e+00" cType="1" res="-8.7211420759558678e-03" rms="3.1956338882446289e-01" purity="4.1908004879951477e-01" nType="-99"/>
          <Node pos="r" depth="2" NCoef="0" IVar="-1" Cut="0.0000000000000000e+00" cType="1" res="1.0321894660592079e-02" rms="2.7965402603149414e-01" purity="5.9843093156814575e-01" nType="-99"/>
        </Node>
        <Node pos="r" depth="1" NCoef="0" IVar="-1" Cut="0.0000000000000000e+00" cType="1" res="-3.8600906729698181e-02" rms="2.3111645877361298e-01" purity="1.4186850190162659e-01" nType="-99"/>
      </Node>
    </BinaryTree>
    <BinaryTree type="DecisionTree" boostWeight="1.0000000000000000e+00" itree="91">
      <Node pos="s" depth="0" NCoef="0" IVar="4" Cut="1.7191365957260132e+00" cType="1" res="-4.0276609070133418e-05" rms="2.9541265964508057e-01" purity="5.0000000000000000e-01" nType="0">
        <Node pos="l" depth="1" NCoef="0" IVar="9" Cut="4.2508598632812500e+03" cType="1" res="-5.9828341007232666e-02" rms="2.3480908572673798e-01" purity="1.9036564230918884e-01" nType="0">
          <Node pos="l" depth="2" NCoef="0" IVar="-1" Cut="0.0000000000000000e+00" cType="1" res="-9.4010513275861740e-03" rms="2.2333189845085144e-01" purity="2.5324273109436035e-01" nType="-99"/>
          <Node pos="r" depth="2" NCoef="0" IVar="-1" Cut="0.0000000000000000e+00" cType="1" res="-3.2461121678352356e-02" rms="2.4006859958171844e-01" purity="1.3464696705341339e-01" nType="-99"/>
        </Node>
        <Node pos="r" depth="1" NCoef="0" IVar="4" Cut="5.1828784942626953e+00" cType="1" res="7.5740953907370567e-03" rms="3.0140966176986694e-01" purity="5.3943377733230591e-01" nType="0">
          <Node pos="l" depth="2" NCoef="0" IVar="-1" Cut="0.0000000000000000e+00" cType="1" res="1.7172539606690407e-02" rms="2.8285893797874451e-01" purity="6.1728394031524658e-01" nType="-99"/>
          <Node pos="r" depth="2" NCoef="0" IVar="-1" Cut="0.0000000000000000e+00" cType="1" res="-5.8421404100954533e-03" rms="3.0905997753143311e-01" purity="4.9406257271766663e-01" nType="-99"/>
        </Node>
      </Node>
    </BinaryTree>
    <BinaryTree type="DecisionTree" boostWeight="1.0000000000000000e+00" itree="92">
      <Node pos="s" depth="0" NCoef="0" IVar="3" Cut="3.3495236816406250e+03" cType="1" res="-3.8155205402290449e-05" rms="2.9483050107955933e-01" purity="5.0000000000000000e-01" nType="0">
        <Node pos="l" depth="1" NCoef="0" IVar="10" Cut="6.5294470214843750e+02" cType="1" res="-9.0830158442258835e-03" rms="2.9893028736114502e-01" purity="4.6687203645706177e-01" nType="0">
          <Node pos="l" depth="2" NCoef="0" IVar="-1" Cut="0.0000000000000000e+00" cType="1" res="3.6379002267494798e-05" rms="2.9838407039642334e-01" purity="4.7400817275047302e-01" nType="-99"/>
          <Node pos="r" depth="2" NCoef="0" IVar="-1" Cut="0.0000000000000000e+00" cType="1" res="-6.3336350023746490e-02" rms="2.7174362540245056e-01" purity="3.5942393541336060e-01" nType="-99"/>
        </Node>
        <Node pos="r" depth="1" NCoef="0" IVar="4" Cut="5.7895584106445312e+00" cType="1" res="4.7675762325525284e-02" rms="2.6716163754463196e-01" purity="6.7475825548171997e-01" nType="0">
          <Node pos="l" depth="2" NCoef="0" IVar="-1" Cut="0.0000000000000000e+00" cType="1" res="5.1737070083618164e-02" rms="2.0556683838367462e-01" purity="7.7014338970184326e-01" nType="-99"/>
          <Node pos="r" depth="2" NCoef="0" IVar="-1" Cut="0.0000000000000000e+00" cType="1" res="6.5694801742210984e-04" rms="2.9508167505264282e-01" purity="6.0676532983779907e-01" nType="-99"/>
        </Node>
      </Node>
    </BinaryTree>
    <BinaryTree type="DecisionTree" boostWeight="1.0000000000000000e+00" itree="93">
      <Node pos="s" depth="0" NCoef="0" IVar="9" Cut="2.6159143066406250e+03" cType="1" res="-2.9681539672310464e-05" rms="2.9379114508628845e-01" purity="5.0000000000000000e-01" nType="0">
        <Node pos="l" depth="1" NCoef="0" IVar="4" Cut="5.8063836097717285e+00" cType="1" res="4.9891993403434753e-02" rms="2.7044790983200073e-01" purity="5.8519178628921509e-01" nType="0">
          <Node pos="l" depth="2" NCoef="0" IVar="-1" Cut="0.0000000000000000e+00" cType="1" res="4.2638245970010757e-02" rms="1.8528145551681519e-01" purity="7.3832297325134277e-01" nType="-99"/>
          <Node pos="r" depth="2" NCoef="0" IVar="-1" Cut="0.0000000000000000e+00" cType="1" res="2.3186064790934324e-03" rms="3.0654063820838928e-01" purity="4.8466938734054565e-01" nType="-99"/>
        </Node>
        <Node pos="r" depth="1" NCoef="0" IVar="4" Cut="3.0953383445739746e+00" cType="1" res="-8.6326329037547112e-03" rms="2.9678195714950562e-01" purity="4.8531895875930786e-01" nType="0">
          <Node pos="l" depth="2" NCoef="0" IVar="-1" Cut="0.0000000000000000e+00" cType="1" res="-2.4233711883425713e-02" rms="2.3567742109298706e-01" purity="2.9661297798156738e-01" nType="-99"/>
          <Node pos="r" depth="2" NCoef="0" IVar="-1" Cut="0.0000000000000000e+00" cType="1" res="2.3928836453706026e-03" rms="3.1134894490242004e-01" purity="5.4288291931152344e-01" nType="-99"/>
        </Node>
      </Node>
    </BinaryTree>
    <BinaryTree type="DecisionTree" boostWeight="1.0000000000000000e+00" itree="94">
      <Node pos="s" depth="0" NCoef="0" IVar="8" Cut="2.1462006835937500e+03" cType="1" res="-2.3049580704537220e-05" rms="2.9312285780906677e-01" purity="5.0000000000000000e-01" nType="0">
        <Node pos="l" depth="1" NCoef="0" IVar="1" Cut="1.2449880468750000e+05" cType="1" res="-1.4337403699755669e-02" rms="3.0087122321128845e-01" purity="4.2910337448120117e-01" nType="0">
          <Node pos="l" depth="2" NCoef="0" IVar="-1" Cut="0.0000000000000000e+00" cType="1" res="-9.0463319793343544e-03" rms="2.9656231403350830e-01" purity="4.0157166123390198e-01" nType="-99"/>
          <Node pos="r" depth="2" NCoef="0" IVar="-1" Cut="0.0000000000000000e+00" cType="1" res="2.6824420318007469e-02" rms="3.1587591767311096e-01" purity="6.3813227415084839e-01" nType="-99"/>
        </Node>
        <Node pos="r" depth="1" NCoef="0" IVar="5" Cut="5.9068810939788818e-01" cType="1" res="2.6739273220300674e-02" rms="2.7607399225234985e-01" purity="6.3254940509796143e-01" nType="0">
          <Node pos="l" depth="2" NCoef="0" IVar="-1" Cut="0.0000000000000000e+00" cType="1" res="-7.8913418110460043e-04" rms="2.8358432650566101e-01" purity="5.5744391679763794e-01" nType="-99"/>
          <Node pos="r" depth="2" NCoef="0" IVar="-1" Cut="0.0000000000000000e+00" cType="1" res="3.9460577070713043e-02" rms="2.4630770087242126e-01" purity="8.0122137069702148e-01" nType="-99"/>
        </Node>
      </Node>
    </BinaryTree>
    <BinaryTree type="DecisionTree" boostWeight="1.0000000000000000e+00" itree="95">
      <Node pos="s" depth="0" NCoef="0" IVar="12" Cut="2.6805649414062500e+03" cType="1" res="-8.1889565990422852e-06" rms="2.9244336485862732e-01" purity="5.0000000000000000e-01" nType="0">
        <Node pos="l" depth="1" NCoef="0" IVar="11" Cut="3.0838462890625000e+04" cType="1" res="-3.4960091114044189e-02" rms="2.7985933423042297e-01" purity="2.7538958191871643e-01" nType="0">
          <Node pos="l" depth="2" NCoef="0" IVar="-1" Cut="0.0000000000000000e+00" cType="1" res="-3.1357936561107635e-02" rms="2.2321796417236328e-01" purity="2.1340273320674896e-01" nType="-99"/>
          <Node pos="r" depth="2" NCoef="0" IVar="-1" Cut="0.0000000000000000e+00" cType="1" res="1.1496169492602348e-02" rms="3.4116420149803162e-01" purity="3.7627956271171570e-01" nType="-99"/>
        </Node>
        <Node pos="r" depth="1" NCoef="0" IVar="9" Cut="8.8247343750000000e+03" cType="1" res="1.1274636723101139e-02" rms="2.9551026225090027e-01" purity="5.7250648736953735e-01" nType="0">
          <Node pos="l" depth="2" NCoef="0" IVar="-1" Cut="0.0000000000000000e+00" cType="1" res="8.7949290173128247e-04" rms="2.9302993416786194e-01" purity="5.6370478868484497e-01" nType="-99"/>
          <Node pos="r" depth="2" NCoef="0" IVar="-1" Cut="0.0000000000000000e+00" cType="1" res="4.8453453928232193e-02" rms="3.0285185575485229e-01" purity="6.9627690315246582e-01" nType="-99"/>
        </Node>
      </Node>
    </BinaryTree>
    <BinaryTree type="DecisionTree" boostWeight="1.0000000000000000e+00" itree="96">
      <Node pos="s" depth="0" NCoef="0" IVar="0" Cut="2.1678354492187500e+03" cType="1" res="-8.9223585746367462e-06" rms="2.9148486256599426e-01" purity="5.0000000000000000e-01" nType="0">
        <Node pos="l" depth="1" NCoef="0" IVar="12" Cut="2.8951069335937500e+03" cType="1" res="-3.2106138765811920e-02" rms="2.8988263010978699e-01" purity="3.1297710537910461e-01" nType="0">
          <Node pos="l" depth="2" NCoef="0" IVar="-1" Cut="0.0000000000000000e+00" cType="1" res="-2.6135055348277092e-02" rms="2.9843822121620178e-01" purity="2.4519434571266174e-01" nType="-99"/>
          <Node pos="r" depth="2" NCoef="0" IVar="-1" Cut="0.0000000000000000e+00" cType="1" res="7.7758408151566982e-03" rms="2.6807469129562378e-01" purity="4.0523257851600647e-01" nType="-99"/>
        </Node>
        <Node pos="r" depth="1" NCoef="0" IVar="4" Cut="5.8063836097717285e+00" cType="1" res="1.1638544499874115e-02" rms="2.9119053483009338e-01" purity="5.6786704063415527e-01" nType="0">
          <Node pos="l" depth="2" NCoef="0" IVar="-1" Cut="0.0000000000000000e+00" cType="1" res="1.5108251012861729e-02" rms="2.8358763456344604e-01" purity="6.1560517549514771e-01" nType="-99"/>
          <Node pos="r" depth="2" NCoef="0" IVar="-1" Cut="0.0000000000000000e+00" cType="1" res="-8.6036706343293190e-03" rms="2.9544231295585632e-01" purity="5.1410657167434692e-01" nType="-99"/>
        </Node>
      </Node>
    </BinaryTree>
    <BinaryTree type="DecisionTree" boostWeight="1.0000000000000000e+00" itree="97">
      <Node pos="s" depth="0" NCoef="0" IVar="8" Cut="2.1462006835937500e+03" cType="1" res="-8.1252173913526349e-06" rms="2.9065674543380737e-01" purity="5.0000000000000000e-01" nType="0">
        <Node pos="l" depth="1" NCoef="0" IVar="1" Cut="1.2449880468750000e+05" cType="1" res="-1.4220689423382282e-02" rms="2.9859074950218201e-01" purity="4.2910337448120117e-01" nType="0">
          <Node pos="l" depth="2" NCoef="0" IVar="-1" Cut="0.0000000000000000e+00" cType="1" res="-8.4917098283767700e-03" rms="2.9513770341873169e-01" purity="4.0157166123390198e-01" nType="-99"/>
          <Node pos="r" depth="2" NCoef="0" IVar="-1" Cut="0.0000000000000000e+00" cType="1" res="2.3017590865492821e-02" rms="3.1131866574287415e-01" purity="6.3813227415084839e-01" nType="-99"/>
        </Node>
        <Node pos="r" depth="1" NCoef="0" IVar="4" Cut="7.3090806007385254e+00" cType="1" res="2.6563886553049088e-02" rms="2.7323427796363831e-01" purity="6.3254940509796143e-01" nType="0">
          <Node pos="l" depth="2" NCoef="0" IVar="-1" Cut="0.0000000000000000e+00" cType="1" res="1.4670561067759991e-03" rms="2.7195188403129578e-01" purity="5.9780055284500122e-01" nType="-99"/>
          <Node pos="r" depth="2" NCoef="0" IVar="-1" Cut="0.0000000000000000e+00" cType="1" res="3.9824288338422775e-02" rms="2.6464039087295532e-01" purity="7.4339771270751953e-01" nType="-99"/>
        </Node>
      </Node>
    </BinaryTree>
    <BinaryTree type="DecisionTree" boostWeight="1.0000000000000000e+00" itree="98">
      <Node pos="s" depth="0" NCoef="0" IVar="7" Cut="3.9137101562500000e+04" cType="1" res="1.3771841622656211e-06" rms="2.9007709026336670e-01" purity="5.0000000000000000e-01" nType="0">
        <Node pos="l" depth="1" NCoef="0" IVar="7" Cut="1.0564618164062500e+04" cType="1" res="6.2542208470404148e-03" rms="2.8667059540748596e-01" purity="5.0317645072937012e-01" nType="0">
          <Node pos="l" depth="2" NCoef="0" IVar="-1" Cut="0.0000000000000000e+00" cType="1" res="3.2987654209136963e-02" rms="2.6092743873596191e-01" purity="6.3813227415084839e-01" nType="-99"/>
          <Node pos="r" depth="2" NCoef="0" IVar="-1" Cut="0.0000000000000000e+00" cType="1" res="-7.6525885378941894e-04" rms="2.8743025660514832e-01" purity="4.9088260531425476e-01" nType="-99"/>
        </Node>
        <Node pos="r" depth="1" NCoef="0" IVar="-1" Cut="0.0000000000000000e+00" cType="1" res="-2.1243980154395103e-02" rms="3.1522938609123230e-01" purity="4.6857142448425293e-01" nType="-99"/>
      </Node>
    </BinaryTree>
    <BinaryTree type="DecisionTree" boostWeight="1.0000000000000000e+00" itree="99">
      <Node pos="s" depth="0" NCoef="0" IVar="2" Cut="5.3147377929687500e+03" cType="1" res="6.2459757828037255e-06" rms="2.8952392935752869e-01" purity="5.0000000000000000e-01" nType="0">
        <Node pos="l" depth="1" NCoef="0" IVar="9" Cut="4.7275668945312500e+03" cType="1" res="-4.5701704919338226e-02" rms="1.4665144681930542e-01" purity="5.1217984408140182e-02" nType="0">
          <Node pos="l" depth="2" NCoef="0" IVar="-1" Cut="0.0000000000000000e+00" cType="1" res="-5.1615275442600250e-02" rms="1.0655406117439270e-01" purity="2.6814909651875496e-02" nType="-99"/>
          <Node pos="r" depth="2" NCoef="0" IVar="-1" Cut="0.0000000000000000e+00" cType="1" res="1.8936290871351957e-03" rms="1.8877093493938446e-01" purity="9.3982815742492676e-02" nType="-99"/>
        </Node>
        <Node pos="r" depth="1" NCoef="0" IVar="10" Cut="2.0833163452148438e+02" cType="1" res="8.5481423884630203e-03" rms="3.0823138356208801e-01" purity="5.8386832475662231e-01" nType="0">
          <Node pos="l" depth="2" NCoef="0" IVar="-1" Cut="0.0000000000000000e+00" cType="1" res="-2.5301516056060791e-02" rms="3.4131714701652527e-01" purity="3.5528594255447388e-01" nType="-99"/>
          <Node pos="r" depth="2" NCoef="0" IVar="-1" Cut="0.0000000000000000e+00" cType="1" res="5.9454105794429779e-03" rms="3.0305120348930359e-01" purity="6.0642069578170776e-01" nType="-99"/>
        </Node>
      </Node>
    </BinaryTree>
    <BinaryTree type="DecisionTree" boostWeight="1.0000000000000000e+00" itree="100">
      <Node pos="s" depth="0" NCoef="0" IVar="4" Cut="8.9473457336425781e+00" cType="1" res="-1.5575713405269198e-05" rms="2.8895339369773865e-01" purity="5.0000000000000000e-01" nType="0">
        <Node pos="l" depth="1" NCoef="0" IVar="6" Cut="8.2503814697265625e+01" cType="1" res="4.8152329400181770e-03" rms="2.9187968373298645e-01" purity="5.2158498764038086e-01" nType="0">
          <Node pos="l" depth="2" NCoef="0" IVar="-1" Cut="0.0000000000000000e+00" cType="1" res="-8.1305718049407005e-03" rms="3.1160280108451843e-01" purity="4.1908004879951477e-01" nType="-99"/>
          <Node pos="r" depth="2" NCoef="0" IVar="-1" Cut="0.0000000000000000e+00" cType="1" res="9.7614405676722527e-03" rms="2.7410477399826050e-01" purity="5.9843093156814575e-01" nType="-99"/>
        </Node>
        <Node pos="r" depth="1" NCoef="0" IVar="-1" Cut="0.0000000000000000e+00" cType="1" res="-3.7785265594720840e-02" rms="2.2018580138683319e-01" purity="1.4186850190162659e-01" nType="-99"/>
      </Node>
    </BinaryTree>
    <BinaryTree type="DecisionTree" boostWeight="1.0000000000000000e+00" itree="101">
      <Node pos="s" depth="0" NCoef="0" IVar="2" Cut="5.7398959960937500e+03" cType="1" res="-1.6995543774100952e-05" rms="2.8842258453369141e-01" purity="5.0000000000000000e-01" nType="0">
        <Node pos="l" depth="1" NCoef="0" IVar="9" Cut="8.8247343750000000e+03" cType="1" res="1.0049995966255665e-02" rms="2.9108220338821411e-01" purity="5.7164198160171509e-01" nType="0">
          <Node pos="l" depth="2" NCoef="0" IVar="-1" Cut="0.0000000000000000e+00" cType="1" res="3.4837122075259686e-04" rms="2.8829166293144226e-01" purity="5.6306469440460205e-01" nType="-99"/>
          <Node pos="r" depth="2" NCoef="0" IVar="-1" Cut="0.0000000000000000e+00" cType="1" res="3.6793053150177002e-02" rms="3.0265381932258606e-01" purity="6.6836476325988770e-01" nType="-99"/>
        </Node>
        <Node pos="r" depth="1" NCoef="0" IVar="5" Cut="2.7261134982109070e-01" cType="1" res="-3.7894345819950104e-02" rms="2.7490460872650146e-01" purity="2.3044495284557343e-01" nType="0">
          <Node pos="l" depth="2" NCoef="0" IVar="-1" Cut="0.0000000000000000e+00" cType="1" res="-3.9479672908782959e-02" rms="2.1753692626953125e-01" purity="1.2363362312316895e-01" nType="-99"/>
          <Node pos="r" depth="2" NCoef="0" IVar="-1" Cut="0.0000000000000000e+00" cType="1" res="1.1376132024452090e-03" rms="3.0243191123008728e-01" purity="3.0597016215324402e-01" nType="-99"/>
        </Node>
      </Node>
    </BinaryTree>
    <BinaryTree type="DecisionTree" boostWeight="1.0000000000000000e+00" itree="102">
      <Node pos="s" depth="0" NCoef="0" IVar="7" Cut="3.9137101562500000e+04" cType="1" res="-2.6746352887130342e-05" rms="2.8772324323654175e-01" purity="5.0000000000000000e-01" nType="0">
        <Node pos="l" depth="1" NCoef="0" IVar="7" Cut="1.0564618164062500e+04" cType="1" res="6.0561201535165310e-03" rms="2.8460317850112915e-01" purity="5.0317645072937012e-01" nType="0">
          <Node pos="l" depth="2" NCoef="0" IVar="-1" Cut="0.0000000000000000e+00" cType="1" res="3.1110033392906189e-02" rms="2.5826957821846008e-01" purity="6.3813227415084839e-01" nType="-99"/>
          <Node pos="r" depth="2" NCoef="0" IVar="-1" Cut="0.0000000000000000e+00" cType="1" res="-5.9336726553738117e-04" rms="2.8563719987869263e-01" purity="4.9088260531425476e-01" nType="-99"/>
        </Node>
        <Node pos="r" depth="1" NCoef="0" IVar="-1" Cut="0.0000000000000000e+00" cType="1" res="-2.0839253440499306e-02" rms="3.1058731675148010e-01" purity="4.6857142448425293e-01" nType="-99"/>
      </Node>
    </BinaryTree>
    <BinaryTree type="DecisionTree" boostWeight="1.0000000000000000e+00" itree="103">
      <Node pos="s" depth="0" NCoef="0" IVar="8" Cut="2.1462006835937500e+03" cType="1" res="-1.9317018086439930e-05" rms="2.8723278641700745e-01" purity="5.0000000000000000e-01" nType="0">
        <Node pos="l" depth="1" NCoef="0" IVar="4" Cut="7.1402935981750488e+00" cType="1" res="-1.4107876457273960e-02" rms="2.9535964131355286e-01" purity="4.2910337448120117e-01" nType="0">
          <Node pos="l" depth="2" NCoef="0" IVar="-1" Cut="0.0000000000000000e+00" cType="1" res="1.2907753989566118e-04" rms="2.9592677950859070e-01" purity="4.7941285371780396e-01" nType="-99"/>
          <Node pos="r" depth="2" NCoef="0" IVar="-1" Cut="0.0000000000000000e+00" cType="1" res="-2.9280193150043488e-02" rms="2.8488034009933472e-01" purity="2.1601682901382446e-01" nType="-99"/>
        </Node>
        <Node pos="r" depth="1" NCoef="0" IVar="5" Cut="5.9068810939788818e-01" cType="1" res="2.6320854201912880e-02" rms="2.6941758394241333e-01" purity="6.3254940509796143e-01" nType="0">
          <Node pos="l" depth="2" NCoef="0" IVar="-1" Cut="0.0000000000000000e+00" cType="1" res="6.5629906021058559e-04" rms="2.7889755368232727e-01" purity="5.5744391679763794e-01" nType="-99"/>
          <Node pos="r" depth="2" NCoef="0" IVar="-1" Cut="0.0000000000000000e+00" cType="1" res="3.6452032625675201e-02" rms="2.3775821924209595e-01" purity="8.0122137069702148e-01" nType="-99"/>
        </Node>
      </Node>
    </BinaryTree>
    <BinaryTree type="DecisionTree" boostWeight="1.0000000000000000e+00" itree="104">
      <Node pos="s" depth="0" NCoef="0" IVar="4" Cut="1.7191365957260132e+00" cType="1" res="-1.1770101082220208e-05" rms="2.8664746880531311e-01" purity="5.0000000000000000e-01" nType="0">
        <Node pos="l" depth="1" NCoef="0" IVar="9" Cut="4.2508598632812500e+03" cType="1" res="-5.2310824394226074e-02" rms="2.2526158392429352e-01" purity="1.9036564230918884e-01" nType="0">
          <Node pos="l" depth="2" NCoef="0" IVar="-1" Cut="0.0000000000000000e+00" cType="1" res="-9.8271733149886131e-03" rms="2.1285685896873474e-01" purity="2.5324273109436035e-01" nType="-99"/>
          <Node pos="r" depth="2" NCoef="0" IVar="-1" Cut="0.0000000000000000e+00" cType="1" res="-2.8961153700947762e-02" rms="2.3286455869674683e-01" purity="1.3464696705341339e-01" nType="-99"/>
        </Node>
        <Node pos="r" depth="1" NCoef="0" IVar="4" Cut="5.1828784942626953e+00" cType="1" res="6.6488310694694519e-03" rms="2.9287558794021606e-01" purity="5.3943377733230591e-01" nType="0">
          <Node pos="l" depth="2" NCoef="0" IVar="-1" Cut="0.0000000000000000e+00" cType="1" res="1.6063153743743896e-02" rms="2.7511057257652283e-01" purity="6.1728394031524658e-01" nType="-99"/>
          <Node pos="r" depth="2" NCoef="0" IVar="-1" Cut="0.0000000000000000e+00" cType="1" res="-5.5177318863570690e-03" rms="3.0049553513526917e-01" purity="4.9406257271766663e-01" nType="-99"/>
        </Node>
      </Node>
    </BinaryTree>
    <BinaryTree type="DecisionTree" boostWeight="1.0000000000000000e+00" itree="105">
      <Node pos="s" depth="0" NCoef="0" IVar="2" Cut="5.3147377929687500e+03" cType="1" res="-1.1743299182853661e-05" rms="2.8617537021636963e-01" purity="5.0000000000000000e-01" nType="0">
        <Node pos="l" depth="1" NCoef="0" IVar="6" Cut="1.5137452697753906e+02" cType="1" res="-4.4112980365753174e-02" rms="1.4257220923900604e-01" purity="5.1217984408140182e-02" nType="0">
          <Node pos="l" depth="2" NCoef="0" IVar="-1" Cut="0.0000000000000000e+00" cType="1" res="-5.9558946639299393e-02" rms="8.0172449350357056e-02" purity="0.0000000000000000e+00" nType="-99"/>
          <Node pos="r" depth="2" NCoef="0" IVar="-1" Cut="0.0000000000000000e+00" cType="1" res="-1.0907839983701706e-02" rms="1.6915410757064819e-01" purity="8.9227415621280670e-02" nType="-99"/>
        </Node>
        <Node pos="r" depth="1" NCoef="0" IVar="10" Cut="2.0833163452148438e+02" cType="1" res="8.2298908382654190e-03" rms="3.0491155385971069e-01" purity="5.8386832475662231e-01" nType="0">
          <Node pos="l" depth="2" NCoef="0" IVar="-1" Cut="0.0000000000000000e+00" cType="1" res="-2.3194523528218269e-02" rms="3.4022128582000732e-01" purity="3.5528594255447388e-01" nType="-99"/>
          <Node pos="r" depth="2" NCoef="0" IVar="-1" Cut="0.0000000000000000e+00" cType="1" res="5.6446874514222145e-03" rms="2.9976710677146912e-01" purity="6.0642069578170776e-01" nType="-99"/>
        </Node>
      </Node>
    </BinaryTree>
    <BinaryTree type="DecisionTree" boostWeight="1.0000000000000000e+00" itree="106">
      <Node pos="s" depth="0" NCoef="0" IVar="0" Cut="2.1678354492187500e+03" cType="1" res="-3.3836542570497841e-05" rms="2.8572666645050049e-01" purity="5.0000000000000000e-01" nType="0">
        <Node pos="l" depth="1" NCoef="0" IVar="11" Cut="3.4242796875000000e+04" cType="1" res="-3.0461411923170090e-02" rms="2.8440570831298828e-01" purity="3.1297710537910461e-01" nType="0">
          <Node pos="l" depth="2" NCoef="0" IVar="-1" Cut="0.0000000000000000e+00" cType="1" res="-2.8034266084432602e-02" rms="2.4038499593734741e-01" purity="1.8061673641204834e-01" nType="-99"/>
          <Node pos="r" depth="2" NCoef="0" IVar="-1" Cut="0.0000000000000000e+00" cType="1" res="7.5296238064765930e-03" rms="3.3535647392272949e-01" purity="5.2429670095443726e-01" nType="-99"/>
        </Node>
        <Node pos="r" depth="1" NCoef="0" IVar="4" Cut="5.8063836097717285e+00" cType="1" res="1.1007748544216156e-02" rms="2.8540343046188354e-01" purity="5.6786704063415527e-01" nType="0">
          <Node pos="l" depth="2" NCoef="0" IVar="-1" Cut="0.0000000000000000e+00" cType="1" res="1.4064510352909565e-02" rms="2.7756473422050476e-01" purity="6.1560517549514771e-01" nType="-99"/>
          <Node pos="r" depth="2" NCoef="0" IVar="-1" Cut="0.0000000000000000e+00" cType="1" res="-7.5774332508444786e-03" rms="2.9071351885795593e-01" purity="5.1410657167434692e-01" nType="-99"/>
        </Node>
      </Node>
    </BinaryTree>
    <BinaryTree type="DecisionTree" boostWeight="1.0000000000000000e+00" itree="107">
      <Node pos="s" depth="0" NCoef="0" IVar="2" Cut="5.7871357421875000e+03" cType="1" res="-3.3697793696774170e-05" rms="2.8508251905441284e-01" purity="5.0000000000000000e-01" nType="0">
        <Node pos="l" depth="1" NCoef="0" IVar="6" Cut="3.7283832550048828e+01" cType="1" res="8.5723176598548889e-03" rms="2.8776267170906067e-01" purity="5.6803071498870850e-01" nType="0">
          <Node pos="l" depth="2" NCoef="0" IVar="-1" Cut="0.0000000000000000e+00" cType="1" res="-1.7021343111991882e-02" rms="3.1946831941604614e-01" purity="3.2277110219001770e-01" nType="-99"/>
          <Node pos="r" depth="2" NCoef="0" IVar="-1" Cut="0.0000000000000000e+00" cType="1" res="8.7840324267745018e-03" rms="2.7688637375831604e-01" purity="6.3067412376403809e-01" nType="-99"/>
        </Node>
        <Node pos="r" depth="1" NCoef="0" IVar="9" Cut="4.1435532226562500e+03" cType="1" res="-3.8899272680282593e-02" rms="2.6924604177474976e-01" purity="1.9276672601699829e-01" nType="0">
          <Node pos="l" depth="2" NCoef="0" IVar="-1" Cut="0.0000000000000000e+00" cType="1" res="1.2789021246135235e-02" rms="3.4725019335746765e-01" purity="3.9805823564529419e-01" nType="-99"/>
          <Node pos="r" depth="2" NCoef="0" IVar="-1" Cut="0.0000000000000000e+00" cType="1" res="-3.6861509084701538e-02" rms="2.0873405039310455e-01" purity="8.9227423071861267e-02" nType="-99"/>
        </Node>
      </Node>
    </BinaryTree>
    <BinaryTree type="DecisionTree" boostWeight="1.0000000000000000e+00" itree="108">
      <Node pos="s" depth="0" NCoef="0" IVar="8" Cut="2.1462006835937500e+03" cType="1" res="-4.6718003432033584e-05" rms="2.8440448641777039e-01" purity="5.0000000000000000e-01" nType="0">
        <Node pos="l" depth="1" NCoef="0" IVar="1" Cut="1.2449880468750000e+05" cType="1" res="-1.3323570601642132e-02" rms="2.9341128468513489e-01" purity="4.2910337448120117e-01" nType="0">
          <Node pos="l" depth="2" NCoef="0" IVar="-1" Cut="0.0000000000000000e+00" cType="1" res="-8.1742228940129280e-03" rms="2.9011601209640503e-01" purity="4.0157166123390198e-01" nType="-99"/>
          <Node pos="r" depth="2" NCoef="0" IVar="-1" Cut="0.0000000000000000e+00" cType="1" res="2.1961964666843414e-02" rms="3.0644971132278442e-01" purity="6.3813227415084839e-01" nType="-99"/>
        </Node>
        <Node pos="r" depth="1" NCoef="0" IVar="4" Cut="7.7826390266418457e+00" cType="1" res="2.4775873869657516e-02" rms="2.6497212052345276e-01" purity="6.3254940509796143e-01" nType="0">
          <Node pos="l" depth="2" NCoef="0" IVar="-1" Cut="0.0000000000000000e+00" cType="1" res="2.8278660029172897e-03" rms="2.6571980118751526e-01" purity="6.0020911693572998e-01" nType="-99"/>
          <Node pos="r" depth="2" NCoef="0" IVar="-1" Cut="0.0000000000000000e+00" cType="1" res="4.6731453388929367e-02" rms="2.4854311347007751e-01" purity="7.7014338970184326e-01" nType="-99"/>
        </Node>
      </Node>
    </BinaryTree>
    <BinaryTree type="DecisionTree" boostWeight="1.0000000000000000e+00" itree="109">
      <Node pos="s" depth="0" NCoef="0" IVar="4" Cut="8.9473457336425781e+00" cType="1" res="-3.3294170862063766e-05" rms="2.8387302160263062e-01" purity="5.0000000000000000e-01" nType="0">
        <Node pos="l" depth="1" NCoef="0" IVar="5" Cut="1.6047550737857819e-01" cType="1" res="4.4291196390986443e-03" rms="2.8707584738731384e-01" purity="5.2158498764038086e-01" nType="0">
          <Node pos="l" depth="2" NCoef="0" IVar="-1" Cut="0.0000000000000000e+00" cType="1" res="-1.4432212337851524e-02" rms="2.5009950995445251e-01" purity="3.3906188607215881e-01" nType="-99"/>
          <Node pos="r" depth="2" NCoef="0" IVar="-1" Cut="0.0000000000000000e+00" cType="1" res="6.6127334721386433e-03" rms="2.9816871881484985e-01" purity="5.8874994516372681e-01" nType="-99"/>
        </Node>
        <Node pos="r" depth="1" NCoef="0" IVar="-1" Cut="0.0000000000000000e+00" cType="1" res="-3.6775771528482437e-02" rms="2.1078759431838989e-01" purity="1.4186850190162659e-01" nType="-99"/>
      </Node>
    </BinaryTree>
    <BinaryTree type="DecisionTree" boostWeight="1.0000000000000000e+00" itree="110">
      <Node pos="s" depth="0" NCoef="0" IVar="7" Cut="3.9137101562500000e+04" cType="1" res="-3.4865799534600228e-05" rms="2.8348594903945923e-01" purity="5.0000000000000000e-01" nType="0">
        <Node pos="l" depth="1" NCoef="0" IVar="2" Cut="5.3619775390625000e+03" cType="1" res="5.6366301141679287e-03" rms="2.8028297424316406e-01" purity="5.0317645072937012e-01" nType="0">
          <Node pos="l" depth="2" NCoef="0" IVar="-1" Cut="0.0000000000000000e+00" cType="1" res="-2.9775837436318398e-02" rms="1.6030216217041016e-01" purity="7.5478643178939819e-02" nType="-99"/>
          <Node pos="r" depth="2" NCoef="0" IVar="-1" Cut="0.0000000000000000e+00" cType="1" res="5.8187977410852909e-03" rms="3.0117481946945190e-01" purity="6.0748916864395142e-01" nType="-99"/>
        </Node>
        <Node pos="r" depth="1" NCoef="0" IVar="-1" Cut="0.0000000000000000e+00" cType="1" res="-1.9998336210846901e-02" rms="3.0783709883689880e-01" purity="4.6857142448425293e-01" nType="-99"/>
      </Node>
    </BinaryTree>
    <BinaryTree type="DecisionTree" boostWeight="1.0000000000000000e+00" itree="111">
      <Node pos="s" depth="0" NCoef="0" IVar="9" Cut="2.6159143066406250e+03" cType="1" res="-4.0384362364420667e-05" rms="2.8315183520317078e-01" purity="5.0000000000000000e-01" nType="0">
        <Node pos="l" depth="1" NCoef="0" IVar="4" Cut="6.3969879150390625e+00" cType="1" res="4.2726803570985794e-02" rms="2.5566118955612183e-01" purity="5.8519178628921509e-01" nType="0">
          <Node pos="l" depth="2" NCoef="0" IVar="-1" Cut="0.0000000000000000e+00" cType="1" res="3.0146412551403046e-02" rms="2.3212940990924835e-01" purity="7.0800626277923584e-01" nType="-99"/>
          <Node pos="r" depth="2" NCoef="0" IVar="-1" Cut="0.0000000000000000e+00" cType="1" res="-5.7151722721755505e-03" rms="2.7327930927276611e-01" purity="4.2355370521545410e-01" nType="-99"/>
        </Node>
        <Node pos="r" depth="1" NCoef="0" IVar="3" Cut="3.3495236816406250e+03" cType="1" res="-7.4104103259742260e-03" rms="2.8698089718818665e-01" purity="4.8531895875930786e-01" nType="0">
          <Node pos="l" depth="2" NCoef="0" IVar="-1" Cut="0.0000000000000000e+00" cType="1" res="-6.5497774630784988e-03" rms="2.9138851165771484e-01" purity="4.4265517592430115e-01" nType="-99"/>
          <Node pos="r" depth="2" NCoef="0" IVar="-1" Cut="0.0000000000000000e+00" cType="1" res="2.2140158340334892e-02" rms="2.5485223531723022e-01" purity="7.0944482088088989e-01" nType="-99"/>
        </Node>
      </Node>
    </BinaryTree>
    <BinaryTree type="DecisionTree" boostWeight="1.0000000000000000e+00" itree="112">
      <Node pos="s" depth="0" NCoef="0" IVar="2" Cut="5.7398959960937500e+03" cType="1" res="-2.8231892429175787e-05" rms="2.8263390064239502e-01" purity="5.0000000000000000e-01" nType="0">
        <Node pos="l" depth="1" NCoef="0" IVar="9" Cut="8.8247343750000000e+03" cType="1" res="9.1221919283270836e-03" rms="2.8603449463844299e-01" purity="5.7164198160171509e-01" nType="0">
          <Node pos="l" depth="2" NCoef="0" IVar="-1" Cut="0.0000000000000000e+00" cType="1" res="1.9040660117752850e-04" rms="2.8335347771644592e-01" purity="5.6306469440460205e-01" nType="-99"/>
          <Node pos="r" depth="2" NCoef="0" IVar="-1" Cut="0.0000000000000000e+00" cType="1" res="3.5819068551063538e-02" rms="2.9798904061317444e-01" purity="6.6836476325988770e-01" nType="-99"/>
        </Node>
        <Node pos="r" depth="1" NCoef="0" IVar="4" Cut="5.6752882003784180e+00" cType="1" res="-3.4456972032785416e-02" rms="2.6665621995925903e-01" purity="2.3044495284557343e-01" nType="0">
          <Node pos="l" depth="2" NCoef="0" IVar="-1" Cut="0.0000000000000000e+00" cType="1" res="4.8376447521150112e-03" rms="2.7333384752273560e-01" purity="3.1436154246330261e-01" nType="-99"/>
          <Node pos="r" depth="2" NCoef="0" IVar="-1" Cut="0.0000000000000000e+00" cType="1" res="-3.3415891230106354e-02" rms="2.4866580963134766e-01" purity="1.3603185117244720e-01" nType="-99"/>
        </Node>
      </Node>
    </BinaryTree>
    <BinaryTree type="DecisionTree" boostWeight="1.0000000000000000e+00" itree="113">
      <Node pos="s" depth="0" NCoef="0" IVar="7" Cut="1.9179617187500000e+04" cType="1" res="-3.2073534384835511e-05" rms="2.8193375468254089e-01" purity="5.0000000000000000e-01" nType="0">
        <Node pos="l" depth="1" NCoef="0" IVar="10" Cut="3.4120617675781250e+02" cType="1" res="-2.1835552528500557e-02" rms="2.8752681612968445e-01" purity="4.8705983161926270e-01" nType="0">
          <Node pos="l" depth="2" NCoef="0" IVar="-1" Cut="0.0000000000000000e+00" cType="1" res="-3.9014909416437149e-02" rms="2.8694531321525574e-01" purity="3.3503574132919312e-01" nType="-99"/>
          <Node pos="r" depth="2" NCoef="0" IVar="-1" Cut="0.0000000000000000e+00" cType="1" res="8.6087780073285103e-03" rms="2.7660155296325684e-01" purity="5.6271439790725708e-01" nType="-99"/>
        </Node>
        <Node pos="r" depth="1" NCoef="0" IVar="12" Cut="4.0340742187500000e+03" cType="1" res="1.3694834895431995e-02" rms="2.7747741341590881e-01" purity="5.0814682245254517e-01" nType="0">
          <Node pos="l" depth="2" NCoef="0" IVar="-1" Cut="0.0000000000000000e+00" cType="1" res="-5.3798672743141651e-03" rms="2.7824583649635315e-01" purity="4.1139242053031921e-01" nType="-99"/>
          <Node pos="r" depth="2" NCoef="0" IVar="-1" Cut="0.0000000000000000e+00" cType="1" res="3.0676353722810745e-02" rms="2.6494687795639038e-01" purity="7.2566372156143188e-01" nType="-99"/>
        </Node>
      </Node>
    </BinaryTree>
    <BinaryTree type="DecisionTree" boostWeight="1.0000000000000000e+00" itree="114">
      <Node pos="s" depth="0" NCoef="0" IVar="9" Cut="2.6159143066406250e+03" cType="1" res="-1.9499830159475096e-05" rms="2.8047254681587219e-01" purity="5.0000000000000000e-01" nType="0">
        <Node pos="l" depth="1" NCoef="0" IVar="4" Cut="6.3969879150390625e+00" cType="1" res="4.2559426277875900e-02" rms="2.5216484069824219e-01" purity="5.8519178628921509e-01" nType="0">
          <Node pos="l" depth="2" NCoef="0" IVar="-1" Cut="0.0000000000000000e+00" cType="1" res="2.8632273897528648e-02" rms="2.3067729175090790e-01" purity="7.0800626277923584e-01" nType="-99"/>
          <Node pos="r" depth="2" NCoef="0" IVar="-1" Cut="0.0000000000000000e+00" cType="1" res="-3.1017675064504147e-03" rms="2.6974660158157349e-01" purity="4.2355370521545410e-01" nType="-99"/>
        </Node>
        <Node pos="r" depth="1" NCoef="0" IVar="4" Cut="1.3225860595703125e+00" cType="1" res="-7.3570827953517437e-03" rms="2.8442382812500000e-01" purity="4.8531895875930786e-01" nType="0">
          <Node pos="l" depth="2" NCoef="0" IVar="-1" Cut="0.0000000000000000e+00" cType="1" res="-4.6134486794471741e-02" rms="1.8345858156681061e-01" purity="4.6697035431861877e-02" nType="-99"/>
          <Node pos="r" depth="2" NCoef="0" IVar="-1" Cut="0.0000000000000000e+00" cType="1" res="-2.3958634119480848e-04" rms="2.8922525048255920e-01" purity="5.1706230640411377e-01" nType="-99"/>
        </Node>
      </Node>
    </BinaryTree>
    <BinaryTree type="DecisionTree" boostWeight="1.0000000000000000e+00" itree="115">
      <Node pos="s" depth="0" NCoef="0" IVar="7" Cut="3.9137101562500000e+04" cType="1" res="-2.5824614567682147e-05" rms="2.7999490499496460e-01" purity="5.0000000000000000e-01" nType="0">
        <Node pos="l" depth="1" NCoef="0" IVar="7" Cut="2.1507927734375000e+04" cType="1" res="5.2228788845241070e-03" rms="2.7715981006622314e-01" purity="5.0317645072937012e-01" nType="0">
          <Node pos="l" depth="2" NCoef="0" IVar="-1" Cut="0.0000000000000000e+00" cType="1" res="-6.3141756691038609e-03" rms="2.8486302495002747e-01" purity="4.9264550209045410e-01" nType="-99"/>
          <Node pos="r" depth="2" NCoef="0" IVar="-1" Cut="0.0000000000000000e+00" cType="1" res="1.2042864225804806e-02" rms="2.6616623997688293e-01" purity="5.1470923423767090e-01" nType="-99"/>
        </Node>
        <Node pos="r" depth="1" NCoef="0" IVar="-1" Cut="0.0000000000000000e+00" cType="1" res="-1.8665861338376999e-02" rms="3.0175569653511047e-01" purity="4.6857142448425293e-01" nType="-99"/>
      </Node>
    </BinaryTree>
    <BinaryTree type="DecisionTree" boostWeight="1.0000000000000000e+00" itree="116">
      <Node pos="s" depth="0" NCoef="0" IVar="2" Cut="5.7398959960937500e+03" cType="1" res="-2.1725560145569034e-05" rms="2.7947655320167542e-01" purity="5.0000000000000000e-01" nType="0">
        <Node pos="l" depth="1" NCoef="0" IVar="6" Cut="3.7283832550048828e+01" cType="1" res="8.5402317345142365e-03" rms="2.8330081701278687e-01" purity="5.7164198160171509e-01" nType="0">
          <Node pos="l" depth="2" NCoef="0" IVar="-1" Cut="0.0000000000000000e+00" cType="1" res="-1.4764353632926941e-02" rms="3.1804350018501282e-01" purity="3.3503574132919312e-01" nType="-99"/>
          <Node pos="r" depth="2" NCoef="0" IVar="-1" Cut="0.0000000000000000e+00" cType="1" res="8.2841655239462852e-03" rms="2.7206009626388550e-01" purity="6.3195168972015381e-01" nType="-99"/>
        </Node>
        <Node pos="r" depth="1" NCoef="0" IVar="5" Cut="2.7261134982109070e-01" cType="1" res="-3.2236341387033463e-02" rms="2.6209884881973267e-01" purity="2.3044495284557343e-01" nType="0">
          <Node pos="l" depth="2" NCoef="0" IVar="-1" Cut="0.0000000000000000e+00" cType="1" res="-3.7684660404920578e-02" rms="2.1080078184604645e-01" purity="1.2363362312316895e-01" nType="-99"/>
          <Node pos="r" depth="2" NCoef="0" IVar="-1" Cut="0.0000000000000000e+00" cType="1" res="2.1831281483173370e-03" rms="2.8694126009941101e-01" purity="3.0597016215324402e-01" nType="-99"/>
        </Node>
      </Node>
    </BinaryTree>
    <BinaryTree type="DecisionTree" boostWeight="1.0000000000000000e+00" itree="117">
      <Node pos="s" depth="0" NCoef="0" IVar="2" Cut="5.3147377929687500e+03" cType="1" res="-3.1196501367958263e-05" rms="2.7897417545318604e-01" purity="5.0000000000000000e-01" nType="0">
        <Node pos="l" depth="1" NCoef="0" IVar="9" Cut="4.7275668945312500e+03" cType="1" res="-3.8919281214475632e-02" rms="1.3779830932617188e-01" purity="5.1217984408140182e-02" nType="0">
          <Node pos="l" depth="2" NCoef="0" IVar="-1" Cut="0.0000000000000000e+00" cType="1" res="-4.9639884382486343e-02" rms="1.0198273509740829e-01" purity="2.6814909651875496e-02" nType="-99"/>
          <Node pos="r" depth="2" NCoef="0" IVar="-1" Cut="0.0000000000000000e+00" cType="1" res="1.0078009217977524e-03" rms="1.7746181786060333e-01" purity="9.3982815742492676e-02" nType="-99"/>
        </Node>
        <Node pos="r" depth="1" NCoef="0" IVar="10" Cut="2.0833163452148438e+02" cType="1" res="7.2362041100859642e-03" rms="2.9746738076210022e-01" purity="5.8386832475662231e-01" nType="0">
          <Node pos="l" depth="2" NCoef="0" IVar="-1" Cut="0.0000000000000000e+00" cType="1" res="-2.2599386051297188e-02" rms="3.3055004477500916e-01" purity="3.5528594255447388e-01" nType="-99"/>
          <Node pos="r" depth="2" NCoef="0" IVar="-1" Cut="0.0000000000000000e+00" cType="1" res="5.3183846175670624e-03" rms="2.9270371794700623e-01" purity="6.0642069578170776e-01" nType="-99"/>
        </Node>
      </Node>
    </BinaryTree>
    <BinaryTree type="DecisionTree" boostWeight="1.0000000000000000e+00" itree="118">
      <Node pos="s" depth="0" NCoef="0" IVar="9" Cut="2.6159143066406250e+03" cType="1" res="-4.5322733058128506e-05" rms="2.7853342890739441e-01" purity="5.0000000000000000e-01" nType="0">
        <Node pos="l" depth="1" NCoef="0" IVar="12" Cut="4.5130634765625000e+03" cType="1" res="4.1923981159925461e-02" rms="2.4940647184848785e-01" purity="5.8519178628921509e-01" nType="0">
          <Node pos="l" depth="2" NCoef="0" IVar="-1" Cut="0.0000000000000000e+00" cType="1" res="2.8400277718901634e-02" rms="2.2913217544555664e-01" purity="6.2732243537902832e-01" nType="-99"/>
          <Node pos="r" depth="2" NCoef="0" IVar="-1" Cut="0.0000000000000000e+00" cType="1" res="-4.6063223853707314e-03" rms="2.6975089311599731e-01" purity="5.1868891716003418e-01" nType="-99"/>
        </Node>
        <Node pos="r" depth="1" NCoef="0" IVar="0" Cut="4.4441420898437500e+03" cType="1" res="-7.2778500616550446e-03" rms="2.8262159228324890e-01" purity="4.8531895875930786e-01" nType="0">
          <Node pos="l" depth="2" NCoef="0" IVar="-1" Cut="0.0000000000000000e+00" cType="1" res="-8.6969844996929169e-03" rms="2.8836613893508911e-01" purity="3.6816918849945068e-01" nType="-99"/>
          <Node pos="r" depth="2" NCoef="0" IVar="-1" Cut="0.0000000000000000e+00" cType="1" res="9.9890325218439102e-03" rms="2.6870852708816528e-01" purity="7.0339822769165039e-01" nType="-99"/>
        </Node>
      </Node>
    </BinaryTree>
    <BinaryTree type="DecisionTree" boostWeight="1.0000000000000000e+00" itree="119">
      <Node pos="s" depth="0" NCoef="0" IVar="4" Cut="8.9473457336425781e+00" cType="1" res="-3.6400444514583796e-05" rms="2.7807286381721497e-01" purity="5.0000000000000000e-01" nType="0">
        <Node pos="l" depth="1" NCoef="0" IVar="6" Cut="8.2503814697265625e+01" cType="1" res="4.0475437417626381e-03" rms="2.8122252225875854e-01" purity="5.2158498764038086e-01" nType="0">
          <Node pos="l" depth="2" NCoef="0" IVar="-1" Cut="0.0000000000000000e+00" cType="1" res="-7.6910764910280704e-03" rms="3.0176594853401184e-01" purity="4.1908004879951477e-01" nType="-99"/>
          <Node pos="r" depth="2" NCoef="0" IVar="-1" Cut="0.0000000000000000e+00" cType="1" res="9.0998644009232521e-03" rms="2.6307275891304016e-01" purity="5.9843093156814575e-01" nType="-99"/>
        </Node>
        <Node pos="r" depth="1" NCoef="0" IVar="-1" Cut="0.0000000000000000e+00" cType="1" res="-3.4798528999090195e-02" rms="2.0791524648666382e-01" purity="1.4186850190162659e-01" nType="-99"/>
      </Node>
    </BinaryTree>
    <BinaryTree type="DecisionTree" boostWeight="1.0000000000000000e+00" itree="120">
      <Node pos="s" depth="0" NCoef="0" IVar="0" Cut="7.8586020507812500e+03" cType="1" res="-3.5096265492029488e-05" rms="2.7764704823493958e-01" purity="5.0000000000000000e-01" nType="0">
        <Node pos="l" depth="1" NCoef="0" IVar="12" Cut="5.6631152343750000e+03" cType="1" res="-5.1847472786903381e-03" rms="2.8980603814125061e-01" purity="4.5284247398376465e-01" nType="0">
          <Node pos="l" depth="2" NCoef="0" IVar="-1" Cut="0.0000000000000000e+00" cType="1" res="7.2223501047119498e-04" rms="2.8876107931137085e-01" purity="4.6354407072067261e-01" nType="-99"/>
          <Node pos="r" depth="2" NCoef="0" IVar="-1" Cut="0.0000000000000000e+00" cType="1" res="-3.9691764861345291e-02" rms="2.8330656886100769e-01" purity="2.8924161195755005e-01" nType="-99"/>
        </Node>
        <Node pos="r" depth="1" NCoef="0" IVar="-1" Cut="0.0000000000000000e+00" cType="1" res="4.2690843343734741e-02" rms="7.7027216553688049e-02" purity="9.6677386760711670e-01" nType="-99"/>
      </Node>
    </BinaryTree>
    <BinaryTree type="DecisionTree" boostWeight="1.0000000000000000e+00" itree="121">
      <Node pos="s" depth="0" NCoef="0" IVar="9" Cut="2.6159143066406250e+03" cType="1" res="-1.9319102648296393e-05" rms="2.7716901898384094e-01" purity="5.0000000000000000e-01" nType="0">
        <Node pos="l" depth="1" NCoef="0" IVar="4" Cut="6.3969879150390625e+00" cType="1" res="3.8279507309198380e-02" rms="2.4710842967033386e-01" purity="5.8519178628921509e-01" nType="0">
          <Node pos="l" depth="2" NCoef="0" IVar="-1" Cut="0.0000000000000000e+00" cType="1" res="2.7603376656770706e-02" rms="2.2370932996273041e-01" purity="7.0800626277923584e-01" nType="-99"/>
          <Node pos="r" depth="2" NCoef="0" IVar="-1" Cut="0.0000000000000000e+00" cType="1" res="-4.2296485044062138e-03" rms="2.6717370748519897e-01" purity="4.2355370521545410e-01" nType="-99"/>
        </Node>
        <Node pos="r" depth="1" NCoef="0" IVar="4" Cut="3.0953383445739746e+00" cType="1" res="-6.6193165257573128e-03" rms="2.8150001168251038e-01" purity="4.8531895875930786e-01" nType="0">
          <Node pos="l" depth="2" NCoef="0" IVar="-1" Cut="0.0000000000000000e+00" cType="1" res="-2.1506434306502342e-02" rms="2.2126853466033936e-01" purity="2.9661297798156738e-01" nType="-99"/>
          <Node pos="r" depth="2" NCoef="0" IVar="-1" Cut="0.0000000000000000e+00" cType="1" res="2.2124417591840029e-03" rms="2.9627361893653870e-01" purity="5.4288291931152344e-01" nType="-99"/>
        </Node>
      </Node>
    </BinaryTree>
    <BinaryTree type="DecisionTree" boostWeight="1.0000000000000000e+00" itree="122">
      <Node pos="s" depth="0" NCoef="0" IVar="2" Cut="5.7871357421875000e+03" cType="1" res="-1.5552146578556858e-05" rms="2.7675241231918335e-01" purity="5.0000000000000000e-01" nType="0">
        <Node pos="l" depth="1" NCoef="0" IVar="11" Cut="8.3487898437500000e+04" cType="1" res="7.3828483000397682e-03" rms="2.7999529242515564e-01" purity="5.6803071498870850e-01" nType="0">
          <Node pos="l" depth="2" NCoef="0" IVar="-1" Cut="0.0000000000000000e+00" cType="1" res="-1.3303341111168265e-03" rms="2.8060466051101685e-01" purity="5.4906487464904785e-01" nType="-99"/>
          <Node pos="r" depth="2" NCoef="0" IVar="-1" Cut="0.0000000000000000e+00" cType="1" res="2.9706269502639771e-02" rms="2.6494878530502319e-01" purity="6.9177466630935669e-01" nType="-99"/>
        </Node>
        <Node pos="r" depth="1" NCoef="0" IVar="4" Cut="5.6752882003784180e+00" cType="1" res="-3.3427424728870392e-02" rms="2.5898775458335876e-01" purity="1.9276672601699829e-01" nType="0">
          <Node pos="l" depth="2" NCoef="0" IVar="-1" Cut="0.0000000000000000e+00" cType="1" res="8.5513209924101830e-03" rms="2.7089282870292664e-01" purity="2.9570859670639038e-01" nType="-99"/>
          <Node pos="r" depth="2" NCoef="0" IVar="-1" Cut="0.0000000000000000e+00" cType="1" res="-3.5948768258094788e-02" rms="2.3485237360000610e-01" purity="8.9227415621280670e-02" nType="-99"/>
        </Node>
      </Node>
    </BinaryTree>
    <BinaryTree type="DecisionTree" boostWeight="1.0000000000000000e+00" itree="123">
      <Node pos="s" depth="0" NCoef="0" IVar="2" Cut="5.3147377929687500e+03" cType="1" res="-2.3593578589498065e-05" rms="2.7605569362640381e-01" purity="5.0000000000000000e-01" nType="0">
        <Node pos="l" depth="1" NCoef="0" IVar="9" Cut="4.7275668945312500e+03" cType="1" res="-3.7453759461641312e-02" rms="1.3384220004081726e-01" purity="5.1217984408140182e-02" nType="0">
          <Node pos="l" depth="2" NCoef="0" IVar="-1" Cut="0.0000000000000000e+00" cType="1" res="-4.9908503890037537e-02" rms="1.0067282617092133e-01" purity="2.6814909651875496e-02" nType="-99"/>
          <Node pos="r" depth="2" NCoef="0" IVar="-1" Cut="0.0000000000000000e+00" cType="1" res="2.0796510216314346e-04" rms="1.7120154201984406e-01" purity="9.3982815742492676e-02" nType="-99"/>
        </Node>
        <Node pos="r" depth="1" NCoef="0" IVar="10" Cut="2.0833163452148438e+02" cType="1" res="6.9713518023490906e-03" rms="2.9460108280181885e-01" purity="5.8386832475662231e-01" nType="0">
          <Node pos="l" depth="2" NCoef="0" IVar="-1" Cut="0.0000000000000000e+00" cType="1" res="-2.0668087527155876e-02" rms="3.2783293724060059e-01" purity="3.5528594255447388e-01" nType="-99"/>
          <Node pos="r" depth="2" NCoef="0" IVar="-1" Cut="0.0000000000000000e+00" cType="1" res="5.0438195466995239e-03" rms="2.9003688693046570e-01" purity="6.0642069578170776e-01" nType="-99"/>
        </Node>
      </Node>
    </BinaryTree>
    <BinaryTree type="DecisionTree" boostWeight="1.0000000000000000e+00" itree="124">
      <Node pos="s" depth="0" NCoef="0" IVar="8" Cut="2.1462006835937500e+03" cType="1" res="-3.7668465665774420e-05" rms="2.7565777301788330e-01" purity="5.0000000000000000e-01" nType="0">
        <Node pos="l" depth="1" NCoef="0" IVar="12" Cut="3.0015578613281250e+03" cType="1" res="-1.1892268434166908e-02" rms="2.8333663940429688e-01" purity="4.2910337448120117e-01" nType="0">
          <Node pos="l" depth="2" NCoef="0" IVar="-1" Cut="0.0000000000000000e+00" cType="1" res="-2.5638466700911522e-02" rms="2.6642522215843201e-01" purity="1.9916096329689026e-01" nType="-99"/>
          <Node pos="r" depth="2" NCoef="0" IVar="-1" Cut="0.0000000000000000e+00" cType="1" res="9.7909022588282824e-04" rms="2.8648847341537476e-01" purity="4.9696967005729675e-01" nType="-99"/>
        </Node>
        <Node pos="r" depth="1" NCoef="0" IVar="4" Cut="7.3090806007385254e+00" cType="1" res="2.2125862538814545e-02" rms="2.5924509763717651e-01" purity="6.3254940509796143e-01" nType="0">
          <Node pos="l" depth="2" NCoef="0" IVar="-1" Cut="0.0000000000000000e+00" cType="1" res="1.2556698638945818e-03" rms="2.5877439975738525e-01" purity="5.9780055284500122e-01" nType="-99"/>
          <Node pos="r" depth="2" NCoef="0" IVar="-1" Cut="0.0000000000000000e+00" cType="1" res="3.7442166358232498e-02" rms="2.5129112601280212e-01" purity="7.4339771270751953e-01" nType="-99"/>
        </Node>
      </Node>
    </BinaryTree>
    <BinaryTree type="DecisionTree" boostWeight="1.0000000000000000e+00" itree="125">
      <Node pos="s" depth="0" NCoef="0" IVar="4" Cut="8.9473457336425781e+00" cType="1" res="-3.2411866413895041e-05" rms="2.7515938878059387e-01" purity="5.0000000000000000e-01" nType="0">
        <Node pos="l" depth="1" NCoef="0" IVar="6" Cut="8.2503814697265625e+01" cType="1" res="3.8834300357848406e-03" rms="2.7832433581352234e-01" purity="5.2158498764038086e-01" nType="0">
          <Node pos="l" depth="2" NCoef="0" IVar="-1" Cut="0.0000000000000000e+00" cType="1" res="-7.4446960352361202e-03" rms="2.9839235544204712e-01" purity="4.1908004879951477e-01" nType="-99"/>
          <Node pos="r" depth="2" NCoef="0" IVar="-1" Cut="0.0000000000000000e+00" cType="1" res="8.8604856282472610e-03" rms="2.6070496439933777e-01" purity="5.9843093156814575e-01" nType="-99"/>
        </Node>
        <Node pos="r" depth="1" NCoef="0" IVar="-1" Cut="0.0000000000000000e+00" cType="1" res="-3.4483157098293304e-02" rms="2.0536021888256073e-01" purity="1.4186850190162659e-01" nType="-99"/>
      </Node>
    </BinaryTree>
    <BinaryTree type="DecisionTree" boostWeight="1.0000000000000000e+00" itree="126">
      <Node pos="s" depth="0" NCoef="0" IVar="9" Cut="2.6159143066406250e+03" cType="1" res="-3.1475366995437071e-05" rms="2.7475860714912415e-01" purity="5.0000000000000000e-01" nType="0">
        <Node pos="l" depth="1" NCoef="0" IVar="4" Cut="5.8063836097717285e+00" cType="1" res="3.6490414291620255e-02" rms="2.4354812502861023e-01" purity="5.8519178628921509e-01" nType="0">
          <Node pos="l" depth="2" NCoef="0" IVar="-1" Cut="0.0000000000000000e+00" cType="1" res="3.7478733807802200e-02" rms="1.6921967267990112e-01" purity="7.3832297325134277e-01" nType="-99"/>
          <Node pos="r" depth="2" NCoef="0" IVar="-1" Cut="0.0000000000000000e+00" cType="1" res="1.3377013383433223e-03" rms="2.7700662612915039e-01" purity="4.8466938734054565e-01" nType="-99"/>
        </Node>
        <Node pos="r" depth="1" NCoef="0" IVar="4" Cut="1.3225860595703125e+00" cType="1" res="-6.3252556137740612e-03" rms="2.7930364012718201e-01" purity="4.8531895875930786e-01" nType="0">
          <Node pos="l" depth="2" NCoef="0" IVar="-1" Cut="0.0000000000000000e+00" cType="1" res="-4.4411003589630127e-02" rms="1.8109206855297089e-01" purity="4.6697035431861877e-02" nType="-99"/>
          <Node pos="r" depth="2" NCoef="0" IVar="-1" Cut="0.0000000000000000e+00" cType="1" res="-8.4793806308880448e-05" rms="2.8413346409797668e-01" purity="5.1706230640411377e-01" nType="-99"/>
        </Node>
      </Node>
    </BinaryTree>
    <BinaryTree type="DecisionTree" boostWeight="1.0000000000000000e+00" itree="127">
      <Node pos="s" depth="0" NCoef="0" IVar="7" Cut="1.9179617187500000e+04" cType="1" res="-3.4456235880497843e-05" rms="2.7432188391685486e-01" purity="5.0000000000000000e-01" nType="0">
        <Node pos="l" depth="1" NCoef="0" IVar="10" Cut="3.4120617675781250e+02" cType="1" res="-1.9830677658319473e-02" rms="2.7929604053497314e-01" purity="4.8705983161926270e-01" nType="0">
          <Node pos="l" depth="2" NCoef="0" IVar="-1" Cut="0.0000000000000000e+00" cType="1" res="-3.6739978939294815e-02" rms="2.7700090408325195e-01" purity="3.3503574132919312e-01" nType="-99"/>
          <Node pos="r" depth="2" NCoef="0" IVar="-1" Cut="0.0000000000000000e+00" cType="1" res="7.9839127138257027e-03" rms="2.7115055918693542e-01" purity="5.6271439790725708e-01" nType="-99"/>
        </Node>
        <Node pos="r" depth="1" NCoef="0" IVar="12" Cut="4.0340742187500000e+03" cType="1" res="1.2428734451532364e-02" rms="2.7040109038352966e-01" purity="5.0814682245254517e-01" nType="0">
          <Node pos="l" depth="2" NCoef="0" IVar="-1" Cut="0.0000000000000000e+00" cType="1" res="-4.7115772031247616e-03" rms="2.7255153656005859e-01" purity="4.1139242053031921e-01" nType="-99"/>
          <Node pos="r" depth="2" NCoef="0" IVar="-1" Cut="0.0000000000000000e+00" cType="1" res="2.8635064139962196e-02" rms="2.5690859556198120e-01" purity="7.2566372156143188e-01" nType="-99"/>
        </Node>
      </Node>
    </BinaryTree>
    <BinaryTree type="DecisionTree" boostWeight="1.0000000000000000e+00" itree="128">
      <Node pos="s" depth="0" NCoef="0" IVar="2" Cut="5.7398959960937500e+03" cType="1" res="-2.3860578949097544e-05" rms="2.7308762073516846e-01" purity="5.0000000000000000e-01" nType="0">
        <Node pos="l" depth="1" NCoef="0" IVar="9" Cut="8.8247343750000000e+03" cType="1" res="7.8094755299389362e-03" rms="2.7724713087081909e-01" purity="5.7164198160171509e-01" nType="0">
          <Node pos="l" depth="2" NCoef="0" IVar="-1" Cut="0.0000000000000000e+00" cType="1" res="-9.6621712145861238e-05" rms="2.7472659945487976e-01" purity="5.6306469440460205e-01" nType="-99"/>
          <Node pos="r" depth="2" NCoef="0" IVar="-1" Cut="0.0000000000000000e+00" cType="1" res="3.3970952033996582e-02" rms="2.8905418515205383e-01" purity="6.6836476325988770e-01" nType="-99"/>
        </Node>
        <Node pos="r" depth="1" NCoef="0" IVar="4" Cut="5.6752882003784180e+00" cType="1" res="-2.9497016221284866e-02" rms="2.5468492507934570e-01" purity="2.3044495284557343e-01" nType="0">
          <Node pos="l" depth="2" NCoef="0" IVar="-1" Cut="0.0000000000000000e+00" cType="1" res="4.2385812848806381e-03" rms="2.6015421748161316e-01" purity="3.1436154246330261e-01" nType="-99"/>
          <Node pos="r" depth="2" NCoef="0" IVar="-1" Cut="0.0000000000000000e+00" cType="1" res="-3.0183717608451843e-02" rms="2.4067139625549316e-01" purity="1.3603185117244720e-01" nType="-99"/>
        </Node>
      </Node>
    </BinaryTree>
    <BinaryTree type="DecisionTree" boostWeight="1.0000000000000000e+00" itree="129">
      <Node pos="s" depth="0" NCoef="0" IVar="7" Cut="3.9137101562500000e+04" cType="1" res="-2.6500718377064914e-05" rms="2.7250304818153381e-01" purity="5.0000000000000000e-01" nType="0">
        <Node pos="l" depth="1" NCoef="0" IVar="7" Cut="1.0564618164062500e+04" cType="1" res="4.8558302223682404e-03" rms="2.6991507411003113e-01" purity="5.0317645072937012e-01" nType="0">
          <Node pos="l" depth="2" NCoef="0" IVar="-1" Cut="0.0000000000000000e+00" cType="1" res="2.9007745906710625e-02" rms="2.4063746631145477e-01" purity="6.3813227415084839e-01" nType="-99"/>
          <Node pos="r" depth="2" NCoef="0" IVar="-1" Cut="0.0000000000000000e+00" cType="1" res="-6.5849965903908014e-04" rms="2.7147826552391052e-01" purity="4.9088260531425476e-01" nType="-99"/>
        </Node>
        <Node pos="r" depth="1" NCoef="0" IVar="-1" Cut="0.0000000000000000e+00" cType="1" res="-1.7859535291790962e-02" rms="2.9253679513931274e-01" purity="4.6857142448425293e-01" nType="-99"/>
      </Node>
    </BinaryTree>
    <BinaryTree type="DecisionTree" boostWeight="1.0000000000000000e+00" itree="130">
      <Node pos="s" depth="0" NCoef="0" IVar="8" Cut="2.1462006835937500e+03" cType="1" res="-1.9763074305956252e-05" rms="2.7213478088378906e-01" purity="5.0000000000000000e-01" nType="0">
        <Node pos="l" depth="1" NCoef="0" IVar="1" Cut="1.2449880468750000e+05" cType="1" res="-1.1339399963617325e-02" rms="2.7901020646095276e-01" purity="4.2910337448120117e-01" nType="0">
          <Node pos="l" depth="2" NCoef="0" IVar="-1" Cut="0.0000000000000000e+00" cType="1" res="-7.5287367217242718e-03" rms="2.7687415480613708e-01" purity="4.0157166123390198e-01" nType="-99"/>
          <Node pos="r" depth="2" NCoef="0" IVar="-1" Cut="0.0000000000000000e+00" cType="1" res="2.0870462059974670e-02" rms="2.8545379638671875e-01" purity="6.3813227415084839e-01" nType="-99"/>
        </Node>
        <Node pos="r" depth="1" NCoef="0" IVar="4" Cut="5.4148464202880859e+00" cType="1" res="2.1143591031432152e-02" rms="2.5745928287506104e-01" purity="6.3254940509796143e-01" nType="0">
          <Node pos="l" depth="2" NCoef="0" IVar="-1" Cut="0.0000000000000000e+00" cType="1" res="2.7075963094830513e-02" rms="2.1166467666625977e-01" purity="6.8166261911392212e-01" nType="-99"/>
          <Node pos="r" depth="2" NCoef="0" IVar="-1" Cut="0.0000000000000000e+00" cType="1" res="-2.2607750725001097e-03" rms="2.7907863259315491e-01" purity="6.0183483362197876e-01" nType="-99"/>
        </Node>
      </Node>
    </BinaryTree>
    <BinaryTree type="DecisionTree" boostWeight="1.0000000000000000e+00" itree="131">
      <Node pos="s" depth="0" NCoef="0" IVar="2" Cut="5.3147377929687500e+03" cType="1" res="-1.2419352060533129e-05" rms="2.7161711454391479e-01" purity="5.0000000000000000e-01" nType="0">
        <Node pos="l" depth="1" NCoef="0" IVar="6" Cut="1.5137452697753906e+02" cType="1" res="-3.5493236035108566e-02" rms="1.3214254379272461e-01" purity="5.1217984408140182e-02" nType="0">
          <Node pos="l" depth="2" NCoef="0" IVar="-1" Cut="0.0000000000000000e+00" cType="1" res="-5.8382712304592133e-02" rms="7.1638762950897217e-02" purity="0.0000000000000000e+00" nType="-99"/>
          <Node pos="r" depth="2" NCoef="0" IVar="-1" Cut="0.0000000000000000e+00" cType="1" res="-9.7967144101858139e-03" rms="1.5911811590194702e-01" purity="8.9227415621280670e-02" nType="-99"/>
        </Node>
        <Node pos="r" depth="1" NCoef="0" IVar="10" Cut="2.0833163452148438e+02" cType="1" res="6.6182315349578857e-03" rms="2.8986310958862305e-01" purity="5.8386832475662231e-01" nType="0">
          <Node pos="l" depth="2" NCoef="0" IVar="-1" Cut="0.0000000000000000e+00" cType="1" res="-1.8557621166110039e-02" rms="3.2109799981117249e-01" purity="3.5528594255447388e-01" nType="-99"/>
          <Node pos="r" depth="2" NCoef="0" IVar="-1" Cut="0.0000000000000000e+00" cType="1" res="4.7122896648943424e-03" rms="2.8573280572891235e-01" purity="6.0642069578170776e-01" nType="-99"/>
        </Node>
      </Node>
    </BinaryTree>
    <BinaryTree type="DecisionTree" boostWeight="1.0000000000000000e+00" itree="132">
      <Node pos="s" depth="0" NCoef="0" IVar="9" Cut="2.6159143066406250e+03" cType="1" res="-3.0294591851998121e-05" rms="2.7131783962249756e-01" purity="5.0000000000000000e-01" nType="0">
        <Node pos="l" depth="1" NCoef="0" IVar="12" Cut="4.5130634765625000e+03" cType="1" res="3.6905974149703979e-02" rms="2.3735606670379639e-01" purity="5.8519178628921509e-01" nType="0">
          <Node pos="l" depth="2" NCoef="0" IVar="-1" Cut="0.0000000000000000e+00" cType="1" res="2.7052208781242371e-02" rms="2.1791811287403107e-01" purity="6.2732243537902832e-01" nType="-99"/>
          <Node pos="r" depth="2" NCoef="0" IVar="-1" Cut="0.0000000000000000e+00" cType="1" res="-5.3187175653874874e-03" rms="2.5735026597976685e-01" purity="5.1868891716003418e-01" nType="-99"/>
        </Node>
        <Node pos="r" depth="1" NCoef="0" IVar="3" Cut="3.3495236816406250e+03" cType="1" res="-6.3954843208193779e-03" rms="2.7625137567520142e-01" purity="4.8531895875930786e-01" nType="0">
          <Node pos="l" depth="2" NCoef="0" IVar="-1" Cut="0.0000000000000000e+00" cType="1" res="-5.9475917369127274e-03" rms="2.8024578094482422e-01" purity="4.4265517592430115e-01" nType="-99"/>
          <Node pos="r" depth="2" NCoef="0" IVar="-1" Cut="0.0000000000000000e+00" cType="1" res="2.0724819973111153e-02" rms="2.4819163978099823e-01" purity="7.0944482088088989e-01" nType="-99"/>
        </Node>
      </Node>
    </BinaryTree>
    <BinaryTree type="DecisionTree" boostWeight="1.0000000000000000e+00" itree="133">
      <Node pos="s" depth="0" NCoef="0" IVar="12" Cut="2.6805649414062500e+03" cType="1" res="-2.2670921680401079e-05" rms="2.7087914943695068e-01" purity="5.0000000000000000e-01" nType="0">
        <Node pos="l" depth="1" NCoef="0" IVar="12" Cut="2.3903623046875000e+03" cType="1" res="-2.7078665792942047e-02" rms="2.5392395257949829e-01" purity="2.7538958191871643e-01" nType="0">
          <Node pos="l" depth="2" NCoef="0" IVar="-1" Cut="0.0000000000000000e+00" cType="1" res="-2.5687875226140022e-02" rms="2.3807355761528015e-01" purity="2.1340273320674896e-01" nType="-99"/>
          <Node pos="r" depth="2" NCoef="0" IVar="-1" Cut="0.0000000000000000e+00" cType="1" res="1.4618074521422386e-02" rms="2.6623630523681641e-01" purity="3.7627956271171570e-01" nType="-99"/>
        </Node>
        <Node pos="r" depth="1" NCoef="0" IVar="9" Cut="8.8247343750000000e+03" cType="1" res="8.7112765759229660e-03" rms="2.7556368708610535e-01" purity="5.7250648736953735e-01" nType="0">
          <Node pos="l" depth="2" NCoef="0" IVar="-1" Cut="0.0000000000000000e+00" cType="1" res="6.1147910309955478e-04" rms="2.7398142218589783e-01" purity="5.6370478868484497e-01" nType="-99"/>
          <Node pos="r" depth="2" NCoef="0" IVar="-1" Cut="0.0000000000000000e+00" cType="1" res="4.3374754488468170e-02" rms="2.7831763029098511e-01" purity="6.9627690315246582e-01" nType="-99"/>
        </Node>
      </Node>
    </BinaryTree>
    <BinaryTree type="DecisionTree" boostWeight="1.0000000000000000e+00" itree="134">
      <Node pos="s" depth="0" NCoef="0" IVar="4" Cut="8.9473457336425781e+00" cType="1" res="-2.0526424123090692e-05" rms="2.7018576860427856e-01" purity="5.0000000000000000e-01" nType="0">
        <Node pos="l" depth="1" NCoef="0" IVar="6" Cut="8.2503814697265625e+01" cType="1" res="3.6321482621133327e-03" rms="2.7353423833847046e-01" purity="5.2158498764038086e-01" nType="0">
          <Node pos="l" depth="2" NCoef="0" IVar="-1" Cut="0.0000000000000000e+00" cType="1" res="-7.4064494110643864e-03" rms="2.9369679093360901e-01" purity="4.1908004879951477e-01" nType="-99"/>
          <Node pos="r" depth="2" NCoef="0" IVar="-1" Cut="0.0000000000000000e+00" cType="1" res="8.7280236184597015e-03" rms="2.5587964057922363e-01" purity="5.9843093156814575e-01" nType="-99"/>
        </Node>
        <Node pos="r" depth="1" NCoef="0" IVar="-1" Cut="0.0000000000000000e+00" cType="1" res="-3.2860126346349716e-02" rms="1.9722765684127808e-01" purity="1.4186850190162659e-01" nType="-99"/>
      </Node>
    </BinaryTree>
    <BinaryTree type="DecisionTree" boostWeight="1.0000000000000000e+00" itree="135">
      <Node pos="s" depth="0" NCoef="0" IVar="7" Cut="3.9137101562500000e+04" cType="1" res="-2.0462599422899075e-05" rms="2.6981809735298157e-01" purity="5.0000000000000000e-01" nType="0">
        <Node pos="l" depth="1" NCoef="0" IVar="7" Cut="2.1507927734375000e+04" cType="1" res="4.5956270769238472e-03" rms="2.6766282320022583e-01" purity="5.0317645072937012e-01" nType="0">
          <Node pos="l" depth="2" NCoef="0" IVar="-1" Cut="0.0000000000000000e+00" cType="1" res="-5.9225265868008137e-03" rms="2.7476140856742859e-01" purity="4.9264550209045410e-01" nType="-99"/>
          <Node pos="r" depth="2" NCoef="0" IVar="-1" Cut="0.0000000000000000e+00" cType="1" res="1.1259898543357849e-02" rms="2.5778675079345703e-01" purity="5.1470923423767090e-01" nType="-99"/>
        </Node>
        <Node pos="r" depth="1" NCoef="0" IVar="-1" Cut="0.0000000000000000e+00" cType="1" res="-1.7123050987720490e-02" rms="2.8629836440086365e-01" purity="4.6857142448425293e-01" nType="-99"/>
      </Node>
    </BinaryTree>
    <BinaryTree type="DecisionTree" boostWeight="1.0000000000000000e+00" itree="136">
      <Node pos="s" depth="0" NCoef="0" IVar="2" Cut="5.7398959960937500e+03" cType="1" res="-1.7318316167802550e-05" rms="2.6937067508697510e-01" purity="5.0000000000000000e-01" nType="0">
        <Node pos="l" depth="1" NCoef="0" IVar="9" Cut="8.8247343750000000e+03" cType="1" res="7.6654134318232536e-03" rms="2.7346265316009521e-01" purity="5.7164198160171509e-01" nType="0">
          <Node pos="l" depth="2" NCoef="0" IVar="-1" Cut="0.0000000000000000e+00" cType="1" res="2.3371702991425991e-04" rms="2.7150851488113403e-01" purity="5.6306469440460205e-01" nType="-99"/>
          <Node pos="r" depth="2" NCoef="0" IVar="-1" Cut="0.0000000000000000e+00" cType="1" res="3.1027166172862053e-02" rms="2.8265777230262756e-01" purity="6.6836476325988770e-01" nType="-99"/>
        </Node>
        <Node pos="r" depth="1" NCoef="0" IVar="5" Cut="2.7261134982109070e-01" cType="1" res="-2.8923820704221725e-02" rms="2.5128731131553650e-01" purity="2.3044495284557343e-01" nType="0">
          <Node pos="l" depth="2" NCoef="0" IVar="-1" Cut="0.0000000000000000e+00" cType="1" res="-3.7729155272245407e-02" rms="2.0566190779209137e-01" purity="1.2363362312316895e-01" nType="-99"/>
          <Node pos="r" depth="2" NCoef="0" IVar="-1" Cut="0.0000000000000000e+00" cType="1" res="3.2582513522356749e-03" rms="2.7299821376800537e-01" purity="3.0597016215324402e-01" nType="-99"/>
        </Node>
      </Node>
    </BinaryTree>
    <BinaryTree type="DecisionTree" boostWeight="1.0000000000000000e+00" itree="137">
      <Node pos="s" depth="0" NCoef="0" IVar="9" Cut="2.6159143066406250e+03" cType="1" res="-2.5114237359957770e-05" rms="2.6884806156158447e-01" purity="5.0000000000000000e-01" nType="0">
        <Node pos="l" depth="1" NCoef="0" IVar="12" Cut="4.5130634765625000e+03" cType="1" res="3.4948326647281647e-02" rms="2.3586545884609222e-01" purity="5.8519178628921509e-01" nType="0">
          <Node pos="l" depth="2" NCoef="0" IVar="-1" Cut="0.0000000000000000e+00" cType="1" res="2.5633085519075394e-02" rms="2.1714024245738983e-01" purity="6.2732243537902832e-01" nType="-99"/>
          <Node pos="r" depth="2" NCoef="0" IVar="-1" Cut="0.0000000000000000e+00" cType="1" res="-4.5476285740733147e-03" rms="2.5602218508720398e-01" purity="5.1868891716003418e-01" nType="-99"/>
        </Node>
        <Node pos="r" depth="1" NCoef="0" IVar="4" Cut="3.0953383445739746e+00" cType="1" res="-6.0520516708493233e-03" rms="2.7368026971817017e-01" purity="4.8531895875930786e-01" nType="0">
          <Node pos="l" depth="2" NCoef="0" IVar="-1" Cut="0.0000000000000000e+00" cType="1" res="-2.0064268261194229e-02" rms="2.1469539403915405e-01" purity="2.9661297798156738e-01" nType="-99"/>
          <Node pos="r" depth="2" NCoef="0" IVar="-1" Cut="0.0000000000000000e+00" cType="1" res="1.9909609109163284e-03" rms="2.8832101821899414e-01" purity="5.4288291931152344e-01" nType="-99"/>
        </Node>
      </Node>
    </BinaryTree>
    <BinaryTree type="DecisionTree" boostWeight="1.0000000000000000e+00" itree="138">
      <Node pos="s" depth="0" NCoef="0" IVar="4" Cut="5.3332409858703613e+00" cType="1" res="-2.2730349883204326e-05" rms="2.6846206188201904e-01" purity="5.0000000000000000e-01" nType="0">
        <Node pos="l" depth="1" NCoef="0" IVar="5" Cut="2.6515886187553406e-01" cType="1" res="1.6482580453157425e-02" rms="2.4746993184089661e-01" purity="5.1294732093811035e-01" nType="0">
          <Node pos="l" depth="2" NCoef="0" IVar="-1" Cut="0.0000000000000000e+00" cType="1" res="-6.8594217300415039e-03" rms="2.4531574547290802e-01" purity="4.4163870811462402e-01" nType="-99"/>
          <Node pos="r" depth="2" NCoef="0" IVar="-1" Cut="0.0000000000000000e+00" cType="1" res="5.9794306755065918e-02" rms="1.9366994500160217e-01" purity="8.4640789031982422e-01" nType="-99"/>
        </Node>
        <Node pos="r" depth="1" NCoef="0" IVar="12" Cut="2.6805649414062500e+03" cType="1" res="-1.3565044850111008e-02" rms="2.8381544351577759e-01" purity="4.8937696218490601e-01" nType="0">
          <Node pos="l" depth="2" NCoef="0" IVar="-1" Cut="0.0000000000000000e+00" cType="1" res="-2.5725116953253746e-02" rms="2.7971035242080688e-01" purity="1.9673703610897064e-01" nType="-99"/>
          <Node pos="r" depth="2" NCoef="0" IVar="-1" Cut="0.0000000000000000e+00" cType="1" res="1.8128545489162207e-03" rms="2.8278872370719910e-01" purity="5.8627265691757202e-01" nType="-99"/>
        </Node>
      </Node>
    </BinaryTree>
    <BinaryTree type="DecisionTree" boostWeight="1.0000000000000000e+00" itree="139">
      <Node pos="s" depth="0" NCoef="0" IVar="2" Cut="5.3147377929687500e+03" cType="1" res="-1.5466092690985533e-06" rms="2.6691460609436035e-01" purity="5.0000000000000000e-01" nType="0">
        <Node pos="l" depth="1" NCoef="0" IVar="12" Cut="2.8847011718750000e+03" cType="1" res="-3.5273067653179169e-02" rms="1.2425249814987183e-01" purity="5.1217984408140182e-02" nType="0">
          <Node pos="l" depth="2" NCoef="0" IVar="-1" Cut="0.0000000000000000e+00" cType="1" res="-3.5460356157273054e-03" rms="1.6482484340667725e-01" purity="8.9227423071861267e-02" nType="-99"/>
          <Node pos="r" depth="2" NCoef="0" IVar="-1" Cut="0.0000000000000000e+00" cType="1" res="-4.8148483037948608e-02" rms="8.4812521934509277e-02" purity="2.7655985206365585e-02" nType="-99"/>
        </Node>
        <Node pos="r" depth="1" NCoef="0" IVar="8" Cut="2.1462006835937500e+03" cType="1" res="6.5899915061891079e-03" rms="2.8530028462409973e-01" purity="5.8386832475662231e-01" nType="0">
          <Node pos="l" depth="2" NCoef="0" IVar="-1" Cut="0.0000000000000000e+00" cType="1" res="-3.1259490642696619e-03" rms="2.9755729436874390e-01" purity="5.1410657167434692e-01" nType="-99"/>
          <Node pos="r" depth="2" NCoef="0" IVar="-1" Cut="0.0000000000000000e+00" cType="1" res="1.4487613923847675e-02" rms="2.6047524809837341e-01" purity="7.0419842004776001e-01" nType="-99"/>
        </Node>
      </Node>
    </BinaryTree>
    <BinaryTree type="DecisionTree" boostWeight="1.0000000000000000e+00" itree="140">
      <Node pos="s" depth="0" NCoef="0" IVar="2" Cut="5.7871357421875000e+03" cType="1" res="-1.4384515452547930e-05" rms="2.6658365130424500e-01" purity="5.0000000000000000e-01" nType="0">
        <Node pos="l" depth="1" NCoef="0" IVar="6" Cut="3.7283832550048828e+01" cType="1" res="6.7916586995124817e-03" rms="2.7004706859588623e-01" purity="5.6803071498870850e-01" nType="0">
          <Node pos="l" depth="2" NCoef="0" IVar="-1" Cut="0.0000000000000000e+00" cType="1" res="-1.5563996508717537e-02" rms="2.9825344681739807e-01" purity="3.2277110219001770e-01" nType="-99"/>
          <Node pos="r" depth="2" NCoef="0" IVar="-1" Cut="0.0000000000000000e+00" cType="1" res="7.8863892704248428e-03" rms="2.6071041822433472e-01" purity="6.3067412376403809e-01" nType="-99"/>
        </Node>
        <Node pos="r" depth="1" NCoef="0" IVar="9" Cut="4.1435532226562500e+03" cType="1" res="-3.0751116573810577e-02" rms="2.4803113937377930e-01" purity="1.9276672601699829e-01" nType="0">
          <Node pos="l" depth="2" NCoef="0" IVar="-1" Cut="0.0000000000000000e+00" cType="1" res="1.2252282351255417e-02" rms="3.1376433372497559e-01" purity="3.9805823564529419e-01" nType="-99"/>
          <Node pos="r" depth="2" NCoef="0" IVar="-1" Cut="0.0000000000000000e+00" cType="1" res="-3.3713016659021378e-02" rms="1.9912534952163696e-01" purity="8.9227423071861267e-02" nType="-99"/>
        </Node>
      </Node>
    </BinaryTree>
    <BinaryTree type="DecisionTree" boostWeight="1.0000000000000000e+00" itree="141">
      <Node pos="s" depth="0" NCoef="0" IVar="7" Cut="3.9137101562500000e+04" cType="1" res="-2.5567454940755852e-05" rms="2.6607501506805420e-01" purity="5.0000000000000000e-01" nType="0">
        <Node pos="l" depth="1" NCoef="0" IVar="4" Cut="5.9355921745300293e+00" cType="1" res="4.5093945227563381e-03" rms="2.6413536071777344e-01" purity="5.0317645072937012e-01" nType="0">
          <Node pos="l" depth="2" NCoef="0" IVar="-1" Cut="0.0000000000000000e+00" cType="1" res="9.0570086613297462e-03" rms="2.4637143313884735e-01" purity="5.1813471317291260e-01" nType="-99"/>
          <Node pos="r" depth="2" NCoef="0" IVar="-1" Cut="0.0000000000000000e+00" cType="1" res="-7.6496829278767109e-03" rms="2.8432425856590271e-01" purity="4.8324632644653320e-01" nType="-99"/>
        </Node>
        <Node pos="r" depth="1" NCoef="0" IVar="-1" Cut="0.0000000000000000e+00" cType="1" res="-1.7233386635780334e-02" rms="2.8063240647315979e-01" purity="4.6857142448425293e-01" nType="-99"/>
      </Node>
    </BinaryTree>
    <BinaryTree type="DecisionTree" boostWeight="1.0000000000000000e+00" itree="142">
      <Node pos="s" depth="0" NCoef="0" IVar="2" Cut="5.3147377929687500e+03" cType="1" res="-2.1546802599914372e-05" rms="2.6566275954246521e-01" purity="5.0000000000000000e-01" nType="0">
        <Node pos="l" depth="1" NCoef="0" IVar="9" Cut="4.7275668945312500e+03" cType="1" res="-3.2861240208148956e-02" rms="1.2207960337400436e-01" purity="5.1217984408140182e-02" nType="0">
          <Node pos="l" depth="2" NCoef="0" IVar="-1" Cut="0.0000000000000000e+00" cType="1" res="-4.8618454486131668e-02" rms="9.2798985540866852e-02" purity="2.6814909651875496e-02" nType="-99"/>
          <Node pos="r" depth="2" NCoef="0" IVar="-1" Cut="0.0000000000000000e+00" cType="1" res="-2.7360131498426199e-03" rms="1.5675023198127747e-01" purity="9.3982815742492676e-02" nType="-99"/>
        </Node>
        <Node pos="r" depth="1" NCoef="0" IVar="8" Cut="2.1462006835937500e+03" cType="1" res="6.1155315488576889e-03" rms="2.8415086865425110e-01" purity="5.8386832475662231e-01" nType="0">
          <Node pos="l" depth="2" NCoef="0" IVar="-1" Cut="0.0000000000000000e+00" cType="1" res="-2.9248830396682024e-03" rms="2.9690569639205933e-01" purity="5.1410657167434692e-01" nType="-99"/>
          <Node pos="r" depth="2" NCoef="0" IVar="-1" Cut="0.0000000000000000e+00" cType="1" res="1.3658792711794376e-02" rms="2.5864633917808533e-01" purity="7.0419842004776001e-01" nType="-99"/>
        </Node>
      </Node>
    </BinaryTree>
    <BinaryTree type="DecisionTree" boostWeight="1.0000000000000000e+00" itree="143">
      <Node pos="s" depth="0" NCoef="0" IVar="9" Cut="2.6159143066406250e+03" cType="1" res="-3.0956412956584245e-05" rms="2.6534885168075562e-01" purity="5.0000000000000000e-01" nType="0">
        <Node pos="l" depth="1" NCoef="0" IVar="4" Cut="6.3969879150390625e+00" cType="1" res="3.4574583172798157e-02" rms="2.3171758651733398e-01" purity="5.8519178628921509e-01" nType="0">
          <Node pos="l" depth="2" NCoef="0" IVar="-1" Cut="0.0000000000000000e+00" cType="1" res="2.6542656123638153e-02" rms="2.0795589685440063e-01" purity="7.0800626277923584e-01" nType="-99"/>
          <Node pos="r" depth="2" NCoef="0" IVar="-1" Cut="0.0000000000000000e+00" cType="1" res="-3.0613376293331385e-03" rms="2.5372955203056335e-01" purity="4.2355370521545410e-01" nType="-99"/>
        </Node>
        <Node pos="r" depth="1" NCoef="0" IVar="3" Cut="3.3495236816406250e+03" cType="1" res="-5.9944940730929375e-03" rms="2.7027559280395508e-01" purity="4.8531895875930786e-01" nType="0">
          <Node pos="l" depth="2" NCoef="0" IVar="-1" Cut="0.0000000000000000e+00" cType="1" res="-5.6281476281583309e-03" rms="2.7420312166213989e-01" purity="4.4265517592430115e-01" nType="-99"/>
          <Node pos="r" depth="2" NCoef="0" IVar="-1" Cut="0.0000000000000000e+00" cType="1" res="1.9485142081975937e-02" rms="2.4350950121879578e-01" purity="7.0944482088088989e-01" nType="-99"/>
        </Node>
      </Node>
    </BinaryTree>
    <BinaryTree type="DecisionTree" boostWeight="1.0000000000000000e+00" itree="144">
      <Node pos="s" depth="0" NCoef="0" IVar="12" Cut="2.6805649414062500e+03" cType="1" res="-2.1882386135985143e-05" rms="2.6501813530921936e-01" purity="5.0000000000000000e-01" nType="0">
        <Node pos="l" depth="1" NCoef="0" IVar="11" Cut="3.0838462890625000e+04" cType="1" res="-2.5037823244929314e-02" rms="2.4543055891990662e-01" purity="2.7538958191871643e-01" nType="0">
          <Node pos="l" depth="2" NCoef="0" IVar="-1" Cut="0.0000000000000000e+00" cType="1" res="-2.8099086135625839e-02" rms="1.9316573441028595e-01" purity="2.1340273320674896e-01" nType="-99"/>
          <Node pos="r" depth="2" NCoef="0" IVar="-1" Cut="0.0000000000000000e+00" cType="1" res="1.0501393117010593e-02" rms="3.0431118607521057e-01" purity="3.7627956271171570e-01" nType="-99"/>
        </Node>
        <Node pos="r" depth="1" NCoef="0" IVar="11" Cut="2.6749191406250000e+04" cType="1" res="8.0535151064395905e-03" rms="2.7054575085639954e-01" purity="5.7250648736953735e-01" nType="0">
          <Node pos="l" depth="2" NCoef="0" IVar="-1" Cut="0.0000000000000000e+00" cType="1" res="1.8938912078738213e-02" rms="2.4981413781642914e-01" purity="5.1628798246383667e-01" nType="-99"/>
          <Node pos="r" depth="2" NCoef="0" IVar="-1" Cut="0.0000000000000000e+00" cType="1" res="-2.9367534443736076e-03" rms="2.7819928526878357e-01" purity="5.9857815504074097e-01" nType="-99"/>
        </Node>
      </Node>
    </BinaryTree>
    <BinaryTree type="DecisionTree" boostWeight="1.0000000000000000e+00" itree="145">
      <Node pos="s" depth="0" NCoef="0" IVar="2" Cut="5.7398959960937500e+03" cType="1" res="-2.3619079001946375e-05" rms="2.6432502269744873e-01" purity="5.0000000000000000e-01" nType="0">
        <Node pos="l" depth="1" NCoef="0" IVar="11" Cut="8.3595234375000000e+04" cType="1" res="7.2563369758427143e-03" rms="2.6879835128784180e-01" purity="5.7164198160171509e-01" nType="0">
          <Node pos="l" depth="2" NCoef="0" IVar="-1" Cut="0.0000000000000000e+00" cType="1" res="-5.3513719467446208e-04" rms="2.7043905854225159e-01" purity="5.5595874786376953e-01" nType="-99"/>
          <Node pos="r" depth="2" NCoef="0" IVar="-1" Cut="0.0000000000000000e+00" cType="1" res="2.6161257177591324e-02" rms="2.5020113587379456e-01" purity="6.7575275897979736e-01" nType="-99"/>
        </Node>
        <Node pos="r" depth="1" NCoef="0" IVar="11" Cut="4.1723335937500000e+04" cType="1" res="-2.7414666488766670e-02" rms="2.4483671784400940e-01" purity="2.3044495284557343e-01" nType="0">
          <Node pos="l" depth="2" NCoef="0" IVar="-1" Cut="0.0000000000000000e+00" cType="1" res="3.2056951895356178e-03" rms="2.6558476686477661e-01" purity="2.1601682901382446e-01" nType="-99"/>
          <Node pos="r" depth="2" NCoef="0" IVar="-1" Cut="0.0000000000000000e+00" cType="1" res="-2.8400667011737823e-02" rms="2.0101340115070343e-01" purity="2.5143733620643616e-01" nType="-99"/>
        </Node>
      </Node>
    </BinaryTree>
    <BinaryTree type="DecisionTree" boostWeight="1.0000000000000000e+00" itree="146">
      <Node pos="s" depth="0" NCoef="0" IVar="12" Cut="4.0340742187500000e+03" cType="1" res="-2.3620012143510394e-05" rms="2.6387229561805725e-01" purity="5.0000000000000000e-01" nType="0">
        <Node pos="l" depth="1" NCoef="0" IVar="6" Cut="3.9071942138671875e+02" cType="1" res="-1.0151809081435204e-02" rms="2.6167544722557068e-01" purity="4.0680369734764099e-01" nType="0">
          <Node pos="l" depth="2" NCoef="0" IVar="-1" Cut="0.0000000000000000e+00" cType="1" res="1.4103263674769551e-04" rms="2.6488059759140015e-01" purity="4.3909588456153870e-01" nType="-99"/>
          <Node pos="r" depth="2" NCoef="0" IVar="-1" Cut="0.0000000000000000e+00" cType="1" res="-5.5698264390230179e-02" rms="2.0982716977596283e-01" purity="1.2220565974712372e-01" nType="-99"/>
        </Node>
        <Node pos="r" depth="1" NCoef="0" IVar="7" Cut="2.1760638671875000e+04" cType="1" res="1.8587753176689148e-02" rms="2.6686194539070129e-01" purity="6.7125582695007324e-01" nType="0">
          <Node pos="l" depth="2" NCoef="0" IVar="-1" Cut="0.0000000000000000e+00" cType="1" res="-6.7107612267136574e-03" rms="2.8340667486190796e-01" purity="6.0676538944244385e-01" nType="-99"/>
          <Node pos="r" depth="2" NCoef="0" IVar="-1" Cut="0.0000000000000000e+00" cType="1" res="3.8473010063171387e-02" rms="2.2574725747108459e-01" purity="7.7470934391021729e-01" nType="-99"/>
        </Node>
      </Node>
    </BinaryTree>
    <BinaryTree type="DecisionTree" boostWeight="1.0000000000000000e+00" itree="147">
      <Node pos="s" depth="0" NCoef="0" IVar="4" Cut="8.9473457336425781e+00" cType="1" res="-2.4575523639214225e-05" rms="2.6287484169006348e-01" purity="5.0000000000000000e-01" nType="0">
        <Node pos="l" depth="1" NCoef="0" IVar="5" Cut="5.9902834892272949e-01" cType="1" res="3.2320858445018530e-03" rms="2.6613992452621460e-01" purity="5.2158498764038086e-01" nType="0">
          <Node pos="l" depth="2" NCoef="0" IVar="-1" Cut="0.0000000000000000e+00" cType="1" res="-3.9593032561242580e-03" rms="2.6821619272232056e-01" purity="4.8136192560195923e-01" nType="-99"/>
          <Node pos="r" depth="2" NCoef="0" IVar="-1" Cut="0.0000000000000000e+00" cType="1" res="1.4875822700560093e-02" rms="2.5801193714141846e-01" purity="6.2031698226928711e-01" nType="-99"/>
        </Node>
        <Node pos="r" depth="1" NCoef="0" IVar="-1" Cut="0.0000000000000000e+00" cType="1" res="-3.0400717630982399e-02" rms="1.9325914978981018e-01" purity="1.4186850190162659e-01" nType="-99"/>
      </Node>
    </BinaryTree>
    <BinaryTree type="DecisionTree" boostWeight="1.0000000000000000e+00" itree="148">
      <Node pos="s" depth="0" NCoef="0" IVar="2" Cut="5.3147377929687500e+03" cType="1" res="-2.2483825887320563e-05" rms="2.6258280873298645e-01" purity="5.0000000000000000e-01" nType="0">
        <Node pos="l" depth="1" NCoef="0" IVar="1" Cut="6.3235265625000000e+04" cType="1" res="-3.0733942985534668e-02" rms="1.1973122507333755e-01" purity="5.1217984408140182e-02" nType="0">
          <Node pos="l" depth="2" NCoef="0" IVar="-1" Cut="0.0000000000000000e+00" cType="1" res="-6.0647409409284592e-02" rms="7.9572752118110657e-02" purity="0.0000000000000000e+00" nType="-99"/>
          <Node pos="r" depth="2" NCoef="0" IVar="-1" Cut="0.0000000000000000e+00" cType="1" res="-5.2488353103399277e-03" rms="1.5093217790126801e-01" purity="1.1186902970075607e-01" nType="-99"/>
        </Node>
        <Node pos="r" depth="1" NCoef="0" IVar="10" Cut="2.0833163452148438e+02" cType="1" res="5.7168705388903618e-03" rms="2.8097477555274963e-01" purity="5.8386832475662231e-01" nType="0">
          <Node pos="l" depth="2" NCoef="0" IVar="-1" Cut="0.0000000000000000e+00" cType="1" res="-1.8083894625306129e-02" rms="3.1422725319862366e-01" purity="3.5528594255447388e-01" nType="-99"/>
          <Node pos="r" depth="2" NCoef="0" IVar="-1" Cut="0.0000000000000000e+00" cType="1" res="4.4128708541393280e-03" rms="2.7668806910514832e-01" purity="6.0642069578170776e-01" nType="-99"/>
        </Node>
      </Node>
    </BinaryTree>
    <BinaryTree type="DecisionTree" boostWeight="1.0000000000000000e+00" itree="149">
      <Node pos="s" depth="0" NCoef="0" IVar="9" Cut="2.6159143066406250e+03" cType="1" res="-3.8009457057341933e-05" rms="2.6225060224533081e-01" purity="5.0000000000000000e-01" nType="0">
        <Node pos="l" depth="1" NCoef="0" IVar="4" Cut="5.8063836097717285e+00" cType="1" res="3.2822061330080032e-02" rms="2.2897937893867493e-01" purity="5.8519178628921509e-01" nType="0">
          <Node pos="l" depth="2" NCoef="0" IVar="-1" Cut="0.0000000000000000e+00" cType="1" res="3.6282539367675781e-02" rms="1.5841577947139740e-01" purity="7.3832297325134277e-01" nType="-99"/>
          <Node pos="r" depth="2" NCoef="0" IVar="-1" Cut="0.0000000000000000e+00" cType="1" res="1.8391832709312439e-03" rms="2.6149836182594299e-01" purity="4.8466938734054565e-01" nType="-99"/>
        </Node>
        <Node pos="r" depth="1" NCoef="0" IVar="4" Cut="1.3225860595703125e+00" cType="1" res="-5.7007516734302044e-03" rms="2.6715865731239319e-01" purity="4.8531895875930786e-01" nType="0">
          <Node pos="l" depth="2" NCoef="0" IVar="-1" Cut="0.0000000000000000e+00" cType="1" res="-4.2239930480718613e-02" rms="1.7399525642395020e-01" purity="4.6697035431861877e-02" nType="-99"/>
          <Node pos="r" depth="2" NCoef="0" IVar="-1" Cut="0.0000000000000000e+00" cType="1" res="-1.6098652849905193e-04" rms="2.7190706133842468e-01" purity="5.1706230640411377e-01" nType="-99"/>
        </Node>
      </Node>
    </BinaryTree>
    <BinaryTree type="DecisionTree" boostWeight="1.0000000000000000e+00" itree="150">
      <Node pos="s" depth="0" NCoef="0" IVar="4" Cut="5.3332409858703613e+00" cType="1" res="-3.8960068195592612e-05" rms="2.6189455389976501e-01" purity="5.0000000000000000e-01" nType="0">
        <Node pos="l" depth="1" NCoef="0" IVar="5" Cut="2.6515886187553406e-01" cType="1" res="1.5115874819457531e-02" rms="2.3786294460296631e-01" purity="5.1294732093811035e-01" nType="0">
          <Node pos="l" depth="2" NCoef="0" IVar="-1" Cut="0.0000000000000000e+00" cType="1" res="-6.5230620093643665e-03" rms="2.3797135055065155e-01" purity="4.4163870811462402e-01" nType="-99"/>
          <Node pos="r" depth="2" NCoef="0" IVar="-1" Cut="0.0000000000000000e+00" cType="1" res="5.7650793343782425e-02" rms="1.7955742776393890e-01" purity="8.4640789031982422e-01" nType="-99"/>
        </Node>
        <Node pos="r" depth="1" NCoef="0" IVar="7" Cut="2.9158359375000000e+04" cType="1" res="-1.2473233044147491e-02" rms="2.7946323156356812e-01" purity="4.8937696218490601e-01" nType="0">
          <Node pos="l" depth="2" NCoef="0" IVar="-1" Cut="0.0000000000000000e+00" cType="1" res="-1.1406970210373402e-02" rms="2.7747198939323425e-01" purity="4.8967075347900391e-01" nType="-99"/>
          <Node pos="r" depth="2" NCoef="0" IVar="-1" Cut="0.0000000000000000e+00" cType="1" res="1.6347229480743408e-02" rms="2.7896019816398621e-01" purity="4.8854264616966248e-01" nType="-99"/>
        </Node>
      </Node>
    </BinaryTree>
    <BinaryTree type="DecisionTree" boostWeight="1.0000000000000000e+00" itree="151">
      <Node pos="s" depth="0" NCoef="0" IVar="2" Cut="5.7398959960937500e+03" cType="1" res="-1.0675954399630427e-05" rms="2.6046940684318542e-01" purity="5.0000000000000000e-01" nType="0">
        <Node pos="l" depth="1" NCoef="0" IVar="2" Cut="5.3584111328125000e+03" cType="1" res="7.2227115742862225e-03" rms="2.6528850197792053e-01" purity="5.7164198160171509e-01" nType="0">
          <Node pos="l" depth="2" NCoef="0" IVar="-1" Cut="0.0000000000000000e+00" cType="1" res="-2.7819149196147919e-02" rms="1.3219428062438965e-01" purity="7.4208140373229980e-02" nType="-99"/>
          <Node pos="r" depth="2" NCoef="0" IVar="-1" Cut="0.0000000000000000e+00" cType="1" res="6.6012213937938213e-03" rms="2.9237654805183411e-01" purity="7.1960806846618652e-01" nType="-99"/>
        </Node>
        <Node pos="r" depth="1" NCoef="0" IVar="11" Cut="4.1723335937500000e+04" cType="1" res="-2.7226509526371956e-02" rms="2.3952814936637878e-01" purity="2.3044495284557343e-01" nType="0">
          <Node pos="l" depth="2" NCoef="0" IVar="-1" Cut="0.0000000000000000e+00" cType="1" res="2.3439147043973207e-03" rms="2.6076248288154602e-01" purity="2.1601682901382446e-01" nType="-99"/>
          <Node pos="r" depth="2" NCoef="0" IVar="-1" Cut="0.0000000000000000e+00" cType="1" res="-2.8091909363865852e-02" rms="1.9558504223823547e-01" purity="2.5143733620643616e-01" nType="-99"/>
        </Node>
      </Node>
    </BinaryTree>
    <BinaryTree type="DecisionTree" boostWeight="1.0000000000000000e+00" itree="152">
      <Node pos="s" depth="0" NCoef="0" IVar="7" Cut="3.9137101562500000e+04" cType="1" res="-1.9455608708085492e-05" rms="2.6020056009292603e-01" purity="5.0000000000000000e-01" nType="0">
        <Node pos="l" depth="1" NCoef="0" IVar="7" Cut="1.0564618164062500e+04" cType="1" res="4.1801249608397484e-03" rms="2.5861558318138123e-01" purity="5.0317645072937012e-01" nType="0">
          <Node pos="l" depth="2" NCoef="0" IVar="-1" Cut="0.0000000000000000e+00" cType="1" res="2.8669500723481178e-02" rms="2.3027871549129486e-01" purity="6.3813227415084839e-01" nType="-99"/>
          <Node pos="r" depth="2" NCoef="0" IVar="-1" Cut="0.0000000000000000e+00" cType="1" res="-7.8967970330268145e-04" rms="2.6018601655960083e-01" purity="4.9088260531425476e-01" nType="-99"/>
        </Node>
        <Node pos="r" depth="1" NCoef="0" IVar="-1" Cut="0.0000000000000000e+00" cType="1" res="-1.6309227794408798e-02" rms="2.7191826701164246e-01" purity="4.6857142448425293e-01" nType="-99"/>
      </Node>
    </BinaryTree>
    <BinaryTree type="DecisionTree" boostWeight="1.0000000000000000e+00" itree="153">
      <Node pos="s" depth="0" NCoef="0" IVar="8" Cut="2.1462006835937500e+03" cType="1" res="-1.3523960660677403e-05" rms="2.5988602638244629e-01" purity="5.0000000000000000e-01" nType="0">
        <Node pos="l" depth="1" NCoef="0" IVar="4" Cut="7.1402935981750488e+00" cType="1" res="-9.7057921811938286e-03" rms="2.6672410964965820e-01" purity="4.2910337448120117e-01" nType="0">
          <Node pos="l" depth="2" NCoef="0" IVar="-1" Cut="0.0000000000000000e+00" cType="1" res="6.9083954440429807e-04" rms="2.6573324203491211e-01" purity="4.7941285371780396e-01" nType="-99"/>
          <Node pos="r" depth="2" NCoef="0" IVar="-1" Cut="0.0000000000000000e+00" cType="1" res="-2.5557011365890503e-02" rms="2.6537445187568665e-01" purity="2.1601682901382446e-01" nType="-99"/>
        </Node>
        <Node pos="r" depth="1" NCoef="0" IVar="4" Cut="7.7826390266418457e+00" cType="1" res="1.8107278272509575e-02" rms="2.4556925892829895e-01" purity="6.3254940509796143e-01" nType="0">
          <Node pos="l" depth="2" NCoef="0" IVar="-1" Cut="0.0000000000000000e+00" cType="1" res="5.7196832494810224e-04" rms="2.4588423967361450e-01" purity="6.0020911693572998e-01" nType="-99"/>
          <Node pos="r" depth="2" NCoef="0" IVar="-1" Cut="0.0000000000000000e+00" cType="1" res="5.0708431750535965e-02" rms="2.3097580671310425e-01" purity="7.7014338970184326e-01" nType="-99"/>
        </Node>
      </Node>
    </BinaryTree>
    <BinaryTree type="DecisionTree" boostWeight="1.0000000000000000e+00" itree="154">
      <Node pos="s" depth="0" NCoef="0" IVar="12" Cut="6.7410927734375000e+03" cType="1" res="-7.7754375524818897e-06" rms="2.5932717323303223e-01" purity="5.0000000000000000e-01" nType="0">
        <Node pos="l" depth="1" NCoef="0" IVar="12" Cut="5.8214692382812500e+03" cType="1" res="-3.7463717162609100e-03" rms="2.6795127987861633e-01" purity="4.7166597843170166e-01" nType="0">
          <Node pos="l" depth="2" NCoef="0" IVar="-1" Cut="0.0000000000000000e+00" cType="1" res="1.2836757814511657e-03" rms="2.6830515265464783e-01" purity="4.7184929251670837e-01" nType="-99"/>
          <Node pos="r" depth="2" NCoef="0" IVar="-1" Cut="0.0000000000000000e+00" cType="1" res="-5.8334484696388245e-02" rms="2.3156820237636566e-01" purity="4.6857145428657532e-01" nType="-99"/>
        </Node>
        <Node pos="r" depth="1" NCoef="0" IVar="-1" Cut="0.0000000000000000e+00" cType="1" res="3.2912887632846832e-02" rms="1.0162045061588287e-01" purity="8.4102559089660645e-01" nType="-99"/>
      </Node>
    </BinaryTree>
    <BinaryTree type="DecisionTree" boostWeight="1.0000000000000000e+00" itree="155">
      <Node pos="s" depth="0" NCoef="0" IVar="4" Cut="5.3332409858703613e+00" cType="1" res="-1.6106065459098318e-06" rms="2.5854769349098206e-01" purity="5.0000000000000000e-01" nType="0">
        <Node pos="l" depth="1" NCoef="0" IVar="5" Cut="2.6515886187553406e-01" cType="1" res="1.4580533839762211e-02" rms="2.3374262452125549e-01" purity="5.1294732093811035e-01" nType="0">
          <Node pos="l" depth="2" NCoef="0" IVar="-1" Cut="0.0000000000000000e+00" cType="1" res="-5.6436681188642979e-03" rms="2.3577304184436798e-01" purity="4.4163870811462402e-01" nType="-99"/>
          <Node pos="r" depth="2" NCoef="0" IVar="-1" Cut="0.0000000000000000e+00" cType="1" res="5.4731991142034531e-02" rms="1.7371948063373566e-01" purity="8.4640789031982422e-01" nType="-99"/>
        </Node>
        <Node pos="r" depth="1" NCoef="0" IVar="12" Cut="2.6805649414062500e+03" cType="1" res="-1.1966000311076641e-02" rms="2.7667388319969177e-01" purity="4.8937696218490601e-01" nType="0">
          <Node pos="l" depth="2" NCoef="0" IVar="-1" Cut="0.0000000000000000e+00" cType="1" res="-2.3878730833530426e-02" rms="2.7090010046958923e-01" purity="1.9673703610897064e-01" nType="-99"/>
          <Node pos="r" depth="2" NCoef="0" IVar="-1" Cut="0.0000000000000000e+00" cType="1" res="1.7657523276284337e-03" rms="2.7660560607910156e-01" purity="5.8627265691757202e-01" nType="-99"/>
        </Node>
      </Node>
    </BinaryTree>
    <BinaryTree type="DecisionTree" boostWeight="1.0000000000000000e+00" itree="156">
      <Node pos="s" depth="0" NCoef="0" IVar="8" Cut="2.1462006835937500e+03" cType="1" res="1.5122815057111438e-05" rms="2.5735580921173096e-01" purity="5.0000000000000000e-01" nType="0">
        <Node pos="l" depth="1" NCoef="0" IVar="12" Cut="3.0015578613281250e+03" cType="1" res="-9.7064515575766563e-03" rms="2.6374363899230957e-01" purity="4.2910337448120117e-01" nType="0">
          <Node pos="l" depth="2" NCoef="0" IVar="-1" Cut="0.0000000000000000e+00" cType="1" res="-2.4943349882960320e-02" rms="2.4431940913200378e-01" purity="1.9916096329689026e-01" nType="-99"/>
          <Node pos="r" depth="2" NCoef="0" IVar="-1" Cut="0.0000000000000000e+00" cType="1" res="1.2997146695852280e-03" rms="2.6778715848922729e-01" purity="4.9696967005729675e-01" nType="-99"/>
        </Node>
        <Node pos="r" depth="1" NCoef="0" IVar="4" Cut="7.3090806007385254e+00" cType="1" res="1.8190717324614525e-02" rms="2.4392950534820557e-01" purity="6.3254940509796143e-01" nType="0">
          <Node pos="l" depth="2" NCoef="0" IVar="-1" Cut="0.0000000000000000e+00" cType="1" res="2.3356266319751740e-04" rms="2.4363698065280914e-01" purity="5.9780055284500122e-01" nType="-99"/>
          <Node pos="r" depth="2" NCoef="0" IVar="-1" Cut="0.0000000000000000e+00" cType="1" res="3.6967966705560684e-02" rms="2.3618976771831512e-01" purity="7.4339771270751953e-01" nType="-99"/>
        </Node>
      </Node>
    </BinaryTree>
    <BinaryTree type="DecisionTree" boostWeight="1.0000000000000000e+00" itree="157">
      <Node pos="s" depth="0" NCoef="0" IVar="2" Cut="5.7398959960937500e+03" cType="1" res="1.4914874554960988e-05" rms="2.5686836242675781e-01" purity="5.0000000000000000e-01" nType="0">
        <Node pos="l" depth="1" NCoef="0" IVar="9" Cut="8.8247343750000000e+03" cType="1" res="6.9797276519238949e-03" rms="2.6208144426345825e-01" purity="5.7164198160171509e-01" nType="0">
          <Node pos="l" depth="2" NCoef="0" IVar="-1" Cut="0.0000000000000000e+00" cType="1" res="2.4766364367678761e-04" rms="2.6061931252479553e-01" purity="5.6306469440460205e-01" nType="-99"/>
          <Node pos="r" depth="2" NCoef="0" IVar="-1" Cut="0.0000000000000000e+00" cType="1" res="2.9590506106615067e-02" rms="2.6774910092353821e-01" purity="6.6836476325988770e-01" nType="-99"/>
        </Node>
        <Node pos="r" depth="1" NCoef="0" IVar="7" Cut="2.2017990234375000e+04" cType="1" res="-2.6190396398305893e-02" rms="2.3437836766242981e-01" purity="2.3044495284557343e-01" nType="0">
          <Node pos="l" depth="2" NCoef="0" IVar="-1" Cut="0.0000000000000000e+00" cType="1" res="-3.2062876969575882e-02" rms="1.9769772887229919e-01" purity="1.8700113892555237e-01" nType="-99"/>
          <Node pos="r" depth="2" NCoef="0" IVar="-1" Cut="0.0000000000000000e+00" cType="1" res="2.2955404128879309e-03" rms="2.5216540694236755e-01" purity="2.6073130965232849e-01" nType="-99"/>
        </Node>
      </Node>
    </BinaryTree>
    <BinaryTree type="DecisionTree" boostWeight="1.0000000000000000e+00" itree="158">
      <Node pos="s" depth="0" NCoef="0" IVar="3" Cut="1.4928527832031250e+03" cType="1" res="9.4570596047560684e-06" rms="2.5645598769187927e-01" purity="5.0000000000000000e-01" nType="0">
        <Node pos="l" depth="1" NCoef="0" IVar="9" Cut="4.7694833984375000e+03" cType="1" res="-3.0999192968010902e-02" rms="2.7081197500228882e-01" purity="2.8727829456329346e-01" nType="0">
          <Node pos="l" depth="2" NCoef="0" IVar="-1" Cut="0.0000000000000000e+00" cType="1" res="1.2630319222807884e-02" rms="2.6448297500610352e-01" purity="3.7740585207939148e-01" nType="-99"/>
          <Node pos="r" depth="2" NCoef="0" IVar="-1" Cut="0.0000000000000000e+00" cType="1" res="-4.6740606427192688e-02" rms="2.5970917940139771e-01" purity="1.8833255767822266e-01" nType="-99"/>
        </Node>
        <Node pos="r" depth="1" NCoef="0" IVar="6" Cut="4.0976727294921875e+02" cType="1" res="5.4694758728146553e-03" rms="2.5345161557197571e-01" purity="5.3745615482330322e-01" nType="0">
          <Node pos="l" depth="2" NCoef="0" IVar="-1" Cut="0.0000000000000000e+00" cType="1" res="4.7674947418272495e-03" rms="2.5171890854835510e-01" purity="5.6000328063964844e-01" nType="-99"/>
          <Node pos="r" depth="2" NCoef="0" IVar="-1" Cut="0.0000000000000000e+00" cType="1" res="-4.0138147771358490e-02" rms="2.6124775409698486e-01" purity="2.0122699439525604e-01" nType="-99"/>
        </Node>
      </Node>
    </BinaryTree>
    <BinaryTree type="DecisionTree" boostWeight="1.0000000000000000e+00" itree="159">
      <Node pos="s" depth="0" NCoef="0" IVar="4" Cut="5.3332409858703613e+00" cType="1" res="2.4493899672961561e-06" rms="2.5565338134765625e-01" purity="5.0000000000000000e-01" nType="0">
        <Node pos="l" depth="1" NCoef="0" IVar="5" Cut="2.6515886187553406e-01" cType="1" res="1.4512085355818272e-02" rms="2.2955910861492157e-01" purity="5.1294732093811035e-01" nType="0">
          <Node pos="l" depth="2" NCoef="0" IVar="-1" Cut="0.0000000000000000e+00" cType="1" res="-4.6182200312614441e-03" rms="2.3357188701629639e-01" purity="4.4163870811462402e-01" nType="-99"/>
          <Node pos="r" depth="2" NCoef="0" IVar="-1" Cut="0.0000000000000000e+00" cType="1" res="5.2253738045692444e-02" rms="1.6579711437225342e-01" purity="8.4640789031982422e-01" nType="-99"/>
        </Node>
        <Node pos="r" depth="1" NCoef="0" IVar="7" Cut="1.9179617187500000e+04" cType="1" res="-1.1902448721230030e-02" rms="2.7464982867240906e-01" purity="4.8937696218490601e-01" nType="0">
          <Node pos="l" depth="2" NCoef="0" IVar="-1" Cut="0.0000000000000000e+00" cType="1" res="-1.5909554436802864e-02" rms="2.8218376636505127e-01" purity="4.6271663904190063e-01" nType="-99"/>
          <Node pos="r" depth="2" NCoef="0" IVar="-1" Cut="0.0000000000000000e+00" cType="1" res="5.5737374350428581e-03" rms="2.6583695411682129e-01" purity="5.1068401336669922e-01" nType="-99"/>
        </Node>
      </Node>
    </BinaryTree>
    <BinaryTree type="DecisionTree" boostWeight="1.0000000000000000e+00" itree="160">
      <Node pos="s" depth="0" NCoef="0" IVar="2" Cut="5.3147377929687500e+03" cType="1" res="2.3029788280837238e-05" rms="2.5450927019119263e-01" purity="5.0000000000000000e-01" nType="0">
        <Node pos="l" depth="1" NCoef="0" IVar="12" Cut="2.8847011718750000e+03" cType="1" res="-3.0122639611363411e-02" rms="1.0730329900979996e-01" purity="5.1217984408140182e-02" nType="0">
          <Node pos="l" depth="2" NCoef="0" IVar="-1" Cut="0.0000000000000000e+00" cType="1" res="-4.2885257862508297e-03" rms="1.4211364090442657e-01" purity="8.9227423071861267e-02" nType="-99"/>
          <Node pos="r" depth="2" NCoef="0" IVar="-1" Cut="0.0000000000000000e+00" cType="1" res="-4.7597687691450119e-02" rms="7.3960177600383759e-02" purity="2.7655985206365585e-02" nType="-99"/>
        </Node>
        <Node pos="r" depth="1" NCoef="0" IVar="10" Cut="2.0833163452148438e+02" cType="1" res="5.6566493585705757e-03" rms="2.7299597859382629e-01" purity="5.8386832475662231e-01" nType="0">
          <Node pos="l" depth="2" NCoef="0" IVar="-1" Cut="0.0000000000000000e+00" cType="1" res="-1.7643343657255173e-02" rms="3.0415719747543335e-01" purity="3.5528594255447388e-01" nType="-99"/>
          <Node pos="r" depth="2" NCoef="0" IVar="-1" Cut="0.0000000000000000e+00" cType="1" res="4.3910406529903412e-03" rms="2.6899850368499756e-01" purity="6.0642069578170776e-01" nType="-99"/>
        </Node>
      </Node>
    </BinaryTree>
    <BinaryTree type="DecisionTree" boostWeight="1.0000000000000000e+00" itree="161">
      <Node pos="s" depth="0" NCoef="0" IVar="2" Cut="5.7398959960937500e+03" cType="1" res="7.6487694968818687e-06" rms="2.5424948334693909e-01" purity="5.0000000000000000e-01" nType="0">
        <Node pos="l" depth="1" NCoef="0" IVar="6" Cut="3.7283832550048828e+01" cType="1" res="6.8116770125925541e-03" rms="2.5953000783920288e-01" purity="5.7164198160171509e-01" nType="0">
          <Node pos="l" depth="2" NCoef="0" IVar="-1" Cut="0.0000000000000000e+00" cType="1" res="-1.2849925085902214e-02" rms="2.8717136383056641e-01" purity="3.3503574132919312e-01" nType="-99"/>
          <Node pos="r" depth="2" NCoef="0" IVar="-1" Cut="0.0000000000000000e+00" cType="1" res="7.3907868936657906e-03" rms="2.5085994601249695e-01" purity="6.3195168972015381e-01" nType="-99"/>
        </Node>
        <Node pos="r" depth="1" NCoef="0" IVar="11" Cut="4.1723335937500000e+04" cType="1" res="-2.5592707097530365e-02" rms="2.3152844607830048e-01" purity="2.3044495284557343e-01" nType="0">
          <Node pos="l" depth="2" NCoef="0" IVar="-1" Cut="0.0000000000000000e+00" cType="1" res="2.0928212907165289e-03" rms="2.5436636805534363e-01" purity="2.1601682901382446e-01" nType="-99"/>
          <Node pos="r" depth="2" NCoef="0" IVar="-1" Cut="0.0000000000000000e+00" cType="1" res="-2.7644507586956024e-02" rms="1.8517126142978668e-01" purity="2.5143733620643616e-01" nType="-99"/>
        </Node>
      </Node>
    </BinaryTree>
    <BinaryTree type="DecisionTree" boostWeight="1.0000000000000000e+00" itree="162">
      <Node pos="s" depth="0" NCoef="0" IVar="12" Cut="4.0340742187500000e+03" cType="1" res="3.6274971080274554e-06" rms="2.5392684340476990e-01" purity="5.0000000000000000e-01" nType="0">
        <Node pos="l" depth="1" NCoef="0" IVar="6" Cut="3.9071942138671875e+02" cType="1" res="-9.9035231396555901e-03" rms="2.5259962677955627e-01" purity="4.0680369734764099e-01" nType="0">
          <Node pos="l" depth="2" NCoef="0" IVar="-1" Cut="0.0000000000000000e+00" cType="1" res="-1.6808102373033762e-04" rms="2.5653252005577087e-01" purity="4.3909588456153870e-01" nType="-99"/>
          <Node pos="r" depth="2" NCoef="0" IVar="-1" Cut="0.0000000000000000e+00" cType="1" res="-5.5307820439338684e-02" rms="1.9592134654521942e-01" purity="1.2220565974712372e-01" nType="-99"/>
        </Node>
        <Node pos="r" depth="1" NCoef="0" IVar="7" Cut="2.1760638671875000e+04" cType="1" res="1.8208824098110199e-02" rms="2.5534763932228088e-01" purity="6.7125582695007324e-01" nType="0">
          <Node pos="l" depth="2" NCoef="0" IVar="-1" Cut="0.0000000000000000e+00" cType="1" res="-5.3811417892575264e-03" rms="2.7301952242851257e-01" purity="6.0676538944244385e-01" nType="-99"/>
          <Node pos="r" depth="2" NCoef="0" IVar="-1" Cut="0.0000000000000000e+00" cType="1" res="3.6976732313632965e-02" rms="2.1417967975139618e-01" purity="7.7470934391021729e-01" nType="-99"/>
        </Node>
      </Node>
    </BinaryTree>
    <BinaryTree type="DecisionTree" boostWeight="1.0000000000000000e+00" itree="163">
      <Node pos="s" depth="0" NCoef="0" IVar="7" Cut="3.9137101562500000e+04" cType="1" res="-4.1074071077673580e-07" rms="2.5301107764244080e-01" purity="5.0000000000000000e-01" nType="0">
        <Node pos="l" depth="1" NCoef="0" IVar="7" Cut="1.0564618164062500e+04" cType="1" res="4.0679667145013809e-03" rms="2.5177276134490967e-01" purity="5.0317645072937012e-01" nType="0">
          <Node pos="l" depth="2" NCoef="0" IVar="-1" Cut="0.0000000000000000e+00" cType="1" res="2.7343912050127983e-02" rms="2.2688439488410950e-01" purity="6.3813227415084839e-01" nType="-99"/>
          <Node pos="r" depth="2" NCoef="0" IVar="-1" Cut="0.0000000000000000e+00" cType="1" res="-6.8722886499017477e-04" rms="2.5315010547637939e-01" purity="4.9088260531425476e-01" nType="-99"/>
        </Node>
        <Node pos="r" depth="1" NCoef="0" IVar="-1" Cut="0.0000000000000000e+00" cType="1" res="-1.6427360475063324e-02" rms="2.6156279444694519e-01" purity="4.6857142448425293e-01" nType="-99"/>
      </Node>
    </BinaryTree>
    <BinaryTree type="DecisionTree" boostWeight="1.0000000000000000e+00" itree="164">
      <Node pos="s" depth="0" NCoef="0" IVar="4" Cut="8.9473457336425781e+00" cType="1" res="3.2547286537010223e-06" rms="2.5271925330162048e-01" purity="5.0000000000000000e-01" nType="0">
        <Node pos="l" depth="1" NCoef="0" IVar="5" Cut="5.9902834892272949e-01" cType="1" res="3.1574985478073359e-03" rms="2.5580483675003052e-01" purity="5.2158498764038086e-01" nType="0">
          <Node pos="l" depth="2" NCoef="0" IVar="-1" Cut="0.0000000000000000e+00" cType="1" res="-3.7059127353131771e-03" rms="2.5707066059112549e-01" purity="4.8136192560195923e-01" nType="-99"/>
          <Node pos="r" depth="2" NCoef="0" IVar="-1" Cut="0.0000000000000000e+00" cType="1" res="1.4246333390474319e-02" rms="2.5011777877807617e-01" purity="6.2031698226928711e-01" nType="-99"/>
        </Node>
        <Node pos="r" depth="1" NCoef="0" IVar="-1" Cut="0.0000000000000000e+00" cType="1" res="-3.0742203816771507e-02" rms="1.8689303100109100e-01" purity="1.4186850190162659e-01" nType="-99"/>
      </Node>
    </BinaryTree>
    <BinaryTree type="DecisionTree" boostWeight="1.0000000000000000e+00" itree="165">
      <Node pos="s" depth="0" NCoef="0" IVar="4" Cut="5.3332409858703613e+00" cType="1" res="2.3656559733353788e-06" rms="2.5242900848388672e-01" purity="5.0000000000000000e-01" nType="0">
        <Node pos="l" depth="1" NCoef="0" IVar="5" Cut="2.6515886187553406e-01" cType="1" res="1.4460075646638870e-02" rms="2.2527384757995605e-01" purity="5.1294732093811035e-01" nType="0">
          <Node pos="l" depth="2" NCoef="0" IVar="-1" Cut="0.0000000000000000e+00" cType="1" res="-3.8821659982204437e-03" rms="2.3087936639785767e-01" purity="4.4163870811462402e-01" nType="-99"/>
          <Node pos="r" depth="2" NCoef="0" IVar="-1" Cut="0.0000000000000000e+00" cType="1" res="5.0714228302240372e-02" rms="1.5682035684585571e-01" purity="8.4640789031982422e-01" nType="-99"/>
        </Node>
        <Node pos="r" depth="1" NCoef="0" IVar="7" Cut="2.9158359375000000e+04" cType="1" res="-1.1859928257763386e-02" rms="2.7212414145469666e-01" purity="4.8937696218490601e-01" nType="0">
          <Node pos="l" depth="2" NCoef="0" IVar="-1" Cut="0.0000000000000000e+00" cType="1" res="-1.0857879184186459e-02" rms="2.7109414339065552e-01" purity="4.8967075347900391e-01" nType="-99"/>
          <Node pos="r" depth="2" NCoef="0" IVar="-1" Cut="0.0000000000000000e+00" cType="1" res="1.5150832943618298e-02" rms="2.6985254883766174e-01" purity="4.8854264616966248e-01" nType="-99"/>
        </Node>
      </Node>
    </BinaryTree>
    <BinaryTree type="DecisionTree" boostWeight="1.0000000000000000e+00" itree="166">
      <Node pos="s" depth="0" NCoef="0" IVar="2" Cut="5.7398959960937500e+03" cType="1" res="2.1259826098685153e-05" rms="2.5141629576683044e-01" purity="5.0000000000000000e-01" nType="0">
        <Node pos="l" depth="1" NCoef="0" IVar="2" Cut="5.6782807617187500e+03" cType="1" res="6.6234371624886990e-03" rms="2.5703844428062439e-01" purity="5.7164198160171509e-01" nType="0">
          <Node pos="l" depth="2" NCoef="0" IVar="-1" Cut="0.0000000000000000e+00" cType="1" res="-3.6454485962167382e-04" rms="2.5061252713203430e-01" purity="5.4735088348388672e-01" nType="-99"/>
          <Node pos="r" depth="2" NCoef="0" IVar="-1" Cut="0.0000000000000000e+00" cType="1" res="2.4121027439832687e-02" rms="2.9892680048942566e-01" purity="7.7909737825393677e-01" nType="-99"/>
        </Node>
        <Node pos="r" depth="1" NCoef="0" IVar="9" Cut="4.1435532226562500e+03" cType="1" res="-2.4819625541567802e-02" rms="2.2731801867485046e-01" purity="2.3044495284557343e-01" nType="0">
          <Node pos="l" depth="2" NCoef="0" IVar="-1" Cut="0.0000000000000000e+00" cType="1" res="9.6556479111313820e-03" rms="2.7992334961891174e-01" purity="4.0413996577262878e-01" nType="-99"/>
          <Node pos="r" depth="2" NCoef="0" IVar="-1" Cut="0.0000000000000000e+00" cType="1" res="-2.5163806974887848e-02" rms="1.9375278055667877e-01" purity="1.4990858733654022e-01" nType="-99"/>
        </Node>
      </Node>
    </BinaryTree>
    <BinaryTree type="DecisionTree" boostWeight="1.0000000000000000e+00" itree="167">
      <Node pos="s" depth="0" NCoef="0" IVar="8" Cut="2.1462006835937500e+03" cType="1" res="1.5432518921443261e-05" rms="2.5098383426666260e-01" purity="5.0000000000000000e-01" nType="0">
        <Node pos="l" depth="1" NCoef="0" IVar="12" Cut="3.0015578613281250e+03" cType="1" res="-9.4559341669082642e-03" rms="2.5628688931465149e-01" purity="4.2910337448120117e-01" nType="0">
          <Node pos="l" depth="2" NCoef="0" IVar="-1" Cut="0.0000000000000000e+00" cType="1" res="-2.4671664461493492e-02" rms="2.3769035935401917e-01" purity="1.9916096329689026e-01" nType="-99"/>
          <Node pos="r" depth="2" NCoef="0" IVar="-1" Cut="0.0000000000000000e+00" cType="1" res="1.1721417540684342e-03" rms="2.6020398736000061e-01" purity="4.9696967005729675e-01" nType="-99"/>
        </Node>
        <Node pos="r" depth="1" NCoef="0" IVar="4" Cut="4.9412879943847656e+00" cType="1" res="1.7723234370350838e-02" rms="2.3975440859794617e-01" purity="6.3254940509796143e-01" nType="0">
          <Node pos="l" depth="2" NCoef="0" IVar="-1" Cut="0.0000000000000000e+00" cType="1" res="2.9357023537158966e-02" rms="1.9505621492862701e-01" purity="6.7048239707946777e-01" nType="-99"/>
          <Node pos="r" depth="2" NCoef="0" IVar="-1" Cut="0.0000000000000000e+00" cType="1" res="-2.6403204537928104e-03" rms="2.5717699527740479e-01" purity="6.1255562305450439e-01" nType="-99"/>
        </Node>
      </Node>
    </BinaryTree>
    <BinaryTree type="DecisionTree" boostWeight="1.0000000000000000e+00" itree="168">
      <Node pos="s" depth="0" NCoef="0" IVar="2" Cut="5.3147377929687500e+03" cType="1" res="1.5365527360700071e-05" rms="2.5044211745262146e-01" purity="5.0000000000000000e-01" nType="0">
        <Node pos="l" depth="1" NCoef="0" IVar="12" Cut="2.8847011718750000e+03" cType="1" res="-2.8590956702828407e-02" rms="1.0439543426036835e-01" purity="5.1217984408140182e-02" nType="0">
          <Node pos="l" depth="2" NCoef="0" IVar="-1" Cut="0.0000000000000000e+00" cType="1" res="-4.9259881488978863e-03" rms="1.3948528468608856e-01" purity="8.9227423071861267e-02" nType="-99"/>
          <Node pos="r" depth="2" NCoef="0" IVar="-1" Cut="0.0000000000000000e+00" cType="1" res="-4.7226037830114365e-02" rms="7.0971585810184479e-02" purity="2.7655985206365585e-02" nType="-99"/>
        </Node>
        <Node pos="r" depth="1" NCoef="0" IVar="10" Cut="2.0833163452148438e+02" cType="1" res="5.3613120689988136e-03" rms="2.6874598860740662e-01" purity="5.8386832475662231e-01" nType="0">
          <Node pos="l" depth="2" NCoef="0" IVar="-1" Cut="0.0000000000000000e+00" cType="1" res="-1.6953509300947189e-02" rms="3.0068153142929077e-01" purity="3.5528594255447388e-01" nType="-99"/>
          <Node pos="r" depth="2" NCoef="0" IVar="-1" Cut="0.0000000000000000e+00" cType="1" res="4.2393039911985397e-03" rms="2.6472303271293640e-01" purity="6.0642069578170776e-01" nType="-99"/>
        </Node>
      </Node>
    </BinaryTree>
    <BinaryTree type="DecisionTree" boostWeight="1.0000000000000000e+00" itree="169">
      <Node pos="s" depth="0" NCoef="0" IVar="9" Cut="2.6159143066406250e+03" cType="1" res="1.5760681435494917e-06" rms="2.5020506978034973e-01" purity="5.0000000000000000e-01" nType="0">
        <Node pos="l" depth="1" NCoef="0" IVar="7" Cut="1.1676865234375000e+04" cType="1" res="2.9793180525302887e-02" rms="2.1723808348178864e-01" purity="5.8519178628921509e-01" nType="0">
          <Node pos="l" depth="2" NCoef="0" IVar="-1" Cut="0.0000000000000000e+00" cType="1" res="3.2061282545328140e-02" rms="2.1153345704078674e-01" purity="6.2085032463073730e-01" nType="-99"/>
          <Node pos="r" depth="2" NCoef="0" IVar="-1" Cut="0.0000000000000000e+00" cType="1" res="1.9009866518899798e-03" rms="2.1682719886302948e-01" purity="5.6306469440460205e-01" nType="-99"/>
        </Node>
        <Node pos="r" depth="1" NCoef="0" IVar="0" Cut="4.4441420898437500e+03" cType="1" res="-5.1323808729648590e-03" rms="2.5510564446449280e-01" purity="4.8531895875930786e-01" nType="0">
          <Node pos="l" depth="2" NCoef="0" IVar="-1" Cut="0.0000000000000000e+00" cType="1" res="-7.7264360152184963e-03" rms="2.5947979092597961e-01" purity="3.6816918849945068e-01" nType="-99"/>
          <Node pos="r" depth="2" NCoef="0" IVar="-1" Cut="0.0000000000000000e+00" cType="1" res="9.8432879894971848e-03" rms="2.4457874894142151e-01" purity="7.0339822769165039e-01" nType="-99"/>
        </Node>
      </Node>
    </BinaryTree>
    <BinaryTree type="DecisionTree" boostWeight="1.0000000000000000e+00" itree="170">
      <Node pos="s" depth="0" NCoef="0" IVar="2" Cut="5.7398959960937500e+03" cType="1" res="5.6053086154861376e-06" rms="2.4984914064407349e-01" purity="5.0000000000000000e-01" nType="0">
        <Node pos="l" depth="1" NCoef="0" IVar="6" Cut="3.7283832550048828e+01" cType="1" res="6.2670828774571419e-03" rms="2.5541803240776062e-01" purity="5.7164198160171509e-01" nType="0">
          <Node pos="l" depth="2" NCoef="0" IVar="-1" Cut="0.0000000000000000e+00" cType="1" res="-1.2247959151864052e-02" rms="2.8340327739715576e-01" purity="3.3503574132919312e-01" nType="-99"/>
          <Node pos="r" depth="2" NCoef="0" IVar="-1" Cut="0.0000000000000000e+00" cType="1" res="7.0211649872362614e-03" rms="2.4676597118377686e-01" purity="6.3195168972015381e-01" nType="-99"/>
        </Node>
        <Node pos="r" depth="1" NCoef="0" IVar="11" Cut="4.1723335937500000e+04" cType="1" res="-2.3553386330604553e-02" rms="2.2613078355789185e-01" purity="2.3044495284557343e-01" nType="0">
          <Node pos="l" depth="2" NCoef="0" IVar="-1" Cut="0.0000000000000000e+00" cType="1" res="2.5552348233759403e-03" rms="2.4852611124515533e-01" purity="2.1601682901382446e-01" nType="-99"/>
          <Node pos="r" depth="2" NCoef="0" IVar="-1" Cut="0.0000000000000000e+00" cType="1" res="-2.6861157268285751e-02" rms="1.8096803128719330e-01" purity="2.5143733620643616e-01" nType="-99"/>
        </Node>
      </Node>
    </BinaryTree>
    <BinaryTree type="DecisionTree" boostWeight="1.0000000000000000e+00" itree="171">
      <Node pos="s" depth="0" NCoef="0" IVar="3" Cut="3.3495236816406250e+03" cType="1" res="1.8713748204390868e-06" rms="2.4956408143043518e-01" purity="5.0000000000000000e-01" nType="0">
        <Node pos="l" depth="1" NCoef="0" IVar="10" Cut="6.5294470214843750e+02" cType="1" res="-5.2655539475381374e-03" rms="2.5274717807769775e-01" purity="4.6687203645706177e-01" nType="0">
          <Node pos="l" depth="2" NCoef="0" IVar="-1" Cut="0.0000000000000000e+00" cType="1" res="8.8631111430004239e-04" rms="2.5063097476959229e-01" purity="4.7400817275047302e-01" nType="-99"/>
          <Node pos="r" depth="2" NCoef="0" IVar="-1" Cut="0.0000000000000000e+00" cType="1" res="-6.8596616387367249e-02" rms="2.5789302587509155e-01" purity="3.5942393541336060e-01" nType="-99"/>
        </Node>
        <Node pos="r" depth="1" NCoef="0" IVar="11" Cut="4.1571007812500000e+04" cType="1" res="2.7788866311311722e-02" rms="2.3006328940391541e-01" purity="6.7475825548171997e-01" nType="0">
          <Node pos="l" depth="2" NCoef="0" IVar="-1" Cut="0.0000000000000000e+00" cType="1" res="3.0368858948349953e-02" rms="2.4244429171085358e-01" purity="6.5797388553619385e-01" nType="-99"/>
          <Node pos="r" depth="2" NCoef="0" IVar="-1" Cut="0.0000000000000000e+00" cType="1" res="-1.2905035167932510e-02" rms="1.9749252498149872e-01" purity="7.0160424709320068e-01" nType="-99"/>
        </Node>
      </Node>
    </BinaryTree>
    <BinaryTree type="DecisionTree" boostWeight="1.0000000000000000e+00" itree="172">
      <Node pos="s" depth="0" NCoef="0" IVar="0" Cut="7.8586020507812500e+03" cType="1" res="-4.4061703619036052e-08" rms="2.4877020716667175e-01" purity="5.0000000000000000e-01" nType="0">
        <Node pos="l" depth="1" NCoef="0" IVar="1" Cut="3.5187273437500000e+04" cType="1" res="-3.8269930519163609e-03" rms="2.5994089245796204e-01" purity="4.5284247398376465e-01" nType="0">
          <Node pos="l" depth="2" NCoef="0" IVar="-1" Cut="0.0000000000000000e+00" cType="1" res="3.3840458840131760e-02" rms="2.0155151188373566e-01" purity="5.0191277265548706e-01" nType="-99"/>
          <Node pos="r" depth="2" NCoef="0" IVar="-1" Cut="0.0000000000000000e+00" cType="1" res="-4.6950080431997776e-03" rms="2.6399502158164978e-01" purity="4.4773027300834656e-01" nType="-99"/>
        </Node>
        <Node pos="r" depth="1" NCoef="0" IVar="-1" Cut="0.0000000000000000e+00" cType="1" res="4.2004872113466263e-02" rms="6.3709817826747894e-02" purity="9.6677386760711670e-01" nType="-99"/>
      </Node>
    </BinaryTree>
    <BinaryTree type="DecisionTree" boostWeight="1.0000000000000000e+00" itree="173">
      <Node pos="s" depth="0" NCoef="0" IVar="11" Cut="1.0235017187500000e+05" cType="1" res="1.2364603207970504e-05" rms="2.4825842678546906e-01" purity="5.0000000000000000e-01" nType="0">
        <Node pos="l" depth="1" NCoef="0" IVar="11" Cut="1.1445288085937500e+04" cType="1" res="-3.2488519791513681e-03" rms="2.4764502048492432e-01" purity="4.9324181675910950e-01" nType="0">
          <Node pos="l" depth="2" NCoef="0" IVar="-1" Cut="0.0000000000000000e+00" cType="1" res="-2.8665686026215553e-02" rms="2.1345473825931549e-01" purity="2.1484716236591339e-01" nType="-99"/>
          <Node pos="r" depth="2" NCoef="0" IVar="-1" Cut="0.0000000000000000e+00" cType="1" res="1.5605939552187920e-03" rms="2.5121182203292847e-01" purity="5.3175979852676392e-01" nType="-99"/>
        </Node>
        <Node pos="r" depth="1" NCoef="0" IVar="-1" Cut="0.0000000000000000e+00" cType="1" res="1.6969135031104088e-02" rms="2.5227487087249756e-01" purity="5.8519178628921509e-01" nType="-99"/>
      </Node>
    </BinaryTree>
    <BinaryTree type="DecisionTree" boostWeight="1.0000000000000000e+00" itree="174">
      <Node pos="s" depth="0" NCoef="0" IVar="8" Cut="2.1462006835937500e+03" cType="1" res="8.0713743955129758e-06" rms="2.4799211323261261e-01" purity="5.0000000000000000e-01" nType="0">
        <Node pos="l" depth="1" NCoef="0" IVar="4" Cut="7.1402935981750488e+00" cType="1" res="-8.6372289806604385e-03" rms="2.5378394126892090e-01" purity="4.2910337448120117e-01" nType="0">
          <Node pos="l" depth="2" NCoef="0" IVar="-1" Cut="0.0000000000000000e+00" cType="1" res="8.6299516260623932e-04" rms="2.5147545337677002e-01" purity="4.7941285371780396e-01" nType="-99"/>
          <Node pos="r" depth="2" NCoef="0" IVar="-1" Cut="0.0000000000000000e+00" cType="1" res="-2.4719925597310066e-02" rms="2.5836712121963501e-01" purity="2.1601682901382446e-01" nType="-99"/>
        </Node>
        <Node pos="r" depth="1" NCoef="0" IVar="6" Cut="1.5105889892578125e+02" cType="1" res="1.6171449795365334e-02" rms="2.3593564331531525e-01" purity="6.3254940509796143e-01" nType="0">
          <Node pos="l" depth="2" NCoef="0" IVar="-1" Cut="0.0000000000000000e+00" cType="1" res="1.5195725485682487e-02" rms="2.2897008061408997e-01" purity="6.4543104171752930e-01" nType="-99"/>
          <Node pos="r" depth="2" NCoef="0" IVar="-1" Cut="0.0000000000000000e+00" cType="1" res="-1.9060868769884109e-02" rms="2.4990208446979523e-01" purity="5.9063625335693359e-01" nType="-99"/>
        </Node>
      </Node>
    </BinaryTree>
    <BinaryTree type="DecisionTree" boostWeight="1.0000000000000000e+00" itree="175">
      <Node pos="s" depth="0" NCoef="0" IVar="2" Cut="5.3147377929687500e+03" cType="1" res="7.6112119131721556e-06" rms="2.4756099283695221e-01" purity="5.0000000000000000e-01" nType="0">
        <Node pos="l" depth="1" NCoef="0" IVar="9" Cut="4.7275668945312500e+03" cType="1" res="-2.7092967182397842e-02" rms="1.0225122421979904e-01" purity="5.1217984408140182e-02" nType="0">
          <Node pos="l" depth="2" NCoef="0" IVar="-1" Cut="0.0000000000000000e+00" cType="1" res="-4.7841776162385941e-02" rms="7.9788483679294586e-02" purity="2.6814909651875496e-02" nType="-99"/>
          <Node pos="r" depth="2" NCoef="0" IVar="-1" Cut="0.0000000000000000e+00" cType="1" res="-3.1989384442567825e-03" rms="1.2940412759780884e-01" purity="9.3982815742492676e-02" nType="-99"/>
        </Node>
        <Node pos="r" depth="1" NCoef="0" IVar="10" Cut="2.0833163452148438e+02" cType="1" res="5.0721643492579460e-03" rms="2.6574960350990295e-01" purity="5.8386832475662231e-01" nType="0">
          <Node pos="l" depth="2" NCoef="0" IVar="-1" Cut="0.0000000000000000e+00" cType="1" res="-1.5712700784206390e-02" rms="2.9867398738861084e-01" purity="3.5528594255447388e-01" nType="-99"/>
          <Node pos="r" depth="2" NCoef="0" IVar="-1" Cut="0.0000000000000000e+00" cType="1" res="4.0111630223691463e-03" rms="2.6170873641967773e-01" purity="6.0642069578170776e-01" nType="-99"/>
        </Node>
      </Node>
    </BinaryTree>
    <BinaryTree type="DecisionTree" boostWeight="1.0000000000000000e+00" itree="176">
      <Node pos="s" depth="0" NCoef="0" IVar="9" Cut="2.6159143066406250e+03" cType="1" res="-4.3470627133501694e-06" rms="2.4732634425163269e-01" purity="5.0000000000000000e-01" nType="0">
        <Node pos="l" depth="1" NCoef="0" IVar="12" Cut="4.5130634765625000e+03" cType="1" res="2.9137827455997467e-02" rms="2.1279413998126984e-01" purity="5.8519178628921509e-01" nType="0">
          <Node pos="l" depth="2" NCoef="0" IVar="-1" Cut="0.0000000000000000e+00" cType="1" res="2.4685906246304512e-02" rms="1.9348771870136261e-01" purity="6.2732243537902832e-01" nType="-99"/>
          <Node pos="r" depth="2" NCoef="0" IVar="-1" Cut="0.0000000000000000e+00" cType="1" res="-5.0228191539645195e-03" rms="2.3460012674331665e-01" purity="5.1868891716003418e-01" nType="-99"/>
        </Node>
        <Node pos="r" depth="1" NCoef="0" IVar="7" Cut="1.3213380859375000e+04" cType="1" res="-5.0263879820704460e-03" rms="2.5246164202690125e-01" purity="4.8531895875930786e-01" nType="0">
          <Node pos="l" depth="2" NCoef="0" IVar="-1" Cut="0.0000000000000000e+00" cType="1" res="-2.5007531046867371e-02" rms="2.6342129707336426e-01" purity="3.8362574577331543e-01" nType="-99"/>
          <Node pos="r" depth="2" NCoef="0" IVar="-1" Cut="0.0000000000000000e+00" cType="1" res="5.5143027566373348e-04" rms="2.5042846798896790e-01" purity="4.9643999338150024e-01" nType="-99"/>
        </Node>
      </Node>
    </BinaryTree>
    <BinaryTree type="DecisionTree" boostWeight="1.0000000000000000e+00" itree="177">
      <Node pos="s" depth="0" NCoef="0" IVar="4" Cut="5.3332409858703613e+00" cType="1" res="-1.1795193586294772e-06" rms="2.4689970910549164e-01" purity="5.0000000000000000e-01" nType="0">
        <Node pos="l" depth="1" NCoef="0" IVar="5" Cut="2.6515886187553406e-01" cType="1" res="1.2705899775028229e-02" rms="2.1959260106086731e-01" purity="5.1294732093811035e-01" nType="0">
          <Node pos="l" depth="2" NCoef="0" IVar="-1" Cut="0.0000000000000000e+00" cType="1" res="-4.3077832087874413e-03" rms="2.2545468807220459e-01" purity="4.4163870811462402e-01" nType="-99"/>
          <Node pos="r" depth="2" NCoef="0" IVar="-1" Cut="0.0000000000000000e+00" cType="1" res="4.9670573323965073e-02" rms="1.5209329128265381e-01" purity="8.4640789031982422e-01" nType="-99"/>
        </Node>
        <Node pos="r" depth="1" NCoef="0" IVar="7" Cut="1.9179617187500000e+04" cType="1" res="-1.0427111759781837e-02" rms="2.6677712798118591e-01" purity="4.8937696218490601e-01" nType="0">
          <Node pos="l" depth="2" NCoef="0" IVar="-1" Cut="0.0000000000000000e+00" cType="1" res="-1.5392627567052841e-02" rms="2.7366641163825989e-01" purity="4.6271663904190063e-01" nType="-99"/>
          <Node pos="r" depth="2" NCoef="0" IVar="-1" Cut="0.0000000000000000e+00" cType="1" res="5.9626339934766293e-03" rms="2.5864467024803162e-01" purity="5.1068401336669922e-01" nType="-99"/>
        </Node>
      </Node>
    </BinaryTree>
    <BinaryTree type="DecisionTree" boostWeight="1.0000000000000000e+00" itree="178">
      <Node pos="s" depth="0" NCoef="0" IVar="7" Cut="3.9137101562500000e+04" cType="1" res="1.7495171050541103e-05" rms="2.4589388072490692e-01" purity="5.0000000000000000e-01" nType="0">
        <Node pos="l" depth="1" NCoef="0" IVar="7" Cut="1.0564618164062500e+04" cType="1" res="3.8081568200141191e-03" rms="2.4500657618045807e-01" purity="5.0317645072937012e-01" nType="0">
          <Node pos="l" depth="2" NCoef="0" IVar="-1" Cut="0.0000000000000000e+00" cType="1" res="2.6450576260685921e-02" rms="2.1578359603881836e-01" purity="6.3813227415084839e-01" nType="-99"/>
          <Node pos="r" depth="2" NCoef="0" IVar="-1" Cut="0.0000000000000000e+00" cType="1" res="-6.2464526854455471e-04" rms="2.4682861566543579e-01" purity="4.9088260531425476e-01" nType="-99"/>
        </Node>
        <Node pos="r" depth="1" NCoef="0" IVar="-1" Cut="0.0000000000000000e+00" cType="1" res="-1.5699332579970360e-02" rms="2.5144523382186890e-01" purity="4.6857142448425293e-01" nType="-99"/>
      </Node>
    </BinaryTree>
    <BinaryTree type="DecisionTree" boostWeight="1.0000000000000000e+00" itree="179">
      <Node pos="s" depth="0" NCoef="0" IVar="2" Cut="5.3147377929687500e+03" cType="1" res="1.8979704691446386e-05" rms="2.4563176929950714e-01" purity="5.0000000000000000e-01" nType="0">
        <Node pos="l" depth="1" NCoef="0" IVar="12" Cut="2.8847011718750000e+03" cType="1" res="-2.6441162452101707e-02" rms="9.8497807979583740e-02" purity="5.1217984408140182e-02" nType="0">
          <Node pos="l" depth="2" NCoef="0" IVar="-1" Cut="0.0000000000000000e+00" cType="1" res="-6.0558803379535675e-03" rms="1.3021372258663177e-01" purity="8.9227423071861267e-02" nType="-99"/>
          <Node pos="r" depth="2" NCoef="0" IVar="-1" Cut="0.0000000000000000e+00" cType="1" res="-4.5986820012331009e-02" rms="6.9178633391857147e-02" purity="2.7655985206365585e-02" nType="-99"/>
        </Node>
        <Node pos="r" depth="1" NCoef="0" IVar="2" Cut="5.7379702148437500e+03" cType="1" res="4.9638482742011547e-03" rms="2.6389768719673157e-01" purity="5.8386832475662231e-01" nType="0">
          <Node pos="l" depth="2" NCoef="0" IVar="-1" Cut="0.0000000000000000e+00" cType="1" res="5.0971149466931820e-03" rms="2.7598848938941956e-01" purity="7.0118159055709839e-01" nType="-99"/>
          <Node pos="r" depth="2" NCoef="0" IVar="-1" Cut="0.0000000000000000e+00" cType="1" res="-1.0469643399119377e-02" rms="2.2135592997074127e-01" purity="2.3044495284557343e-01" nType="-99"/>
        </Node>
      </Node>
    </BinaryTree>
    <BinaryTree type="DecisionTree" boostWeight="1.0000000000000000e+00" itree="180">
      <Node pos="s" depth="0" NCoef="0" IVar="8" Cut="2.1462006835937500e+03" cType="1" res="5.6404578572255559e-06" rms="2.4554437398910522e-01" purity="5.0000000000000000e-01" nType="0">
        <Node pos="l" depth="1" NCoef="0" IVar="3" Cut="1.6816038818359375e+03" cType="1" res="-8.2187950611114502e-03" rms="2.5137430429458618e-01" purity="4.2910337448120117e-01" nType="0">
          <Node pos="l" depth="2" NCoef="0" IVar="-1" Cut="0.0000000000000000e+00" cType="1" res="-1.4597365632653236e-02" rms="2.2450242936611176e-01" purity="3.2532304525375366e-01" nType="-99"/>
          <Node pos="r" depth="2" NCoef="0" IVar="-1" Cut="0.0000000000000000e+00" cType="1" res="4.2623849585652351e-03" rms="2.6936388015747070e-01" purity="5.1194357872009277e-01" nType="-99"/>
        </Node>
        <Node pos="r" depth="1" NCoef="0" IVar="4" Cut="4.9412879943847656e+00" cType="1" res="1.5382163226604462e-02" rms="2.3347990214824677e-01" purity="6.3254940509796143e-01" nType="0">
          <Node pos="l" depth="2" NCoef="0" IVar="-1" Cut="0.0000000000000000e+00" cType="1" res="2.8549373149871826e-02" rms="1.8759743869304657e-01" purity="6.7048239707946777e-01" nType="-99"/>
          <Node pos="r" depth="2" NCoef="0" IVar="-1" Cut="0.0000000000000000e+00" cType="1" res="-3.2595980446785688e-03" rms="2.5152143836021423e-01" purity="6.1255562305450439e-01" nType="-99"/>
        </Node>
      </Node>
    </BinaryTree>
    <BinaryTree type="DecisionTree" boostWeight="1.0000000000000000e+00" itree="181">
      <Node pos="s" depth="0" NCoef="0" IVar="12" Cut="4.0340742187500000e+03" cType="1" res="8.8199940364575014e-06" rms="2.4506169557571411e-01" purity="5.0000000000000000e-01" nType="0">
        <Node pos="l" depth="1" NCoef="0" IVar="1" Cut="1.1873253906250000e+05" cType="1" res="-8.3238519728183746e-03" rms="2.4306680262088776e-01" purity="4.0680369734764099e-01" nType="0">
          <Node pos="l" depth="2" NCoef="0" IVar="-1" Cut="0.0000000000000000e+00" cType="1" res="1.1247200745856389e-05" rms="2.3849804699420929e-01" purity="4.1041043400764465e-01" nType="-99"/>
          <Node pos="r" depth="2" NCoef="0" IVar="-1" Cut="0.0000000000000000e+00" cType="1" res="-3.1699378043413162e-02" rms="2.7114915847778320e-01" purity="3.7020313739776611e-01" nType="-99"/>
        </Node>
        <Node pos="r" depth="1" NCoef="0" IVar="7" Cut="2.1760638671875000e+04" cType="1" res="1.5320782549679279e-02" rms="2.4795678257942200e-01" purity="6.7125582695007324e-01" nType="0">
          <Node pos="l" depth="2" NCoef="0" IVar="-1" Cut="0.0000000000000000e+00" cType="1" res="-5.3722043521702290e-03" rms="2.6758411526679993e-01" purity="6.0676538944244385e-01" nType="-99"/>
          <Node pos="r" depth="2" NCoef="0" IVar="-1" Cut="0.0000000000000000e+00" cType="1" res="3.4215986728668213e-02" rms="2.0437216758728027e-01" purity="7.7470934391021729e-01" nType="-99"/>
        </Node>
      </Node>
    </BinaryTree>
    <BinaryTree type="DecisionTree" boostWeight="1.0000000000000000e+00" itree="182">
      <Node pos="s" depth="0" NCoef="0" IVar="11" Cut="1.0235017187500000e+05" cType="1" res="1.1988743608526420e-05" rms="2.4431236088275909e-01" purity="5.0000000000000000e-01" nType="0">
        <Node pos="l" depth="1" NCoef="0" IVar="1" Cut="3.6933683593750000e+04" cType="1" res="-3.2112209592014551e-03" rms="2.4406206607818604e-01" purity="4.9324181675910950e-01" nType="0">
          <Node pos="l" depth="2" NCoef="0" IVar="-1" Cut="0.0000000000000000e+00" cType="1" res="2.4280838668346405e-02" rms="1.8685275316238403e-01" purity="4.5513409376144409e-01" nType="-99"/>
          <Node pos="r" depth="2" NCoef="0" IVar="-1" Cut="0.0000000000000000e+00" cType="1" res="-4.1758287698030472e-03" rms="2.4977158010005951e-01" purity="4.9818143248558044e-01" nType="-99"/>
        </Node>
        <Node pos="r" depth="1" NCoef="0" IVar="-1" Cut="0.0000000000000000e+00" cType="1" res="1.7289511859416962e-02" rms="2.4381874501705170e-01" purity="5.8519178628921509e-01" nType="-99"/>
      </Node>
    </BinaryTree>
    <BinaryTree type="DecisionTree" boostWeight="1.0000000000000000e+00" itree="183">
      <Node pos="s" depth="0" NCoef="0" IVar="9" Cut="2.6159143066406250e+03" cType="1" res="1.2387651622702833e-05" rms="2.4392949044704437e-01" purity="5.0000000000000000e-01" nType="0">
        <Node pos="l" depth="1" NCoef="0" IVar="4" Cut="5.8063836097717285e+00" cType="1" res="2.7433980256319046e-02" rms="2.0816314220428467e-01" purity="5.8519178628921509e-01" nType="0">
          <Node pos="l" depth="2" NCoef="0" IVar="-1" Cut="0.0000000000000000e+00" cType="1" res="3.4408796578645706e-02" rms="1.4371338486671448e-01" purity="7.3832297325134277e-01" nType="-99"/>
          <Node pos="r" depth="2" NCoef="0" IVar="-1" Cut="0.0000000000000000e+00" cType="1" res="1.9554509781301022e-03" rms="2.3855891823768616e-01" purity="4.8466938734054565e-01" nType="-99"/>
        </Node>
        <Node pos="r" depth="1" NCoef="0" IVar="1" Cut="5.3036671875000000e+04" cType="1" res="-4.7131474129855633e-03" rms="2.4927131831645966e-01" purity="4.8531895875930786e-01" nType="0">
          <Node pos="l" depth="2" NCoef="0" IVar="-1" Cut="0.0000000000000000e+00" cType="1" res="-1.3187560252845287e-02" rms="2.4816307425498962e-01" purity="3.8223981857299805e-01" nType="-99"/>
          <Node pos="r" depth="2" NCoef="0" IVar="-1" Cut="0.0000000000000000e+00" cType="1" res="3.3729216083884239e-03" rms="2.4884881079196930e-01" purity="5.3603988885879517e-01" nType="-99"/>
        </Node>
      </Node>
    </BinaryTree>
    <BinaryTree type="DecisionTree" boostWeight="1.0000000000000000e+00" itree="184">
      <Node pos="s" depth="0" NCoef="0" IVar="12" Cut="6.7410927734375000e+03" cType="1" res="1.4941659173928201e-05" rms="2.4362279474735260e-01" purity="5.0000000000000000e-01" nType="0">
        <Node pos="l" depth="1" NCoef="0" IVar="12" Cut="5.8214692382812500e+03" cType="1" res="-3.1135352328419685e-03" rms="2.5191131234169006e-01" purity="4.7166597843170166e-01" nType="0">
          <Node pos="l" depth="2" NCoef="0" IVar="-1" Cut="0.0000000000000000e+00" cType="1" res="1.3732792576774955e-03" rms="2.5243797898292542e-01" purity="4.7184929251670837e-01" nType="-99"/>
          <Node pos="r" depth="2" NCoef="0" IVar="-1" Cut="0.0000000000000000e+00" cType="1" res="-5.7623185217380524e-02" rms="2.1561683714389801e-01" purity="4.6857145428657532e-01" nType="-99"/>
        </Node>
        <Node pos="r" depth="1" NCoef="0" IVar="-1" Cut="0.0000000000000000e+00" cType="1" res="3.1815309077501297e-02" rms="9.1554209589958191e-02" purity="8.4102559089660645e-01" nType="-99"/>
      </Node>
    </BinaryTree>
    <BinaryTree type="DecisionTree" boostWeight="1.0000000000000000e+00" itree="185">
      <Node pos="s" depth="0" NCoef="0" IVar="2" Cut="5.7871357421875000e+03" cType="1" res="1.7098405805882066e-05" rms="2.4288080632686615e-01" purity="5.0000000000000000e-01" nType="0">
        <Node pos="l" depth="1" NCoef="0" IVar="6" Cut="3.7283832550048828e+01" cType="1" res="5.1389080472290516e-03" rms="2.4727328121662140e-01" purity="5.6803071498870850e-01" nType="0">
          <Node pos="l" depth="2" NCoef="0" IVar="-1" Cut="0.0000000000000000e+00" cType="1" res="-1.3813540339469910e-02" rms="2.6987904310226440e-01" purity="3.2277110219001770e-01" nType="-99"/>
          <Node pos="r" depth="2" NCoef="0" IVar="-1" Cut="0.0000000000000000e+00" cType="1" res="6.8749049678444862e-03" rms="2.3999804258346558e-01" purity="6.3067412376403809e-01" nType="-99"/>
        </Node>
        <Node pos="r" depth="1" NCoef="0" IVar="9" Cut="4.1435532226562500e+03" cType="1" res="-2.3113474249839783e-02" rms="2.2048687934875488e-01" purity="1.9276672601699829e-01" nType="0">
          <Node pos="l" depth="2" NCoef="0" IVar="-1" Cut="0.0000000000000000e+00" cType="1" res="1.0377960279583931e-02" rms="2.6709115505218506e-01" purity="3.9805823564529419e-01" nType="-99"/>
          <Node pos="r" depth="2" NCoef="0" IVar="-1" Cut="0.0000000000000000e+00" cType="1" res="-2.9136108234524727e-02" rms="1.8787260353565216e-01" purity="8.9227423071861267e-02" nType="-99"/>
        </Node>
      </Node>
    </BinaryTree>
    <BinaryTree type="DecisionTree" boostWeight="1.0000000000000000e+00" itree="186">
      <Node pos="s" depth="0" NCoef="0" IVar="7" Cut="3.9137101562500000e+04" cType="1" res="6.9476068347285036e-06" rms="2.4257436394691467e-01" purity="5.0000000000000000e-01" nType="0">
        <Node pos="l" depth="1" NCoef="0" IVar="4" Cut="5.9355921745300293e+00" cType="1" res="3.5442442167550325e-03" rms="2.4179324507713318e-01" purity="5.0317645072937012e-01" nType="0">
          <Node pos="l" depth="2" NCoef="0" IVar="-1" Cut="0.0000000000000000e+00" cType="1" res="7.9636843875050545e-03" rms="2.2008481621742249e-01" purity="5.1813471317291260e-01" nType="-99"/>
          <Node pos="r" depth="2" NCoef="0" IVar="-1" Cut="0.0000000000000000e+00" cType="1" res="-6.4943330362439156e-03" rms="2.6684305071830750e-01" purity="4.8324632644653320e-01" nType="-99"/>
        </Node>
        <Node pos="r" depth="1" NCoef="0" IVar="-1" Cut="0.0000000000000000e+00" cType="1" res="-1.4695005491375923e-02" rms="2.4746131896972656e-01" purity="4.6857142448425293e-01" nType="-99"/>
      </Node>
    </BinaryTree>
    <BinaryTree type="DecisionTree" boostWeight="1.0000000000000000e+00" itree="187">
      <Node pos="s" depth="0" NCoef="0" IVar="3" Cut="3.3495236816406250e+03" cType="1" res="7.1790668698668014e-06" rms="2.4229353666305542e-01" purity="5.0000000000000000e-01" nType="0">
        <Node pos="l" depth="1" NCoef="0" IVar="10" Cut="6.5294470214843750e+02" cType="1" res="-4.8745456151664257e-03" rms="2.4542379379272461e-01" purity="4.6687203645706177e-01" nType="0">
          <Node pos="l" depth="2" NCoef="0" IVar="-1" Cut="0.0000000000000000e+00" cType="1" res="7.6220207847654819e-04" rms="2.4374987185001373e-01" purity="4.7400817275047302e-01" nType="-99"/>
          <Node pos="r" depth="2" NCoef="0" IVar="-1" Cut="0.0000000000000000e+00" cType="1" res="-6.4315296709537506e-02" rms="2.4840091168880463e-01" purity="3.5942393541336060e-01" nType="-99"/>
        </Node>
        <Node pos="r" depth="1" NCoef="0" IVar="0" Cut="4.6481259765625000e+03" cType="1" res="2.5759506970643997e-02" rms="2.2330169379711151e-01" purity="6.7475825548171997e-01" nType="0">
          <Node pos="l" depth="2" NCoef="0" IVar="-1" Cut="0.0000000000000000e+00" cType="1" res="2.9227698221802711e-02" rms="3.0092650651931763e-01" purity="5.1868891716003418e-01" nType="-99"/>
          <Node pos="r" depth="2" NCoef="0" IVar="-1" Cut="0.0000000000000000e+00" cType="1" res="-1.7331843264400959e-03" rms="1.5793316066265106e-01" purity="7.6169121265411377e-01" nType="-99"/>
        </Node>
      </Node>
    </BinaryTree>
    <BinaryTree type="DecisionTree" boostWeight="1.0000000000000000e+00" itree="188">
      <Node pos="s" depth="0" NCoef="0" IVar="2" Cut="5.3147377929687500e+03" cType="1" res="4.0178479139285628e-06" rms="2.4163819849491119e-01" purity="5.0000000000000000e-01" nType="0">
        <Node pos="l" depth="1" NCoef="0" IVar="1" Cut="6.3235265625000000e+04" cType="1" res="-2.5136917829513550e-02" rms="9.7198225557804108e-02" purity="5.1217984408140182e-02" nType="0">
          <Node pos="l" depth="2" NCoef="0" IVar="-1" Cut="0.0000000000000000e+00" cType="1" res="-5.9946503490209579e-02" rms="7.1123100817203522e-02" purity="0.0000000000000000e+00" nType="-99"/>
          <Node pos="r" depth="2" NCoef="0" IVar="-1" Cut="0.0000000000000000e+00" cType="1" res="-6.5069664269685745e-03" rms="1.1854930967092514e-01" purity="1.1186902970075607e-01" nType="-99"/>
        </Node>
        <Node pos="r" depth="1" NCoef="0" IVar="10" Cut="2.0833163452148438e+02" cType="1" res="4.7023529186844826e-03" rms="2.5960549712181091e-01" purity="5.8386832475662231e-01" nType="0">
          <Node pos="l" depth="2" NCoef="0" IVar="-1" Cut="0.0000000000000000e+00" cType="1" res="-1.5839731320738792e-02" rms="2.9427462816238403e-01" purity="3.5528594255447388e-01" nType="-99"/>
          <Node pos="r" depth="2" NCoef="0" IVar="-1" Cut="0.0000000000000000e+00" cType="1" res="3.9108316414058208e-03" rms="2.5536707043647766e-01" purity="6.0642069578170776e-01" nType="-99"/>
        </Node>
      </Node>
    </BinaryTree>
    <BinaryTree type="DecisionTree" boostWeight="1.0000000000000000e+00" itree="189">
      <Node pos="s" depth="0" NCoef="0" IVar="8" Cut="2.1462006835937500e+03" cType="1" res="-1.0750706678663846e-05" rms="2.4138247966766357e-01" purity="5.0000000000000000e-01" nType="0">
        <Node pos="l" depth="1" NCoef="0" IVar="3" Cut="1.6816038818359375e+03" cType="1" res="-7.9788677394390106e-03" rms="2.4739846587181091e-01" purity="4.2910337448120117e-01" nType="0">
          <Node pos="l" depth="2" NCoef="0" IVar="-1" Cut="0.0000000000000000e+00" cType="1" res="-1.4184049330651760e-02" rms="2.2255346179008484e-01" purity="3.2532304525375366e-01" nType="-99"/>
          <Node pos="r" depth="2" NCoef="0" IVar="-1" Cut="0.0000000000000000e+00" cType="1" res="4.0995716117322445e-03" rms="2.6411351561546326e-01" purity="5.1194357872009277e-01" nType="-99"/>
        </Node>
        <Node pos="r" depth="1" NCoef="0" IVar="4" Cut="7.7826390266418457e+00" cType="1" res="1.4886555261909962e-02" rms="2.2897002100944519e-01" purity="6.3254940509796143e-01" nType="0">
          <Node pos="l" depth="2" NCoef="0" IVar="-1" Cut="0.0000000000000000e+00" cType="1" res="-8.2447244494687766e-05" rms="2.2828339040279388e-01" purity="6.0020911693572998e-01" nType="-99"/>
          <Node pos="r" depth="2" NCoef="0" IVar="-1" Cut="0.0000000000000000e+00" cType="1" res="4.9212250858545303e-02" rms="2.2065974771976471e-01" purity="7.7014338970184326e-01" nType="-99"/>
        </Node>
      </Node>
    </BinaryTree>
    <BinaryTree type="DecisionTree" boostWeight="1.0000000000000000e+00" itree="190">
      <Node pos="s" depth="0" NCoef="0" IVar="4" Cut="8.9473457336425781e+00" cType="1" res="-5.4175939112610649e-06" rms="2.4086768925189972e-01" purity="5.0000000000000000e-01" nType="0">
        <Node pos="l" depth="1" NCoef="0" IVar="5" Cut="5.9902834892272949e-01" cType="1" res="2.7512274682521820e-03" rms="2.4398182332515717e-01" purity="5.2158498764038086e-01" nType="0">
          <Node pos="l" depth="2" NCoef="0" IVar="-1" Cut="0.0000000000000000e+00" cType="1" res="-4.0329205803573132e-03" rms="2.4364474415779114e-01" purity="4.8136192560195923e-01" nType="-99"/>
          <Node pos="r" depth="2" NCoef="0" IVar="-1" Cut="0.0000000000000000e+00" cType="1" res="1.4528550207614899e-02" rms="2.4222484230995178e-01" purity="6.2031698226928711e-01" nType="-99"/>
        </Node>
        <Node pos="r" depth="1" NCoef="0" IVar="-1" Cut="0.0000000000000000e+00" cType="1" res="-2.8826713562011719e-02" rms="1.7535009980201721e-01" purity="1.4186850190162659e-01" nType="-99"/>
      </Node>
    </BinaryTree>
    <BinaryTree type="DecisionTree" boostWeight="1.0000000000000000e+00" itree="191">
      <Node pos="s" depth="0" NCoef="0" IVar="11" Cut="8.3268609375000000e+04" cType="1" res="-4.9128125283459667e-06" rms="2.4057359993457794e-01" purity="5.0000000000000000e-01" nType="0">
        <Node pos="l" depth="1" NCoef="0" IVar="11" Cut="1.0463782226562500e+04" cType="1" res="-4.1900887154042721e-03" rms="2.4397341907024384e-01" purity="4.8498773574829102e-01" nType="0">
          <Node pos="l" depth="2" NCoef="0" IVar="-1" Cut="0.0000000000000000e+00" cType="1" res="-5.8985412120819092e-02" rms="1.7925879359245300e-01" purity="9.2342339456081390e-02" nType="-99"/>
          <Node pos="r" depth="2" NCoef="0" IVar="-1" Cut="0.0000000000000000e+00" cType="1" res="2.7645968366414309e-03" rms="2.4788899719715118e-01" purity="5.2878856658935547e-01" nType="-99"/>
        </Node>
        <Node pos="r" depth="1" NCoef="0" IVar="6" Cut="1.6150740051269531e+02" cType="1" res="2.8056591749191284e-02" rms="2.1430161595344543e-01" purity="6.0065674781799316e-01" nType="0">
          <Node pos="l" depth="2" NCoef="0" IVar="-1" Cut="0.0000000000000000e+00" cType="1" res="4.1791625320911407e-02" rms="2.1296577155590057e-01" purity="6.7291909456253052e-01" nType="-99"/>
          <Node pos="r" depth="2" NCoef="0" IVar="-1" Cut="0.0000000000000000e+00" cType="1" res="-1.1804964393377304e-02" rms="1.9934941828250885e-01" purity="5.4593878984451294e-01" nType="-99"/>
        </Node>
      </Node>
    </BinaryTree>
    <BinaryTree type="DecisionTree" boostWeight="1.0000000000000000e+00" itree="192">
      <Node pos="s" depth="0" NCoef="0" IVar="11" Cut="2.6023939453125000e+04" cType="1" res="-1.8515158444643021e-05" rms="2.3945868015289307e-01" purity="5.0000000000000000e-01" nType="0">
        <Node pos="l" depth="1" NCoef="0" IVar="11" Cut="1.0564414062500000e+04" cType="1" res="1.5802014619112015e-02" rms="2.0520633459091187e-01" purity="4.1018313169479370e-01" nType="0">
          <Node pos="l" depth="2" NCoef="0" IVar="-1" Cut="0.0000000000000000e+00" cType="1" res="-5.2806194871664047e-02" rms="1.7348997294902802e-01" purity="1.1944646388292313e-01" nType="-99"/>
          <Node pos="r" depth="2" NCoef="0" IVar="-1" Cut="0.0000000000000000e+00" cType="1" res="2.5351811200380325e-02" rms="2.0403143763542175e-01" purity="5.0467514991760254e-01" nType="-99"/>
        </Node>
        <Node pos="r" depth="1" NCoef="0" IVar="1" Cut="5.4089277343750000e+04" cType="1" res="-9.1909645125269890e-03" rms="2.5679126381874084e-01" purity="5.5207413434982300e-01" nType="0">
          <Node pos="l" depth="2" NCoef="0" IVar="-1" Cut="0.0000000000000000e+00" cType="1" res="-6.0910459607839584e-02" rms="2.3709392547607422e-01" purity="2.6635730266571045e-01" nType="-99"/>
          <Node pos="r" depth="2" NCoef="0" IVar="-1" Cut="0.0000000000000000e+00" cType="1" res="4.6246834099292755e-03" rms="2.5175082683563232e-01" purity="5.8796781301498413e-01" nType="-99"/>
        </Node>
      </Node>
    </BinaryTree>
    <BinaryTree type="DecisionTree" boostWeight="1.0000000000000000e+00" itree="193">
      <Node pos="s" depth="0" NCoef="0" IVar="11" Cut="2.6023939453125000e+04" cType="1" res="-3.5999975807499141e-05" rms="2.3702241480350494e-01" purity="5.0000000000000000e-01" nType="0">
        <Node pos="l" depth="1" NCoef="0" IVar="12" Cut="2.7225319824218750e+03" cType="1" res="1.4193361625075340e-02" rms="2.0189534127712250e-01" purity="4.1018313169479370e-01" nType="0">
          <Node pos="l" depth="2" NCoef="0" IVar="-1" Cut="0.0000000000000000e+00" cType="1" res="-2.9382074251770973e-02" rms="1.4907722175121307e-01" purity="1.8061673641204834e-01" nType="-99"/>
          <Node pos="r" depth="2" NCoef="0" IVar="-1" Cut="0.0000000000000000e+00" cType="1" res="3.0353814363479614e-02" rms="2.2065769135951996e-01" purity="5.6679189205169678e-01" nType="-99"/>
        </Node>
        <Node pos="r" depth="1" NCoef="0" IVar="1" Cut="5.4089277343750000e+04" cType="1" res="-8.2859201356768608e-03" rms="2.5481989979743958e-01" purity="5.5207413434982300e-01" nType="0">
          <Node pos="l" depth="2" NCoef="0" IVar="-1" Cut="0.0000000000000000e+00" cType="1" res="-5.5738631635904312e-02" rms="2.2956125438213348e-01" purity="2.6635730266571045e-01" nType="-99"/>
          <Node pos="r" depth="2" NCoef="0" IVar="-1" Cut="0.0000000000000000e+00" cType="1" res="4.1679684072732925e-03" rms="2.5179180502891541e-01" purity="5.8796781301498413e-01" nType="-99"/>
        </Node>
      </Node>
    </BinaryTree>
    <BinaryTree type="DecisionTree" boostWeight="1.0000000000000000e+00" itree="194">
      <Node pos="s" depth="0" NCoef="0" IVar="2" Cut="5.7398959960937500e+03" cType="1" res="-4.1411043639527634e-05" rms="2.3503370583057404e-01" purity="5.0000000000000000e-01" nType="0">
        <Node pos="l" depth="1" NCoef="0" IVar="9" Cut="8.8247343750000000e+03" cType="1" res="5.6657688692212105e-03" rms="2.4047212302684784e-01" purity="5.7164198160171509e-01" nType="0">
          <Node pos="l" depth="2" NCoef="0" IVar="-1" Cut="0.0000000000000000e+00" cType="1" res="6.6302149207331240e-05" rms="2.3950840532779694e-01" purity="5.6306469440460205e-01" nType="-99"/>
          <Node pos="r" depth="2" NCoef="0" IVar="-1" Cut="0.0000000000000000e+00" cType="1" res="2.7004495263099670e-02" rms="2.4255253374576569e-01" purity="6.6836476325988770e-01" nType="-99"/>
        </Node>
        <Node pos="r" depth="1" NCoef="0" IVar="10" Cut="6.6445507812500000e+02" cType="1" res="-2.1514842286705971e-02" rms="2.1196056902408600e-01" purity="2.3044495284557343e-01" nType="0">
          <Node pos="l" depth="2" NCoef="0" IVar="-1" Cut="0.0000000000000000e+00" cType="1" res="-2.0776752382516861e-02" rms="1.9062797725200653e-01" purity="2.0512820780277252e-01" nType="-99"/>
          <Node pos="r" depth="2" NCoef="0" IVar="-1" Cut="0.0000000000000000e+00" cType="1" res="1.9254053011536598e-02" rms="2.5603276491165161e-01" purity="3.0597016215324402e-01" nType="-99"/>
        </Node>
      </Node>
    </BinaryTree>
    <BinaryTree type="DecisionTree" boostWeight="1.0000000000000000e+00" itree="195">
      <Node pos="s" depth="0" NCoef="0" IVar="9" Cut="2.6159143066406250e+03" cType="1" res="-3.9733924495521933e-05" rms="2.3465254902839661e-01" purity="5.0000000000000000e-01" nType="0">
        <Node pos="l" depth="1" NCoef="0" IVar="6" Cut="1.2090515899658203e+02" cType="1" res="2.7074880897998810e-02" rms="2.0096950232982635e-01" purity="5.8519178628921509e-01" nType="0">
          <Node pos="l" depth="2" NCoef="0" IVar="-1" Cut="0.0000000000000000e+00" cType="1" res="2.5010967627167702e-02" rms="1.7147770524024963e-01" purity="6.4833277463912964e-01" nType="-99"/>
          <Node pos="r" depth="2" NCoef="0" IVar="-1" Cut="0.0000000000000000e+00" cType="1" res="-5.9992382302880287e-03" rms="2.4099124968051910e-01" purity="4.6857145428657532e-01" nType="-99"/>
        </Node>
        <Node pos="r" depth="1" NCoef="0" IVar="4" Cut="1.3225860595703125e+00" cType="1" res="-4.7123678959906101e-03" rms="2.3967036604881287e-01" purity="4.8531895875930786e-01" nType="0">
          <Node pos="l" depth="2" NCoef="0" IVar="-1" Cut="0.0000000000000000e+00" cType="1" res="-4.0450636297464371e-02" rms="1.6083632409572601e-01" purity="4.6697035431861877e-02" nType="-99"/>
          <Node pos="r" depth="2" NCoef="0" IVar="-1" Cut="0.0000000000000000e+00" cType="1" res="-8.2210804976057261e-05" rms="2.4376967549324036e-01" purity="5.1706230640411377e-01" nType="-99"/>
        </Node>
      </Node>
    </BinaryTree>
    <BinaryTree type="DecisionTree" boostWeight="1.0000000000000000e+00" itree="196">
      <Node pos="s" depth="0" NCoef="0" IVar="7" Cut="4.2463347656250000e+04" cType="1" res="-4.1063914977712557e-05" rms="2.3434977233409882e-01" purity="5.0000000000000000e-01" nType="0">
        <Node pos="l" depth="1" NCoef="0" IVar="4" Cut="5.9355921745300293e+00" cType="1" res="2.7464902959764004e-03" rms="2.3225574195384979e-01" purity="5.0354140996932983e-01" nType="0">
          <Node pos="l" depth="2" NCoef="0" IVar="-1" Cut="0.0000000000000000e+00" cType="1" res="7.3118065483868122e-03" rms="2.1178990602493286e-01" purity="5.2190941572189331e-01" nType="-99"/>
          <Node pos="r" depth="2" NCoef="0" IVar="-1" Cut="0.0000000000000000e+00" cType="1" res="-6.3042840920388699e-03" rms="2.5589403510093689e-01" purity="4.7918185591697693e-01" nType="-99"/>
        </Node>
        <Node pos="r" depth="1" NCoef="0" IVar="-1" Cut="0.0000000000000000e+00" cType="1" res="-1.6636464744806290e-02" rms="2.6098793745040894e-01" purity="4.4492673873901367e-01" nType="-99"/>
      </Node>
    </BinaryTree>
    <BinaryTree type="DecisionTree" boostWeight="1.0000000000000000e+00" itree="197">
      <Node pos="s" depth="0" NCoef="0" IVar="2" Cut="5.3147377929687500e+03" cType="1" res="-3.6242217902326956e-05" rms="2.3410634696483612e-01" purity="5.0000000000000000e-01" nType="0">
        <Node pos="l" depth="1" NCoef="0" IVar="10" Cut="2.8873748779296875e+02" cType="1" res="-2.5036105886101723e-02" rms="9.4964362680912018e-02" purity="5.1217984408140182e-02" nType="0">
          <Node pos="l" depth="2" NCoef="0" IVar="-1" Cut="0.0000000000000000e+00" cType="1" res="-4.6347178518772125e-02" rms="9.2731453478336334e-02" purity="4.2224511504173279e-02" nType="-99"/>
          <Node pos="r" depth="2" NCoef="0" IVar="-1" Cut="0.0000000000000000e+00" cType="1" res="-1.5094159170985222e-02" rms="9.4239316880702972e-02" purity="5.7322613894939423e-02" nType="-99"/>
        </Node>
        <Node pos="r" depth="1" NCoef="0" IVar="2" Cut="5.4720791015625000e+03" cType="1" res="4.6357293613255024e-03" rms="2.5144368410110474e-01" purity="5.8386832475662231e-01" nType="0">
          <Node pos="l" depth="2" NCoef="0" IVar="-1" Cut="0.0000000000000000e+00" cType="1" res="1.5652265399694443e-02" rms="2.1311588585376740e-01" purity="6.1780822277069092e-01" nType="-99"/>
          <Node pos="r" depth="2" NCoef="0" IVar="-1" Cut="0.0000000000000000e+00" cType="1" res="-8.6681055836379528e-04" rms="2.5809070467948914e-01" purity="5.7689601182937622e-01" nType="-99"/>
        </Node>
      </Node>
    </BinaryTree>
    <BinaryTree type="DecisionTree" boostWeight="1.0000000000000000e+00" itree="198">
      <Node pos="s" depth="0" NCoef="0" IVar="9" Cut="2.6159143066406250e+03" cType="1" res="-3.8976577343419194e-05" rms="2.3385837674140930e-01" purity="5.0000000000000000e-01" nType="0">
        <Node pos="l" depth="1" NCoef="0" IVar="7" Cut="1.1676865234375000e+04" cType="1" res="2.5417299941182137e-02" rms="1.9868807494640350e-01" purity="5.8519178628921509e-01" nType="0">
          <Node pos="l" depth="2" NCoef="0" IVar="-1" Cut="0.0000000000000000e+00" cType="1" res="3.0421189963817596e-02" rms="1.8477268517017365e-01" purity="6.2085032463073730e-01" nType="-99"/>
          <Node pos="r" depth="2" NCoef="0" IVar="-1" Cut="0.0000000000000000e+00" cType="1" res="1.6804340993985534e-03" rms="2.0381700992584229e-01" purity="5.6306469440460205e-01" nType="-99"/>
        </Node>
        <Node pos="r" depth="1" NCoef="0" IVar="4" Cut="1.3225860595703125e+00" cType="1" res="-4.4258306734263897e-03" rms="2.3912428319454193e-01" purity="4.8531895875930786e-01" nType="0">
          <Node pos="l" depth="2" NCoef="0" IVar="-1" Cut="0.0000000000000000e+00" cType="1" res="-3.8800612092018127e-02" rms="1.6076295077800751e-01" purity="4.6697035431861877e-02" nType="-99"/>
          <Node pos="r" depth="2" NCoef="0" IVar="-1" Cut="0.0000000000000000e+00" cType="1" res="-9.3433940492104739e-05" rms="2.4328033626079559e-01" purity="5.1706230640411377e-01" nType="-99"/>
        </Node>
      </Node>
    </BinaryTree>
    <BinaryTree type="DecisionTree" boostWeight="1.0000000000000000e+00" itree="199">
      <Node pos="s" depth="0" NCoef="0" IVar="7" Cut="3.9137101562500000e+04" cType="1" res="-3.9951748476596549e-05" rms="2.3359036445617676e-01" purity="5.0000000000000000e-01" nType="0">
        <Node pos="l" depth="1" NCoef="0" IVar="7" Cut="1.0564618164062500e+04" cType="1" res="3.1953558791428804e-03" rms="2.3322950303554535e-01" purity="5.0317645072937012e-01" nType="0">
          <Node pos="l" depth="2" NCoef="0" IVar="-1" Cut="0.0000000000000000e+00" cType="1" res="2.4669120088219643e-02" rms="1.9323332607746124e-01" purity="6.3813227415084839e-01" nType="-99"/>
          <Node pos="r" depth="2" NCoef="0" IVar="-1" Cut="0.0000000000000000e+00" cType="1" res="-5.9968652203679085e-04" rms="2.3601943254470825e-01" purity="4.9088260531425476e-01" nType="-99"/>
        </Node>
        <Node pos="r" depth="1" NCoef="0" IVar="-1" Cut="0.0000000000000000e+00" cType="1" res="-1.3861496932804585e-02" rms="2.3474019765853882e-01" purity="4.6857142448425293e-01" nType="-99"/>
      </Node>
    </BinaryTree>
    <BinaryTree type="DecisionTree" boostWeight="1.0000000000000000e+00" itree="200">
      <Node pos="s" depth="0" NCoef="0" IVar="8" Cut="2.1462006835937500e+03" cType="1" res="-3.3353346225339919e-05" rms="2.3338443040847778e-01" purity="5.0000000000000000e-01" nType="0">
        <Node pos="l" depth="1" NCoef="0" IVar="4" Cut="7.1402935981750488e+00" cType="1" res="-7.4353804811835289e-03" rms="2.3913252353668213e-01" purity="4.2910337448120117e-01" nType="0">
          <Node pos="l" depth="2" NCoef="0" IVar="-1" Cut="0.0000000000000000e+00" cType="1" res="9.2910957755520940e-04" rms="2.3649170994758606e-01" purity="4.7941285371780396e-01" nType="-99"/>
          <Node pos="r" depth="2" NCoef="0" IVar="-1" Cut="0.0000000000000000e+00" cType="1" res="-2.3011825978755951e-02" rms="2.4584366381168365e-01" purity="2.1601682901382446e-01" nType="-99"/>
        </Node>
        <Node pos="r" depth="1" NCoef="0" IVar="4" Cut="7.3090806007385254e+00" cType="1" res="1.3805582188069820e-02" rms="2.2157692909240723e-01" purity="6.3254940509796143e-01" nType="0">
          <Node pos="l" depth="2" NCoef="0" IVar="-1" Cut="0.0000000000000000e+00" cType="1" res="-6.3897052314132452e-04" rms="2.2103682160377502e-01" purity="5.9780055284500122e-01" nType="-99"/>
          <Node pos="r" depth="2" NCoef="0" IVar="-1" Cut="0.0000000000000000e+00" cType="1" res="3.3544812351465225e-02" rms="2.1635642647743225e-01" purity="7.4339771270751953e-01" nType="-99"/>
        </Node>
      </Node>
    </BinaryTree>
    <BinaryTree type="DecisionTree" boostWeight="1.0000000000000000e+00" itree="201">
      <Node pos="s" depth="0" NCoef="0" IVar="2" Cut="5.7871357421875000e+03" cType="1" res="-2.8314698283793405e-05" rms="2.3298417031764984e-01" purity="5.0000000000000000e-01" nType="0">
        <Node pos="l" depth="1" NCoef="0" IVar="11" Cut="8.3487898437500000e+04" cType="1" res="4.8034749925136566e-03" rms="2.3738750815391541e-01" purity="5.6803071498870850e-01" nType="0">
          <Node pos="l" depth="2" NCoef="0" IVar="-1" Cut="0.0000000000000000e+00" cType="1" res="-1.2642684159800410e-03" rms="2.4062091112136841e-01" purity="5.4906487464904785e-01" nType="-99"/>
          <Node pos="r" depth="2" NCoef="0" IVar="-1" Cut="0.0000000000000000e+00" cType="1" res="2.5281483307480812e-02" rms="2.0822076499462128e-01" purity="6.9177466630935669e-01" nType="-99"/>
        </Node>
        <Node pos="r" depth="1" NCoef="0" IVar="11" Cut="3.6049121093750000e+04" cType="1" res="-2.1849131211638451e-02" rms="2.1058554947376251e-01" purity="1.9276672601699829e-01" nType="0">
          <Node pos="l" depth="2" NCoef="0" IVar="-1" Cut="0.0000000000000000e+00" cType="1" res="8.7830945849418640e-03" rms="2.2379343211650848e-01" purity="1.4497877657413483e-01" nType="-99"/>
          <Node pos="r" depth="2" NCoef="0" IVar="-1" Cut="0.0000000000000000e+00" cType="1" res="-2.5605605915188789e-02" rms="1.8894869089126587e-01" purity="2.4278312921524048e-01" nType="-99"/>
        </Node>
      </Node>
    </BinaryTree>
    <BinaryTree type="DecisionTree" boostWeight="1.0000000000000000e+00" itree="202">
      <Node pos="s" depth="0" NCoef="0" IVar="2" Cut="5.3147377929687500e+03" cType="1" res="-2.6406567485537380e-05" rms="2.3256778717041016e-01" purity="5.0000000000000000e-01" nType="0">
        <Node pos="l" depth="1" NCoef="0" IVar="9" Cut="4.2664521484375000e+03" cType="1" res="-2.3854339495301247e-02" rms="9.2651195824146271e-02" purity="5.1217984408140182e-02" nType="0">
          <Node pos="l" depth="2" NCoef="0" IVar="-1" Cut="0.0000000000000000e+00" cType="1" res="-4.6438399702310562e-02" rms="7.7189229428768158e-02" purity="2.9507016763091087e-02" nType="-99"/>
          <Node pos="r" depth="2" NCoef="0" IVar="-1" Cut="0.0000000000000000e+00" cType="1" res="-6.4502102322876453e-03" rms="1.0784214735031128e-01" purity="8.1027671694755554e-02" nType="-99"/>
        </Node>
        <Node pos="r" depth="1" NCoef="0" IVar="10" Cut="2.0833163452148438e+02" cType="1" res="4.4265547767281532e-03" rms="2.4993105232715607e-01" purity="5.8386832475662231e-01" nType="0">
          <Node pos="l" depth="2" NCoef="0" IVar="-1" Cut="0.0000000000000000e+00" cType="1" res="-1.3653998263180256e-02" rms="2.9061225056648254e-01" purity="3.5528594255447388e-01" nType="-99"/>
          <Node pos="r" depth="2" NCoef="0" IVar="-1" Cut="0.0000000000000000e+00" cType="1" res="3.6227586679160595e-03" rms="2.4512784183025360e-01" purity="6.0642069578170776e-01" nType="-99"/>
        </Node>
      </Node>
    </BinaryTree>
    <BinaryTree type="DecisionTree" boostWeight="1.0000000000000000e+00" itree="203">
      <Node pos="s" depth="0" NCoef="0" IVar="4" Cut="8.9473457336425781e+00" cType="1" res="-3.2602416467852890e-05" rms="2.3238684237003326e-01" purity="5.0000000000000000e-01" nType="0">
        <Node pos="l" depth="1" NCoef="0" IVar="5" Cut="5.9902834892272949e-01" cType="1" res="2.5008115917444229e-03" rms="2.3575806617736816e-01" purity="5.2158498764038086e-01" nType="0">
          <Node pos="l" depth="2" NCoef="0" IVar="-1" Cut="0.0000000000000000e+00" cType="1" res="-4.0146172977983952e-03" rms="2.3615488409996033e-01" purity="4.8136192560195923e-01" nType="-99"/>
          <Node pos="r" depth="2" NCoef="0" IVar="-1" Cut="0.0000000000000000e+00" cType="1" res="1.4140754938125610e-02" rms="2.3234520852565765e-01" purity="6.2031698226928711e-01" nType="-99"/>
        </Node>
        <Node pos="r" depth="1" NCoef="0" IVar="-1" Cut="0.0000000000000000e+00" cType="1" res="-2.8400756418704987e-02" rms="1.6107416152954102e-01" purity="1.4186850190162659e-01" nType="-99"/>
      </Node>
    </BinaryTree>
    <BinaryTree type="DecisionTree" boostWeight="1.0000000000000000e+00" itree="204">
      <Node pos="s" depth="0" NCoef="0" IVar="4" Cut="5.3332409858703613e+00" cType="1" res="-2.9335573344724253e-05" rms="2.3210902512073517e-01" purity="5.0000000000000000e-01" nType="0">
        <Node pos="l" depth="1" NCoef="0" IVar="5" Cut="2.6515886187553406e-01" cType="1" res="1.1695162393152714e-02" rms="2.0665110647678375e-01" purity="5.1294732093811035e-01" nType="0">
          <Node pos="l" depth="2" NCoef="0" IVar="-1" Cut="0.0000000000000000e+00" cType="1" res="-4.3578725308179855e-03" rms="2.1245704591274261e-01" purity="4.4163870811462402e-01" nType="-99"/>
          <Node pos="r" depth="2" NCoef="0" IVar="-1" Cut="0.0000000000000000e+00" cType="1" res="4.8709202557802200e-02" rms="1.4207647740840912e-01" purity="8.4640789031982422e-01" nType="-99"/>
        </Node>
        <Node pos="r" depth="1" NCoef="0" IVar="7" Cut="2.9158359375000000e+04" cType="1" res="-9.6490774303674698e-03" rms="2.5066709518432617e-01" purity="4.8937696218490601e-01" nType="0">
          <Node pos="l" depth="2" NCoef="0" IVar="-1" Cut="0.0000000000000000e+00" cType="1" res="-1.0660436935722828e-02" rms="2.5000506639480591e-01" purity="4.8967075347900391e-01" nType="-99"/>
          <Node pos="r" depth="2" NCoef="0" IVar="-1" Cut="0.0000000000000000e+00" cType="1" res="1.7130501568317413e-02" rms="2.4702091515064240e-01" purity="4.8854264616966248e-01" nType="-99"/>
        </Node>
      </Node>
    </BinaryTree>
    <BinaryTree type="DecisionTree" boostWeight="1.0000000000000000e+00" itree="205">
      <Node pos="s" depth="0" NCoef="0" IVar="7" Cut="3.9137101562500000e+04" cType="1" res="-9.1121901277801953e-06" rms="2.3113416135311127e-01" purity="5.0000000000000000e-01" nType="0">
        <Node pos="l" depth="1" NCoef="0" IVar="2" Cut="5.3619775390625000e+03" cType="1" res="3.3297697082161903e-03" rms="2.3076617717742920e-01" purity="5.0317645072937012e-01" nType="0">
          <Node pos="l" depth="2" NCoef="0" IVar="-1" Cut="0.0000000000000000e+00" cType="1" res="-2.6992088183760643e-02" rms="1.0987409949302673e-01" purity="7.5478643178939819e-02" nType="-99"/>
          <Node pos="r" depth="2" NCoef="0" IVar="-1" Cut="0.0000000000000000e+00" cType="1" res="4.2678336612880230e-03" rms="2.5105848908424377e-01" purity="6.0748916864395142e-01" nType="-99"/>
        </Node>
        <Node pos="r" depth="1" NCoef="0" IVar="-1" Cut="0.0000000000000000e+00" cType="1" res="-1.4478376135230064e-02" rms="2.3217031359672546e-01" purity="4.6857142448425293e-01" nType="-99"/>
      </Node>
    </BinaryTree>
    <BinaryTree type="DecisionTree" boostWeight="1.0000000000000000e+00" itree="206">
      <Node pos="s" depth="0" NCoef="0" IVar="2" Cut="5.7871357421875000e+03" cType="1" res="-1.2253512977622449e-05" rms="2.3094353079795837e-01" purity="5.0000000000000000e-01" nType="0">
        <Node pos="l" depth="1" NCoef="0" IVar="6" Cut="6.8348541259765625e+01" cType="1" res="4.8014177009463310e-03" rms="2.3556427657604218e-01" purity="5.6803071498870850e-01" nType="0">
          <Node pos="l" depth="2" NCoef="0" IVar="-1" Cut="0.0000000000000000e+00" cType="1" res="-7.5048012658953667e-03" rms="2.6713052392005920e-01" purity="4.5862343907356262e-01" nType="-99"/>
          <Node pos="r" depth="2" NCoef="0" IVar="-1" Cut="0.0000000000000000e+00" cType="1" res="8.9980652555823326e-03" rms="2.1541160345077515e-01" purity="6.2715101242065430e-01" nType="-99"/>
        </Node>
        <Node pos="r" depth="1" NCoef="0" IVar="11" Cut="3.6049121093750000e+04" cType="1" res="-2.1751245483756065e-02" rms="2.0741917192935944e-01" purity="1.9276672601699829e-01" nType="0">
          <Node pos="l" depth="2" NCoef="0" IVar="-1" Cut="0.0000000000000000e+00" cType="1" res="7.1910512633621693e-03" rms="2.2162903845310211e-01" purity="1.4497877657413483e-01" nType="-99"/>
          <Node pos="r" depth="2" NCoef="0" IVar="-1" Cut="0.0000000000000000e+00" cType="1" res="-2.5037344545125961e-02" rms="1.8531270325183868e-01" purity="2.4278312921524048e-01" nType="-99"/>
        </Node>
      </Node>
    </BinaryTree>
    <BinaryTree type="DecisionTree" boostWeight="1.0000000000000000e+00" itree="207">
      <Node pos="s" depth="0" NCoef="0" IVar="8" Cut="2.1462006835937500e+03" cType="1" res="-1.2625177078007255e-05" rms="2.3063020408153534e-01" purity="5.0000000000000000e-01" nType="0">
        <Node pos="l" depth="1" NCoef="0" IVar="3" Cut="1.6816038818359375e+03" cType="1" res="-7.6673547737300396e-03" rms="2.3660042881965637e-01" purity="4.2910337448120117e-01" nType="0">
          <Node pos="l" depth="2" NCoef="0" IVar="-1" Cut="0.0000000000000000e+00" cType="1" res="-1.3436429202556610e-02" rms="2.1462725102901459e-01" purity="3.2532304525375366e-01" nType="-99"/>
          <Node pos="r" depth="2" NCoef="0" IVar="-1" Cut="0.0000000000000000e+00" cType="1" res="3.5234135575592518e-03" rms="2.5158280134201050e-01" purity="5.1194357872009277e-01" nType="-99"/>
        </Node>
        <Node pos="r" depth="1" NCoef="0" IVar="4" Cut="5.4148464202880859e+00" cType="1" res="1.4298766851425171e-02" rms="2.1831326186656952e-01" purity="6.3254940509796143e-01" nType="0">
          <Node pos="l" depth="2" NCoef="0" IVar="-1" Cut="0.0000000000000000e+00" cType="1" res="2.7489759027957916e-02" rms="1.6507376730442047e-01" purity="6.8166261911392212e-01" nType="-99"/>
          <Node pos="r" depth="2" NCoef="0" IVar="-1" Cut="0.0000000000000000e+00" cType="1" res="-3.5678148269653320e-03" rms="2.4331887066364288e-01" purity="6.0183483362197876e-01" nType="-99"/>
        </Node>
      </Node>
    </BinaryTree>
    <BinaryTree type="DecisionTree" boostWeight="1.0000000000000000e+00" itree="208">
      <Node pos="s" depth="0" NCoef="0" IVar="12" Cut="4.0340742187500000e+03" cType="1" res="-7.5747175287688151e-06" rms="2.3021908104419708e-01" purity="5.0000000000000000e-01" nType="0">
        <Node pos="l" depth="1" NCoef="0" IVar="1" Cut="1.1873253906250000e+05" cType="1" res="-7.9349661245942116e-03" rms="2.2670246660709381e-01" purity="4.0680369734764099e-01" nType="0">
          <Node pos="l" depth="2" NCoef="0" IVar="-1" Cut="0.0000000000000000e+00" cType="1" res="-5.2901137678418308e-05" rms="2.2222873568534851e-01" purity="4.1041043400764465e-01" nType="-99"/>
          <Node pos="r" depth="2" NCoef="0" IVar="-1" Cut="0.0000000000000000e+00" cType="1" res="-3.1285408884286880e-02" rms="2.5466421246528625e-01" purity="3.7020313739776611e-01" nType="-99"/>
        </Node>
        <Node pos="r" depth="1" NCoef="0" IVar="4" Cut="4.8553881645202637e+00" cType="1" res="1.4559651724994183e-02" rms="2.3585122823715210e-01" purity="6.7125582695007324e-01" nType="0">
          <Node pos="l" depth="2" NCoef="0" IVar="-1" Cut="0.0000000000000000e+00" cType="1" res="2.6993146166205406e-02" rms="2.1849086880683899e-01" purity="6.9752311706542969e-01" nType="-99"/>
          <Node pos="r" depth="2" NCoef="0" IVar="-1" Cut="0.0000000000000000e+00" cType="1" res="-6.1148069798946381e-03" rms="2.4147674441337585e-01" purity="6.5570861101150513e-01" nType="-99"/>
        </Node>
      </Node>
    </BinaryTree>
    <BinaryTree type="DecisionTree" boostWeight="1.0000000000000000e+00" itree="209">
      <Node pos="s" depth="0" NCoef="0" IVar="9" Cut="2.6159143066406250e+03" cType="1" res="-3.2978114177240059e-06" rms="2.2954423725605011e-01" purity="5.0000000000000000e-01" nType="0">
        <Node pos="l" depth="1" NCoef="0" IVar="4" Cut="6.3969879150390625e+00" cType="1" res="2.4216186255216599e-02" rms="1.9247378408908844e-01" purity="5.8519178628921509e-01" nType="0">
          <Node pos="l" depth="2" NCoef="0" IVar="-1" Cut="0.0000000000000000e+00" cType="1" res="2.3572294041514397e-02" rms="1.6540481150150299e-01" purity="7.0800626277923584e-01" nType="-99"/>
          <Node pos="r" depth="2" NCoef="0" IVar="-1" Cut="0.0000000000000000e+00" cType="1" res="-2.5899526663124561e-03" rms="2.1968545019626617e-01" purity="4.2355370521545410e-01" nType="-99"/>
        </Node>
        <Node pos="r" depth="1" NCoef="0" IVar="7" Cut="1.3213380859375000e+04" cType="1" res="-4.1770166717469692e-03" rms="2.3509153723716736e-01" purity="4.8531895875930786e-01" nType="0">
          <Node pos="l" depth="2" NCoef="0" IVar="-1" Cut="0.0000000000000000e+00" cType="1" res="-2.2578405216336250e-02" rms="2.3109528422355652e-01" purity="3.8362574577331543e-01" nType="-99"/>
          <Node pos="r" depth="2" NCoef="0" IVar="-1" Cut="0.0000000000000000e+00" cType="1" res="5.3085869876667857e-04" rms="2.3491050302982330e-01" purity="4.9643999338150024e-01" nType="-99"/>
        </Node>
      </Node>
    </BinaryTree>
    <BinaryTree type="DecisionTree" boostWeight="1.0000000000000000e+00" itree="210">
      <Node pos="s" depth="0" NCoef="0" IVar="11" Cut="8.3268609375000000e+04" cType="1" res="1.7567988663813594e-07" rms="2.2924995422363281e-01" purity="5.0000000000000000e-01" nType="0">
        <Node pos="l" depth="1" NCoef="0" IVar="11" Cut="1.0463782226562500e+04" cType="1" res="-3.8634354714304209e-03" rms="2.3303663730621338e-01" purity="4.8498773574829102e-01" nType="0">
          <Node pos="l" depth="2" NCoef="0" IVar="-1" Cut="0.0000000000000000e+00" cType="1" res="-5.3819328546524048e-02" rms="1.6826294362545013e-01" purity="9.2342339456081390e-02" nType="-99"/>
          <Node pos="r" depth="2" NCoef="0" IVar="-1" Cut="0.0000000000000000e+00" cType="1" res="2.0848182030022144e-03" rms="2.3764578998088837e-01" purity="5.2878856658935547e-01" nType="-99"/>
        </Node>
        <Node pos="r" depth="1" NCoef="0" IVar="6" Cut="1.6150740051269531e+02" cType="1" res="2.5905594229698181e-02" rms="2.0011767745018005e-01" purity="6.0065674781799316e-01" nType="0">
          <Node pos="l" depth="2" NCoef="0" IVar="-1" Cut="0.0000000000000000e+00" cType="1" res="3.9586350321769714e-02" rms="1.9852563738822937e-01" purity="6.7291909456253052e-01" nType="-99"/>
          <Node pos="r" depth="2" NCoef="0" IVar="-1" Cut="0.0000000000000000e+00" cType="1" res="-1.0632056742906570e-02" rms="1.8791802227497101e-01" purity="5.4593878984451294e-01" nType="-99"/>
        </Node>
      </Node>
    </BinaryTree>
    <BinaryTree type="DecisionTree" boostWeight="1.0000000000000000e+00" itree="211">
      <Node pos="s" depth="0" NCoef="0" IVar="11" Cut="2.6023939453125000e+04" cType="1" res="-9.9365333880996332e-06" rms="2.2838482260704041e-01" purity="5.0000000000000000e-01" nType="0">
        <Node pos="l" depth="1" NCoef="0" IVar="11" Cut="1.0564414062500000e+04" cType="1" res="1.3044761493802071e-02" rms="1.9443622231483459e-01" purity="4.1018313169479370e-01" nType="0">
          <Node pos="l" depth="2" NCoef="0" IVar="-1" Cut="0.0000000000000000e+00" cType="1" res="-4.7682754695415497e-02" rms="1.6354928910732269e-01" purity="1.1944646388292313e-01" nType="-99"/>
          <Node pos="r" depth="2" NCoef="0" IVar="-1" Cut="0.0000000000000000e+00" cType="1" res="2.1495154127478600e-02" rms="1.9630609452724457e-01" purity="5.0467514991760254e-01" nType="-99"/>
        </Node>
        <Node pos="r" depth="1" NCoef="0" IVar="1" Cut="5.4089277343750000e+04" cType="1" res="-7.5788083486258984e-03" rms="2.4561314284801483e-01" purity="5.5207413434982300e-01" nType="0">
          <Node pos="l" depth="2" NCoef="0" IVar="-1" Cut="0.0000000000000000e+00" cType="1" res="-5.2488360553979874e-02" rms="2.1668316423892975e-01" purity="2.6635730266571045e-01" nType="-99"/>
          <Node pos="r" depth="2" NCoef="0" IVar="-1" Cut="0.0000000000000000e+00" cType="1" res="3.9474950172007084e-03" rms="2.4380038678646088e-01" purity="5.8796781301498413e-01" nType="-99"/>
        </Node>
      </Node>
    </BinaryTree>
    <BinaryTree type="DecisionTree" boostWeight="1.0000000000000000e+00" itree="212">
      <Node pos="s" depth="0" NCoef="0" IVar="10" Cut="7.1833148193359375e+02" cType="1" res="-2.5255138098145835e-05" rms="2.2664420306682587e-01" purity="5.0000000000000000e-01" nType="0">
        <Node pos="l" depth="1" NCoef="0" IVar="10" Cut="5.6815917968750000e+02" cType="1" res="-3.4264144487679005e-03" rms="2.3249064385890961e-01" purity="4.7496151924133301e-01" nType="0">
          <Node pos="l" depth="2" NCoef="0" IVar="-1" Cut="0.0000000000000000e+00" cType="1" res="1.9616170320659876e-03" rms="2.2419416904449463e-01" purity="4.7046551108360291e-01" nType="-99"/>
          <Node pos="r" depth="2" NCoef="0" IVar="-1" Cut="0.0000000000000000e+00" cType="1" res="-2.2338259965181351e-02" rms="2.6896777749061584e-01" purity="4.9918049573898315e-01" nType="-99"/>
        </Node>
        <Node pos="r" depth="1" NCoef="0" IVar="1" Cut="5.8815292968750000e+04" cType="1" res="2.8733834624290466e-02" rms="1.6656854748725891e-01" purity="7.1171730756759644e-01" nType="0">
          <Node pos="l" depth="2" NCoef="0" IVar="-1" Cut="0.0000000000000000e+00" cType="1" res="-9.4305537641048431e-03" rms="1.9221769273281097e-01" purity="5.4799515008926392e-01" nType="-99"/>
          <Node pos="r" depth="2" NCoef="0" IVar="-1" Cut="0.0000000000000000e+00" cType="1" res="5.8965057134628296e-02" rms="1.1686172336339951e-01" purity="8.8227850198745728e-01" nType="-99"/>
        </Node>
      </Node>
    </BinaryTree>
    <BinaryTree type="DecisionTree" boostWeight="1.0000000000000000e+00" itree="213">
      <Node pos="s" depth="0" NCoef="0" IVar="2" Cut="5.7871357421875000e+03" cType="1" res="-1.0910983291978482e-05" rms="2.2600850462913513e-01" purity="5.0000000000000000e-01" nType="0">
        <Node pos="l" depth="1" NCoef="0" IVar="11" Cut="8.3487898437500000e+04" cType="1" res="4.6103792265057564e-03" rms="2.3028898239135742e-01" purity="5.6803071498870850e-01" nType="0">
          <Node pos="l" depth="2" NCoef="0" IVar="-1" Cut="0.0000000000000000e+00" cType="1" res="-9.5672399038448930e-04" rms="2.3398686945438385e-01" purity="5.4906487464904785e-01" nType="-99"/>
          <Node pos="r" depth="2" NCoef="0" IVar="-1" Cut="0.0000000000000000e+00" cType="1" res="2.3231729865074158e-02" rms="1.9898967444896698e-01" purity="6.9177466630935669e-01" nType="-99"/>
        </Node>
        <Node pos="r" depth="1" NCoef="0" IVar="11" Cut="3.6049121093750000e+04" cType="1" res="-2.0881092175841331e-02" rms="2.0427218079566956e-01" purity="1.9276672601699829e-01" nType="0">
          <Node pos="l" depth="2" NCoef="0" IVar="-1" Cut="0.0000000000000000e+00" cType="1" res="7.0514301769435406e-03" rms="2.1701428294181824e-01" purity="1.4497877657413483e-01" nType="-99"/>
          <Node pos="r" depth="2" NCoef="0" IVar="-1" Cut="0.0000000000000000e+00" cType="1" res="-2.4467511102557182e-02" rms="1.8431818485260010e-01" purity="2.4278312921524048e-01" nType="-99"/>
        </Node>
      </Node>
    </BinaryTree>
    <BinaryTree type="DecisionTree" boostWeight="1.0000000000000000e+00" itree="214">
      <Node pos="s" depth="0" NCoef="0" IVar="2" Cut="5.3147377929687500e+03" cType="1" res="-1.0619676686474122e-05" rms="2.2567282617092133e-01" purity="5.0000000000000000e-01" nType="0">
        <Node pos="l" depth="1" NCoef="0" IVar="12" Cut="2.8847011718750000e+03" cType="1" res="-2.3000475019216537e-02" rms="9.0064167976379395e-02" purity="5.1217984408140182e-02" nType="0">
          <Node pos="l" depth="2" NCoef="0" IVar="-1" Cut="0.0000000000000000e+00" cType="1" res="-3.5412863362580538e-03" rms="1.1640039831399918e-01" purity="8.9227423071861267e-02" nType="-99"/>
          <Node pos="r" depth="2" NCoef="0" IVar="-1" Cut="0.0000000000000000e+00" cType="1" res="-4.6353142708539963e-02" rms="6.5907500684261322e-02" purity="2.7655985206365585e-02" nType="-99"/>
        </Node>
        <Node pos="r" depth="1" NCoef="0" IVar="8" Cut="2.1462006835937500e+03" cType="1" res="4.2857220396399498e-03" rms="2.4251303076744080e-01" purity="5.8386832475662231e-01" nType="0">
          <Node pos="l" depth="2" NCoef="0" IVar="-1" Cut="0.0000000000000000e+00" cType="1" res="-2.3824181407690048e-03" rms="2.5310444831848145e-01" purity="5.1410657167434692e-01" nType="-99"/>
          <Node pos="r" depth="2" NCoef="0" IVar="-1" Cut="0.0000000000000000e+00" cType="1" res="1.1277105659246445e-02" rms="2.2189055383205414e-01" purity="7.0419842004776001e-01" nType="-99"/>
        </Node>
      </Node>
    </BinaryTree>
    <BinaryTree type="DecisionTree" boostWeight="1.0000000000000000e+00" itree="215">
      <Node pos="s" depth="0" NCoef="0" IVar="7" Cut="4.2463347656250000e+04" cType="1" res="-1.8096738131134771e-05" rms="2.2545091807842255e-01" purity="5.0000000000000000e-01" nType="0">
        <Node pos="l" depth="1" NCoef="0" IVar="7" Cut="3.0254386718750000e+04" cType="1" res="2.4582839105278254e-03" rms="2.2385852038860321e-01" purity="5.0354140996932983e-01" nType="0">
          <Node pos="l" depth="2" NCoef="0" IVar="-1" Cut="0.0000000000000000e+00" cType="1" res="-2.1413597278296947e-03" rms="2.2916811704635620e-01" purity="5.0139570236206055e-01" nType="-99"/>
          <Node pos="r" depth="2" NCoef="0" IVar="-1" Cut="0.0000000000000000e+00" cType="1" res="1.4951149001717567e-02" rms="2.0080977678298950e-01" purity="5.1149046421051025e-01" nType="-99"/>
        </Node>
        <Node pos="r" depth="1" NCoef="0" IVar="-1" Cut="0.0000000000000000e+00" cType="1" res="-1.5110001899302006e-02" rms="2.4571584165096283e-01" purity="4.4492673873901367e-01" nType="-99"/>
      </Node>
    </BinaryTree>
    <BinaryTree type="DecisionTree" boostWeight="1.0000000000000000e+00" itree="216">
      <Node pos="s" depth="0" NCoef="0" IVar="9" Cut="2.6159143066406250e+03" cType="1" res="-1.5840840205783024e-05" rms="2.2524453699588776e-01" purity="5.0000000000000000e-01" nType="0">
        <Node pos="l" depth="1" NCoef="0" IVar="7" Cut="1.1676865234375000e+04" cType="1" res="2.2939929738640785e-02" rms="1.9030646979808807e-01" purity="5.8519178628921509e-01" nType="0">
          <Node pos="l" depth="2" NCoef="0" IVar="-1" Cut="0.0000000000000000e+00" cType="1" res="2.8966462239623070e-02" rms="1.7583742737770081e-01" purity="6.2085032463073730e-01" nType="-99"/>
          <Node pos="r" depth="2" NCoef="0" IVar="-1" Cut="0.0000000000000000e+00" cType="1" res="1.7160377465188503e-03" rms="1.9625839591026306e-01" purity="5.6306469440460205e-01" nType="-99"/>
        </Node>
        <Node pos="r" depth="1" NCoef="0" IVar="4" Cut="1.3225860595703125e+00" cType="1" res="-3.9717853069305420e-03" rms="2.3050077259540558e-01" purity="4.8531895875930786e-01" nType="0">
          <Node pos="l" depth="2" NCoef="0" IVar="-1" Cut="0.0000000000000000e+00" cType="1" res="-3.7879716604948044e-02" rms="1.5671122074127197e-01" purity="4.6697035431861877e-02" nType="-99"/>
          <Node pos="r" depth="2" NCoef="0" IVar="-1" Cut="0.0000000000000000e+00" cType="1" res="4.6192990339477547e-06" rms="2.3444281518459320e-01" purity="5.1706230640411377e-01" nType="-99"/>
        </Node>
      </Node>
    </BinaryTree>
    <BinaryTree type="DecisionTree" boostWeight="1.0000000000000000e+00" itree="217">
      <Node pos="s" depth="0" NCoef="0" IVar="2" Cut="5.7871357421875000e+03" cType="1" res="-1.8832792193279602e-05" rms="2.2501157224178314e-01" purity="5.0000000000000000e-01" nType="0">
        <Node pos="l" depth="1" NCoef="0" IVar="6" Cut="3.7283832550048828e+01" cType="1" res="4.4279498979449272e-03" rms="2.2940033674240112e-01" purity="5.6803071498870850e-01" nType="0">
          <Node pos="l" depth="2" NCoef="0" IVar="-1" Cut="0.0000000000000000e+00" cType="1" res="-1.2233514338731766e-02" rms="2.4829506874084473e-01" purity="3.2277110219001770e-01" nType="-99"/>
          <Node pos="r" depth="2" NCoef="0" IVar="-1" Cut="0.0000000000000000e+00" cType="1" res="6.2118368223309517e-03" rms="2.2346846759319305e-01" purity="6.3067412376403809e-01" nType="-99"/>
        </Node>
        <Node pos="r" depth="1" NCoef="0" IVar="4" Cut="5.6752882003784180e+00" cType="1" res="-2.0100921392440796e-02" rms="2.0280806720256805e-01" purity="1.9276672601699829e-01" nType="0">
          <Node pos="l" depth="2" NCoef="0" IVar="-1" Cut="0.0000000000000000e+00" cType="1" res="6.7762280814349651e-03" rms="2.0439563691616058e-01" purity="2.9570859670639038e-01" nType="-99"/>
          <Node pos="r" depth="2" NCoef="0" IVar="-1" Cut="0.0000000000000000e+00" cType="1" res="-2.7003677561879158e-02" rms="1.9598005712032318e-01" purity="8.9227415621280670e-02" nType="-99"/>
        </Node>
      </Node>
    </BinaryTree>
    <BinaryTree type="DecisionTree" boostWeight="1.0000000000000000e+00" itree="218">
      <Node pos="s" depth="0" NCoef="0" IVar="2" Cut="5.3147377929687500e+03" cType="1" res="-2.3175505702965893e-05" rms="2.2482654452323914e-01" purity="5.0000000000000000e-01" nType="0">
        <Node pos="l" depth="1" NCoef="0" IVar="10" Cut="2.8873748779296875e+02" cType="1" res="-2.1505493670701981e-02" rms="8.8595978915691376e-02" purity="5.1217984408140182e-02" nType="0">
          <Node pos="l" depth="2" NCoef="0" IVar="-1" Cut="0.0000000000000000e+00" cType="1" res="-4.4577118009328842e-02" rms="8.6017057299613953e-02" purity="4.2224511504173279e-02" nType="-99"/>
          <Node pos="r" depth="2" NCoef="0" IVar="-1" Cut="0.0000000000000000e+00" cType="1" res="-1.3186112046241760e-02" rms="8.8327839970588684e-02" purity="5.7322613894939423e-02" nType="-99"/>
        </Node>
        <Node pos="r" depth="1" NCoef="0" IVar="5" Cut="5.6776779890060425e-01" cType="1" res="3.9914376102387905e-03" rms="2.4171049892902374e-01" purity="5.8386832475662231e-01" nType="0">
          <Node pos="l" depth="2" NCoef="0" IVar="-1" Cut="0.0000000000000000e+00" cType="1" res="-2.3335930891335011e-03" rms="2.4597869813442230e-01" purity="5.6521213054656982e-01" nType="-99"/>
          <Node pos="r" depth="2" NCoef="0" IVar="-1" Cut="0.0000000000000000e+00" cType="1" res="9.6093090251088142e-03" rms="2.3255263268947601e-01" purity="6.1838746070861816e-01" nType="-99"/>
        </Node>
      </Node>
    </BinaryTree>
    <BinaryTree type="DecisionTree" boostWeight="1.0000000000000000e+00" itree="219">
      <Node pos="s" depth="0" NCoef="0" IVar="11" Cut="2.6023939453125000e+04" cType="1" res="-2.6084631826961413e-05" rms="2.2463253140449524e-01" purity="5.0000000000000000e-01" nType="0">
        <Node pos="l" depth="1" NCoef="0" IVar="12" Cut="2.7225319824218750e+03" cType="1" res="1.2150701135396957e-02" rms="1.9116429984569550e-01" purity="4.1018313169479370e-01" nType="0">
          <Node pos="l" depth="2" NCoef="0" IVar="-1" Cut="0.0000000000000000e+00" cType="1" res="-2.6867983862757683e-02" rms="1.3952703773975372e-01" purity="1.8061673641204834e-01" nType="-99"/>
          <Node pos="r" depth="2" NCoef="0" IVar="-1" Cut="0.0000000000000000e+00" cType="1" res="2.7176132425665855e-02" rms="2.1173110604286194e-01" purity="5.6679189205169678e-01" nType="-99"/>
        </Node>
        <Node pos="r" depth="1" NCoef="0" IVar="1" Cut="5.4089277343750000e+04" cType="1" res="-7.0859594270586967e-03" rms="2.4164476990699768e-01" purity="5.5207413434982300e-01" nType="0">
          <Node pos="l" depth="2" NCoef="0" IVar="-1" Cut="0.0000000000000000e+00" cType="1" res="-4.8729941248893738e-02" rms="2.1067783236503601e-01" purity="2.6635730266571045e-01" nType="-99"/>
          <Node pos="r" depth="2" NCoef="0" IVar="-1" Cut="0.0000000000000000e+00" cType="1" res="3.5132041666656733e-03" rms="2.4097281694412231e-01" purity="5.8796781301498413e-01" nType="-99"/>
        </Node>
      </Node>
    </BinaryTree>
    <BinaryTree type="DecisionTree" boostWeight="1.0000000000000000e+00" itree="220">
      <Node pos="s" depth="0" NCoef="0" IVar="9" Cut="2.6159143066406250e+03" cType="1" res="-3.1507734092883766e-05" rms="2.2314110398292542e-01" purity="5.0000000000000000e-01" nType="0">
        <Node pos="l" depth="1" NCoef="0" IVar="4" Cut="5.8063836097717285e+00" cType="1" res="2.2909050807356834e-02" rms="1.8773688375949860e-01" purity="5.8519178628921509e-01" nType="0">
          <Node pos="l" depth="2" NCoef="0" IVar="-1" Cut="0.0000000000000000e+00" cType="1" res="3.3713679760694504e-02" rms="1.3119077682495117e-01" purity="7.3832297325134277e-01" nType="-99"/>
          <Node pos="r" depth="2" NCoef="0" IVar="-1" Cut="0.0000000000000000e+00" cType="1" res="1.2660046340897679e-03" rms="2.1461391448974609e-01" purity="4.8466938734054565e-01" nType="-99"/>
        </Node>
        <Node pos="r" depth="1" NCoef="0" IVar="3" Cut="3.3495236816406250e+03" cType="1" res="-3.9848308078944683e-03" rms="2.2845672070980072e-01" purity="4.8531895875930786e-01" nType="0">
          <Node pos="l" depth="2" NCoef="0" IVar="-1" Cut="0.0000000000000000e+00" cType="1" res="-4.6499334275722504e-03" rms="2.3277582228183746e-01" purity="4.4265517592430115e-01" nType="-99"/>
          <Node pos="r" depth="2" NCoef="0" IVar="-1" Cut="0.0000000000000000e+00" cType="1" res="1.6758218407630920e-02" rms="2.0105183124542236e-01" purity="7.0944482088088989e-01" nType="-99"/>
        </Node>
      </Node>
    </BinaryTree>
    <BinaryTree type="DecisionTree" boostWeight="1.0000000000000000e+00" itree="221">
      <Node pos="s" depth="0" NCoef="0" IVar="2" Cut="5.7398959960937500e+03" cType="1" res="-2.4111672246363014e-05" rms="2.2285553812980652e-01" purity="5.0000000000000000e-01" nType="0">
        <Node pos="l" depth="1" NCoef="0" IVar="9" Cut="8.8247343750000000e+03" cType="1" res="4.7367480583488941e-03" rms="2.2873935103416443e-01" purity="5.7164198160171509e-01" nType="0">
          <Node pos="l" depth="2" NCoef="0" IVar="-1" Cut="0.0000000000000000e+00" cType="1" res="-1.7506965377833694e-04" rms="2.2783064842224121e-01" purity="5.6306469440460205e-01" nType="-99"/>
          <Node pos="r" depth="2" NCoef="0" IVar="-1" Cut="0.0000000000000000e+00" cType="1" res="2.5792218744754791e-02" rms="2.3105168342590332e-01" purity="6.6836476325988770e-01" nType="-99"/>
        </Node>
        <Node pos="r" depth="1" NCoef="0" IVar="10" Cut="6.6445507812500000e+02" cType="1" res="-1.7936985939741135e-02" rms="1.9814400374889374e-01" purity="2.3044495284557343e-01" nType="0">
          <Node pos="l" depth="2" NCoef="0" IVar="-1" Cut="0.0000000000000000e+00" cType="1" res="-1.8693435937166214e-02" rms="1.7856252193450928e-01" purity="2.0512820780277252e-01" nType="-99"/>
          <Node pos="r" depth="2" NCoef="0" IVar="-1" Cut="0.0000000000000000e+00" cType="1" res="1.7184522002935410e-02" rms="2.4006459116935730e-01" purity="3.0597016215324402e-01" nType="-99"/>
        </Node>
      </Node>
    </BinaryTree>
    <BinaryTree type="DecisionTree" boostWeight="1.0000000000000000e+00" itree="222">
      <Node pos="s" depth="0" NCoef="0" IVar="7" Cut="3.9137101562500000e+04" cType="1" res="-2.3093254640116356e-05" rms="2.2254632413387299e-01" purity="5.0000000000000000e-01" nType="0">
        <Node pos="l" depth="1" NCoef="0" IVar="7" Cut="1.0564618164062500e+04" cType="1" res="3.0286342371255159e-03" rms="2.2251096367835999e-01" purity="5.0317645072937012e-01" nType="0">
          <Node pos="l" depth="2" NCoef="0" IVar="-1" Cut="0.0000000000000000e+00" cType="1" res="2.6281030848622322e-02" rms="1.7646281421184540e-01" purity="6.3813227415084839e-01" nType="-99"/>
          <Node pos="r" depth="2" NCoef="0" IVar="-1" Cut="0.0000000000000000e+00" cType="1" res="-7.1193941403180361e-04" rms="2.2569818794727325e-01" purity="4.9088260531425476e-01" nType="-99"/>
        </Node>
        <Node pos="r" depth="1" NCoef="0" IVar="-1" Cut="0.0000000000000000e+00" cType="1" res="-1.3647200539708138e-02" rms="2.2063253819942474e-01" purity="4.6857142448425293e-01" nType="-99"/>
      </Node>
    </BinaryTree>
    <BinaryTree type="DecisionTree" boostWeight="1.0000000000000000e+00" itree="223">
      <Node pos="s" depth="0" NCoef="0" IVar="12" Cut="6.7410927734375000e+03" cType="1" res="-1.8150363757740706e-05" rms="2.2232295572757721e-01" purity="5.0000000000000000e-01" nType="0">
        <Node pos="l" depth="1" NCoef="0" IVar="12" Cut="5.8214692382812500e+03" cType="1" res="-2.6996773667633533e-03" rms="2.3002305626869202e-01" purity="4.7166597843170166e-01" nType="0">
          <Node pos="l" depth="2" NCoef="0" IVar="-1" Cut="0.0000000000000000e+00" cType="1" res="1.4299867907539010e-03" rms="2.3047684133052826e-01" purity="4.7184929251670837e-01" nType="-99"/>
          <Node pos="r" depth="2" NCoef="0" IVar="-1" Cut="0.0000000000000000e+00" cType="1" res="-5.6739225983619690e-02" rms="1.9750276207923889e-01" purity="4.6857145428657532e-01" nType="-99"/>
        </Node>
        <Node pos="r" depth="1" NCoef="0" IVar="-1" Cut="0.0000000000000000e+00" cType="1" res="3.0768239870667458e-02" rms="7.9855524003505707e-02" purity="8.4102559089660645e-01" nType="-99"/>
      </Node>
    </BinaryTree>
    <BinaryTree type="DecisionTree" boostWeight="1.0000000000000000e+00" itree="224">
      <Node pos="s" depth="0" NCoef="0" IVar="12" Cut="4.0340742187500000e+03" cType="1" res="-1.4554301742464304e-05" rms="2.2161501646041870e-01" purity="5.0000000000000000e-01" nType="0">
        <Node pos="l" depth="1" NCoef="0" IVar="0" Cut="3.6916093750000000e+03" cType="1" res="-7.0019182749092579e-03" rms="2.1800492703914642e-01" purity="4.0680369734764099e-01" nType="0">
          <Node pos="l" depth="2" NCoef="0" IVar="-1" Cut="0.0000000000000000e+00" cType="1" res="3.0870994087308645e-03" rms="2.0011824369430542e-01" purity="3.8689243793487549e-01" nType="-99"/>
          <Node pos="r" depth="2" NCoef="0" IVar="-1" Cut="0.0000000000000000e+00" cType="1" res="-2.4258485063910484e-02" rms="2.6748308539390564e-01" purity="4.7874823212623596e-01" nType="-99"/>
        </Node>
        <Node pos="r" depth="1" NCoef="0" IVar="4" Cut="4.8553881645202637e+00" cType="1" res="1.2825296260416508e-02" rms="2.2754122316837311e-01" purity="6.7125582695007324e-01" nType="0">
          <Node pos="l" depth="2" NCoef="0" IVar="-1" Cut="0.0000000000000000e+00" cType="1" res="2.6041381061077118e-02" rms="2.0844061672687531e-01" purity="6.9752311706542969e-01" nType="-99"/>
          <Node pos="r" depth="2" NCoef="0" IVar="-1" Cut="0.0000000000000000e+00" cType="1" res="-6.3915280625224113e-03" rms="2.3441010713577271e-01" purity="6.5570861101150513e-01" nType="-99"/>
        </Node>
      </Node>
    </BinaryTree>
    <BinaryTree type="DecisionTree" boostWeight="1.0000000000000000e+00" itree="225">
      <Node pos="s" depth="0" NCoef="0" IVar="3" Cut="1.4928527832031250e+03" cType="1" res="-9.5219556897063740e-06" rms="2.2093586623668671e-01" purity="5.0000000000000000e-01" nType="0">
        <Node pos="l" depth="1" NCoef="0" IVar="9" Cut="4.7694833984375000e+03" cType="1" res="-2.2484749555587769e-02" rms="2.4254329502582550e-01" purity="2.8727829456329346e-01" nType="0">
          <Node pos="l" depth="2" NCoef="0" IVar="-1" Cut="0.0000000000000000e+00" cType="1" res="1.5415658243000507e-02" rms="2.2918376326560974e-01" purity="3.7740585207939148e-01" nType="-99"/>
          <Node pos="r" depth="2" NCoef="0" IVar="-1" Cut="0.0000000000000000e+00" cType="1" res="-4.2479526251554489e-02" rms="2.4115553498268127e-01" purity="1.8833255767822266e-01" nType="-99"/>
        </Node>
        <Node pos="r" depth="1" NCoef="0" IVar="2" Cut="5.6926562500000000e+03" cType="1" res="3.9479271508753300e-03" rms="2.1666719019412994e-01" purity="5.3745615482330322e-01" nType="0">
          <Node pos="l" depth="2" NCoef="0" IVar="-1" Cut="0.0000000000000000e+00" cType="1" res="6.5024862997233868e-03" rms="2.1114298701286316e-01" purity="6.0425531864166260e-01" nType="-99"/>
          <Node pos="r" depth="2" NCoef="0" IVar="-1" Cut="0.0000000000000000e+00" cType="1" res="-1.1423101648688316e-02" rms="2.2963835299015045e-01" purity="3.4438279271125793e-01" nType="-99"/>
        </Node>
      </Node>
    </BinaryTree>
    <BinaryTree type="DecisionTree" boostWeight="1.0000000000000000e+00" itree="226">
      <Node pos="s" depth="0" NCoef="0" IVar="3" Cut="3.3495236816406250e+03" cType="1" res="-1.0475316230440512e-05" rms="2.2033314406871796e-01" purity="5.0000000000000000e-01" nType="0">
        <Node pos="l" depth="1" NCoef="0" IVar="10" Cut="6.5294470214843750e+02" cType="1" res="-4.0134056471288204e-03" rms="2.2400079667568207e-01" purity="4.6687203645706177e-01" nType="0">
          <Node pos="l" depth="2" NCoef="0" IVar="-1" Cut="0.0000000000000000e+00" cType="1" res="8.4704335313290358e-04" rms="2.2208020091056824e-01" purity="4.7400817275047302e-01" nType="-99"/>
          <Node pos="r" depth="2" NCoef="0" IVar="-1" Cut="0.0000000000000000e+00" cType="1" res="-6.3942998647689819e-02" rms="2.3395682871341705e-01" purity="3.5942393541336060e-01" nType="-99"/>
        </Node>
        <Node pos="r" depth="1" NCoef="0" IVar="11" Cut="4.1571007812500000e+04" cType="1" res="2.1105989813804626e-02" rms="1.9854313135147095e-01" purity="6.7475825548171997e-01" nType="0">
          <Node pos="l" depth="2" NCoef="0" IVar="-1" Cut="0.0000000000000000e+00" cType="1" res="2.7019880712032318e-02" rms="2.0320466160774231e-01" purity="6.5797388553619385e-01" nType="-99"/>
          <Node pos="r" depth="2" NCoef="0" IVar="-1" Cut="0.0000000000000000e+00" cType="1" res="-1.3051638379693031e-02" rms="1.8242523074150085e-01" purity="7.0160424709320068e-01" nType="-99"/>
        </Node>
      </Node>
    </BinaryTree>
    <BinaryTree type="DecisionTree" boostWeight="1.0000000000000000e+00" itree="227">
      <Node pos="s" depth="0" NCoef="0" IVar="2" Cut="5.3147377929687500e+03" cType="1" res="-9.1909842012682930e-06" rms="2.1961084008216858e-01" purity="5.0000000000000000e-01" nType="0">
        <Node pos="l" depth="1" NCoef="0" IVar="12" Cut="2.8847011718750000e+03" cType="1" res="-2.0785484462976456e-02" rms="8.8179044425487518e-02" purity="5.1217984408140182e-02" nType="0">
          <Node pos="l" depth="2" NCoef="0" IVar="-1" Cut="0.0000000000000000e+00" cType="1" res="-3.3055499661713839e-03" rms="1.1719174683094025e-01" purity="8.9227423071861267e-02" nType="-99"/>
          <Node pos="r" depth="2" NCoef="0" IVar="-1" Cut="0.0000000000000000e+00" cType="1" res="-4.4682372361421585e-02" rms="6.1317127197980881e-02" purity="2.7655985206365585e-02" nType="-99"/>
        </Node>
        <Node pos="r" depth="1" NCoef="0" IVar="10" Cut="2.0833163452148438e+02" cType="1" res="3.8734804838895798e-03" rms="2.3599386215209961e-01" purity="5.8386832475662231e-01" nType="0">
          <Node pos="l" depth="2" NCoef="0" IVar="-1" Cut="0.0000000000000000e+00" cType="1" res="-1.3916233554482460e-02" rms="2.7794560790061951e-01" purity="3.5528594255447388e-01" nType="-99"/>
          <Node pos="r" depth="2" NCoef="0" IVar="-1" Cut="0.0000000000000000e+00" cType="1" res="3.5242317244410515e-03" rms="2.3101797699928284e-01" purity="6.0642069578170776e-01" nType="-99"/>
        </Node>
      </Node>
    </BinaryTree>
    <BinaryTree type="DecisionTree" boostWeight="1.0000000000000000e+00" itree="228">
      <Node pos="s" depth="0" NCoef="0" IVar="4" Cut="8.9473457336425781e+00" cType="1" res="-1.6853553461260162e-05" rms="2.1945685148239136e-01" purity="5.0000000000000000e-01" nType="0">
        <Node pos="l" depth="1" NCoef="0" IVar="5" Cut="5.9902834892272949e-01" cType="1" res="2.1913426462560892e-03" rms="2.2258637845516205e-01" purity="5.2158498764038086e-01" nType="0">
          <Node pos="l" depth="2" NCoef="0" IVar="-1" Cut="0.0000000000000000e+00" cType="1" res="-4.0733925998210907e-03" rms="2.2116419672966003e-01" purity="4.8136192560195923e-01" nType="-99"/>
          <Node pos="r" depth="2" NCoef="0" IVar="-1" Cut="0.0000000000000000e+00" cType="1" res="1.3797195628285408e-02" rms="2.2380340099334717e-01" purity="6.2031698226928711e-01" nType="-99"/>
        </Node>
        <Node pos="r" depth="1" NCoef="0" IVar="-1" Cut="0.0000000000000000e+00" cType="1" res="-2.6036441326141357e-02" rms="1.5422484278678894e-01" purity="1.4186850190162659e-01" nType="-99"/>
      </Node>
    </BinaryTree>
    <BinaryTree type="DecisionTree" boostWeight="1.0000000000000000e+00" itree="229">
      <Node pos="s" depth="0" NCoef="0" IVar="8" Cut="2.1462006835937500e+03" cType="1" res="-1.4901227586960886e-05" rms="2.1919856965541840e-01" purity="5.0000000000000000e-01" nType="0">
        <Node pos="l" depth="1" NCoef="0" IVar="4" Cut="7.1402935981750488e+00" cType="1" res="-6.7117828875780106e-03" rms="2.2507105767726898e-01" purity="4.2910337448120117e-01" nType="0">
          <Node pos="l" depth="2" NCoef="0" IVar="-1" Cut="0.0000000000000000e+00" cType="1" res="1.0971173178404570e-03" rms="2.2169049084186554e-01" purity="4.7941285371780396e-01" nType="-99"/>
          <Node pos="r" depth="2" NCoef="0" IVar="-1" Cut="0.0000000000000000e+00" cType="1" res="-2.3088730871677399e-02" rms="2.3491632938385010e-01" purity="2.1601682901382446e-01" nType="-99"/>
        </Node>
        <Node pos="r" depth="1" NCoef="0" IVar="5" Cut="5.9068810939788818e-01" cType="1" res="1.2505684979259968e-02" rms="2.0719468593597412e-01" purity="6.3254940509796143e-01" nType="0">
          <Node pos="l" depth="2" NCoef="0" IVar="-1" Cut="0.0000000000000000e+00" cType="1" res="-2.3783862125128508e-03" rms="2.1244917809963226e-01" purity="5.5744391679763794e-01" nType="-99"/>
          <Node pos="r" depth="2" NCoef="0" IVar="-1" Cut="0.0000000000000000e+00" cType="1" res="3.1675782054662704e-02" rms="1.8926268815994263e-01" purity="8.0122137069702148e-01" nType="-99"/>
        </Node>
      </Node>
    </BinaryTree>
    <BinaryTree type="DecisionTree" boostWeight="1.0000000000000000e+00" itree="230">
      <Node pos="s" depth="0" NCoef="0" IVar="12" Cut="4.0340742187500000e+03" cType="1" res="-1.0438399840495549e-05" rms="2.1879757940769196e-01" purity="5.0000000000000000e-01" nType="0">
        <Node pos="l" depth="1" NCoef="0" IVar="1" Cut="1.1873253906250000e+05" cType="1" res="-6.7543592303991318e-03" rms="2.1506832540035248e-01" purity="4.0680369734764099e-01" nType="0">
          <Node pos="l" depth="2" NCoef="0" IVar="-1" Cut="0.0000000000000000e+00" cType="1" res="1.4780093624722213e-04" rms="2.1085985004901886e-01" purity="4.1041043400764465e-01" nType="-99"/>
          <Node pos="r" depth="2" NCoef="0" IVar="-1" Cut="0.0000000000000000e+00" cType="1" res="-2.9060825705528259e-02" rms="2.4251015484333038e-01" purity="3.7020313739776611e-01" nType="-99"/>
        </Node>
        <Node pos="r" depth="1" NCoef="0" IVar="7" Cut="2.1760638671875000e+04" cType="1" res="1.2382064945995808e-02" rms="2.2496320307254791e-01" purity="6.7125582695007324e-01" nType="0">
          <Node pos="l" depth="2" NCoef="0" IVar="-1" Cut="0.0000000000000000e+00" cType="1" res="-5.1826890558004379e-03" rms="2.4478068947792053e-01" purity="6.0676538944244385e-01" nType="-99"/>
          <Node pos="r" depth="2" NCoef="0" IVar="-1" Cut="0.0000000000000000e+00" cType="1" res="3.1744822859764099e-02" rms="1.8227188289165497e-01" purity="7.7470934391021729e-01" nType="-99"/>
        </Node>
      </Node>
    </BinaryTree>
    <BinaryTree type="DecisionTree" boostWeight="1.0000000000000000e+00" itree="231">
      <Node pos="s" depth="0" NCoef="0" IVar="11" Cut="8.3268609375000000e+04" cType="1" res="-6.6701259129331447e-06" rms="2.1811021864414215e-01" purity="5.0000000000000000e-01" nType="0">
        <Node pos="l" depth="1" NCoef="0" IVar="11" Cut="1.0463782226562500e+04" cType="1" res="-3.5097065847367048e-03" rms="2.2201995551586151e-01" purity="4.8498773574829102e-01" nType="0">
          <Node pos="l" depth="2" NCoef="0" IVar="-1" Cut="0.0000000000000000e+00" cType="1" res="-4.7807559370994568e-02" rms="1.5972104668617249e-01" purity="9.2342339456081390e-02" nType="-99"/>
          <Node pos="r" depth="2" NCoef="0" IVar="-1" Cut="0.0000000000000000e+00" cType="1" res="1.5038768760859966e-03" rms="2.2691081464290619e-01" purity="5.2878856658935547e-01" nType="-99"/>
        </Node>
        <Node pos="r" depth="1" NCoef="0" IVar="6" Cut="1.6150740051269531e+02" cType="1" res="2.3481104522943497e-02" rms="1.8814949691295624e-01" purity="6.0065674781799316e-01" nType="0">
          <Node pos="l" depth="2" NCoef="0" IVar="-1" Cut="0.0000000000000000e+00" cType="1" res="3.8951475173234940e-02" rms="1.8559068441390991e-01" purity="6.7291909456253052e-01" nType="-99"/>
          <Node pos="r" depth="2" NCoef="0" IVar="-1" Cut="0.0000000000000000e+00" cType="1" res="-1.0653332807123661e-02" rms="1.7789471149444580e-01" purity="5.4593878984451294e-01" nType="-99"/>
        </Node>
      </Node>
    </BinaryTree>
    <BinaryTree type="DecisionTree" boostWeight="1.0000000000000000e+00" itree="232">
      <Node pos="s" depth="0" NCoef="0" IVar="11" Cut="2.6023939453125000e+04" cType="1" res="-1.2052807505824603e-05" rms="2.1740885078907013e-01" purity="5.0000000000000000e-01" nType="0">
        <Node pos="l" depth="1" NCoef="0" IVar="12" Cut="2.7225319824218750e+03" cType="1" res="1.2214759364724159e-02" rms="1.8576999008655548e-01" purity="4.1018313169479370e-01" nType="0">
          <Node pos="l" depth="2" NCoef="0" IVar="-1" Cut="0.0000000000000000e+00" cType="1" res="-2.3862162604928017e-02" rms="1.3522940874099731e-01" purity="1.8061673641204834e-01" nType="-99"/>
          <Node pos="r" depth="2" NCoef="0" IVar="-1" Cut="0.0000000000000000e+00" cType="1" res="2.5112882256507874e-02" rms="2.0729465782642365e-01" purity="5.6679189205169678e-01" nType="-99"/>
        </Node>
        <Node pos="r" depth="1" NCoef="0" IVar="1" Cut="5.4089277343750000e+04" cType="1" res="-7.1009318344295025e-03" rms="2.3350682854652405e-01" purity="5.5207413434982300e-01" nType="0">
          <Node pos="l" depth="2" NCoef="0" IVar="-1" Cut="0.0000000000000000e+00" cType="1" res="-4.6835113316774368e-02" rms="2.0330594480037689e-01" purity="2.6635730266571045e-01" nType="-99"/>
          <Node pos="r" depth="2" NCoef="0" IVar="-1" Cut="0.0000000000000000e+00" cType="1" res="3.0723314266651869e-03" rms="2.3324273526668549e-01" purity="5.8796781301498413e-01" nType="-99"/>
        </Node>
      </Node>
    </BinaryTree>
    <BinaryTree type="DecisionTree" boostWeight="1.0000000000000000e+00" itree="233">
      <Node pos="s" depth="0" NCoef="0" IVar="2" Cut="5.8343754882812500e+03" cType="1" res="-1.7988524632528424e-05" rms="2.1612802147865295e-01" purity="5.0000000000000000e-01" nType="0">
        <Node pos="l" depth="1" NCoef="0" IVar="9" Cut="8.8247343750000000e+03" cType="1" res="3.8366811349987984e-03" rms="2.1958313882350922e-01" purity="5.6466394662857056e-01" nType="0">
          <Node pos="l" depth="2" NCoef="0" IVar="-1" Cut="0.0000000000000000e+00" cType="1" res="-7.2593666845932603e-04" rms="2.1859610080718994e-01" purity="5.5678796768188477e-01" nType="-99"/>
          <Node pos="r" depth="2" NCoef="0" IVar="-1" Cut="0.0000000000000000e+00" cType="1" res="2.5860857218503952e-02" rms="2.2171153128147125e-01" purity="6.5201121568679810e-01" nType="-99"/>
        </Node>
        <Node pos="r" depth="1" NCoef="0" IVar="11" Cut="3.6049121093750000e+04" cType="1" res="-2.1422792226076126e-02" rms="1.9445067644119263e-01" purity="1.4092373847961426e-01" nType="0">
          <Node pos="l" depth="2" NCoef="0" IVar="-1" Cut="0.0000000000000000e+00" cType="1" res="1.0667022317647934e-02" rms="2.0794530212879181e-01" purity="1.0314465314149857e-01" nType="-99"/>
          <Node pos="r" depth="2" NCoef="0" IVar="-1" Cut="0.0000000000000000e+00" cType="1" res="-2.8697066009044647e-02" rms="1.7150861024856567e-01" purity="1.8061673641204834e-01" nType="-99"/>
        </Node>
      </Node>
    </BinaryTree>
    <BinaryTree type="DecisionTree" boostWeight="1.0000000000000000e+00" itree="234">
      <Node pos="s" depth="0" NCoef="0" IVar="7" Cut="4.2463347656250000e+04" cType="1" res="-1.8450858988217078e-05" rms="2.1574358642101288e-01" purity="5.0000000000000000e-01" nType="0">
        <Node pos="l" depth="1" NCoef="0" IVar="7" Cut="3.0254386718750000e+04" cType="1" res="2.2293278016149998e-03" rms="2.1462269127368927e-01" purity="5.0354140996932983e-01" nType="0">
          <Node pos="l" depth="2" NCoef="0" IVar="-1" Cut="0.0000000000000000e+00" cType="1" res="-2.2157896310091019e-03" rms="2.1998733282089233e-01" purity="5.0139570236206055e-01" nType="-99"/>
          <Node pos="r" depth="2" NCoef="0" IVar="-1" Cut="0.0000000000000000e+00" cType="1" res="1.5115823596715927e-02" rms="1.9132819771766663e-01" purity="5.1149046421051025e-01" nType="-99"/>
        </Node>
        <Node pos="r" depth="1" NCoef="0" IVar="-1" Cut="0.0000000000000000e+00" cType="1" res="-1.4296918176114559e-02" rms="2.2966641187667847e-01" purity="4.4492673873901367e-01" nType="-99"/>
      </Node>
    </BinaryTree>
    <BinaryTree type="DecisionTree" boostWeight="1.0000000000000000e+00" itree="235">
      <Node pos="s" depth="0" NCoef="0" IVar="2" Cut="5.3147377929687500e+03" cType="1" res="-1.6174089978449047e-05" rms="2.1552880108356476e-01" purity="5.0000000000000000e-01" nType="0">
        <Node pos="l" depth="1" NCoef="0" IVar="10" Cut="2.8873748779296875e+02" cType="1" res="-2.0255416631698608e-02" rms="9.0012893080711365e-02" purity="5.1217984408140182e-02" nType="0">
          <Node pos="l" depth="2" NCoef="0" IVar="-1" Cut="0.0000000000000000e+00" cType="1" res="-4.3894305825233459e-02" rms="8.9365661144256592e-02" purity="4.2224511504173279e-02" nType="-99"/>
          <Node pos="r" depth="2" NCoef="0" IVar="-1" Cut="0.0000000000000000e+00" cType="1" res="-1.1958048678934574e-02" rms="8.8529571890830994e-02" purity="5.7322613894939423e-02" nType="-99"/>
        </Node>
        <Node pos="r" depth="1" NCoef="0" IVar="8" Cut="2.1462006835937500e+03" cType="1" res="3.7661332171410322e-03" rms="2.3136273026466370e-01" purity="5.8386832475662231e-01" nType="0">
          <Node pos="l" depth="2" NCoef="0" IVar="-1" Cut="0.0000000000000000e+00" cType="1" res="-2.3180551361292601e-03" rms="2.4157316982746124e-01" purity="5.1410657167434692e-01" nType="-99"/>
          <Node pos="r" depth="2" NCoef="0" IVar="-1" Cut="0.0000000000000000e+00" cType="1" res="1.0644145309925079e-02" rms="2.1157817542552948e-01" purity="7.0419842004776001e-01" nType="-99"/>
        </Node>
      </Node>
    </BinaryTree>
    <BinaryTree type="DecisionTree" boostWeight="1.0000000000000000e+00" itree="236">
      <Node pos="s" depth="0" NCoef="0" IVar="2" Cut="5.8343754882812500e+03" cType="1" res="-1.8824963262886740e-05" rms="2.1534611284732819e-01" purity="5.0000000000000000e-01" nType="0">
        <Node pos="l" depth="1" NCoef="0" IVar="6" Cut="6.8348541259765625e+01" cType="1" res="3.6694419104605913e-03" rms="2.1898162364959717e-01" purity="5.6466394662857056e-01" nType="0">
          <Node pos="l" depth="2" NCoef="0" IVar="-1" Cut="0.0000000000000000e+00" cType="1" res="-7.4068666435778141e-03" rms="2.4399259686470032e-01" purity="4.4982251524925232e-01" nType="-99"/>
          <Node pos="r" depth="2" NCoef="0" IVar="-1" Cut="0.0000000000000000e+00" cType="1" res="8.5036000236868858e-03" rms="2.0251727104187012e-01" purity="6.2916868925094604e-01" nType="-99"/>
        </Node>
        <Node pos="r" depth="1" NCoef="0" IVar="11" Cut="3.6049121093750000e+04" cType="1" res="-2.0499600097537041e-02" rms="1.9264167547225952e-01" purity="1.4092373847961426e-01" nType="0">
          <Node pos="l" depth="2" NCoef="0" IVar="-1" Cut="0.0000000000000000e+00" cType="1" res="8.7356744334101677e-03" rms="2.0539355278015137e-01" purity="1.0314465314149857e-01" nType="-99"/>
          <Node pos="r" depth="2" NCoef="0" IVar="-1" Cut="0.0000000000000000e+00" cType="1" res="-2.6963017880916595e-02" rms="1.7192938923835754e-01" purity="1.8061673641204834e-01" nType="-99"/>
        </Node>
      </Node>
    </BinaryTree>
    <BinaryTree type="DecisionTree" boostWeight="1.0000000000000000e+00" itree="237">
      <Node pos="s" depth="0" NCoef="0" IVar="9" Cut="2.6159143066406250e+03" cType="1" res="-1.9106597392237745e-05" rms="2.1507617831230164e-01" purity="5.0000000000000000e-01" nType="0">
        <Node pos="l" depth="1" NCoef="0" IVar="6" Cut="1.2090515899658203e+02" cType="1" res="2.1169042214751244e-02" rms="1.8179836869239807e-01" purity="5.8519178628921509e-01" nType="0">
          <Node pos="l" depth="2" NCoef="0" IVar="-1" Cut="0.0000000000000000e+00" cType="1" res="2.2877529263496399e-02" rms="1.4661164581775665e-01" purity="6.4833277463912964e-01" nType="-99"/>
          <Node pos="r" depth="2" NCoef="0" IVar="-1" Cut="0.0000000000000000e+00" cType="1" res="-5.4714130237698555e-03" rms="2.2956149280071259e-01" purity="4.6857145428657532e-01" nType="-99"/>
        </Node>
        <Node pos="r" depth="1" NCoef="0" IVar="4" Cut="1.3225860595703125e+00" cType="1" res="-3.6704386584460735e-03" rms="2.2009778022766113e-01" purity="4.8531895875930786e-01" nType="0">
          <Node pos="l" depth="2" NCoef="0" IVar="-1" Cut="0.0000000000000000e+00" cType="1" res="-3.7762768566608429e-02" rms="1.4831283688545227e-01" purity="4.6697035431861877e-02" nType="-99"/>
          <Node pos="r" depth="2" NCoef="0" IVar="-1" Cut="0.0000000000000000e+00" cType="1" res="9.6209754701703787e-05" rms="2.2390754520893097e-01" purity="5.1706230640411377e-01" nType="-99"/>
        </Node>
      </Node>
    </BinaryTree>
    <BinaryTree type="DecisionTree" boostWeight="1.0000000000000000e+00" itree="238">
      <Node pos="s" depth="0" NCoef="0" IVar="4" Cut="5.3332409858703613e+00" cType="1" res="-2.1758283764938824e-05" rms="2.1485142409801483e-01" purity="5.0000000000000000e-01" nType="0">
        <Node pos="l" depth="1" NCoef="0" IVar="5" Cut="2.6515886187553406e-01" cType="1" res="9.6135539934039116e-03" rms="1.8998181819915771e-01" purity="5.1294732093811035e-01" nType="0">
          <Node pos="l" depth="2" NCoef="0" IVar="-1" Cut="0.0000000000000000e+00" cType="1" res="-5.3504076786339283e-03" rms="1.9422224164009094e-01" purity="4.4163870811462402e-01" nType="-99"/>
          <Node pos="r" depth="2" NCoef="0" IVar="-1" Cut="0.0000000000000000e+00" cType="1" res="4.8375032842159271e-02" rms="1.3561192154884338e-01" purity="8.4640789031982422e-01" nType="-99"/>
        </Node>
        <Node pos="r" depth="1" NCoef="0" IVar="7" Cut="2.9158359375000000e+04" cType="1" res="-7.9273609444499016e-03" rms="2.3298737406730652e-01" purity="4.8937696218490601e-01" nType="0">
          <Node pos="l" depth="2" NCoef="0" IVar="-1" Cut="0.0000000000000000e+00" cType="1" res="-9.8489420488476753e-03" rms="2.3451764881610870e-01" purity="4.8967075347900391e-01" nType="-99"/>
          <Node pos="r" depth="2" NCoef="0" IVar="-1" Cut="0.0000000000000000e+00" cType="1" res="1.6808519139885902e-02" rms="2.2370526194572449e-01" purity="4.8854264616966248e-01" nType="-99"/>
        </Node>
      </Node>
    </BinaryTree>
    <BinaryTree type="DecisionTree" boostWeight="1.0000000000000000e+00" itree="239">
      <Node pos="s" depth="0" NCoef="0" IVar="7" Cut="3.9137101562500000e+04" cType="1" res="-3.0252585929702036e-06" rms="2.1389289200305939e-01" purity="5.0000000000000000e-01" nType="0">
        <Node pos="l" depth="1" NCoef="0" IVar="7" Cut="1.0564618164062500e+04" cType="1" res="2.9643175657838583e-03" rms="2.1434928476810455e-01" purity="5.0317645072937012e-01" nType="0">
          <Node pos="l" depth="2" NCoef="0" IVar="-1" Cut="0.0000000000000000e+00" cType="1" res="2.5926254689693451e-02" rms="1.6752560436725616e-01" purity="6.3813227415084839e-01" nType="-99"/>
          <Node pos="r" depth="2" NCoef="0" IVar="-1" Cut="0.0000000000000000e+00" cType="1" res="-6.2488717958331108e-04" rms="2.1762241423130035e-01" purity="4.9088260531425476e-01" nType="-99"/>
        </Node>
        <Node pos="r" depth="1" NCoef="0" IVar="-1" Cut="0.0000000000000000e+00" cType="1" res="-1.3693404383957386e-02" rms="2.0704403519630432e-01" purity="4.6857142448425293e-01" nType="-99"/>
      </Node>
    </BinaryTree>
    <BinaryTree type="DecisionTree" boostWeight="1.0000000000000000e+00" itree="240">
      <Node pos="s" depth="0" NCoef="0" IVar="2" Cut="5.3147377929687500e+03" cType="1" res="-3.1220525897879270e-07" rms="2.1367828547954559e-01" purity="5.0000000000000000e-01" nType="0">
        <Node pos="l" depth="1" NCoef="0" IVar="12" Cut="2.8847011718750000e+03" cType="1" res="-1.9991884008049965e-02" rms="8.6264364421367645e-02" purity="5.1217984408140182e-02" nType="0">
          <Node pos="l" depth="2" NCoef="0" IVar="-1" Cut="0.0000000000000000e+00" cType="1" res="-4.3066958896815777e-03" rms="1.1214749515056610e-01" purity="8.9227423071861267e-02" nType="-99"/>
          <Node pos="r" depth="2" NCoef="0" IVar="-1" Cut="0.0000000000000000e+00" cType="1" res="-4.3405253440141678e-02" rms="6.3157886266708374e-02" purity="2.7655985206365585e-02" nType="-99"/>
        </Node>
        <Node pos="r" depth="1" NCoef="0" IVar="10" Cut="2.0833163452148438e+02" cType="1" res="3.7357104010879993e-03" rms="2.2959034144878387e-01" purity="5.8386832475662231e-01" nType="0">
          <Node pos="l" depth="2" NCoef="0" IVar="-1" Cut="0.0000000000000000e+00" cType="1" res="-1.2907620519399643e-02" rms="2.7513480186462402e-01" purity="3.5528594255447388e-01" nType="-99"/>
          <Node pos="r" depth="2" NCoef="0" IVar="-1" Cut="0.0000000000000000e+00" cType="1" res="3.4148690756410360e-03" rms="2.2422529757022858e-01" purity="6.0642069578170776e-01" nType="-99"/>
        </Node>
      </Node>
    </BinaryTree>
    <BinaryTree type="DecisionTree" boostWeight="1.0000000000000000e+00" itree="241">
      <Node pos="s" depth="0" NCoef="0" IVar="12" Cut="4.0340742187500000e+03" cType="1" res="-7.9343963079736568e-06" rms="2.1353767812252045e-01" purity="5.0000000000000000e-01" nType="0">
        <Node pos="l" depth="1" NCoef="0" IVar="0" Cut="3.6916093750000000e+03" cType="1" res="-6.4898291602730751e-03" rms="2.0884762704372406e-01" purity="4.0680369734764099e-01" nType="0">
          <Node pos="l" depth="2" NCoef="0" IVar="-1" Cut="0.0000000000000000e+00" cType="1" res="2.5390845257788897e-03" rms="1.9147217273712158e-01" purity="3.8689243793487549e-01" nType="-99"/>
          <Node pos="r" depth="2" NCoef="0" IVar="-1" Cut="0.0000000000000000e+00" cType="1" res="-2.1783288568258286e-02" rms="2.5790923833847046e-01" purity="4.7874823212623596e-01" nType="-99"/>
        </Node>
        <Node pos="r" depth="1" NCoef="0" IVar="4" Cut="4.8553881645202637e+00" cType="1" res="1.1903075501322746e-02" rms="2.2140352427959442e-01" purity="6.7125582695007324e-01" nType="0">
          <Node pos="l" depth="2" NCoef="0" IVar="-1" Cut="0.0000000000000000e+00" cType="1" res="2.4700036272406578e-02" rms="2.0318832993507385e-01" purity="6.9752311706542969e-01" nType="-99"/>
          <Node pos="r" depth="2" NCoef="0" IVar="-1" Cut="0.0000000000000000e+00" cType="1" res="-5.8323657140135765e-03" rms="2.2835165262222290e-01" purity="6.5570861101150513e-01" nType="-99"/>
        </Node>
      </Node>
    </BinaryTree>
    <BinaryTree type="DecisionTree" boostWeight="1.0000000000000000e+00" itree="242">
      <Node pos="s" depth="0" NCoef="0" IVar="8" Cut="2.1462006835937500e+03" cType="1" res="-3.9417986954504158e-06" rms="2.1295747160911560e-01" purity="5.0000000000000000e-01" nType="0">
        <Node pos="l" depth="1" NCoef="0" IVar="3" Cut="1.6816038818359375e+03" cType="1" res="-6.4773578196763992e-03" rms="2.1872849762439728e-01" purity="4.2910337448120117e-01" nType="0">
          <Node pos="l" depth="2" NCoef="0" IVar="-1" Cut="0.0000000000000000e+00" cType="1" res="-1.2759213335812092e-02" rms="1.9942876696586609e-01" purity="3.2532304525375366e-01" nType="-99"/>
          <Node pos="r" depth="2" NCoef="0" IVar="-1" Cut="0.0000000000000000e+00" cType="1" res="3.6030439659953117e-03" rms="2.3193956911563873e-01" purity="5.1194357872009277e-01" nType="-99"/>
        </Node>
        <Node pos="r" depth="1" NCoef="0" IVar="4" Cut="5.4148464202880859e+00" cType="1" res="1.2098849751055241e-02" rms="2.0116743445396423e-01" purity="6.3254940509796143e-01" nType="0">
          <Node pos="l" depth="2" NCoef="0" IVar="-1" Cut="0.0000000000000000e+00" cType="1" res="2.6952533051371574e-02" rms="1.4607560634613037e-01" purity="6.8166261911392212e-01" nType="-99"/>
          <Node pos="r" depth="2" NCoef="0" IVar="-1" Cut="0.0000000000000000e+00" cType="1" res="-3.8472157903015614e-03" rms="2.2679190337657928e-01" purity="6.0183483362197876e-01" nType="-99"/>
        </Node>
      </Node>
    </BinaryTree>
    <BinaryTree type="DecisionTree" boostWeight="1.0000000000000000e+00" itree="243">
      <Node pos="s" depth="0" NCoef="0" IVar="10" Cut="7.1833148193359375e+02" cType="1" res="1.3059379000424087e-07" rms="2.1258985996246338e-01" purity="5.0000000000000000e-01" nType="0">
        <Node pos="l" depth="1" NCoef="0" IVar="10" Cut="5.6815917968750000e+02" cType="1" res="-2.9900656081736088e-03" rms="2.1846251189708710e-01" purity="4.7496151924133301e-01" nType="0">
          <Node pos="l" depth="2" NCoef="0" IVar="-1" Cut="0.0000000000000000e+00" cType="1" res="2.0200298167765141e-03" rms="2.0994783937931061e-01" purity="4.7046551108360291e-01" nType="-99"/>
          <Node pos="r" depth="2" NCoef="0" IVar="-1" Cut="0.0000000000000000e+00" cType="1" res="-2.1363181993365288e-02" rms="2.5604939460754395e-01" purity="4.9918049573898315e-01" nType="-99"/>
        </Node>
        <Node pos="r" depth="1" NCoef="0" IVar="1" Cut="5.8815292968750000e+04" cType="1" res="2.5284251198172569e-02" rms="1.5190353989601135e-01" purity="7.1171730756759644e-01" nType="0">
          <Node pos="l" depth="2" NCoef="0" IVar="-1" Cut="0.0000000000000000e+00" cType="1" res="-7.9689389094710350e-03" rms="1.7846022546291351e-01" purity="5.4799515008926392e-01" nType="-99"/>
          <Node pos="r" depth="2" NCoef="0" IVar="-1" Cut="0.0000000000000000e+00" cType="1" res="5.8080520480871201e-02" rms="1.0342576354742050e-01" purity="8.8227850198745728e-01" nType="-99"/>
        </Node>
      </Node>
    </BinaryTree>
    <BinaryTree type="DecisionTree" boostWeight="1.0000000000000000e+00" itree="244">
      <Node pos="s" depth="0" NCoef="0" IVar="11" Cut="1.0235017187500000e+05" cType="1" res="1.1148308658448514e-05" rms="2.1202534437179565e-01" purity="5.0000000000000000e-01" nType="0">
        <Node pos="l" depth="1" NCoef="0" IVar="1" Cut="3.6933683593750000e+04" cType="1" res="-2.4073126260191202e-03" rms="2.1227429807186127e-01" purity="4.9324181675910950e-01" nType="0">
          <Node pos="l" depth="2" NCoef="0" IVar="-1" Cut="0.0000000000000000e+00" cType="1" res="2.6992307975888252e-02" rms="1.4393585920333862e-01" purity="4.5513409376144409e-01" nType="-99"/>
          <Node pos="r" depth="2" NCoef="0" IVar="-1" Cut="0.0000000000000000e+00" cType="1" res="-3.9531183429062366e-03" rms="2.1891228854656219e-01" purity="4.9818143248558044e-01" nType="-99"/>
        </Node>
        <Node pos="r" depth="1" NCoef="0" IVar="-1" Cut="0.0000000000000000e+00" cType="1" res="1.4932835474610329e-02" rms="2.0644631981849670e-01" purity="5.8519178628921509e-01" nType="-99"/>
      </Node>
    </BinaryTree>
    <BinaryTree type="DecisionTree" boostWeight="1.0000000000000000e+00" itree="245">
      <Node pos="s" depth="0" NCoef="0" IVar="12" Cut="6.7410927734375000e+03" cType="1" res="1.2296737622818910e-05" rms="2.1166534721851349e-01" purity="5.0000000000000000e-01" nType="0">
        <Node pos="l" depth="1" NCoef="0" IVar="12" Cut="5.8214692382812500e+03" cType="1" res="-2.3656645789742470e-03" rms="2.1911770105361938e-01" purity="4.7166597843170166e-01" nType="0">
          <Node pos="l" depth="2" NCoef="0" IVar="-1" Cut="0.0000000000000000e+00" cType="1" res="1.4949239557608962e-03" rms="2.1951116621494293e-01" purity="4.7184929251670837e-01" nType="-99"/>
          <Node pos="r" depth="2" NCoef="0" IVar="-1" Cut="0.0000000000000000e+00" cType="1" res="-5.6380845606327057e-02" rms="1.8920630216598511e-01" purity="4.6857145428657532e-01" nType="-99"/>
        </Node>
        <Node pos="r" depth="1" NCoef="0" IVar="-1" Cut="0.0000000000000000e+00" cType="1" res="2.9801545664668083e-02" rms="7.2632901370525360e-02" purity="8.4102559089660645e-01" nType="-99"/>
      </Node>
    </BinaryTree>
    <BinaryTree type="DecisionTree" boostWeight="1.0000000000000000e+00" itree="246">
      <Node pos="s" depth="0" NCoef="0" IVar="12" Cut="4.0340742187500000e+03" cType="1" res="1.1910406101378612e-05" rms="2.1098574995994568e-01" purity="5.0000000000000000e-01" nType="0">
        <Node pos="l" depth="1" NCoef="0" IVar="1" Cut="1.1873253906250000e+05" cType="1" res="-6.3516995869576931e-03" rms="2.0695751905441284e-01" purity="4.0680369734764099e-01" nType="0">
          <Node pos="l" depth="2" NCoef="0" IVar="-1" Cut="0.0000000000000000e+00" cType="1" res="7.4706484156195074e-05" rms="2.0338599383831024e-01" purity="4.1041043400764465e-01" nType="-99"/>
          <Node pos="r" depth="2" NCoef="0" IVar="-1" Cut="0.0000000000000000e+00" cType="1" res="-2.8021451085805893e-02" rms="2.3005242645740509e-01" purity="3.7020313739776611e-01" nType="-99"/>
        </Node>
        <Node pos="r" depth="1" NCoef="0" IVar="4" Cut="4.8553881645202637e+00" cType="1" res="1.1705561541020870e-02" rms="2.1770973503589630e-01" purity="6.7125582695007324e-01" nType="0">
          <Node pos="l" depth="2" NCoef="0" IVar="-1" Cut="0.0000000000000000e+00" cType="1" res="2.3225119337439537e-02" rms="1.9796884059906006e-01" purity="6.9752311706542969e-01" nType="-99"/>
          <Node pos="r" depth="2" NCoef="0" IVar="-1" Cut="0.0000000000000000e+00" cType="1" res="-4.8323711380362511e-03" rms="2.2596365213394165e-01" purity="6.5570861101150513e-01" nType="-99"/>
        </Node>
      </Node>
    </BinaryTree>
    <BinaryTree type="DecisionTree" boostWeight="1.0000000000000000e+00" itree="247">
      <Node pos="s" depth="0" NCoef="0" IVar="2" Cut="5.7398959960937500e+03" cType="1" res="1.2767857697326690e-05" rms="2.1047469973564148e-01" purity="5.0000000000000000e-01" nType="0">
        <Node pos="l" depth="1" NCoef="0" IVar="2" Cut="5.6782807617187500e+03" cType="1" res="4.3921493925154209e-03" rms="2.1658042073249817e-01" purity="5.7164198160171509e-01" nType="0">
          <Node pos="l" depth="2" NCoef="0" IVar="-1" Cut="0.0000000000000000e+00" cType="1" res="-4.5765354298055172e-04" rms="2.1015772223472595e-01" purity="5.4735088348388672e-01" nType="-99"/>
          <Node pos="r" depth="2" NCoef="0" IVar="-1" Cut="0.0000000000000000e+00" cType="1" res="1.9767820835113525e-02" rms="2.6079815626144409e-01" purity="7.7909737825393677e-01" nType="-99"/>
        </Node>
        <Node pos="r" depth="1" NCoef="0" IVar="10" Cut="6.6445507812500000e+02" cType="1" res="-1.6464784741401672e-02" rms="1.8478429317474365e-01" purity="2.3044495284557343e-01" nType="0">
          <Node pos="l" depth="2" NCoef="0" IVar="-1" Cut="0.0000000000000000e+00" cType="1" res="-1.9009822979569435e-02" rms="1.6476729512214661e-01" purity="2.0512820780277252e-01" nType="-99"/>
          <Node pos="r" depth="2" NCoef="0" IVar="-1" Cut="0.0000000000000000e+00" cType="1" res="1.8871475011110306e-02" rms="2.2646619379520416e-01" purity="3.0597016215324402e-01" nType="-99"/>
        </Node>
      </Node>
    </BinaryTree>
    <BinaryTree type="DecisionTree" boostWeight="1.0000000000000000e+00" itree="248">
      <Node pos="s" depth="0" NCoef="0" IVar="11" Cut="8.3268609375000000e+04" cType="1" res="9.5890136435627937e-06" rms="2.1015478670597076e-01" purity="5.0000000000000000e-01" nType="0">
        <Node pos="l" depth="1" NCoef="0" IVar="11" Cut="1.0463782226562500e+04" cType="1" res="-3.2860038336366415e-03" rms="2.1451345086097717e-01" purity="4.8498773574829102e-01" nType="0">
          <Node pos="l" depth="2" NCoef="0" IVar="-1" Cut="0.0000000000000000e+00" cType="1" res="-4.6564411371946335e-02" rms="1.5390765666961670e-01" purity="9.2342339456081390e-02" nType="-99"/>
          <Node pos="r" depth="2" NCoef="0" IVar="-1" Cut="0.0000000000000000e+00" cType="1" res="1.4115916565060616e-03" rms="2.1935288608074188e-01" purity="5.2878856658935547e-01" nType="-99"/>
        </Node>
        <Node pos="r" depth="1" NCoef="0" IVar="6" Cut="1.6150740051269531e+02" cType="1" res="2.2106459364295006e-02" rms="1.7661568522453308e-01" purity="6.0065674781799316e-01" nType="0">
          <Node pos="l" depth="2" NCoef="0" IVar="-1" Cut="0.0000000000000000e+00" cType="1" res="3.7192791700363159e-02" rms="1.7692439258098602e-01" purity="6.7291909456253052e-01" nType="-99"/>
          <Node pos="r" depth="2" NCoef="0" IVar="-1" Cut="0.0000000000000000e+00" cType="1" res="-9.6588823944330215e-03" rms="1.6571539640426636e-01" purity="5.4593878984451294e-01" nType="-99"/>
        </Node>
      </Node>
    </BinaryTree>
    <BinaryTree type="DecisionTree" boostWeight="1.0000000000000000e+00" itree="249">
      <Node pos="s" depth="0" NCoef="0" IVar="2" Cut="5.3147377929687500e+03" cType="1" res="3.2747498153185006e-06" rms="2.0952130854129791e-01" purity="5.0000000000000000e-01" nType="0">
        <Node pos="l" depth="1" NCoef="0" IVar="10" Cut="2.8873748779296875e+02" cType="1" res="-1.8525186926126480e-02" rms="8.5477314889431000e-02" purity="5.1217984408140182e-02" nType="0">
          <Node pos="l" depth="2" NCoef="0" IVar="-1" Cut="0.0000000000000000e+00" cType="1" res="-4.3235532939434052e-02" rms="8.3329759538173676e-02" purity="4.2224511504173279e-02" nType="-99"/>
          <Node pos="r" depth="2" NCoef="0" IVar="-1" Cut="0.0000000000000000e+00" cType="1" res="-1.1277751997113228e-02" rms="8.5208415985107422e-02" purity="5.7322613894939423e-02" nType="-99"/>
        </Node>
        <Node pos="r" depth="1" NCoef="0" IVar="5" Cut="5.6776779890060425e-01" cType="1" res="3.4658715594559908e-03" rms="2.2508108615875244e-01" purity="5.8386832475662231e-01" nType="0">
          <Node pos="l" depth="2" NCoef="0" IVar="-1" Cut="0.0000000000000000e+00" cType="1" res="-2.4593267589807510e-03" rms="2.2687207162380219e-01" purity="5.6521213054656982e-01" nType="-99"/>
          <Node pos="r" depth="2" NCoef="0" IVar="-1" Cut="0.0000000000000000e+00" cType="1" res="9.3311937525868416e-03" rms="2.2074666619300842e-01" purity="6.1838746070861816e-01" nType="-99"/>
        </Node>
      </Node>
    </BinaryTree>
    <BinaryTree type="DecisionTree" boostWeight="1.0000000000000000e+00" itree="250">
      <Node pos="s" depth="0" NCoef="0" IVar="9" Cut="2.6159143066406250e+03" cType="1" res="-1.2240765272508725e-06" rms="2.0933008193969727e-01" purity="5.0000000000000000e-01" nType="0">
        <Node pos="l" depth="1" NCoef="0" IVar="12" Cut="4.5130634765625000e+03" cType="1" res="1.9303260371088982e-02" rms="1.7507749795913696e-01" purity="5.8519178628921509e-01" nType="0">
          <Node pos="l" depth="2" NCoef="0" IVar="-1" Cut="0.0000000000000000e+00" cType="1" res="2.0658869296312332e-02" rms="1.5967498719692230e-01" purity="6.2732243537902832e-01" nType="-99"/>
          <Node pos="r" depth="2" NCoef="0" IVar="-1" Cut="0.0000000000000000e+00" cType="1" res="-4.8720557242631912e-03" rms="1.9362133741378784e-01" purity="5.1868891716003418e-01" nType="-99"/>
        </Node>
        <Node pos="r" depth="1" NCoef="0" IVar="7" Cut="1.3213380859375000e+04" cType="1" res="-3.3279461786150932e-03" rms="2.1450603008270264e-01" purity="4.8531895875930786e-01" nType="0">
          <Node pos="l" depth="2" NCoef="0" IVar="-1" Cut="0.0000000000000000e+00" cType="1" res="-2.1881192922592163e-02" rms="1.9973307847976685e-01" purity="3.8362574577331543e-01" nType="-99"/>
          <Node pos="r" depth="2" NCoef="0" IVar="-1" Cut="0.0000000000000000e+00" cType="1" res="6.9078698288649321e-04" rms="2.1553540229797363e-01" purity="4.9643999338150024e-01" nType="-99"/>
        </Node>
      </Node>
    </BinaryTree>
    <BinaryTree type="DecisionTree" boostWeight="1.0000000000000000e+00" itree="251">
      <Node pos="s" depth="0" NCoef="0" IVar="2" Cut="5.8343754882812500e+03" cType="1" res="8.9011557236062799e-08" rms="2.0901179313659668e-01" purity="5.0000000000000000e-01" nType="0">
        <Node pos="l" depth="1" NCoef="0" IVar="9" Cut="8.8247343750000000e+03" cType="1" res="3.4581976942718029e-03" rms="2.1245591342449188e-01" purity="5.6466394662857056e-01" nType="0">
          <Node pos="l" depth="2" NCoef="0" IVar="-1" Cut="0.0000000000000000e+00" cType="1" res="-6.4703146927058697e-04" rms="2.1182285249233246e-01" purity="5.5678796768188477e-01" nType="-99"/>
          <Node pos="r" depth="2" NCoef="0" IVar="-1" Cut="0.0000000000000000e+00" cType="1" res="2.3822631686925888e-02" rms="2.1226099133491516e-01" purity="6.5201121568679810e-01" nType="-99"/>
        </Node>
        <Node pos="r" depth="1" NCoef="0" IVar="11" Cut="3.6049121093750000e+04" cType="1" res="-1.9202629104256630e-02" rms="1.8759047985076904e-01" purity="1.4092373847961426e-01" nType="0">
          <Node pos="l" depth="2" NCoef="0" IVar="-1" Cut="0.0000000000000000e+00" cType="1" res="7.7885575592517853e-03" rms="2.0007048547267914e-01" purity="1.0314465314149857e-01" nType="-99"/>
          <Node pos="r" depth="2" NCoef="0" IVar="-1" Cut="0.0000000000000000e+00" cType="1" res="-2.5842720642685890e-02" rms="1.6801948845386505e-01" purity="1.8061673641204834e-01" nType="-99"/>
        </Node>
      </Node>
    </BinaryTree>
    <BinaryTree type="DecisionTree" boostWeight="1.0000000000000000e+00" itree="252">
      <Node pos="s" depth="0" NCoef="0" IVar="7" Cut="4.2463347656250000e+04" cType="1" res="-1.2133504014855134e-06" rms="2.0872557163238525e-01" purity="5.0000000000000000e-01" nType="0">
        <Node pos="l" depth="1" NCoef="0" IVar="2" Cut="5.3619775390625000e+03" cType="1" res="2.1486699115484953e-03" rms="2.0801395177841187e-01" purity="5.0354140996932983e-01" nType="0">
          <Node pos="l" depth="2" NCoef="0" IVar="-1" Cut="0.0000000000000000e+00" cType="1" res="-2.6253506541252136e-02" rms="1.0237131267786026e-01" purity="7.4208140373229980e-02" nType="-99"/>
          <Node pos="r" depth="2" NCoef="0" IVar="-1" Cut="0.0000000000000000e+00" cType="1" res="3.5833711735904217e-03" rms="2.2565698623657227e-01" purity="6.0606849193572998e-01" nType="-99"/>
        </Node>
        <Node pos="r" depth="1" NCoef="0" IVar="-1" Cut="0.0000000000000000e+00" cType="1" res="-1.4078678563237190e-02" rms="2.1676841378211975e-01" purity="4.4492673873901367e-01" nType="-99"/>
      </Node>
    </BinaryTree>
    <BinaryTree type="DecisionTree" boostWeight="1.0000000000000000e+00" itree="253">
      <Node pos="s" depth="0" NCoef="0" IVar="11" Cut="8.3268609375000000e+04" cType="1" res="-4.5625802158610895e-06" rms="2.0858529210090637e-01" purity="5.0000000000000000e-01" nType="0">
        <Node pos="l" depth="1" NCoef="0" IVar="1" Cut="7.7016500000000000e+04" cType="1" res="-3.1682371627539396e-03" rms="2.1305568516254425e-01" purity="4.8498773574829102e-01" nType="0">
          <Node pos="l" depth="2" NCoef="0" IVar="-1" Cut="0.0000000000000000e+00" cType="1" res="4.5126653276383877e-03" rms="2.0072208344936371e-01" purity="4.6404650807380676e-01" nType="-99"/>
          <Node pos="r" depth="2" NCoef="0" IVar="-1" Cut="0.0000000000000000e+00" cType="1" res="-1.4811703003942966e-02" rms="2.3992232978343964e-01" purity="5.4036241769790649e-01" nType="-99"/>
        </Node>
        <Node pos="r" depth="1" NCoef="0" IVar="9" Cut="4.5938750000000000e+03" cType="1" res="2.1207800135016441e-02" rms="1.7421974241733551e-01" purity="6.0065674781799316e-01" nType="0">
          <Node pos="l" depth="2" NCoef="0" IVar="-1" Cut="0.0000000000000000e+00" cType="1" res="-8.9832171797752380e-03" rms="1.8575200438499451e-01" purity="4.4870039820671082e-01" nType="-99"/>
          <Node pos="r" depth="2" NCoef="0" IVar="-1" Cut="0.0000000000000000e+00" cType="1" res="4.2737290263175964e-02" rms="1.4417675137519836e-01" purity="7.8935444355010986e-01" nType="-99"/>
        </Node>
      </Node>
    </BinaryTree>
    <BinaryTree type="DecisionTree" boostWeight="1.0000000000000000e+00" itree="254">
      <Node pos="s" depth="0" NCoef="0" IVar="8" Cut="2.1462006835937500e+03" cType="1" res="1.9872536540788133e-06" rms="2.0786274969577789e-01" purity="5.0000000000000000e-01" nType="0">
        <Node pos="l" depth="1" NCoef="0" IVar="4" Cut="7.1402935981750488e+00" cType="1" res="-5.7505141012370586e-03" rms="2.1362301707267761e-01" purity="4.2910337448120117e-01" nType="0">
          <Node pos="l" depth="2" NCoef="0" IVar="-1" Cut="0.0000000000000000e+00" cType="1" res="1.1439119698479772e-03" rms="2.1048808097839355e-01" purity="4.7941285371780396e-01" nType="-99"/>
          <Node pos="r" depth="2" NCoef="0" IVar="-1" Cut="0.0000000000000000e+00" cType="1" res="-2.1225001662969589e-02" rms="2.2309423983097076e-01" purity="2.1601682901382446e-01" nType="-99"/>
        </Node>
        <Node pos="r" depth="1" NCoef="0" IVar="5" Cut="5.9068810939788818e-01" cType="1" res="1.0756946168839931e-02" rms="1.9618918001651764e-01" purity="6.3254940509796143e-01" nType="0">
          <Node pos="l" depth="2" NCoef="0" IVar="-1" Cut="0.0000000000000000e+00" cType="1" res="-2.8345780447125435e-03" rms="2.0186150074005127e-01" purity="5.5744391679763794e-01" nType="-99"/>
          <Node pos="r" depth="2" NCoef="0" IVar="-1" Cut="0.0000000000000000e+00" cType="1" res="3.0292863026261330e-02" rms="1.7756623029708862e-01" purity="8.0122137069702148e-01" nType="-99"/>
        </Node>
      </Node>
    </BinaryTree>
    <BinaryTree type="DecisionTree" boostWeight="1.0000000000000000e+00" itree="255">
      <Node pos="s" depth="0" NCoef="0" IVar="2" Cut="5.7871357421875000e+03" cType="1" res="4.5848623813071754e-06" rms="2.0750097930431366e-01" purity="5.0000000000000000e-01" nType="0">
        <Node pos="l" depth="1" NCoef="0" IVar="11" Cut="8.3487898437500000e+04" cType="1" res="3.7270474713295698e-03" rms="2.1222750842571259e-01" purity="5.6803071498870850e-01" nType="0">
          <Node pos="l" depth="2" NCoef="0" IVar="-1" Cut="0.0000000000000000e+00" cType="1" res="-1.0488991392776370e-03" rms="2.1701984107494354e-01" purity="5.4906487464904785e-01" nType="-99"/>
          <Node pos="r" depth="2" NCoef="0" IVar="-1" Cut="0.0000000000000000e+00" cType="1" res="2.2702891379594803e-02" rms="1.7293758690357208e-01" purity="6.9177466630935669e-01" nType="-99"/>
        </Node>
        <Node pos="r" depth="1" NCoef="0" IVar="4" Cut="5.6752882003784180e+00" cType="1" res="-1.6806406900286674e-02" rms="1.8371771275997162e-01" purity="1.9276672601699829e-01" nType="0">
          <Node pos="l" depth="2" NCoef="0" IVar="-1" Cut="0.0000000000000000e+00" cType="1" res="7.6019014231860638e-03" rms="1.8281088769435883e-01" purity="2.9570859670639038e-01" nType="-99"/>
          <Node pos="r" depth="2" NCoef="0" IVar="-1" Cut="0.0000000000000000e+00" cType="1" res="-2.5704590603709221e-02" rms="1.7985230684280396e-01" purity="8.9227415621280670e-02" nType="-99"/>
        </Node>
      </Node>
    </BinaryTree>
    <BinaryTree type="DecisionTree" boostWeight="1.0000000000000000e+00" itree="256">
      <Node pos="s" depth="0" NCoef="0" IVar="3" Cut="3.3495236816406250e+03" cType="1" res="1.1565720114958822e-06" rms="2.0724770426750183e-01" purity="5.0000000000000000e-01" nType="0">
        <Node pos="l" depth="1" NCoef="0" IVar="10" Cut="6.5294470214843750e+02" cType="1" res="-3.4257504157721996e-03" rms="2.1150556206703186e-01" purity="4.6687203645706177e-01" nType="0">
          <Node pos="l" depth="2" NCoef="0" IVar="-1" Cut="0.0000000000000000e+00" cType="1" res="8.7648496264591813e-04" rms="2.0974574983119965e-01" purity="4.7400817275047302e-01" nType="-99"/>
          <Node pos="r" depth="2" NCoef="0" IVar="-1" Cut="0.0000000000000000e+00" cType="1" res="-5.9886202216148376e-02" rms="2.2187474370002747e-01" purity="3.5942393541336060e-01" nType="-99"/>
        </Node>
        <Node pos="r" depth="1" NCoef="0" IVar="11" Cut="4.1571007812500000e+04" cType="1" res="1.8078953027725220e-02" rms="1.8209104239940643e-01" purity="6.7475825548171997e-01" nType="0">
          <Node pos="l" depth="2" NCoef="0" IVar="-1" Cut="0.0000000000000000e+00" cType="1" res="2.3926958441734314e-02" rms="1.8600164353847504e-01" purity="6.5797388553619385e-01" nType="-99"/>
          <Node pos="r" depth="2" NCoef="0" IVar="-1" Cut="0.0000000000000000e+00" cType="1" res="-1.1156315915286541e-02" rms="1.6936267912387848e-01" purity="7.0160424709320068e-01" nType="-99"/>
        </Node>
      </Node>
    </BinaryTree>
    <BinaryTree type="DecisionTree" boostWeight="1.0000000000000000e+00" itree="257">
      <Node pos="s" depth="0" NCoef="0" IVar="4" Cut="8.9473457336425781e+00" cType="1" res="1.2980151495867176e-06" rms="2.0661072432994843e-01" purity="5.0000000000000000e-01" nType="0">
        <Node pos="l" depth="1" NCoef="0" IVar="5" Cut="5.9902834892272949e-01" cType="1" res="1.9356652628630400e-03" rms="2.0975759625434875e-01" purity="5.2158498764038086e-01" nType="0">
          <Node pos="l" depth="2" NCoef="0" IVar="-1" Cut="0.0000000000000000e+00" cType="1" res="-4.0392247028648853e-03" rms="2.0807746052742004e-01" purity="4.8136192560195923e-01" nType="-99"/>
          <Node pos="r" depth="2" NCoef="0" IVar="-1" Cut="0.0000000000000000e+00" cType="1" res="1.3365634717047215e-02" rms="2.1177649497985840e-01" purity="6.2031698226928711e-01" nType="-99"/>
        </Node>
        <Node pos="r" depth="1" NCoef="0" IVar="-1" Cut="0.0000000000000000e+00" cType="1" res="-2.4981267750263214e-02" rms="1.4091293513774872e-01" purity="1.4186850190162659e-01" nType="-99"/>
      </Node>
    </BinaryTree>
    <BinaryTree type="DecisionTree" boostWeight="1.0000000000000000e+00" itree="258">
      <Node pos="s" depth="0" NCoef="0" IVar="8" Cut="1.8622194824218750e+03" cType="1" res="1.5125153822737047e-06" rms="2.0636181533336639e-01" purity="5.0000000000000000e-01" nType="0">
        <Node pos="l" depth="1" NCoef="0" IVar="1" Cut="5.3036671875000000e+04" cType="1" res="-6.8583600223064423e-03" rms="2.1378211677074432e-01" purity="3.9366996288299561e-01" nType="0">
          <Node pos="l" depth="2" NCoef="0" IVar="-1" Cut="0.0000000000000000e+00" cType="1" res="-2.3406453430652618e-02" rms="1.9033356010913849e-01" purity="2.7424749732017517e-01" nType="-99"/>
          <Node pos="r" depth="2" NCoef="0" IVar="-1" Cut="0.0000000000000000e+00" cType="1" res="4.8712017014622688e-03" rms="2.2178938984870911e-01" purity="4.4960832595825195e-01" nType="-99"/>
        </Node>
        <Node pos="r" depth="1" NCoef="0" IVar="4" Cut="5.4148464202880859e+00" cType="1" res="8.4918122738599777e-03" rms="1.9645941257476807e-01" purity="6.3160210847854614e-01" nType="0">
          <Node pos="l" depth="2" NCoef="0" IVar="-1" Cut="0.0000000000000000e+00" cType="1" res="2.3910131305456161e-02" rms="1.5164826810359955e-01" purity="7.1343123912811279e-01" nType="-99"/>
          <Node pos="r" depth="2" NCoef="0" IVar="-1" Cut="0.0000000000000000e+00" cType="1" res="-6.5375319682061672e-03" rms="2.1923097968101501e-01" purity="5.7597041130065918e-01" nType="-99"/>
        </Node>
      </Node>
    </BinaryTree>
    <BinaryTree type="DecisionTree" boostWeight="1.0000000000000000e+00" itree="259">
      <Node pos="s" depth="0" NCoef="0" IVar="11" Cut="2.6023939453125000e+04" cType="1" res="3.6360838748805691e-06" rms="2.0579239726066589e-01" purity="5.0000000000000000e-01" nType="0">
        <Node pos="l" depth="1" NCoef="0" IVar="12" Cut="2.7225319824218750e+03" cType="1" res="1.0306472890079021e-02" rms="1.7754308879375458e-01" purity="4.1018313169479370e-01" nType="0">
          <Node pos="l" depth="2" NCoef="0" IVar="-1" Cut="0.0000000000000000e+00" cType="1" res="-2.4072892963886261e-02" rms="1.2937444448471069e-01" purity="1.8061673641204834e-01" nType="-99"/>
          <Node pos="r" depth="2" NCoef="0" IVar="-1" Cut="0.0000000000000000e+00" cType="1" res="2.3650543764233589e-02" rms="1.9838152825832367e-01" purity="5.6679189205169678e-01" nType="-99"/>
        </Node>
        <Node pos="r" depth="1" NCoef="0" IVar="1" Cut="5.4089277343750000e+04" cType="1" res="-5.9697576798498631e-03" rms="2.2029915452003479e-01" purity="5.5207413434982300e-01" nType="0">
          <Node pos="l" depth="2" NCoef="0" IVar="-1" Cut="0.0000000000000000e+00" cType="1" res="-4.3149214237928391e-02" rms="1.8861572444438934e-01" purity="2.6635730266571045e-01" nType="-99"/>
          <Node pos="r" depth="2" NCoef="0" IVar="-1" Cut="0.0000000000000000e+00" cType="1" res="2.9536210931837559e-03" rms="2.2088225185871124e-01" purity="5.8796781301498413e-01" nType="-99"/>
        </Node>
      </Node>
    </BinaryTree>
    <BinaryTree type="DecisionTree" boostWeight="1.0000000000000000e+00" itree="260">
      <Node pos="s" depth="0" NCoef="0" IVar="2" Cut="5.8343754882812500e+03" cType="1" res="-3.5475527511152904e-06" rms="2.0469136536121368e-01" purity="5.0000000000000000e-01" nType="0">
        <Node pos="l" depth="1" NCoef="0" IVar="9" Cut="8.8247343750000000e+03" cType="1" res="3.4015972632914782e-03" rms="2.0814016461372375e-01" purity="5.6466394662857056e-01" nType="0">
          <Node pos="l" depth="2" NCoef="0" IVar="-1" Cut="0.0000000000000000e+00" cType="1" res="-5.9804413467645645e-04" rms="2.0794111490249634e-01" purity="5.5678796768188477e-01" nType="-99"/>
          <Node pos="r" depth="2" NCoef="0" IVar="-1" Cut="0.0000000000000000e+00" cType="1" res="2.3430334404110909e-02" rms="2.0348235964775085e-01" purity="6.5201121568679810e-01" nType="-99"/>
        </Node>
        <Node pos="r" depth="1" NCoef="0" IVar="11" Cut="3.6049121093750000e+04" cType="1" res="-1.8912158906459808e-02" rms="1.8322245776653290e-01" purity="1.4092373847961426e-01" nType="0">
          <Node pos="l" depth="2" NCoef="0" IVar="-1" Cut="0.0000000000000000e+00" cType="1" res="5.7656979188323021e-03" rms="1.9258221983909607e-01" purity="1.0314465314149857e-01" nType="-99"/>
          <Node pos="r" depth="2" NCoef="0" IVar="-1" Cut="0.0000000000000000e+00" cType="1" res="-2.4613024666905403e-02" rms="1.6840128600597382e-01" purity="1.8061673641204834e-01" nType="-99"/>
        </Node>
      </Node>
    </BinaryTree>
    <BinaryTree type="DecisionTree" boostWeight="1.0000000000000000e+00" itree="261">
      <Node pos="s" depth="0" NCoef="0" IVar="9" Cut="2.6159143066406250e+03" cType="1" res="-4.0569175325799733e-06" rms="2.0444476604461670e-01" purity="5.0000000000000000e-01" nType="0">
        <Node pos="l" depth="1" NCoef="0" IVar="7" Cut="1.1676865234375000e+04" cType="1" res="1.9682690501213074e-02" rms="1.7247900366783142e-01" purity="5.8519178628921509e-01" nType="0">
          <Node pos="l" depth="2" NCoef="0" IVar="-1" Cut="0.0000000000000000e+00" cType="1" res="2.9944494366645813e-02" rms="1.4560596644878387e-01" purity="6.2085032463073730e-01" nType="-99"/>
          <Node pos="r" depth="2" NCoef="0" IVar="-1" Cut="0.0000000000000000e+00" cType="1" res="9.8977086599916220e-04" rms="1.8499904870986938e-01" purity="5.6306469440460205e-01" nType="-99"/>
        </Node>
        <Node pos="r" depth="1" NCoef="0" IVar="4" Cut="1.3225860595703125e+00" cType="1" res="-3.3966540358960629e-03" rms="2.0927421748638153e-01" purity="4.8531895875930786e-01" nType="0">
          <Node pos="l" depth="2" NCoef="0" IVar="-1" Cut="0.0000000000000000e+00" cType="1" res="-3.6707796156406403e-02" rms="1.4174629747867584e-01" purity="4.6697035431861877e-02" nType="-99"/>
          <Node pos="r" depth="2" NCoef="0" IVar="-1" Cut="0.0000000000000000e+00" cType="1" res="1.0466751700732857e-04" rms="2.1288056671619415e-01" purity="5.1706230640411377e-01" nType="-99"/>
        </Node>
      </Node>
    </BinaryTree>
    <BinaryTree type="DecisionTree" boostWeight="1.0000000000000000e+00" itree="262">
      <Node pos="s" depth="0" NCoef="0" IVar="2" Cut="5.3619775390625000e+03" cType="1" res="-7.7122440416133031e-06" rms="2.0421916246414185e-01" purity="5.0000000000000000e-01" nType="0">
        <Node pos="l" depth="1" NCoef="0" IVar="10" Cut="4.0959487915039062e+02" cType="1" res="-1.6613604500889778e-02" rms="1.1172056198120117e-01" purity="8.7747447192668915e-02" nType="0">
          <Node pos="l" depth="2" NCoef="0" IVar="-1" Cut="0.0000000000000000e+00" cType="1" res="-4.6697903424501419e-02" rms="9.6821799874305725e-02" purity="4.3260354548692703e-02" nType="-99"/>
          <Node pos="r" depth="2" NCoef="0" IVar="-1" Cut="0.0000000000000000e+00" cType="1" res="2.4518406018614769e-02" rms="1.2711358070373535e-01" purity="1.8061673641204834e-01" nType="-99"/>
        </Node>
        <Node pos="r" depth="1" NCoef="0" IVar="7" Cut="3.9450433593750000e+04" cType="1" res="3.7320649717003107e-03" rms="2.1956969797611237e-01" purity="5.9284245967864990e-01" nType="0">
          <Node pos="l" depth="2" NCoef="0" IVar="-1" Cut="0.0000000000000000e+00" cType="1" res="4.0019145235419273e-03" rms="2.2269466519355774e-01" purity="6.0640621185302734e-01" nType="-99"/>
          <Node pos="r" depth="2" NCoef="0" IVar="-1" Cut="0.0000000000000000e+00" cType="1" res="-2.0446602255105972e-02" rms="1.8203678727149963e-01" purity="4.6857142448425293e-01" nType="-99"/>
        </Node>
      </Node>
    </BinaryTree>
    <BinaryTree type="DecisionTree" boostWeight="1.0000000000000000e+00" itree="263">
      <Node pos="s" depth="0" NCoef="0" IVar="3" Cut="1.4928527832031250e+03" cType="1" res="-1.6661073459545150e-05" rms="2.0364157855510712e-01" purity="5.0000000000000000e-01" nType="0">
        <Node pos="l" depth="1" NCoef="0" IVar="9" Cut="4.7694833984375000e+03" cType="1" res="-1.8040983006358147e-02" rms="2.2912138700485229e-01" purity="2.8727829456329346e-01" nType="0">
          <Node pos="l" depth="2" NCoef="0" IVar="-1" Cut="0.0000000000000000e+00" cType="1" res="1.6075387597084045e-02" rms="2.1670973300933838e-01" purity="3.7740585207939148e-01" nType="-99"/>
          <Node pos="r" depth="2" NCoef="0" IVar="-1" Cut="0.0000000000000000e+00" cType="1" res="-3.9268385618925095e-02" rms="2.2870156168937683e-01" purity="1.8833255767822266e-01" nType="-99"/>
        </Node>
        <Node pos="r" depth="1" NCoef="0" IVar="2" Cut="5.6926562500000000e+03" cType="1" res="3.1570706050843000e-03" rms="1.9864799082279205e-01" purity="5.3745615482330322e-01" nType="0">
          <Node pos="l" depth="2" NCoef="0" IVar="-1" Cut="0.0000000000000000e+00" cType="1" res="6.2118675559759140e-03" rms="1.9392238557338715e-01" purity="6.0425531864166260e-01" nType="-99"/>
          <Node pos="r" depth="2" NCoef="0" IVar="-1" Cut="0.0000000000000000e+00" cType="1" res="-1.1507703922688961e-02" rms="2.0962412655353546e-01" purity="3.4438279271125793e-01" nType="-99"/>
        </Node>
      </Node>
    </BinaryTree>
    <BinaryTree type="DecisionTree" boostWeight="1.0000000000000000e+00" itree="264">
      <Node pos="s" depth="0" NCoef="0" IVar="12" Cut="4.0340742187500000e+03" cType="1" res="-1.6814457922009751e-05" rms="2.0309434831142426e-01" purity="5.0000000000000000e-01" nType="0">
        <Node pos="l" depth="1" NCoef="0" IVar="0" Cut="3.6916093750000000e+03" cType="1" res="-5.7218992151319981e-03" rms="1.9890697300434113e-01" purity="4.0680369734764099e-01" nType="0">
          <Node pos="l" depth="2" NCoef="0" IVar="-1" Cut="0.0000000000000000e+00" cType="1" res="2.6564253494143486e-03" rms="1.8225216865539551e-01" purity="3.8689243793487549e-01" nType="-99"/>
          <Node pos="r" depth="2" NCoef="0" IVar="-1" Cut="0.0000000000000000e+00" cType="1" res="-2.0903235301375389e-02" rms="2.4607606232166290e-01" purity="4.7874823212623596e-01" nType="-99"/>
        </Node>
        <Node pos="r" depth="1" NCoef="0" IVar="4" Cut="4.8553881645202637e+00" cType="1" res="1.0466743260622025e-02" rms="2.1016861498355865e-01" purity="6.7125582695007324e-01" nType="0">
          <Node pos="l" depth="2" NCoef="0" IVar="-1" Cut="0.0000000000000000e+00" cType="1" res="2.2716809064149857e-02" rms="1.9132882356643677e-01" purity="6.9752311706542969e-01" nType="-99"/>
          <Node pos="r" depth="2" NCoef="0" IVar="-1" Cut="0.0000000000000000e+00" cType="1" res="-5.1148752681910992e-03" rms="2.1808932721614838e-01" purity="6.5570861101150513e-01" nType="-99"/>
        </Node>
      </Node>
    </BinaryTree>
    <BinaryTree type="DecisionTree" boostWeight="1.0000000000000000e+00" itree="265">
      <Node pos="s" depth="0" NCoef="0" IVar="3" Cut="3.3495236816406250e+03" cType="1" res="-1.2514256013673730e-05" rms="2.0257693529129028e-01" purity="5.0000000000000000e-01" nType="0">
        <Node pos="l" depth="1" NCoef="0" IVar="10" Cut="6.5294470214843750e+02" cType="1" res="-3.5271192900836468e-03" rms="2.0669347047805786e-01" purity="4.6687203645706177e-01" nType="0">
          <Node pos="l" depth="2" NCoef="0" IVar="-1" Cut="0.0000000000000000e+00" cType="1" res="5.6952156592160463e-04" rms="2.0537306368350983e-01" purity="4.7400817275047302e-01" nType="-99"/>
          <Node pos="r" depth="2" NCoef="0" IVar="-1" Cut="0.0000000000000000e+00" cType="1" res="-5.4589617997407913e-02" rms="2.1354220807552338e-01" purity="3.5942393541336060e-01" nType="-99"/>
        </Node>
        <Node pos="r" depth="1" NCoef="0" IVar="5" Cut="5.9068810939788818e-01" cType="1" res="1.8527913838624954e-02" rms="1.7815981805324554e-01" purity="6.7475825548171997e-01" nType="0">
          <Node pos="l" depth="2" NCoef="0" IVar="-1" Cut="0.0000000000000000e+00" cType="1" res="-9.0212444774806499e-04" rms="1.6462305188179016e-01" purity="6.2902730703353882e-01" nType="-99"/>
          <Node pos="r" depth="2" NCoef="0" IVar="-1" Cut="0.0000000000000000e+00" cType="1" res="4.1301809251308441e-02" rms="1.9667258858680725e-01" purity="7.6779025793075562e-01" nType="-99"/>
        </Node>
      </Node>
    </BinaryTree>
    <BinaryTree type="DecisionTree" boostWeight="1.0000000000000000e+00" itree="266">
      <Node pos="s" depth="0" NCoef="0" IVar="8" Cut="2.1462006835937500e+03" cType="1" res="-1.0389517228759360e-05" rms="2.0193168520927429e-01" purity="5.0000000000000000e-01" nType="0">
        <Node pos="l" depth="1" NCoef="0" IVar="4" Cut="7.1402935981750488e+00" cType="1" res="-5.7777198962867260e-03" rms="2.0792214572429657e-01" purity="4.2910337448120117e-01" nType="0">
          <Node pos="l" depth="2" NCoef="0" IVar="-1" Cut="0.0000000000000000e+00" cType="1" res="9.4885309226810932e-04" rms="2.0431438088417053e-01" purity="4.7941285371780396e-01" nType="-99"/>
          <Node pos="r" depth="2" NCoef="0" IVar="-1" Cut="0.0000000000000000e+00" cType="1" res="-2.0771842449903488e-02" rms="2.1953228116035461e-01" purity="2.1601682901382446e-01" nType="-99"/>
        </Node>
        <Node pos="r" depth="1" NCoef="0" IVar="6" Cut="1.5105889892578125e+02" cType="1" res="1.0772293433547020e-02" rms="1.8975681066513062e-01" purity="6.3254940509796143e-01" nType="0">
          <Node pos="l" depth="2" NCoef="0" IVar="-1" Cut="0.0000000000000000e+00" cType="1" res="1.3176938518881798e-02" rms="1.8160669505596161e-01" purity="6.4543104171752930e-01" nType="-99"/>
          <Node pos="r" depth="2" NCoef="0" IVar="-1" Cut="0.0000000000000000e+00" cType="1" res="-1.8742453306913376e-02" rms="2.0886716246604919e-01" purity="5.9063625335693359e-01" nType="-99"/>
        </Node>
      </Node>
    </BinaryTree>
    <BinaryTree type="DecisionTree" boostWeight="1.0000000000000000e+00" itree="267">
      <Node pos="s" depth="0" NCoef="0" IVar="2" Cut="5.3147377929687500e+03" cType="1" res="-8.4732891991734505e-06" rms="2.0155848562717438e-01" purity="5.0000000000000000e-01" nType="0">
        <Node pos="l" depth="1" NCoef="0" IVar="1" Cut="6.3235265625000000e+04" cType="1" res="-1.7483940348029137e-02" rms="7.9402953386306763e-02" purity="5.1217984408140182e-02" nType="0">
          <Node pos="l" depth="2" NCoef="0" IVar="-1" Cut="0.0000000000000000e+00" cType="1" res="-5.8117147535085678e-02" rms="5.6517381221055984e-02" purity="0.0000000000000000e+00" nType="-99"/>
          <Node pos="r" depth="2" NCoef="0" IVar="-1" Cut="0.0000000000000000e+00" cType="1" res="-4.4100368395447731e-03" rms="9.8266392946243286e-02" purity="1.1186902970075607e-01" nType="-99"/>
        </Node>
        <Node pos="r" depth="1" NCoef="0" IVar="2" Cut="5.4720791015625000e+03" cType="1" res="3.2573400530964136e-03" rms="2.1673022210597992e-01" purity="5.8386832475662231e-01" nType="0">
          <Node pos="l" depth="2" NCoef="0" IVar="-1" Cut="0.0000000000000000e+00" cType="1" res="1.4302896335721016e-02" rms="1.7330099642276764e-01" purity="6.1780822277069092e-01" nType="-99"/>
          <Node pos="r" depth="2" NCoef="0" IVar="-1" Cut="0.0000000000000000e+00" cType="1" res="-9.0234295930713415e-04" rms="2.2425439953804016e-01" purity="5.7689601182937622e-01" nType="-99"/>
        </Node>
      </Node>
    </BinaryTree>
    <BinaryTree type="DecisionTree" boostWeight="1.0000000000000000e+00" itree="268">
      <Node pos="s" depth="0" NCoef="0" IVar="7" Cut="1.9179617187500000e+04" cType="1" res="-1.7371947251376696e-05" rms="2.0131805539131165e-01" purity="5.0000000000000000e-01" nType="0">
        <Node pos="l" depth="1" NCoef="0" IVar="10" Cut="3.4120617675781250e+02" cType="1" res="-9.4482228159904480e-03" rms="2.0395794510841370e-01" purity="4.8705983161926270e-01" nType="0">
          <Node pos="l" depth="2" NCoef="0" IVar="-1" Cut="0.0000000000000000e+00" cType="1" res="-3.3767975866794586e-02" rms="2.1028162539005280e-01" purity="3.3503574132919312e-01" nType="-99"/>
          <Node pos="r" depth="2" NCoef="0" IVar="-1" Cut="0.0000000000000000e+00" cType="1" res="1.0322128422558308e-02" rms="1.9390474259853363e-01" purity="5.6271439790725708e-01" nType="-99"/>
        </Node>
        <Node pos="r" depth="1" NCoef="0" IVar="12" Cut="4.0340742187500000e+03" cType="1" res="5.9200488030910492e-03" rms="1.9940948486328125e-01" purity="5.0814682245254517e-01" nType="0">
          <Node pos="l" depth="2" NCoef="0" IVar="-1" Cut="0.0000000000000000e+00" cType="1" res="-4.1298135183751583e-03" rms="2.0217597484588623e-01" purity="4.1139242053031921e-01" nType="-99"/>
          <Node pos="r" depth="2" NCoef="0" IVar="-1" Cut="0.0000000000000000e+00" cType="1" res="2.1171906962990761e-02" rms="1.8932124972343445e-01" purity="7.2566372156143188e-01" nType="-99"/>
        </Node>
      </Node>
    </BinaryTree>
    <BinaryTree type="DecisionTree" boostWeight="1.0000000000000000e+00" itree="269">
      <Node pos="s" depth="0" NCoef="0" IVar="9" Cut="2.6159143066406250e+03" cType="1" res="-1.3294307791511528e-05" rms="2.0033606886863708e-01" purity="5.0000000000000000e-01" nType="0">
        <Node pos="l" depth="1" NCoef="0" IVar="4" Cut="5.8063836097717285e+00" cType="1" res="1.8532184883952141e-02" rms="1.6714054346084595e-01" purity="5.8519178628921509e-01" nType="0">
          <Node pos="l" depth="2" NCoef="0" IVar="-1" Cut="0.0000000000000000e+00" cType="1" res="3.3137124031782150e-02" rms="1.1740174889564514e-01" purity="7.3832297325134277e-01" nType="-99"/>
          <Node pos="r" depth="2" NCoef="0" IVar="-1" Cut="0.0000000000000000e+00" cType="1" res="2.1258392371237278e-04" rms="1.9078439474105835e-01" purity="4.8466938734054565e-01" nType="-99"/>
        </Node>
        <Node pos="r" depth="1" NCoef="0" IVar="4" Cut="1.3225860595703125e+00" cType="1" res="-3.2092176843434572e-03" rms="2.0534659922122955e-01" purity="4.8531895875930786e-01" nType="0">
          <Node pos="l" depth="2" NCoef="0" IVar="-1" Cut="0.0000000000000000e+00" cType="1" res="-3.6019850522279739e-02" rms="1.4062932133674622e-01" purity="4.6697035431861877e-02" nType="-99"/>
          <Node pos="r" depth="2" NCoef="0" IVar="-1" Cut="0.0000000000000000e+00" cType="1" res="1.2681922817137092e-04" rms="2.0882984995841980e-01" purity="5.1706230640411377e-01" nType="-99"/>
        </Node>
      </Node>
    </BinaryTree>
    <BinaryTree type="DecisionTree" boostWeight="1.0000000000000000e+00" itree="270">
      <Node pos="s" depth="0" NCoef="0" IVar="2" Cut="5.8343754882812500e+03" cType="1" res="-1.4549142179021146e-05" rms="2.0012870430946350e-01" purity="5.0000000000000000e-01" nType="0">
        <Node pos="l" depth="1" NCoef="0" IVar="6" Cut="6.8348541259765625e+01" cType="1" res="3.0966303311288357e-03" rms="2.0383489131927490e-01" purity="5.6466394662857056e-01" nType="0">
          <Node pos="l" depth="2" NCoef="0" IVar="-1" Cut="0.0000000000000000e+00" cType="1" res="-7.9030701890587807e-03" rms="2.2628572583198547e-01" purity="4.4982251524925232e-01" nType="-99"/>
          <Node pos="r" depth="2" NCoef="0" IVar="-1" Cut="0.0000000000000000e+00" cType="1" res="8.6362231522798538e-03" rms="1.8896092474460602e-01" purity="6.2916868925094604e-01" nType="-99"/>
        </Node>
        <Node pos="r" depth="1" NCoef="0" IVar="5" Cut="2.7261134982109070e-01" cType="1" res="-1.7290785908699036e-02" rms="1.7715974152088165e-01" purity="1.4092373847961426e-01" nType="0">
          <Node pos="l" depth="2" NCoef="0" IVar="-1" Cut="0.0000000000000000e+00" cType="1" res="-3.6534048616886139e-02" rms="1.4363084733486176e-01" purity="4.2224511504173279e-02" nType="-99"/>
          <Node pos="r" depth="2" NCoef="0" IVar="-1" Cut="0.0000000000000000e+00" cType="1" res="2.5679154787212610e-03" rms="1.9480083882808685e-01" purity="2.1157389879226685e-01" nType="-99"/>
        </Node>
      </Node>
    </BinaryTree>
    <BinaryTree type="DecisionTree" boostWeight="1.0000000000000000e+00" itree="271">
      <Node pos="s" depth="0" NCoef="0" IVar="8" Cut="1.8622194824218750e+03" cType="1" res="-1.7666683561401442e-05" rms="1.9993144273757935e-01" purity="5.0000000000000000e-01" nType="0">
        <Node pos="l" depth="1" NCoef="0" IVar="1" Cut="5.3036671875000000e+04" cType="1" res="-6.9372230209410191e-03" rms="2.0712116360664368e-01" purity="3.9366996288299561e-01" nType="0">
          <Node pos="l" depth="2" NCoef="0" IVar="-1" Cut="0.0000000000000000e+00" cType="1" res="-2.2083763033151627e-02" rms="1.8479193747043610e-01" purity="2.7424749732017517e-01" nType="-99"/>
          <Node pos="r" depth="2" NCoef="0" IVar="-1" Cut="0.0000000000000000e+00" cType="1" res="4.0372824296355247e-03" rms="2.1506389975547791e-01" purity="4.4960832595825195e-01" nType="-99"/>
        </Node>
        <Node pos="r" depth="1" NCoef="0" IVar="9" Cut="8.0922368164062500e+03" cType="1" res="8.5465023294091225e-03" rms="1.9030976295471191e-01" purity="6.3160210847854614e-01" nType="0">
          <Node pos="l" depth="2" NCoef="0" IVar="-1" Cut="0.0000000000000000e+00" cType="1" res="9.5767052844166756e-03" rms="1.8320392072200775e-01" purity="6.3565891981124878e-01" nType="-99"/>
          <Node pos="r" depth="2" NCoef="0" IVar="-1" Cut="0.0000000000000000e+00" cType="1" res="-3.3636935055255890e-02" rms="2.2538284957408905e-01" purity="6.0183483362197876e-01" nType="-99"/>
        </Node>
      </Node>
    </BinaryTree>
    <BinaryTree type="DecisionTree" boostWeight="1.0000000000000000e+00" itree="272">
      <Node pos="s" depth="0" NCoef="0" IVar="11" Cut="2.6023939453125000e+04" cType="1" res="-1.6106971088447608e-05" rms="1.9938896596431732e-01" purity="5.0000000000000000e-01" nType="0">
        <Node pos="l" depth="1" NCoef="0" IVar="12" Cut="2.7225319824218750e+03" cType="1" res="9.8824109882116318e-03" rms="1.7433279752731323e-01" purity="4.1018313169479370e-01" nType="0">
          <Node pos="l" depth="2" NCoef="0" IVar="-1" Cut="0.0000000000000000e+00" cType="1" res="-2.3144425824284554e-02" rms="1.2707372009754181e-01" purity="1.8061673641204834e-01" nType="-99"/>
          <Node pos="r" depth="2" NCoef="0" IVar="-1" Cut="0.0000000000000000e+00" cType="1" res="2.2844245657324791e-02" rms="1.9529214501380920e-01" purity="5.6679189205169678e-01" nType="-99"/>
        </Node>
        <Node pos="r" depth="1" NCoef="0" IVar="1" Cut="5.4089277343750000e+04" cType="1" res="-5.7550841011106968e-03" rms="2.1235656738281250e-01" purity="5.5207413434982300e-01" nType="0">
          <Node pos="l" depth="2" NCoef="0" IVar="-1" Cut="0.0000000000000000e+00" cType="1" res="-4.0682423859834671e-02" rms="1.8122461438179016e-01" purity="2.6635730266571045e-01" nType="-99"/>
          <Node pos="r" depth="2" NCoef="0" IVar="-1" Cut="0.0000000000000000e+00" cType="1" res="2.5424994528293610e-03" rms="2.1337303519248962e-01" purity="5.8796781301498413e-01" nType="-99"/>
        </Node>
      </Node>
    </BinaryTree>
    <BinaryTree type="DecisionTree" boostWeight="1.0000000000000000e+00" itree="273">
      <Node pos="s" depth="0" NCoef="0" IVar="2" Cut="5.3619775390625000e+03" cType="1" res="-2.0181403669994324e-05" rms="1.9841593503952026e-01" purity="5.0000000000000000e-01" nType="0">
        <Node pos="l" depth="1" NCoef="0" IVar="10" Cut="4.0959487915039062e+02" cType="1" res="-1.5639893710613251e-02" rms="1.0767638683319092e-01" purity="8.7747447192668915e-02" nType="0">
          <Node pos="l" depth="2" NCoef="0" IVar="-1" Cut="0.0000000000000000e+00" cType="1" res="-4.5391850173473358e-02" rms="9.4079844653606415e-02" purity="4.3260354548692703e-02" nType="-99"/>
          <Node pos="r" depth="2" NCoef="0" IVar="-1" Cut="0.0000000000000000e+00" cType="1" res="2.2641381248831749e-02" rms="1.2225962430238724e-01" purity="1.8061673641204834e-01" nType="-99"/>
        </Node>
        <Node pos="r" depth="1" NCoef="0" IVar="2" Cut="5.4715375976562500e+03" cType="1" res="3.4975006710737944e-03" rms="2.1344001591205597e-01" purity="5.9284245967864990e-01" nType="0">
          <Node pos="l" depth="2" NCoef="0" IVar="-1" Cut="0.0000000000000000e+00" cType="1" res="1.7671715468168259e-02" rms="1.5955010056495667e-01" purity="6.8059527873992920e-01" nType="-99"/>
          <Node pos="r" depth="2" NCoef="0" IVar="-1" Cut="0.0000000000000000e+00" cType="1" res="-7.7202619286254048e-04" rms="2.2056190669536591e-01" purity="5.7851701974868774e-01" nType="-99"/>
        </Node>
      </Node>
    </BinaryTree>
    <BinaryTree type="DecisionTree" boostWeight="1.0000000000000000e+00" itree="274">
      <Node pos="s" depth="0" NCoef="0" IVar="4" Cut="6.5379428863525391e+00" cType="1" res="-2.5769199055503123e-05" rms="1.9791612029075623e-01" purity="5.0000000000000000e-01" nType="0">
        <Node pos="l" depth="1" NCoef="0" IVar="11" Cut="2.6023939453125000e+04" cType="1" res="4.6502244658768177e-03" rms="1.9532750546932220e-01" purity="5.2653300762176514e-01" nType="0">
          <Node pos="l" depth="2" NCoef="0" IVar="-1" Cut="0.0000000000000000e+00" cType="1" res="1.7745271325111389e-02" rms="1.8399372696876526e-01" purity="4.9432623386383057e-01" nType="-99"/>
          <Node pos="r" depth="2" NCoef="0" IVar="-1" Cut="0.0000000000000000e+00" cType="1" res="-5.2343769930303097e-03" rms="2.0064999163150787e-01" purity="5.4695343971252441e-01" nType="-99"/>
        </Node>
        <Node pos="r" depth="1" NCoef="0" IVar="11" Cut="2.6674554687500000e+04" cType="1" res="-1.1742892675101757e-02" rms="2.0378787815570831e-01" purity="4.3351340293884277e-01" nType="0">
          <Node pos="l" depth="2" NCoef="0" IVar="-1" Cut="0.0000000000000000e+00" cType="1" res="-4.6586994081735611e-02" rms="1.0903253406286240e-01" purity="1.4036287367343903e-01" nType="-99"/>
          <Node pos="r" depth="2" NCoef="0" IVar="-1" Cut="0.0000000000000000e+00" cType="1" res="5.6038186885416508e-03" rms="2.3402696847915649e-01" purity="5.8166092634201050e-01" nType="-99"/>
        </Node>
      </Node>
    </BinaryTree>
    <BinaryTree type="DecisionTree" boostWeight="1.0000000000000000e+00" itree="275">
      <Node pos="s" depth="0" NCoef="0" IVar="9" Cut="2.6159143066406250e+03" cType="1" res="-3.3585962228244171e-05" rms="1.9716680049896240e-01" purity="5.0000000000000000e-01" nType="0">
        <Node pos="l" depth="1" NCoef="0" IVar="4" Cut="6.3969879150390625e+00" cType="1" res="1.7645716667175293e-02" rms="1.6494141519069672e-01" purity="5.8519178628921509e-01" nType="0">
          <Node pos="l" depth="2" NCoef="0" IVar="-1" Cut="0.0000000000000000e+00" cType="1" res="2.2436382248997688e-02" rms="1.3524739444255829e-01" purity="7.0800626277923584e-01" nType="-99"/>
          <Node pos="r" depth="2" NCoef="0" IVar="-1" Cut="0.0000000000000000e+00" cType="1" res="-4.1248365305364132e-03" rms="1.9450011849403381e-01" purity="4.2355370521545410e-01" nType="-99"/>
        </Node>
        <Node pos="r" depth="1" NCoef="0" IVar="4" Cut="1.3225860595703125e+00" cType="1" res="-3.0802420806139708e-03" rms="2.0204584300518036e-01" purity="4.8531895875930786e-01" nType="0">
          <Node pos="l" depth="2" NCoef="0" IVar="-1" Cut="0.0000000000000000e+00" cType="1" res="-3.5250004380941391e-02" rms="1.4023531973361969e-01" purity="4.6697035431861877e-02" nType="-99"/>
          <Node pos="r" depth="2" NCoef="0" IVar="-1" Cut="0.0000000000000000e+00" cType="1" res="1.2922233145218343e-04" rms="2.0539931952953339e-01" purity="5.1706230640411377e-01" nType="-99"/>
        </Node>
      </Node>
    </BinaryTree>
    <BinaryTree type="DecisionTree" boostWeight="1.0000000000000000e+00" itree="276">
      <Node pos="s" depth="0" NCoef="0" IVar="12" Cut="6.7410927734375000e+03" cType="1" res="-3.3642667403910309e-05" rms="1.9700883328914642e-01" purity="5.0000000000000000e-01" nType="0">
        <Node pos="l" depth="1" NCoef="0" IVar="12" Cut="5.8214692382812500e+03" cType="1" res="-2.1109106019139290e-03" rms="2.0406235754489899e-01" purity="4.7166597843170166e-01" nType="0">
          <Node pos="l" depth="2" NCoef="0" IVar="-1" Cut="0.0000000000000000e+00" cType="1" res="1.4445312554016709e-03" rms="2.0452877879142761e-01" purity="4.7184929251670837e-01" nType="-99"/>
          <Node pos="r" depth="2" NCoef="0" IVar="-1" Cut="0.0000000000000000e+00" cType="1" res="-5.4744955152273178e-02" rms="1.7570626735687256e-01" purity="4.6857145428657532e-01" nType="-99"/>
        </Node>
        <Node pos="r" depth="1" NCoef="0" IVar="-1" Cut="0.0000000000000000e+00" cType="1" res="2.9110779985785484e-02" rms="6.3924312591552734e-02" purity="8.4102559089660645e-01" nType="-99"/>
      </Node>
    </BinaryTree>
    <BinaryTree type="DecisionTree" boostWeight="1.0000000000000000e+00" itree="277">
      <Node pos="s" depth="0" NCoef="0" IVar="10" Cut="7.1833148193359375e+02" cType="1" res="-3.0388797313207760e-05" rms="1.9639019668102264e-01" purity="5.0000000000000000e-01" nType="0">
        <Node pos="l" depth="1" NCoef="0" IVar="10" Cut="5.6815917968750000e+02" cType="1" res="-2.5020653847604990e-03" rms="2.0230364799499512e-01" purity="4.7496151924133301e-01" nType="0">
          <Node pos="l" depth="2" NCoef="0" IVar="-1" Cut="0.0000000000000000e+00" cType="1" res="1.8052272498607635e-03" rms="1.9464717805385590e-01" purity="4.7046551108360291e-01" nType="-99"/>
          <Node pos="r" depth="2" NCoef="0" IVar="-1" Cut="0.0000000000000000e+00" cType="1" res="-1.8517917022109032e-02" rms="2.3672047257423401e-01" purity="4.9918049573898315e-01" nType="-99"/>
        </Node>
        <Node pos="r" depth="1" NCoef="0" IVar="1" Cut="5.8815292968750000e+04" cType="1" res="2.0869297906756401e-02" rms="1.3470368087291718e-01" purity="7.1171730756759644e-01" nType="0">
          <Node pos="l" depth="2" NCoef="0" IVar="-1" Cut="0.0000000000000000e+00" cType="1" res="-8.2166846841573715e-03" rms="1.6003260016441345e-01" purity="5.4799515008926392e-01" nType="-99"/>
          <Node pos="r" depth="2" NCoef="0" IVar="-1" Cut="0.0000000000000000e+00" cType="1" res="5.6861381977796555e-02" rms="8.8851898908615112e-02" purity="8.8227850198745728e-01" nType="-99"/>
        </Node>
      </Node>
    </BinaryTree>
    <BinaryTree type="DecisionTree" boostWeight="1.0000000000000000e+00" itree="278">
      <Node pos="s" depth="0" NCoef="0" IVar="8" Cut="1.8622194824218750e+03" cType="1" res="-1.7319425751338713e-05" rms="1.9592678546905518e-01" purity="5.0000000000000000e-01" nType="0">
        <Node pos="l" depth="1" NCoef="0" IVar="1" Cut="5.3036671875000000e+04" cType="1" res="-6.5832380205392838e-03" rms="2.0402809977531433e-01" purity="3.9366996288299561e-01" nType="0">
          <Node pos="l" depth="2" NCoef="0" IVar="-1" Cut="0.0000000000000000e+00" cType="1" res="-2.0424855872988701e-02" rms="1.8034097552299500e-01" purity="2.7424749732017517e-01" nType="-99"/>
          <Node pos="r" depth="2" NCoef="0" IVar="-1" Cut="0.0000000000000000e+00" cType="1" res="3.3947175834327936e-03" rms="2.1285808086395264e-01" purity="4.4960832595825195e-01" nType="-99"/>
        </Node>
        <Node pos="r" depth="1" NCoef="0" IVar="4" Cut="5.4148464202880859e+00" cType="1" res="8.1091606989502907e-03" rms="1.8508818745613098e-01" purity="6.3160210847854614e-01" nType="0">
          <Node pos="l" depth="2" NCoef="0" IVar="-1" Cut="0.0000000000000000e+00" cType="1" res="2.3015940561890602e-02" rms="1.3933254778385162e-01" purity="7.1343123912811279e-01" nType="-99"/>
          <Node pos="r" depth="2" NCoef="0" IVar="-1" Cut="0.0000000000000000e+00" cType="1" res="-5.6791105307638645e-03" rms="2.0846301317214966e-01" purity="5.7597041130065918e-01" nType="-99"/>
        </Node>
      </Node>
    </BinaryTree>
    <BinaryTree type="DecisionTree" boostWeight="1.0000000000000000e+00" itree="279">
      <Node pos="s" depth="0" NCoef="0" IVar="3" Cut="1.4928527832031250e+03" cType="1" res="-1.3285557542985771e-05" rms="1.9551068544387817e-01" purity="5.0000000000000000e-01" nType="0">
        <Node pos="l" depth="1" NCoef="0" IVar="9" Cut="4.7694833984375000e+03" cType="1" res="-1.7420057207345963e-02" rms="2.1860098838806152e-01" purity="2.8727829456329346e-01" nType="0">
          <Node pos="l" depth="2" NCoef="0" IVar="-1" Cut="0.0000000000000000e+00" cType="1" res="1.4707735739648342e-02" rms="2.0520497858524323e-01" purity="3.7740585207939148e-01" nType="-99"/>
          <Node pos="r" depth="2" NCoef="0" IVar="-1" Cut="0.0000000000000000e+00" cType="1" res="-3.6888238042593002e-02" rms="2.2101618349552155e-01" purity="1.8833255767822266e-01" nType="-99"/>
        </Node>
        <Node pos="r" depth="1" NCoef="0" IVar="6" Cut="4.0976727294921875e+02" cType="1" res="3.0517075210809708e-03" rms="1.9099216163158417e-01" purity="5.3745615482330322e-01" nType="0">
          <Node pos="l" depth="2" NCoef="0" IVar="-1" Cut="0.0000000000000000e+00" cType="1" res="3.5286683123558760e-03" rms="1.8851266801357269e-01" purity="5.6000328063964844e-01" nType="-99"/>
          <Node pos="r" depth="2" NCoef="0" IVar="-1" Cut="0.0000000000000000e+00" cType="1" res="-2.8104363009333611e-02" rms="2.1798571944236755e-01" purity="2.0122699439525604e-01" nType="-99"/>
        </Node>
      </Node>
    </BinaryTree>
    <BinaryTree type="DecisionTree" boostWeight="1.0000000000000000e+00" itree="280">
      <Node pos="s" depth="0" NCoef="0" IVar="2" Cut="5.8343754882812500e+03" cType="1" res="-1.5164100659603719e-05" rms="1.9496187567710876e-01" purity="5.0000000000000000e-01" nType="0">
        <Node pos="l" depth="1" NCoef="0" IVar="9" Cut="8.8247343750000000e+03" cType="1" res="3.0897546093910933e-03" rms="1.9841295480728149e-01" purity="5.6466394662857056e-01" nType="0">
          <Node pos="l" depth="2" NCoef="0" IVar="-1" Cut="0.0000000000000000e+00" cType="1" res="-8.3090184489265084e-04" rms="1.9869473576545715e-01" purity="5.5678796768188477e-01" nType="-99"/>
          <Node pos="r" depth="2" NCoef="0" IVar="-1" Cut="0.0000000000000000e+00" cType="1" res="2.4714015424251556e-02" rms="1.8759167194366455e-01" purity="6.5201121568679810e-01" nType="-99"/>
        </Node>
        <Node pos="r" depth="1" NCoef="0" IVar="11" Cut="3.6049121093750000e+04" cType="1" res="-1.7256634309887886e-02" rms="1.7355348169803619e-01" purity="1.4092373847961426e-01" nType="0">
          <Node pos="l" depth="2" NCoef="0" IVar="-1" Cut="0.0000000000000000e+00" cType="1" res="6.4718616195023060e-03" rms="1.8176786601543427e-01" purity="1.0314465314149857e-01" nType="-99"/>
          <Node pos="r" depth="2" NCoef="0" IVar="-1" Cut="0.0000000000000000e+00" cType="1" res="-2.4315387010574341e-02" rms="1.6019251942634583e-01" purity="1.8061673641204834e-01" nType="-99"/>
        </Node>
      </Node>
    </BinaryTree>
    <BinaryTree type="DecisionTree" boostWeight="1.0000000000000000e+00" itree="281">
      <Node pos="s" depth="0" NCoef="0" IVar="2" Cut="5.4564570312500000e+03" cType="1" res="-1.4058713531994727e-05" rms="1.9469119608402252e-01" purity="5.0000000000000000e-01" nType="0">
        <Node pos="l" depth="1" NCoef="0" IVar="10" Cut="4.7385412597656250e+02" cType="1" res="-1.1927269399166107e-02" rms="1.1813146620988846e-01" purity="2.4002927541732788e-01" nType="0">
          <Node pos="l" depth="2" NCoef="0" IVar="-1" Cut="0.0000000000000000e+00" cType="1" res="-2.5926038622856140e-02" rms="1.1321286857128143e-01" purity="1.6133792698383331e-01" nType="-99"/>
          <Node pos="r" depth="2" NCoef="0" IVar="-1" Cut="0.0000000000000000e+00" cType="1" res="2.9847238212823868e-02" rms="1.1772441864013672e-01" purity="4.6857142448425293e-01" nType="-99"/>
        </Node>
        <Node pos="r" depth="1" NCoef="0" IVar="2" Cut="5.4897851562500000e+03" cType="1" res="4.3650674633681774e-03" rms="2.1595567464828491e-01" purity="5.9556156396865845e-01" nType="0">
          <Node pos="l" depth="2" NCoef="0" IVar="-1" Cut="0.0000000000000000e+00" cType="1" res="3.0746554955840111e-02" rms="1.7792013287544250e-01" purity="8.4102565050125122e-01" nType="-99"/>
          <Node pos="r" depth="2" NCoef="0" IVar="-1" Cut="0.0000000000000000e+00" cType="1" res="-4.2983144521713257e-04" rms="2.1808676421642303e-01" purity="5.7459855079650879e-01" nType="-99"/>
        </Node>
      </Node>
    </BinaryTree>
    <BinaryTree type="DecisionTree" boostWeight="1.0000000000000000e+00" itree="282">
      <Node pos="s" depth="0" NCoef="0" IVar="4" Cut="8.9473457336425781e+00" cType="1" res="-1.1185840776306577e-05" rms="1.9417871534824371e-01" purity="5.0000000000000000e-01" nType="0">
        <Node pos="l" depth="1" NCoef="0" IVar="5" Cut="5.9902834892272949e-01" cType="1" res="1.7373980954289436e-03" rms="1.9731207191944122e-01" purity="5.2158498764038086e-01" nType="0">
          <Node pos="l" depth="2" NCoef="0" IVar="-1" Cut="0.0000000000000000e+00" cType="1" res="-4.1370587423443794e-03" rms="1.9419066607952118e-01" purity="4.8136192560195923e-01" nType="-99"/>
          <Node pos="r" depth="2" NCoef="0" IVar="-1" Cut="0.0000000000000000e+00" cType="1" res="1.3223974034190178e-02" rms="2.0285119116306305e-01" purity="6.2031698226928711e-01" nType="-99"/>
        </Node>
        <Node pos="r" depth="1" NCoef="0" IVar="-1" Cut="0.0000000000000000e+00" cType="1" res="-2.4041296914219856e-02" rms="1.2829728424549103e-01" purity="1.4186850190162659e-01" nType="-99"/>
      </Node>
    </BinaryTree>
    <BinaryTree type="DecisionTree" boostWeight="1.0000000000000000e+00" itree="283">
      <Node pos="s" depth="0" NCoef="0" IVar="4" Cut="6.5379428863525391e+00" cType="1" res="-9.5950435934355482e-06" rms="1.9393223524093628e-01" purity="5.0000000000000000e-01" nType="0">
        <Node pos="l" depth="1" NCoef="0" IVar="11" Cut="2.6023939453125000e+04" cType="1" res="4.3939519673585892e-03" rms="1.9103284180164337e-01" purity="5.2653300762176514e-01" nType="0">
          <Node pos="l" depth="2" NCoef="0" IVar="-1" Cut="0.0000000000000000e+00" cType="1" res="1.6647450625896454e-02" rms="1.8138319253921509e-01" purity="4.9432623386383057e-01" nType="-99"/>
          <Node pos="r" depth="2" NCoef="0" IVar="-1" Cut="0.0000000000000000e+00" cType="1" res="-4.8378058709204197e-03" rms="1.9558311998844147e-01" purity="5.4695343971252441e-01" nType="-99"/>
        </Node>
        <Node pos="r" depth="1" NCoef="0" IVar="11" Cut="2.0231654296875000e+04" cType="1" res="-1.1044020764529705e-02" rms="2.0058977603912354e-01" purity="4.3351340293884277e-01" nType="0">
          <Node pos="l" depth="2" NCoef="0" IVar="-1" Cut="0.0000000000000000e+00" cType="1" res="-5.9284217655658722e-02" rms="7.7892929315567017e-02" purity="0.0000000000000000e+00" nType="-99"/>
          <Node pos="r" depth="2" NCoef="0" IVar="-1" Cut="0.0000000000000000e+00" cType="1" res="2.4748262949287891e-03" rms="2.1980008482933044e-01" purity="5.5138140916824341e-01" nType="-99"/>
        </Node>
      </Node>
    </BinaryTree>
    <BinaryTree type="DecisionTree" boostWeight="1.0000000000000000e+00" itree="284">
      <Node pos="s" depth="0" NCoef="0" IVar="12" Cut="4.0340742187500000e+03" cType="1" res="-2.4625665901112370e-05" rms="1.9330562651157379e-01" purity="5.0000000000000000e-01" nType="0">
        <Node pos="l" depth="1" NCoef="0" IVar="0" Cut="3.6916093750000000e+03" cType="1" res="-5.1484103314578533e-03" rms="1.8832144141197205e-01" purity="4.0680369734764099e-01" nType="0">
          <Node pos="l" depth="2" NCoef="0" IVar="-1" Cut="0.0000000000000000e+00" cType="1" res="2.9893694445490837e-03" rms="1.7240104079246521e-01" purity="3.8689243793487549e-01" nType="-99"/>
          <Node pos="r" depth="2" NCoef="0" IVar="-1" Cut="0.0000000000000000e+00" cType="1" res="-2.1043436601758003e-02" rms="2.3313079774379730e-01" purity="4.7874823212623596e-01" nType="-99"/>
        </Node>
        <Node pos="r" depth="1" NCoef="0" IVar="4" Cut="7.3761405944824219e+00" cType="1" res="9.3907453119754791e-03" rms="2.0180545747280121e-01" purity="6.7125582695007324e-01" nType="0">
          <Node pos="l" depth="2" NCoef="0" IVar="-1" Cut="0.0000000000000000e+00" cType="1" res="1.1847625486552715e-02" rms="1.9065183401107788e-01" purity="6.8208748102188110e-01" nType="-99"/>
          <Node pos="r" depth="2" NCoef="0" IVar="-1" Cut="0.0000000000000000e+00" cType="1" res="-2.5307599455118179e-02" rms="2.3760589957237244e-01" purity="6.2310028076171875e-01" nType="-99"/>
        </Node>
      </Node>
    </BinaryTree>
    <BinaryTree type="DecisionTree" boostWeight="1.0000000000000000e+00" itree="285">
      <Node pos="s" depth="0" NCoef="0" IVar="8" Cut="2.1462006835937500e+03" cType="1" res="-1.9622311810962856e-05" rms="1.9276668131351471e-01" purity="5.0000000000000000e-01" nType="0">
        <Node pos="l" depth="1" NCoef="0" IVar="4" Cut="7.1402935981750488e+00" cType="1" res="-5.0975438207387924e-03" rms="1.9876654446125031e-01" purity="4.2910337448120117e-01" nType="0">
          <Node pos="l" depth="2" NCoef="0" IVar="-1" Cut="0.0000000000000000e+00" cType="1" res="9.7758159972727299e-04" rms="1.9433145225048065e-01" purity="4.7941285371780396e-01" nType="-99"/>
          <Node pos="r" depth="2" NCoef="0" IVar="-1" Cut="0.0000000000000000e+00" cType="1" res="-1.9427297636866570e-02" rms="2.1399214863777161e-01" purity="2.1601682901382446e-01" nType="-99"/>
        </Node>
        <Node pos="r" depth="1" NCoef="0" IVar="4" Cut="7.3090806007385254e+00" cType="1" res="9.4741322100162506e-03" rms="1.8063403666019440e-01" purity="6.3254940509796143e-01" nType="0">
          <Node pos="l" depth="2" NCoef="0" IVar="-1" Cut="0.0000000000000000e+00" cType="1" res="-1.9703479483723640e-03" rms="1.7988078296184540e-01" purity="5.9780055284500122e-01" nType="-99"/>
          <Node pos="r" depth="2" NCoef="0" IVar="-1" Cut="0.0000000000000000e+00" cType="1" res="3.1263459473848343e-02" rms="1.7691969871520996e-01" purity="7.4339771270751953e-01" nType="-99"/>
        </Node>
      </Node>
    </BinaryTree>
    <BinaryTree type="DecisionTree" boostWeight="1.0000000000000000e+00" itree="286">
      <Node pos="s" depth="0" NCoef="0" IVar="0" Cut="7.8586020507812500e+03" cType="1" res="-1.5969439118634909e-05" rms="1.9239473342895508e-01" purity="5.0000000000000000e-01" nType="0">
        <Node pos="l" depth="1" NCoef="0" IVar="1" Cut="3.5187273437500000e+04" cType="1" res="-2.1591270342469215e-03" rms="2.0129331946372986e-01" purity="4.5284247398376465e-01" nType="0">
          <Node pos="l" depth="2" NCoef="0" IVar="-1" Cut="0.0000000000000000e+00" cType="1" res="3.1631451100111008e-02" rms="1.2867364287376404e-01" purity="5.0191277265548706e-01" nType="-99"/>
          <Node pos="r" depth="2" NCoef="0" IVar="-1" Cut="0.0000000000000000e+00" cType="1" res="-3.5229364875704050e-03" rms="2.0675572752952576e-01" purity="4.4773027300834656e-01" nType="-99"/>
        </Node>
        <Node pos="r" depth="1" NCoef="0" IVar="-1" Cut="0.0000000000000000e+00" cType="1" res="3.7223462015390396e-02" rms="4.2945530265569687e-02" purity="9.6677386760711670e-01" nType="-99"/>
      </Node>
    </BinaryTree>
    <BinaryTree type="DecisionTree" boostWeight="1.0000000000000000e+00" itree="287">
      <Node pos="s" depth="0" NCoef="0" IVar="7" Cut="1.9179617187500000e+04" cType="1" res="-6.5410622482886538e-06" rms="1.9209256768226624e-01" purity="5.0000000000000000e-01" nType="0">
        <Node pos="l" depth="1" NCoef="0" IVar="10" Cut="3.4120617675781250e+02" cType="1" res="-8.9094014838337898e-03" rms="1.9221003353595734e-01" purity="4.8705983161926270e-01" nType="0">
          <Node pos="l" depth="2" NCoef="0" IVar="-1" Cut="0.0000000000000000e+00" cType="1" res="-3.1628943979740143e-02" rms="1.9934999942779541e-01" purity="3.3503574132919312e-01" nType="-99"/>
          <Node pos="r" depth="2" NCoef="0" IVar="-1" Cut="0.0000000000000000e+00" cType="1" res="9.3442108482122421e-03" rms="1.8287046253681183e-01" purity="5.6271439790725708e-01" nType="-99"/>
        </Node>
        <Node pos="r" depth="1" NCoef="0" IVar="6" Cut="8.5353034973144531e+01" cType="1" res="5.5984705686569214e-03" rms="1.9180671870708466e-01" purity="5.0814682245254517e-01" nType="0">
          <Node pos="l" depth="2" NCoef="0" IVar="-1" Cut="0.0000000000000000e+00" cType="1" res="-1.0048301890492439e-02" rms="2.3909845948219299e-01" purity="3.8410598039627075e-01" nType="-99"/>
          <Node pos="r" depth="2" NCoef="0" IVar="-1" Cut="0.0000000000000000e+00" cType="1" res="1.2312416918575764e-02" rms="1.6163910925388336e-01" purity="5.6944441795349121e-01" nType="-99"/>
        </Node>
      </Node>
    </BinaryTree>
    <BinaryTree type="DecisionTree" boostWeight="1.0000000000000000e+00" itree="288">
      <Node pos="s" depth="0" NCoef="0" IVar="9" Cut="2.6159143066406250e+03" cType="1" res="-5.2034897635166999e-06" rms="1.9125810265541077e-01" purity="5.0000000000000000e-01" nType="0">
        <Node pos="l" depth="1" NCoef="0" IVar="4" Cut="6.3969879150390625e+00" cType="1" res="1.6531439498066902e-02" rms="1.6003070771694183e-01" purity="5.8519178628921509e-01" nType="0">
          <Node pos="l" depth="2" NCoef="0" IVar="-1" Cut="0.0000000000000000e+00" cType="1" res="2.1455258131027222e-02" rms="1.3111637532711029e-01" purity="7.0800626277923584e-01" nType="-99"/>
          <Node pos="r" depth="2" NCoef="0" IVar="-1" Cut="0.0000000000000000e+00" cType="1" res="-3.5258317366242409e-03" rms="1.8913738429546356e-01" purity="4.2355370521545410e-01" nType="-99"/>
        </Node>
        <Node pos="r" depth="1" NCoef="0" IVar="7" Cut="1.3213380859375000e+04" cType="1" res="-2.8549460694193840e-03" rms="1.9599702954292297e-01" purity="4.8531895875930786e-01" nType="0">
          <Node pos="l" depth="2" NCoef="0" IVar="-1" Cut="0.0000000000000000e+00" cType="1" res="-2.1100878715515137e-02" rms="1.7287808656692505e-01" purity="3.8362574577331543e-01" nType="-99"/>
          <Node pos="r" depth="2" NCoef="0" IVar="-1" Cut="0.0000000000000000e+00" cType="1" res="6.3957256497815251e-04" rms="1.9794142246246338e-01" purity="4.9643999338150024e-01" nType="-99"/>
        </Node>
      </Node>
    </BinaryTree>
    <BinaryTree type="DecisionTree" boostWeight="1.0000000000000000e+00" itree="289">
      <Node pos="s" depth="0" NCoef="0" IVar="2" Cut="5.3147377929687500e+03" cType="1" res="-3.1161839615378994e-06" rms="1.9101375341415405e-01" purity="5.0000000000000000e-01" nType="0">
        <Node pos="l" depth="1" NCoef="0" IVar="1" Cut="6.3235265625000000e+04" cType="1" res="-1.6067618504166603e-02" rms="7.4993029236793518e-02" purity="5.1217984408140182e-02" nType="0">
          <Node pos="l" depth="2" NCoef="0" IVar="-1" Cut="0.0000000000000000e+00" cType="1" res="-5.8134917169809341e-02" rms="5.5361915379762650e-02" purity="0.0000000000000000e+00" nType="-99"/>
          <Node pos="r" depth="2" NCoef="0" IVar="-1" Cut="0.0000000000000000e+00" cType="1" res="-3.3655858132988214e-03" rms="9.1294296085834503e-02" purity="1.1186902970075607e-01" nType="-99"/>
        </Node>
        <Node pos="r" depth="1" NCoef="0" IVar="5" Cut="5.6776779890060425e-01" cType="1" res="2.9990163166075945e-03" rms="2.0541800558567047e-01" purity="5.8386832475662231e-01" nType="0">
          <Node pos="l" depth="2" NCoef="0" IVar="-1" Cut="0.0000000000000000e+00" cType="1" res="-2.5734675582498312e-03" rms="2.0671270787715912e-01" purity="5.6521213054656982e-01" nType="-99"/>
          <Node pos="r" depth="2" NCoef="0" IVar="-1" Cut="0.0000000000000000e+00" cType="1" res="9.3065872788429260e-03" rms="2.0207887887954712e-01" purity="6.1838746070861816e-01" nType="-99"/>
        </Node>
      </Node>
    </BinaryTree>
    <BinaryTree type="DecisionTree" boostWeight="1.0000000000000000e+00" itree="290">
      <Node pos="s" depth="0" NCoef="0" IVar="2" Cut="5.8343754882812500e+03" cType="1" res="-1.1932436791539658e-05" rms="1.9076564908027649e-01" purity="5.0000000000000000e-01" nType="0">
        <Node pos="l" depth="1" NCoef="0" IVar="9" Cut="8.8247343750000000e+03" cType="1" res="2.8017987497150898e-03" rms="1.9444392621517181e-01" purity="5.6466394662857056e-01" nType="0">
          <Node pos="l" depth="2" NCoef="0" IVar="-1" Cut="0.0000000000000000e+00" cType="1" res="-8.6499401368200779e-04" rms="1.9464376568794250e-01" purity="5.5678796768188477e-01" nType="-99"/>
          <Node pos="r" depth="2" NCoef="0" IVar="-1" Cut="0.0000000000000000e+00" cType="1" res="2.3989483714103699e-02" rms="1.8525765836238861e-01" purity="6.5201121568679810e-01" nType="-99"/>
        </Node>
        <Node pos="r" depth="1" NCoef="0" IVar="6" Cut="1.5955770874023438e+02" cType="1" res="-1.5636451542377472e-02" rms="1.6803398728370667e-01" purity="1.4092373847961426e-01" nType="0">
          <Node pos="l" depth="2" NCoef="0" IVar="-1" Cut="0.0000000000000000e+00" cType="1" res="4.6804058365523815e-03" rms="1.7238275706768036e-01" purity="1.5518546104431152e-01" nType="-99"/>
          <Node pos="r" depth="2" NCoef="0" IVar="-1" Cut="0.0000000000000000e+00" cType="1" res="-2.8407352045178413e-02" rms="1.5741813182830811e-01" purity="1.2220565974712372e-01" nType="-99"/>
        </Node>
      </Node>
    </BinaryTree>
    <BinaryTree type="DecisionTree" boostWeight="1.0000000000000000e+00" itree="291">
      <Node pos="s" depth="0" NCoef="0" IVar="0" Cut="5.5822954101562500e+03" cType="1" res="-1.1718657333403826e-05" rms="1.9050827622413635e-01" purity="5.0000000000000000e-01" nType="0">
        <Node pos="l" depth="1" NCoef="0" IVar="12" Cut="4.8721313476562500e+03" cType="1" res="-3.9681866765022278e-03" rms="2.0926053822040558e-01" purity="4.1276991367340088e-01" nType="0">
          <Node pos="l" depth="2" NCoef="0" IVar="-1" Cut="0.0000000000000000e+00" cType="1" res="-4.6082022599875927e-03" rms="2.0590063929557800e-01" purity="3.9805826544761658e-01" nType="-99"/>
          <Node pos="r" depth="2" NCoef="0" IVar="-1" Cut="0.0000000000000000e+00" cType="1" res="2.0655555650591850e-02" rms="2.3862870037555695e-01" purity="6.0183483362197876e-01" nType="-99"/>
        </Node>
        <Node pos="r" depth="1" NCoef="0" IVar="9" Cut="5.7423955078125000e+03" cType="1" res="1.1392396874725819e-02" rms="1.2045799940824509e-01" purity="7.5143182277679443e-01" nType="0">
          <Node pos="l" depth="2" NCoef="0" IVar="-1" Cut="0.0000000000000000e+00" cType="1" res="2.0202770829200745e-02" rms="1.1699275672435760e-01" purity="7.3756611347198486e-01" nType="-99"/>
          <Node pos="r" depth="2" NCoef="0" IVar="-1" Cut="0.0000000000000000e+00" cType="1" res="-3.3851299434900284e-02" rms="1.2024306505918503e-01" purity="7.8737998008728027e-01" nType="-99"/>
        </Node>
      </Node>
    </BinaryTree>
    <BinaryTree type="DecisionTree" boostWeight="1.0000000000000000e+00" itree="292">
      <Node pos="s" depth="0" NCoef="0" IVar="4" Cut="8.9473457336425781e+00" cType="1" res="-6.2116678236634471e-06" rms="1.9002655148506165e-01" purity="5.0000000000000000e-01" nType="0">
        <Node pos="l" depth="1" NCoef="0" IVar="5" Cut="9.2794299125671387e-01" cType="1" res="1.6229546163231134e-03" rms="1.9305780529975891e-01" purity="5.2158498764038086e-01" nType="0">
          <Node pos="l" depth="2" NCoef="0" IVar="-1" Cut="0.0000000000000000e+00" cType="1" res="-2.1173688583076000e-03" rms="1.8625445663928986e-01" purity="5.0570046901702881e-01" nType="-99"/>
          <Node pos="r" depth="2" NCoef="0" IVar="-1" Cut="0.0000000000000000e+00" cType="1" res="1.7900399863719940e-02" rms="2.2673356533050537e-01" purity="6.1654138565063477e-01" nType="-99"/>
        </Node>
        <Node pos="r" depth="1" NCoef="0" IVar="-1" Cut="0.0000000000000000e+00" cType="1" res="-2.3284174501895905e-02" rms="1.2676264345645905e-01" purity="1.4186850190162659e-01" nType="-99"/>
      </Node>
    </BinaryTree>
    <BinaryTree type="DecisionTree" boostWeight="1.0000000000000000e+00" itree="293">
      <Node pos="s" depth="0" NCoef="0" IVar="8" Cut="2.1462006835937500e+03" cType="1" res="-5.2259078984207008e-06" rms="1.8978378176689148e-01" purity="5.0000000000000000e-01" nType="0">
        <Node pos="l" depth="1" NCoef="0" IVar="4" Cut="7.1402935981750488e+00" cType="1" res="-4.8279394395649433e-03" rms="1.9573555886745453e-01" purity="4.2910337448120117e-01" nType="0">
          <Node pos="l" depth="2" NCoef="0" IVar="-1" Cut="0.0000000000000000e+00" cType="1" res="1.0720386635512114e-03" rms="1.9103285670280457e-01" purity="4.7941285371780396e-01" nType="-99"/>
          <Node pos="r" depth="2" NCoef="0" IVar="-1" Cut="0.0000000000000000e+00" cType="1" res="-1.9331747666001320e-02" rms="2.1201521158218384e-01" purity="2.1601682901382446e-01" nType="-99"/>
        </Node>
        <Node pos="r" depth="1" NCoef="0" IVar="4" Cut="5.4148464202880859e+00" cType="1" res="9.0113878250122070e-03" rms="1.7777293920516968e-01" purity="6.3254940509796143e-01" nType="0">
          <Node pos="l" depth="2" NCoef="0" IVar="-1" Cut="0.0000000000000000e+00" cType="1" res="2.4973060935735703e-02" rms="1.2570673227310181e-01" purity="6.8166261911392212e-01" nType="-99"/>
          <Node pos="r" depth="2" NCoef="0" IVar="-1" Cut="0.0000000000000000e+00" cType="1" res="-4.2048357427120209e-03" rms="2.0192267000675201e-01" purity="6.0183483362197876e-01" nType="-99"/>
        </Node>
      </Node>
    </BinaryTree>
    <BinaryTree type="DecisionTree" boostWeight="1.0000000000000000e+00" itree="294">
      <Node pos="s" depth="0" NCoef="0" IVar="2" Cut="5.3147377929687500e+03" cType="1" res="-1.8745744227999239e-06" rms="1.8947531282901764e-01" purity="5.0000000000000000e-01" nType="0">
        <Node pos="l" depth="1" NCoef="0" IVar="9" Cut="4.7275668945312500e+03" cType="1" res="-1.5144369564950466e-02" rms="7.2852797806262970e-02" purity="5.1217984408140182e-02" nType="0">
          <Node pos="l" depth="2" NCoef="0" IVar="-1" Cut="0.0000000000000000e+00" cType="1" res="-4.1430391371250153e-02" rms="6.0805853456258774e-02" purity="2.6814909651875496e-02" nType="-99"/>
          <Node pos="r" depth="2" NCoef="0" IVar="-1" Cut="0.0000000000000000e+00" cType="1" res="-7.9276185715571046e-04" rms="8.8297322392463684e-02" purity="9.3982815742492676e-02" nType="-99"/>
        </Node>
        <Node pos="r" depth="1" NCoef="0" IVar="10" Cut="2.0833163452148438e+02" cType="1" res="2.8279530815780163e-03" rms="2.0388065278530121e-01" purity="5.8386832475662231e-01" nType="0">
          <Node pos="l" depth="2" NCoef="0" IVar="-1" Cut="0.0000000000000000e+00" cType="1" res="-1.2682408094406128e-02" rms="2.5055178999900818e-01" purity="3.5528594255447388e-01" nType="-99"/>
          <Node pos="r" depth="2" NCoef="0" IVar="-1" Cut="0.0000000000000000e+00" cType="1" res="3.1615935731679201e-03" rms="1.9834043085575104e-01" purity="6.0642069578170776e-01" nType="-99"/>
        </Node>
      </Node>
    </BinaryTree>
    <BinaryTree type="DecisionTree" boostWeight="1.0000000000000000e+00" itree="295">
      <Node pos="s" depth="0" NCoef="0" IVar="9" Cut="2.6159143066406250e+03" cType="1" res="-7.2576131060486659e-06" rms="1.8934921920299530e-01" purity="5.0000000000000000e-01" nType="0">
        <Node pos="l" depth="1" NCoef="0" IVar="12" Cut="4.5130634765625000e+03" cType="1" res="1.6284467652440071e-02" rms="1.5890580415725708e-01" purity="5.8519178628921509e-01" nType="0">
          <Node pos="l" depth="2" NCoef="0" IVar="-1" Cut="0.0000000000000000e+00" cType="1" res="2.1166803315281868e-02" rms="1.4323423802852631e-01" purity="6.2732243537902832e-01" nType="-99"/>
          <Node pos="r" depth="2" NCoef="0" IVar="-1" Cut="0.0000000000000000e+00" cType="1" res="-6.9218873977661133e-03" rms="1.7737480998039246e-01" purity="5.1868891716003418e-01" nType="-99"/>
        </Node>
        <Node pos="r" depth="1" NCoef="0" IVar="7" Cut="1.3213380859375000e+04" cType="1" res="-2.8147939592599869e-03" rms="1.9397564232349396e-01" purity="4.8531895875930786e-01" nType="0">
          <Node pos="l" depth="2" NCoef="0" IVar="-1" Cut="0.0000000000000000e+00" cType="1" res="-1.9001634791493416e-02" rms="1.7035512626171112e-01" purity="3.8362574577331543e-01" nType="-99"/>
          <Node pos="r" depth="2" NCoef="0" IVar="-1" Cut="0.0000000000000000e+00" cType="1" res="4.1069614235311747e-04" rms="1.9605581462383270e-01" purity="4.9643999338150024e-01" nType="-99"/>
        </Node>
      </Node>
    </BinaryTree>
    <BinaryTree type="DecisionTree" boostWeight="1.0000000000000000e+00" itree="296">
      <Node pos="s" depth="0" NCoef="0" IVar="2" Cut="5.7871357421875000e+03" cType="1" res="-5.4555116548726801e-06" rms="1.8907296657562256e-01" purity="5.0000000000000000e-01" nType="0">
        <Node pos="l" depth="1" NCoef="0" IVar="6" Cut="3.7283832550048828e+01" cType="1" res="3.1522826757282019e-03" rms="1.9400246441364288e-01" purity="5.6803071498870850e-01" nType="0">
          <Node pos="l" depth="2" NCoef="0" IVar="-1" Cut="0.0000000000000000e+00" cType="1" res="-1.1687668971717358e-02" rms="2.0576508343219757e-01" purity="3.2277110219001770e-01" nType="-99"/>
          <Node pos="r" depth="2" NCoef="0" IVar="-1" Cut="0.0000000000000000e+00" cType="1" res="5.5683567188680172e-03" rms="1.9024784862995148e-01" purity="6.3067412376403809e-01" nType="-99"/>
        </Node>
        <Node pos="r" depth="1" NCoef="0" IVar="4" Cut="5.6752882003784180e+00" cType="1" res="-1.4266097918152809e-02" rms="1.6423195600509644e-01" purity="1.9276672601699829e-01" nType="0">
          <Node pos="l" depth="2" NCoef="0" IVar="-1" Cut="0.0000000000000000e+00" cType="1" res="6.0087190940976143e-03" rms="1.6145619750022888e-01" purity="2.9570859670639038e-01" nType="-99"/>
          <Node pos="r" depth="2" NCoef="0" IVar="-1" Cut="0.0000000000000000e+00" cType="1" res="-2.3216297850012779e-02" rms="1.6364262998104095e-01" purity="8.9227415621280670e-02" nType="-99"/>
        </Node>
      </Node>
    </BinaryTree>
    <BinaryTree type="DecisionTree" boostWeight="1.0000000000000000e+00" itree="297">
      <Node pos="s" depth="0" NCoef="0" IVar="9" Cut="2.6159143066406250e+03" cType="1" res="-8.6612699305987917e-06" rms="1.8900825083255768e-01" purity="5.0000000000000000e-01" nType="0">
        <Node pos="l" depth="1" NCoef="0" IVar="12" Cut="4.5130634765625000e+03" cType="1" res="1.5408222563564777e-02" rms="1.5804973244667053e-01" purity="5.8519178628921509e-01" nType="0">
          <Node pos="l" depth="2" NCoef="0" IVar="-1" Cut="0.0000000000000000e+00" cType="1" res="1.9813956692814827e-02" rms="1.4267551898956299e-01" purity="6.2732243537902832e-01" nType="-99"/>
          <Node pos="r" depth="2" NCoef="0" IVar="-1" Cut="0.0000000000000000e+00" cType="1" res="-5.9781824238598347e-03" rms="1.7671568691730499e-01" purity="5.1868891716003418e-01" nType="-99"/>
        </Node>
        <Node pos="r" depth="1" NCoef="0" IVar="4" Cut="1.3225860595703125e+00" cType="1" res="-2.6654370594769716e-03" rms="1.9372060894966125e-01" purity="4.8531895875930786e-01" nType="0">
          <Node pos="l" depth="2" NCoef="0" IVar="-1" Cut="0.0000000000000000e+00" cType="1" res="-3.2913252711296082e-02" rms="1.3835662603378296e-01" purity="4.6697035431861877e-02" nType="-99"/>
          <Node pos="r" depth="2" NCoef="0" IVar="-1" Cut="0.0000000000000000e+00" cType="1" res="1.5755028289277107e-04" rms="1.9679470360279083e-01" purity="5.1706230640411377e-01" nType="-99"/>
        </Node>
      </Node>
    </BinaryTree>
    <BinaryTree type="DecisionTree" boostWeight="1.0000000000000000e+00" itree="298">
      <Node pos="s" depth="0" NCoef="0" IVar="0" Cut="5.5822954101562500e+03" cType="1" res="-1.1347423424012959e-05" rms="1.8884079158306122e-01" purity="5.0000000000000000e-01" nType="0">
        <Node pos="l" depth="1" NCoef="0" IVar="12" Cut="4.8721313476562500e+03" cType="1" res="-3.7790585774928331e-03" rms="2.0761170983314514e-01" purity="4.1276991367340088e-01" nType="0">
          <Node pos="l" depth="2" NCoef="0" IVar="-1" Cut="0.0000000000000000e+00" cType="1" res="-4.4079339131712914e-03" rms="2.0435707271099091e-01" purity="3.9805826544761658e-01" nType="-99"/>
          <Node pos="r" depth="2" NCoef="0" IVar="-1" Cut="0.0000000000000000e+00" cType="1" res="1.9610462710261345e-02" rms="2.3690348863601685e-01" purity="6.0183483362197876e-01" nType="-99"/>
        </Node>
        <Node pos="r" depth="1" NCoef="0" IVar="9" Cut="5.7423955078125000e+03" cType="1" res="1.0848695412278175e-02" rms="1.1854042857885361e-01" purity="7.5143182277679443e-01" nType="0">
          <Node pos="l" depth="2" NCoef="0" IVar="-1" Cut="0.0000000000000000e+00" cType="1" res="1.8955670297145844e-02" rms="1.1728349328041077e-01" purity="7.3756611347198486e-01" nType="-99"/>
          <Node pos="r" depth="2" NCoef="0" IVar="-1" Cut="0.0000000000000000e+00" cType="1" res="-3.0286850407719612e-02" rms="1.1427481472492218e-01" purity="7.8737998008728027e-01" nType="-99"/>
        </Node>
      </Node>
    </BinaryTree>
    <BinaryTree type="DecisionTree" boostWeight="1.0000000000000000e+00" itree="299">
      <Node pos="s" depth="0" NCoef="0" IVar="10" Cut="7.1833148193359375e+02" cType="1" res="-6.4620526245562360e-06" rms="1.8843582272529602e-01" purity="5.0000000000000000e-01" nType="0">
        <Node pos="l" depth="1" NCoef="0" IVar="10" Cut="5.6815917968750000e+02" cType="1" res="-2.2110473364591599e-03" rms="1.9481869041919708e-01" purity="4.7496151924133301e-01" nType="0">
          <Node pos="l" depth="2" NCoef="0" IVar="-1" Cut="0.0000000000000000e+00" cType="1" res="1.8918962450698018e-03" rms="1.8696138262748718e-01" purity="4.7046551108360291e-01" nType="-99"/>
          <Node pos="r" depth="2" NCoef="0" IVar="-1" Cut="0.0000000000000000e+00" cType="1" res="-1.8010169267654419e-02" rms="2.3014004528522491e-01" purity="4.9918049573898315e-01" nType="-99"/>
        </Node>
        <Node pos="r" depth="1" NCoef="0" IVar="1" Cut="5.8815292968750000e+04" cType="1" res="1.8634788691997528e-02" rms="1.2014444917440414e-01" purity="7.1171730756759644e-01" nType="0">
          <Node pos="l" depth="2" NCoef="0" IVar="-1" Cut="0.0000000000000000e+00" cType="1" res="-6.2195332720875740e-03" rms="1.4498814940452576e-01" purity="5.4799515008926392e-01" nType="-99"/>
          <Node pos="r" depth="2" NCoef="0" IVar="-1" Cut="0.0000000000000000e+00" cType="1" res="5.4711852222681046e-02" rms="7.6855711638927460e-02" purity="8.8227850198745728e-01" nType="-99"/>
        </Node>
      </Node>
    </BinaryTree>
    <BinaryTree type="DecisionTree" boostWeight="1.0000000000000000e+00" itree="300">
      <Node pos="s" depth="0" NCoef="0" IVar="2" Cut="5.3147377929687500e+03" cType="1" res="2.8307497359492118e-06" rms="1.8804304301738739e-01" purity="5.0000000000000000e-01" nType="0">
        <Node pos="l" depth="1" NCoef="0" IVar="9" Cut="4.2664521484375000e+03" cType="1" res="-1.4671303331851959e-02" rms="7.2911433875560760e-02" purity="5.1217984408140182e-02" nType="0">
          <Node pos="l" depth="2" NCoef="0" IVar="-1" Cut="0.0000000000000000e+00" cType="1" res="-4.1230447590351105e-02" rms="6.2620930373668671e-02" purity="2.9507016763091087e-02" nType="-99"/>
          <Node pos="r" depth="2" NCoef="0" IVar="-1" Cut="0.0000000000000000e+00" cType="1" res="-2.8846517670899630e-03" rms="8.3372406661510468e-02" purity="8.1027671694755554e-02" nType="-99"/>
        </Node>
        <Node pos="r" depth="1" NCoef="0" IVar="10" Cut="2.0833163452148438e+02" cType="1" res="2.7451312635093927e-03" rms="2.0230437815189362e-01" purity="5.8386832475662231e-01" nType="0">
          <Node pos="l" depth="2" NCoef="0" IVar="-1" Cut="0.0000000000000000e+00" cType="1" res="-1.2017740868031979e-02" rms="2.4912892282009125e-01" purity="3.5528594255447388e-01" nType="-99"/>
          <Node pos="r" depth="2" NCoef="0" IVar="-1" Cut="0.0000000000000000e+00" cType="1" res="3.0589497182518244e-03" rms="1.9677540659904480e-01" purity="6.0642069578170776e-01" nType="-99"/>
        </Node>
      </Node>
    </BinaryTree>
    <BinaryTree type="DecisionTree" boostWeight="1.0000000000000000e+00" itree="301">
      <Node pos="s" depth="0" NCoef="0" IVar="2" Cut="5.7871357421875000e+03" cType="1" res="-2.4456639948766679e-06" rms="1.8792890012264252e-01" purity="5.0000000000000000e-01" nType="0">
        <Node pos="l" depth="1" NCoef="0" IVar="6" Cut="3.7283832550048828e+01" cType="1" res="3.0048354528844357e-03" rms="1.9281138479709625e-01" purity="5.6803071498870850e-01" nType="0">
          <Node pos="l" depth="2" NCoef="0" IVar="-1" Cut="0.0000000000000000e+00" cType="1" res="-1.0965177789330482e-02" rms="2.0369361340999603e-01" purity="3.2277110219001770e-01" nType="-99"/>
          <Node pos="r" depth="2" NCoef="0" IVar="-1" Cut="0.0000000000000000e+00" cType="1" res="5.2691698074340820e-03" rms="1.8938137590885162e-01" purity="6.3067412376403809e-01" nType="-99"/>
        </Node>
        <Node pos="r" depth="1" NCoef="0" IVar="5" Cut="2.7261134982109070e-01" cType="1" res="-1.3583610765635967e-02" rms="1.6339139640331268e-01" purity="1.9276672601699829e-01" nType="0">
          <Node pos="l" depth="2" NCoef="0" IVar="-1" Cut="0.0000000000000000e+00" cType="1" res="-3.6636255681514740e-02" rms="1.2950387597084045e-01" purity="7.7468119561672211e-02" nType="-99"/>
          <Node pos="r" depth="2" NCoef="0" IVar="-1" Cut="0.0000000000000000e+00" cType="1" res="2.9682156164199114e-03" rms="1.7868451774120331e-01" purity="2.6428362727165222e-01" nType="-99"/>
        </Node>
      </Node>
    </BinaryTree>
    <BinaryTree type="DecisionTree" boostWeight="1.0000000000000000e+00" itree="302">
      <Node pos="s" depth="0" NCoef="0" IVar="7" Cut="3.9137101562500000e+04" cType="1" res="-8.2198685049661435e-06" rms="1.8782778084278107e-01" purity="5.0000000000000000e-01" nType="0">
        <Node pos="l" depth="1" NCoef="0" IVar="7" Cut="2.1507927734375000e+04" cType="1" res="2.0599514245986938e-03" rms="1.8940797448158264e-01" purity="5.0317645072937012e-01" nType="0">
          <Node pos="l" depth="2" NCoef="0" IVar="-1" Cut="0.0000000000000000e+00" cType="1" res="-4.9256798811256886e-03" rms="1.9034153223037720e-01" purity="4.9264550209045410e-01" nType="-99"/>
          <Node pos="r" depth="2" NCoef="0" IVar="-1" Cut="0.0000000000000000e+00" cType="1" res="8.5436981171369553e-03" rms="1.8760336935520172e-01" purity="5.1470923423767090e-01" nType="-99"/>
        </Node>
        <Node pos="r" depth="1" NCoef="0" IVar="-1" Cut="0.0000000000000000e+00" cType="1" res="-1.0798601433634758e-02" rms="1.7005926370620728e-01" purity="4.6857142448425293e-01" nType="-99"/>
      </Node>
    </BinaryTree>
    <BinaryTree type="DecisionTree" boostWeight="1.0000000000000000e+00" itree="303">
      <Node pos="s" depth="0" NCoef="0" IVar="8" Cut="2.1462006835937500e+03" cType="1" res="-6.9948623604432214e-06" rms="1.8756105005741119e-01" purity="5.0000000000000000e-01" nType="0">
        <Node pos="l" depth="1" NCoef="0" IVar="0" Cut="3.4864875488281250e+03" cType="1" res="-4.4463300146162510e-03" rms="1.9424013793468475e-01" purity="4.2910337448120117e-01" nType="0">
          <Node pos="l" depth="2" NCoef="0" IVar="-1" Cut="0.0000000000000000e+00" cType="1" res="4.3959151953458786e-03" rms="1.7246046662330627e-01" purity="3.6273744702339172e-01" nType="-99"/>
          <Node pos="r" depth="2" NCoef="0" IVar="-1" Cut="0.0000000000000000e+00" cType="1" res="-1.0040066204965115e-02" rms="2.1972413361072540e-01" purity="5.2079087495803833e-01" nType="-99"/>
        </Node>
        <Node pos="r" depth="1" NCoef="0" IVar="4" Cut="7.3090806007385254e+00" cType="1" res="8.2928491756320000e-03" rms="1.7408545315265656e-01" purity="6.3254940509796143e-01" nType="0">
          <Node pos="l" depth="2" NCoef="0" IVar="-1" Cut="0.0000000000000000e+00" cType="1" res="-1.9014395074918866e-03" rms="1.7367067933082581e-01" purity="5.9780055284500122e-01" nType="-99"/>
          <Node pos="r" depth="2" NCoef="0" IVar="-1" Cut="0.0000000000000000e+00" cType="1" res="2.9323209077119827e-02" rms="1.7040537297725677e-01" purity="7.4339771270751953e-01" nType="-99"/>
        </Node>
      </Node>
    </BinaryTree>
    <BinaryTree type="DecisionTree" boostWeight="1.0000000000000000e+00" itree="304">
      <Node pos="s" depth="0" NCoef="0" IVar="4" Cut="8.9473457336425781e+00" cType="1" res="-4.1358284761372488e-06" rms="1.8716315925121307e-01" purity="5.0000000000000000e-01" nType="0">
        <Node pos="l" depth="1" NCoef="0" IVar="5" Cut="9.2794299125671387e-01" cType="1" res="1.5657995827496052e-03" rms="1.9024914503097534e-01" purity="5.2158498764038086e-01" nType="0">
          <Node pos="l" depth="2" NCoef="0" IVar="-1" Cut="0.0000000000000000e+00" cType="1" res="-1.9459098111838102e-03" rms="1.8342891335487366e-01" purity="5.0570046901702881e-01" nType="-99"/>
          <Node pos="r" depth="2" NCoef="0" IVar="-1" Cut="0.0000000000000000e+00" cType="1" res="1.6814380884170532e-02" rms="2.2436542809009552e-01" purity="6.1654138565063477e-01" nType="-99"/>
        </Node>
        <Node pos="r" depth="1" NCoef="0" IVar="-1" Cut="0.0000000000000000e+00" cType="1" res="-2.3262515664100647e-02" rms="1.2241943925619125e-01" purity="1.4186850190162659e-01" nType="-99"/>
      </Node>
    </BinaryTree>
    <BinaryTree type="DecisionTree" boostWeight="1.0000000000000000e+00" itree="305">
      <Node pos="s" depth="0" NCoef="0" IVar="4" Cut="6.5379428863525391e+00" cType="1" res="-3.5463842777971877e-06" rms="1.8695157766342163e-01" purity="5.0000000000000000e-01" nType="0">
        <Node pos="l" depth="1" NCoef="0" IVar="11" Cut="2.6023939453125000e+04" cType="1" res="4.2037628591060638e-03" rms="1.8497008085250854e-01" purity="5.2653300762176514e-01" nType="0">
          <Node pos="l" depth="2" NCoef="0" IVar="-1" Cut="0.0000000000000000e+00" cType="1" res="1.5484909527003765e-02" rms="1.7838919162750244e-01" purity="4.9432623386383057e-01" nType="-99"/>
          <Node pos="r" depth="2" NCoef="0" IVar="-1" Cut="0.0000000000000000e+00" cType="1" res="-4.2834095656871796e-03" rms="1.8793737888336182e-01" purity="5.4695343971252441e-01" nType="-99"/>
        </Node>
        <Node pos="r" depth="1" NCoef="0" IVar="6" Cut="3.1597526550292969e+01" cType="1" res="-1.0546238161623478e-02" rms="1.9142119586467743e-01" purity="4.3351340293884277e-01" nType="0">
          <Node pos="l" depth="2" NCoef="0" IVar="-1" Cut="0.0000000000000000e+00" cType="1" res="2.0826734602451324e-02" rms="2.0935390889644623e-01" purity="3.5174262523651123e-01" nType="-99"/>
          <Node pos="r" depth="2" NCoef="0" IVar="-1" Cut="0.0000000000000000e+00" cType="1" res="-1.4494380913674831e-02" rms="1.8370692431926727e-01" purity="4.5582213997840881e-01" nType="-99"/>
        </Node>
      </Node>
    </BinaryTree>
    <BinaryTree type="DecisionTree" boostWeight="1.0000000000000000e+00" itree="306">
      <Node pos="s" depth="0" NCoef="0" IVar="11" Cut="8.3268609375000000e+04" cType="1" res="-2.5117917630268494e-06" rms="1.8633195757865906e-01" purity="5.0000000000000000e-01" nType="0">
        <Node pos="l" depth="1" NCoef="0" IVar="11" Cut="5.9763382812500000e+04" cType="1" res="-2.5331792421638966e-03" rms="1.9082598388195038e-01" purity="4.8498773574829102e-01" nType="0">
          <Node pos="l" depth="2" NCoef="0" IVar="-1" Cut="0.0000000000000000e+00" cType="1" res="2.3000265937298536e-03" rms="1.8112653493881226e-01" purity="4.8184904456138611e-01" nType="-99"/>
          <Node pos="r" depth="2" NCoef="0" IVar="-1" Cut="0.0000000000000000e+00" cType="1" res="-2.1360520273447037e-02" rms="2.3989287018775940e-01" purity="5.0518059730529785e-01" nType="-99"/>
        </Node>
        <Node pos="r" depth="1" NCoef="0" IVar="6" Cut="1.6150740051269531e+02" cType="1" res="1.6965553164482117e-02" rms="1.5173697471618652e-01" purity="6.0065674781799316e-01" nType="0">
          <Node pos="l" depth="2" NCoef="0" IVar="-1" Cut="0.0000000000000000e+00" cType="1" res="3.4310486167669296e-02" rms="1.5365946292877197e-01" purity="6.7291909456253052e-01" nType="-99"/>
          <Node pos="r" depth="2" NCoef="0" IVar="-1" Cut="0.0000000000000000e+00" cType="1" res="-1.1040183715522289e-02" rms="1.4085699617862701e-01" purity="5.4593878984451294e-01" nType="-99"/>
        </Node>
      </Node>
    </BinaryTree>
    <BinaryTree type="DecisionTree" boostWeight="1.0000000000000000e+00" itree="307">
      <Node pos="s" depth="0" NCoef="0" IVar="12" Cut="4.0340742187500000e+03" cType="1" res="2.1645937522407621e-06" rms="1.8571288883686066e-01" purity="5.0000000000000000e-01" nType="0">
        <Node pos="l" depth="1" NCoef="0" IVar="6" Cut="3.9071942138671875e+02" cType="1" res="-4.7927214764058590e-03" rms="1.8146662414073944e-01" purity="4.0680369734764099e-01" nType="0">
          <Node pos="l" depth="2" NCoef="0" IVar="-1" Cut="0.0000000000000000e+00" cType="1" res="8.1053946632891893e-04" rms="1.8236757814884186e-01" purity="4.3909588456153870e-01" nType="-99"/>
          <Node pos="r" depth="2" NCoef="0" IVar="-1" Cut="0.0000000000000000e+00" cType="1" res="-4.5801535248756409e-02" rms="1.6312320530414581e-01" purity="1.2220565974712372e-01" nType="-99"/>
        </Node>
        <Node pos="r" depth="1" NCoef="0" IVar="4" Cut="4.8553881645202637e+00" cType="1" res="8.8131576776504517e-03" rms="1.9296228885650635e-01" purity="6.7125582695007324e-01" nType="0">
          <Node pos="l" depth="2" NCoef="0" IVar="-1" Cut="0.0000000000000000e+00" cType="1" res="2.3431669920682907e-02" rms="1.7401646077632904e-01" purity="6.9752311706542969e-01" nType="-99"/>
          <Node pos="r" depth="2" NCoef="0" IVar="-1" Cut="0.0000000000000000e+00" cType="1" res="-6.3710790127515793e-03" rms="2.0070108771324158e-01" purity="6.5570861101150513e-01" nType="-99"/>
        </Node>
      </Node>
    </BinaryTree>
    <BinaryTree type="DecisionTree" boostWeight="1.0000000000000000e+00" itree="308">
      <Node pos="s" depth="0" NCoef="0" IVar="2" Cut="5.7871357421875000e+03" cType="1" res="-4.2415852163912859e-08" rms="1.8510735034942627e-01" purity="5.0000000000000000e-01" nType="0">
        <Node pos="l" depth="1" NCoef="0" IVar="6" Cut="3.7283832550048828e+01" cType="1" res="3.0756080523133278e-03" rms="1.9036023318767548e-01" purity="5.6803071498870850e-01" nType="0">
          <Node pos="l" depth="2" NCoef="0" IVar="-1" Cut="0.0000000000000000e+00" cType="1" res="-1.0808414779603481e-02" rms="2.0046393573284149e-01" purity="3.2277110219001770e-01" nType="-99"/>
          <Node pos="r" depth="2" NCoef="0" IVar="-1" Cut="0.0000000000000000e+00" cType="1" res="5.3018438629806042e-03" rms="1.8714836239814758e-01" purity="6.3067412376403809e-01" nType="-99"/>
        </Node>
        <Node pos="r" depth="1" NCoef="0" IVar="4" Cut="5.6752882003784180e+00" cType="1" res="-1.3889969326555729e-02" rms="1.5849940478801727e-01" purity="1.9276672601699829e-01" nType="0">
          <Node pos="l" depth="2" NCoef="0" IVar="-1" Cut="0.0000000000000000e+00" cType="1" res="6.8121068179607391e-03" rms="1.5613849461078644e-01" purity="2.9570859670639038e-01" nType="-99"/>
          <Node pos="r" depth="2" NCoef="0" IVar="-1" Cut="0.0000000000000000e+00" cType="1" res="-2.3928154259920120e-02" rms="1.5721462666988373e-01" purity="8.9227415621280670e-02" nType="-99"/>
        </Node>
      </Node>
    </BinaryTree>
    <BinaryTree type="DecisionTree" boostWeight="1.0000000000000000e+00" itree="309">
      <Node pos="s" depth="0" NCoef="0" IVar="9" Cut="2.6159143066406250e+03" cType="1" res="-3.9188071241369471e-06" rms="1.8504995107650757e-01" purity="5.0000000000000000e-01" nType="0">
        <Node pos="l" depth="1" NCoef="0" IVar="4" Cut="5.8063836097717285e+00" cType="1" res="1.5022799372673035e-02" rms="1.5481612086296082e-01" purity="5.8519178628921509e-01" nType="0">
          <Node pos="l" depth="2" NCoef="0" IVar="-1" Cut="0.0000000000000000e+00" cType="1" res="3.2297432422637939e-02" rms="1.0507454723119736e-01" purity="7.3832297325134277e-01" nType="-99"/>
          <Node pos="r" depth="2" NCoef="0" IVar="-1" Cut="0.0000000000000000e+00" cType="1" res="-8.3218282088637352e-04" rms="1.7822501063346863e-01" purity="4.8466938734054565e-01" nType="-99"/>
        </Node>
        <Node pos="r" depth="1" NCoef="0" IVar="4" Cut="3.0953383445739746e+00" cType="1" res="-2.5934579316526651e-03" rms="1.8965396285057068e-01" purity="4.8531895875930786e-01" nType="0">
          <Node pos="l" depth="2" NCoef="0" IVar="-1" Cut="0.0000000000000000e+00" cType="1" res="-1.5632886439561844e-02" rms="1.4524930715560913e-01" purity="2.9661297798156738e-01" nType="-99"/>
          <Node pos="r" depth="2" NCoef="0" IVar="-1" Cut="0.0000000000000000e+00" cType="1" res="1.7689599189907312e-03" rms="2.0087397098541260e-01" purity="5.4288291931152344e-01" nType="-99"/>
        </Node>
      </Node>
    </BinaryTree>
    <BinaryTree type="DecisionTree" boostWeight="1.0000000000000000e+00" itree="310">
      <Node pos="s" depth="0" NCoef="0" IVar="2" Cut="5.3147377929687500e+03" cType="1" res="-1.9618471469584620e-06" rms="1.8486630916595459e-01" purity="5.0000000000000000e-01" nType="0">
        <Node pos="l" depth="1" NCoef="0" IVar="1" Cut="6.3235265625000000e+04" cType="1" res="-1.4469981193542480e-02" rms="7.1029342710971832e-02" purity="5.1217984408140182e-02" nType="0">
          <Node pos="l" depth="2" NCoef="0" IVar="-1" Cut="0.0000000000000000e+00" cType="1" res="-5.7406496256589890e-02" rms="5.0318308174610138e-02" purity="0.0000000000000000e+00" nType="-99"/>
          <Node pos="r" depth="2" NCoef="0" IVar="-1" Cut="0.0000000000000000e+00" cType="1" res="-3.6238161846995354e-03" rms="8.8200442492961884e-02" purity="1.1186902970075607e-01" nType="-99"/>
        </Node>
        <Node pos="r" depth="1" NCoef="0" IVar="5" Cut="5.6776779890060425e-01" cType="1" res="2.7018198743462563e-03" rms="1.9892965257167816e-01" purity="5.8386832475662231e-01" nType="0">
          <Node pos="l" depth="2" NCoef="0" IVar="-1" Cut="0.0000000000000000e+00" cType="1" res="-2.3125184234231710e-03" rms="2.0024417340755463e-01" purity="5.6521213054656982e-01" nType="-99"/>
          <Node pos="r" depth="2" NCoef="0" IVar="-1" Cut="0.0000000000000000e+00" cType="1" res="8.5332402959465981e-03" rms="1.9573566317558289e-01" purity="6.1838746070861816e-01" nType="-99"/>
        </Node>
      </Node>
    </BinaryTree>
    <BinaryTree type="DecisionTree" boostWeight="1.0000000000000000e+00" itree="311">
      <Node pos="s" depth="0" NCoef="0" IVar="4" Cut="6.5379428863525391e+00" cType="1" res="-1.0012856364483014e-05" rms="1.8466031551361084e-01" purity="5.0000000000000000e-01" nType="0">
        <Node pos="l" depth="1" NCoef="0" IVar="5" Cut="5.3793847560882568e-01" cType="1" res="3.8508805446326733e-03" rms="1.8263170123100281e-01" purity="5.2653300762176514e-01" nType="0">
          <Node pos="l" depth="2" NCoef="0" IVar="-1" Cut="0.0000000000000000e+00" cType="1" res="-1.6159679507836699e-03" rms="1.8190371990203857e-01" purity="4.9937468767166138e-01" nType="-99"/>
          <Node pos="r" depth="2" NCoef="0" IVar="-1" Cut="0.0000000000000000e+00" cType="1" res="2.0694682374596596e-02" rms="1.8232890963554382e-01" purity="6.7291909456253052e-01" nType="-99"/>
        </Node>
        <Node pos="r" depth="1" NCoef="0" IVar="11" Cut="2.6674554687500000e+04" cType="1" res="-9.6846548840403557e-03" rms="1.8930275738239288e-01" purity="4.3351340293884277e-01" nType="0">
          <Node pos="l" depth="2" NCoef="0" IVar="-1" Cut="0.0000000000000000e+00" cType="1" res="-4.1939280927181244e-02" rms="9.3296572566032410e-02" purity="1.4036287367343903e-01" nType="-99"/>
          <Node pos="r" depth="2" NCoef="0" IVar="-1" Cut="0.0000000000000000e+00" cType="1" res="4.1105514392256737e-03" rms="2.2034797072410583e-01" purity="5.8166092634201050e-01" nType="-99"/>
        </Node>
      </Node>
    </BinaryTree>
    <BinaryTree type="DecisionTree" boostWeight="1.0000000000000000e+00" itree="312">
      <Node pos="s" depth="0" NCoef="0" IVar="12" Cut="6.7410927734375000e+03" cType="1" res="-1.6359468645532615e-05" rms="1.8427576124668121e-01" purity="5.0000000000000000e-01" nType="0">
        <Node pos="l" depth="1" NCoef="0" IVar="12" Cut="5.8214692382812500e+03" cType="1" res="-1.7620032886043191e-03" rms="1.9096586108207703e-01" purity="4.7166597843170166e-01" nType="0">
          <Node pos="l" depth="2" NCoef="0" IVar="-1" Cut="0.0000000000000000e+00" cType="1" res="1.3824803754687309e-03" rms="1.9193527102470398e-01" purity="4.7184929251670837e-01" nType="-99"/>
          <Node pos="r" depth="2" NCoef="0" IVar="-1" Cut="0.0000000000000000e+00" cType="1" res="-4.9635257571935654e-02" rms="1.5647472441196442e-01" purity="4.6857145428657532e-01" nType="-99"/>
        </Node>
        <Node pos="r" depth="1" NCoef="0" IVar="-1" Cut="0.0000000000000000e+00" cType="1" res="2.8093857690691948e-02" rms="5.7135276496410370e-02" purity="8.4102559089660645e-01" nType="-99"/>
      </Node>
    </BinaryTree>
    <BinaryTree type="DecisionTree" boostWeight="1.0000000000000000e+00" itree="313">
      <Node pos="s" depth="0" NCoef="0" IVar="0" Cut="5.5822954101562500e+03" cType="1" res="-1.5621924831066281e-05" rms="1.8376772105693817e-01" purity="5.0000000000000000e-01" nType="0">
        <Node pos="l" depth="1" NCoef="0" IVar="0" Cut="1.2386390380859375e+03" cType="1" res="-3.7295923102647066e-03" rms="2.0325176417827606e-01" purity="4.1276991367340088e-01" nType="0">
          <Node pos="l" depth="2" NCoef="0" IVar="-1" Cut="0.0000000000000000e+00" cType="1" res="-3.7644978612661362e-02" rms="1.5136201679706573e-01" purity="2.3948596417903900e-01" nType="-99"/>
          <Node pos="r" depth="2" NCoef="0" IVar="-1" Cut="0.0000000000000000e+00" cType="1" res="5.2557466551661491e-04" rms="2.0618510246276855e-01" purity="4.2694053053855896e-01" nType="-99"/>
        </Node>
        <Node pos="r" depth="1" NCoef="0" IVar="9" Cut="5.7423955078125000e+03" cType="1" res="1.0689518414437771e-02" rms="1.0899957269430161e-01" purity="7.5143182277679443e-01" nType="0">
          <Node pos="l" depth="2" NCoef="0" IVar="-1" Cut="0.0000000000000000e+00" cType="1" res="1.8232323229312897e-02" rms="1.0936645418405533e-01" purity="7.3756611347198486e-01" nType="-99"/>
          <Node pos="r" depth="2" NCoef="0" IVar="-1" Cut="0.0000000000000000e+00" cType="1" res="-2.5114605203270912e-02" rms="1.0188324749469757e-01" purity="7.8737998008728027e-01" nType="-99"/>
        </Node>
      </Node>
    </BinaryTree>
    <BinaryTree type="DecisionTree" boostWeight="1.0000000000000000e+00" itree="314">
      <Node pos="s" depth="0" NCoef="0" IVar="11" Cut="2.6023939453125000e+04" cType="1" res="-1.4583054507966153e-05" rms="1.8334893882274628e-01" purity="5.0000000000000000e-01" nType="0">
        <Node pos="l" depth="1" NCoef="0" IVar="11" Cut="1.0564414062500000e+04" cType="1" res="7.9690730199217796e-03" rms="1.6050922870635986e-01" purity="4.1018313169479370e-01" nType="0">
          <Node pos="l" depth="2" NCoef="0" IVar="-1" Cut="0.0000000000000000e+00" cType="1" res="-4.2431153357028961e-02" rms="1.4011570811271667e-01" purity="1.1944646388292313e-01" nType="-99"/>
          <Node pos="r" depth="2" NCoef="0" IVar="-1" Cut="0.0000000000000000e+00" cType="1" res="1.7330033704638481e-02" rms="1.6270898282527924e-01" purity="5.0467514991760254e-01" nType="-99"/>
        </Node>
        <Node pos="r" depth="1" NCoef="0" IVar="1" Cut="5.4089277343750000e+04" cType="1" res="-4.6433587558567524e-03" rms="1.9522254168987274e-01" purity="5.5207413434982300e-01" nType="0">
          <Node pos="l" depth="2" NCoef="0" IVar="-1" Cut="0.0000000000000000e+00" cType="1" res="-3.7794347852468491e-02" rms="1.6338762640953064e-01" purity="2.6635730266571045e-01" nType="-99"/>
          <Node pos="r" depth="2" NCoef="0" IVar="-1" Cut="0.0000000000000000e+00" cType="1" res="2.3183620069175959e-03" rms="1.9694305956363678e-01" purity="5.8796781301498413e-01" nType="-99"/>
        </Node>
      </Node>
    </BinaryTree>
    <BinaryTree type="DecisionTree" boostWeight="1.0000000000000000e+00" itree="315">
      <Node pos="s" depth="0" NCoef="0" IVar="2" Cut="5.6926562500000000e+03" cType="1" res="-2.2231213733903132e-05" rms="1.8243591487407684e-01" purity="5.0000000000000000e-01" nType="0">
        <Node pos="l" depth="1" NCoef="0" IVar="9" Cut="7.3597397460937500e+03" cType="1" res="3.7086692173033953e-03" rms="1.8308261036872864e-01" purity="5.5998927354812622e-01" nType="0">
          <Node pos="l" depth="2" NCoef="0" IVar="-1" Cut="0.0000000000000000e+00" cType="1" res="-2.4244226515293121e-03" rms="1.8454912304878235e-01" purity="5.4036241769790649e-01" nType="-99"/>
          <Node pos="r" depth="2" NCoef="0" IVar="-1" Cut="0.0000000000000000e+00" cType="1" res="2.7181999757885933e-02" rms="1.6901451349258423e-01" purity="6.6294950246810913e-01" nType="-99"/>
        </Node>
        <Node pos="r" depth="1" NCoef="0" IVar="12" Cut="4.2056337890625000e+03" cType="1" res="-1.0341625660657883e-02" rms="1.8023337423801422e-01" purity="3.3407407999038696e-01" nType="0">
          <Node pos="l" depth="2" NCoef="0" IVar="-1" Cut="0.0000000000000000e+00" cType="1" res="-2.0098587498068810e-02" rms="1.7944139242172241e-01" purity="2.4986556172370911e-01" nType="-99"/>
          <Node pos="r" depth="2" NCoef="0" IVar="-1" Cut="0.0000000000000000e+00" cType="1" res="1.9362429156899452e-02" rms="1.7260758578777313e-01" purity="5.2042841911315918e-01" nType="-99"/>
        </Node>
      </Node>
    </BinaryTree>
    <BinaryTree type="DecisionTree" boostWeight="1.0000000000000000e+00" itree="316">
      <Node pos="s" depth="0" NCoef="0" IVar="3" Cut="1.4928527832031250e+03" cType="1" res="-1.8997496226802468e-05" rms="1.8181206285953522e-01" purity="5.0000000000000000e-01" nType="0">
        <Node pos="l" depth="1" NCoef="0" IVar="9" Cut="4.7694833984375000e+03" cType="1" res="-1.4730980619788170e-02" rms="2.0361885428428650e-01" purity="2.8727829456329346e-01" nType="0">
          <Node pos="l" depth="2" NCoef="0" IVar="-1" Cut="0.0000000000000000e+00" cType="1" res="1.5364361926913261e-02" rms="1.9261555373668671e-01" purity="3.7740585207939148e-01" nType="-99"/>
          <Node pos="r" depth="2" NCoef="0" IVar="-1" Cut="0.0000000000000000e+00" cType="1" res="-3.4738153219223022e-02" rms="2.0439401268959045e-01" purity="1.8833255767822266e-01" nType="-99"/>
        </Node>
        <Node pos="r" depth="1" NCoef="0" IVar="2" Cut="5.6926562500000000e+03" cType="1" res="2.5714959483593702e-03" rms="1.7756927013397217e-01" purity="5.3745615482330322e-01" nType="0">
          <Node pos="l" depth="2" NCoef="0" IVar="-1" Cut="0.0000000000000000e+00" cType="1" res="5.7622217573225498e-03" rms="1.7436012625694275e-01" purity="6.0425531864166260e-01" nType="-99"/>
          <Node pos="r" depth="2" NCoef="0" IVar="-1" Cut="0.0000000000000000e+00" cType="1" res="-1.0857805609703064e-02" rms="1.8487642705440521e-01" purity="3.4438279271125793e-01" nType="-99"/>
        </Node>
      </Node>
    </BinaryTree>
    <BinaryTree type="DecisionTree" boostWeight="1.0000000000000000e+00" itree="317">
      <Node pos="s" depth="0" NCoef="0" IVar="10" Cut="7.1833148193359375e+02" cType="1" res="-1.8805792933562770e-05" rms="1.8136078119277954e-01" purity="5.0000000000000000e-01" nType="0">
        <Node pos="l" depth="1" NCoef="0" IVar="10" Cut="5.6815917968750000e+02" cType="1" res="-2.1676036994904280e-03" rms="1.8777331709861755e-01" purity="4.7496151924133301e-01" nType="0">
          <Node pos="l" depth="2" NCoef="0" IVar="-1" Cut="0.0000000000000000e+00" cType="1" res="1.7443997785449028e-03" rms="1.7913189530372620e-01" purity="4.7046551108360291e-01" nType="-99"/>
          <Node pos="r" depth="2" NCoef="0" IVar="-1" Cut="0.0000000000000000e+00" cType="1" res="-1.7197746783494949e-02" rms="2.2661034762859344e-01" purity="4.9918049573898315e-01" nType="-99"/>
        </Node>
        <Node pos="r" depth="1" NCoef="0" IVar="1" Cut="5.8815292968750000e+04" cType="1" res="1.8150724470615387e-02" rms="1.1183598637580872e-01" purity="7.1171730756759644e-01" nType="0">
          <Node pos="l" depth="2" NCoef="0" IVar="-1" Cut="0.0000000000000000e+00" cType="1" res="-3.6985413171350956e-03" rms="1.3736881315708160e-01" purity="5.4799515008926392e-01" nType="-99"/>
          <Node pos="r" depth="2" NCoef="0" IVar="-1" Cut="0.0000000000000000e+00" cType="1" res="5.3202208131551743e-02" rms="6.8709969520568848e-02" purity="8.8227850198745728e-01" nType="-99"/>
        </Node>
      </Node>
    </BinaryTree>
    <BinaryTree type="DecisionTree" boostWeight="1.0000000000000000e+00" itree="318">
      <Node pos="s" depth="0" NCoef="0" IVar="2" Cut="5.4564570312500000e+03" cType="1" res="-9.0981066023232415e-06" rms="1.8101480603218079e-01" purity="5.0000000000000000e-01" nType="0">
        <Node pos="l" depth="1" NCoef="0" IVar="10" Cut="4.7385412597656250e+02" cType="1" res="-1.0487324558198452e-02" rms="1.0742831230163574e-01" purity="2.4002927541732788e-01" nType="0">
          <Node pos="l" depth="2" NCoef="0" IVar="-1" Cut="0.0000000000000000e+00" cType="1" res="-2.4577094241976738e-02" rms="1.0332384705543518e-01" purity="1.6133792698383331e-01" nType="-99"/>
          <Node pos="r" depth="2" NCoef="0" IVar="-1" Cut="0.0000000000000000e+00" cType="1" res="2.8941435739398003e-02" rms="1.0740540176630020e-01" purity="4.6857142448425293e-01" nType="-99"/>
        </Node>
        <Node pos="r" depth="1" NCoef="0" IVar="2" Cut="5.4897851562500000e+03" cType="1" res="3.8425487000495195e-03" rms="2.0127932727336884e-01" purity="5.9556156396865845e-01" nType="0">
          <Node pos="l" depth="2" NCoef="0" IVar="-1" Cut="0.0000000000000000e+00" cType="1" res="2.9836032539606094e-02" rms="1.6739660501480103e-01" purity="8.4102565050125122e-01" nType="-99"/>
          <Node pos="r" depth="2" NCoef="0" IVar="-1" Cut="0.0000000000000000e+00" cType="1" res="-4.2969267815351486e-04" rms="2.0322230458259583e-01" purity="5.7459855079650879e-01" nType="-99"/>
        </Node>
      </Node>
    </BinaryTree>
    <BinaryTree type="DecisionTree" boostWeight="1.0000000000000000e+00" itree="319">
      <Node pos="s" depth="0" NCoef="0" IVar="4" Cut="8.9473457336425781e+00" cType="1" res="-6.6748939389071893e-06" rms="1.8058575689792633e-01" purity="5.0000000000000000e-01" nType="0">
        <Node pos="l" depth="1" NCoef="0" IVar="4" Cut="7.5283608436584473e+00" cType="1" res="1.4712951378896832e-03" rms="1.8366152048110962e-01" purity="5.2158498764038086e-01" nType="0">
          <Node pos="l" depth="2" NCoef="0" IVar="-1" Cut="0.0000000000000000e+00" cType="1" res="-1.6004879726096988e-03" rms="1.8428446352481842e-01" purity="5.1505094766616821e-01" nType="-99"/>
          <Node pos="r" depth="2" NCoef="0" IVar="-1" Cut="0.0000000000000000e+00" cType="1" res="2.0835902541875839e-02" rms="1.7577357590198517e-01" purity="5.6944441795349121e-01" nType="-99"/>
        </Node>
        <Node pos="r" depth="1" NCoef="0" IVar="-1" Cut="0.0000000000000000e+00" cType="1" res="-2.2693311795592308e-02" rms="1.1569467931985855e-01" purity="1.4186850190162659e-01" nType="-99"/>
      </Node>
    </BinaryTree>
    <BinaryTree type="DecisionTree" boostWeight="1.0000000000000000e+00" itree="320">
      <Node pos="s" depth="0" NCoef="0" IVar="4" Cut="6.5379428863525391e+00" cType="1" res="-6.4243172346323263e-06" rms="1.8034674227237701e-01" purity="5.0000000000000000e-01" nType="0">
        <Node pos="l" depth="1" NCoef="0" IVar="10" Cut="2.1982690429687500e+02" cType="1" res="3.7511324044317007e-03" rms="1.7759300768375397e-01" purity="5.2653300762176514e-01" nType="0">
          <Node pos="l" depth="2" NCoef="0" IVar="-1" Cut="0.0000000000000000e+00" cType="1" res="-1.7549455165863037e-02" rms="2.0419842004776001e-01" purity="2.8611305356025696e-01" nType="-99"/>
          <Node pos="r" depth="2" NCoef="0" IVar="-1" Cut="0.0000000000000000e+00" cType="1" res="5.4315668530762196e-03" rms="1.7251950502395630e-01" purity="5.6291913986206055e-01" nType="-99"/>
        </Node>
        <Node pos="r" depth="1" NCoef="0" IVar="6" Cut="3.1597526550292969e+01" cType="1" res="-9.4221252948045731e-03" rms="1.8673728406429291e-01" purity="4.3351340293884277e-01" nType="0">
          <Node pos="l" depth="2" NCoef="0" IVar="-1" Cut="0.0000000000000000e+00" cType="1" res="1.9357107579708099e-02" rms="2.0289802551269531e-01" purity="3.5174262523651123e-01" nType="-99"/>
          <Node pos="r" depth="2" NCoef="0" IVar="-1" Cut="0.0000000000000000e+00" cType="1" res="-1.3326838612556458e-02" rms="1.7999859154224396e-01" purity="4.5582213997840881e-01" nType="-99"/>
        </Node>
      </Node>
    </BinaryTree>
    <BinaryTree type="DecisionTree" boostWeight="1.0000000000000000e+00" itree="321">
      <Node pos="s" depth="0" NCoef="0" IVar="9" Cut="2.6159143066406250e+03" cType="1" res="-6.3814190980338026e-06" rms="1.7995333671569824e-01" purity="5.0000000000000000e-01" nType="0">
        <Node pos="l" depth="1" NCoef="0" IVar="12" Cut="4.5130634765625000e+03" cType="1" res="1.4927058480679989e-02" rms="1.5180896222591400e-01" purity="5.8519178628921509e-01" nType="0">
          <Node pos="l" depth="2" NCoef="0" IVar="-1" Cut="0.0000000000000000e+00" cType="1" res="1.9996467977762222e-02" rms="1.3668152689933777e-01" purity="6.2732243537902832e-01" nType="-99"/>
          <Node pos="r" depth="2" NCoef="0" IVar="-1" Cut="0.0000000000000000e+00" cType="1" res="-5.9628630988299847e-03" rms="1.7017626762390137e-01" purity="5.1868891716003418e-01" nType="-99"/>
        </Node>
        <Node pos="r" depth="1" NCoef="0" IVar="4" Cut="1.3225860595703125e+00" cType="1" res="-2.5798459537327290e-03" rms="1.8424773216247559e-01" purity="4.8531895875930786e-01" nType="0">
          <Node pos="l" depth="2" NCoef="0" IVar="-1" Cut="0.0000000000000000e+00" cType="1" res="-3.1896937638521194e-02" rms="1.2842150032520294e-01" purity="4.6697035431861877e-02" nType="-99"/>
          <Node pos="r" depth="2" NCoef="0" IVar="-1" Cut="0.0000000000000000e+00" cType="1" res="4.8339468776248395e-05" rms="1.8736344575881958e-01" purity="5.1706230640411377e-01" nType="-99"/>
        </Node>
      </Node>
    </BinaryTree>
    <BinaryTree type="DecisionTree" boostWeight="1.0000000000000000e+00" itree="322">
      <Node pos="s" depth="0" NCoef="0" IVar="4" Cut="5.3332409858703613e+00" cType="1" res="-8.7195176092791371e-06" rms="1.7979286611080170e-01" purity="5.0000000000000000e-01" nType="0">
        <Node pos="l" depth="1" NCoef="0" IVar="5" Cut="2.6515886187553406e-01" cType="1" res="6.7079425789415836e-03" rms="1.5561507642269135e-01" purity="5.1294732093811035e-01" nType="0">
          <Node pos="l" depth="2" NCoef="0" IVar="-1" Cut="0.0000000000000000e+00" cType="1" res="-5.9266062453389168e-03" rms="1.5986311435699463e-01" purity="4.4163870811462402e-01" nType="-99"/>
          <Node pos="r" depth="2" NCoef="0" IVar="-1" Cut="0.0000000000000000e+00" cType="1" res="4.7213029116392136e-02" rms="1.0618688166141510e-01" purity="8.4640789031982422e-01" nType="-99"/>
        </Node>
        <Node pos="r" depth="1" NCoef="0" IVar="7" Cut="2.9158359375000000e+04" cType="1" res="-5.5196215398609638e-03" rms="1.9726055860519409e-01" purity="4.8937696218490601e-01" nType="0">
          <Node pos="l" depth="2" NCoef="0" IVar="-1" Cut="0.0000000000000000e+00" cType="1" res="-9.1041559353470802e-03" rms="1.9994431734085083e-01" purity="4.8967075347900391e-01" nType="-99"/>
          <Node pos="r" depth="2" NCoef="0" IVar="-1" Cut="0.0000000000000000e+00" cType="1" res="1.7229190096259117e-02" rms="1.8520082533359528e-01" purity="4.8854264616966248e-01" nType="-99"/>
        </Node>
      </Node>
    </BinaryTree>
    <BinaryTree type="DecisionTree" boostWeight="1.0000000000000000e+00" itree="323">
      <Node pos="s" depth="0" NCoef="0" IVar="7" Cut="3.9137101562500000e+04" cType="1" res="7.3391556725255214e-06" rms="1.7892144620418549e-01" purity="5.0000000000000000e-01" nType="0">
        <Node pos="l" depth="1" NCoef="0" IVar="7" Cut="1.0564618164062500e+04" cType="1" res="2.1444386802613735e-03" rms="1.8067421019077301e-01" purity="5.0317645072937012e-01" nType="0">
          <Node pos="l" depth="2" NCoef="0" IVar="-1" Cut="0.0000000000000000e+00" cType="1" res="2.6501638814806938e-02" rms="1.2754566967487335e-01" purity="6.3813227415084839e-01" nType="-99"/>
          <Node pos="r" depth="2" NCoef="0" IVar="-1" Cut="0.0000000000000000e+00" cType="1" res="-7.4317352846264839e-04" rms="1.8437270820140839e-01" purity="4.9088260531425476e-01" nType="-99"/>
        </Node>
        <Node pos="r" depth="1" NCoef="0" IVar="-1" Cut="0.0000000000000000e+00" cType="1" res="-1.1883320286870003e-02" rms="1.5901060402393341e-01" purity="4.6857142448425293e-01" nType="-99"/>
      </Node>
    </BinaryTree>
    <BinaryTree type="DecisionTree" boostWeight="1.0000000000000000e+00" itree="324">
      <Node pos="s" depth="0" NCoef="0" IVar="2" Cut="5.3619775390625000e+03" cType="1" res="8.8150363808381371e-06" rms="1.7874118685722351e-01" purity="5.0000000000000000e-01" nType="0">
        <Node pos="l" depth="1" NCoef="0" IVar="10" Cut="4.0959487915039062e+02" cType="1" res="-1.3523518107831478e-02" rms="9.0398915112018585e-02" purity="8.7747447192668915e-02" nType="0">
          <Node pos="l" depth="2" NCoef="0" IVar="-1" Cut="0.0000000000000000e+00" cType="1" res="-4.1691258549690247e-02" rms="7.8860335052013397e-02" purity="4.3260354548692703e-02" nType="-99"/>
          <Node pos="r" depth="2" NCoef="0" IVar="-1" Cut="0.0000000000000000e+00" cType="1" res="1.6630401834845543e-02" rms="1.0481740534305573e-01" purity="1.8061673641204834e-01" nType="-99"/>
        </Node>
        <Node pos="r" depth="1" NCoef="0" IVar="7" Cut="3.9450433593750000e+04" cType="1" res="3.0564027838408947e-03" rms="1.9300913810729980e-01" purity="5.9284245967864990e-01" nType="0">
          <Node pos="l" depth="2" NCoef="0" IVar="-1" Cut="0.0000000000000000e+00" cType="1" res="3.6017550155520439e-03" rms="1.9633646309375763e-01" purity="6.0640621185302734e-01" nType="-99"/>
          <Node pos="r" depth="2" NCoef="0" IVar="-1" Cut="0.0000000000000000e+00" cType="1" res="-1.8606724217534065e-02" rms="1.5457744896411896e-01" purity="4.6857142448425293e-01" nType="-99"/>
        </Node>
      </Node>
    </BinaryTree>
    <BinaryTree type="DecisionTree" boostWeight="1.0000000000000000e+00" itree="325">
      <Node pos="s" depth="0" NCoef="0" IVar="2" Cut="5.3147377929687500e+03" cType="1" res="1.3830870102538029e-06" rms="1.7837207019329071e-01" purity="5.0000000000000000e-01" nType="0">
        <Node pos="l" depth="1" NCoef="0" IVar="1" Cut="6.3235265625000000e+04" cType="1" res="-1.3752564787864685e-02" rms="6.4206384122371674e-02" purity="5.1217984408140182e-02" nType="0">
          <Node pos="l" depth="2" NCoef="0" IVar="-1" Cut="0.0000000000000000e+00" cType="1" res="-5.6648284196853638e-02" rms="4.6025969088077545e-02" purity="0.0000000000000000e+00" nType="-99"/>
          <Node pos="r" depth="2" NCoef="0" IVar="-1" Cut="0.0000000000000000e+00" cType="1" res="-4.7596828080713749e-03" rms="7.9420119524002075e-02" purity="1.1186902970075607e-01" nType="-99"/>
        </Node>
        <Node pos="r" depth="1" NCoef="0" IVar="5" Cut="1.6016287803649902e+00" cType="1" res="2.5717192329466343e-03" rms="1.9222411513328552e-01" purity="5.8386832475662231e-01" nType="0">
          <Node pos="l" depth="2" NCoef="0" IVar="-1" Cut="0.0000000000000000e+00" cType="1" res="2.6727106887847185e-03" rms="1.9299621880054474e-01" purity="5.9506529569625854e-01" nType="-99"/>
          <Node pos="r" depth="2" NCoef="0" IVar="-1" Cut="0.0000000000000000e+00" cType="1" res="-2.1053256466984749e-02" rms="1.7527723312377930e-01" purity="4.1361919045448303e-01" nType="-99"/>
        </Node>
      </Node>
    </BinaryTree>
    <BinaryTree type="DecisionTree" boostWeight="1.0000000000000000e+00" itree="326">
      <Node pos="s" depth="0" NCoef="0" IVar="2" Cut="5.7871357421875000e+03" cType="1" res="-6.9945517680025660e-06" rms="1.7818382382392883e-01" purity="5.0000000000000000e-01" nType="0">
        <Node pos="l" depth="1" NCoef="0" IVar="6" Cut="6.8348541259765625e+01" cType="1" res="2.8562180232256651e-03" rms="1.8318746984004974e-01" purity="5.6803071498870850e-01" nType="0">
          <Node pos="l" depth="2" NCoef="0" IVar="-1" Cut="0.0000000000000000e+00" cType="1" res="-6.6603906452655792e-03" rms="2.0355723798274994e-01" purity="4.5862343907356262e-01" nType="-99"/>
          <Node pos="r" depth="2" NCoef="0" IVar="-1" Cut="0.0000000000000000e+00" cType="1" res="7.6484228484332561e-03" rms="1.7046470940113068e-01" purity="6.2715101242065430e-01" nType="-99"/>
        </Node>
        <Node pos="r" depth="1" NCoef="0" IVar="11" Cut="3.6049121093750000e+04" cType="1" res="-1.2937531806528568e-02" rms="1.5290307998657227e-01" purity="1.9276672601699829e-01" nType="0">
          <Node pos="l" depth="2" NCoef="0" IVar="-1" Cut="0.0000000000000000e+00" cType="1" res="9.5312334597110748e-03" rms="1.5656325221061707e-01" purity="1.4497877657413483e-01" nType="-99"/>
          <Node pos="r" depth="2" NCoef="0" IVar="-1" Cut="0.0000000000000000e+00" cType="1" res="-2.2683123126626015e-02" rms="1.4456953108310699e-01" purity="2.4278312921524048e-01" nType="-99"/>
        </Node>
      </Node>
    </BinaryTree>
    <BinaryTree type="DecisionTree" boostWeight="1.0000000000000000e+00" itree="327">
      <Node pos="s" depth="0" NCoef="0" IVar="8" Cut="2.1462006835937500e+03" cType="1" res="-7.5420439316076227e-06" rms="1.7795969545841217e-01" purity="5.0000000000000000e-01" nType="0">
        <Node pos="l" depth="1" NCoef="0" IVar="4" Cut="7.1402935981750488e+00" cType="1" res="-4.5055882073938847e-03" rms="1.8417081236839294e-01" purity="4.2910337448120117e-01" nType="0">
          <Node pos="l" depth="2" NCoef="0" IVar="-1" Cut="0.0000000000000000e+00" cType="1" res="1.1252316180616617e-03" rms="1.7861948907375336e-01" purity="4.7941285371780396e-01" nType="-99"/>
          <Node pos="r" depth="2" NCoef="0" IVar="-1" Cut="0.0000000000000000e+00" cType="1" res="-1.9073734059929848e-02" rms="2.0368875563144684e-01" purity="2.1601682901382446e-01" nType="-99"/>
        </Node>
        <Node pos="r" depth="1" NCoef="0" IVar="5" Cut="5.9068810939788818e-01" cType="1" res="8.4020700305700302e-03" rms="1.6539618372917175e-01" purity="6.3254940509796143e-01" nType="0">
          <Node pos="l" depth="2" NCoef="0" IVar="-1" Cut="0.0000000000000000e+00" cType="1" res="-2.7679088525474072e-03" rms="1.7097862064838409e-01" purity="5.5744391679763794e-01" nType="-99"/>
          <Node pos="r" depth="2" NCoef="0" IVar="-1" Cut="0.0000000000000000e+00" cType="1" res="2.7717472985386848e-02" rms="1.4812031388282776e-01" purity="8.0122137069702148e-01" nType="-99"/>
        </Node>
      </Node>
    </BinaryTree>
    <BinaryTree type="DecisionTree" boostWeight="1.0000000000000000e+00" itree="328">
      <Node pos="s" depth="0" NCoef="0" IVar="12" Cut="4.0340742187500000e+03" cType="1" res="-4.6789577936579008e-06" rms="1.7763780057430267e-01" purity="5.0000000000000000e-01" nType="0">
        <Node pos="l" depth="1" NCoef="0" IVar="0" Cut="3.6916093750000000e+03" cType="1" res="-4.2554191313683987e-03" rms="1.7366556823253632e-01" purity="4.0680369734764099e-01" nType="0">
          <Node pos="l" depth="2" NCoef="0" IVar="-1" Cut="0.0000000000000000e+00" cType="1" res="2.8839174192398787e-03" rms="1.5881220996379852e-01" purity="3.8689243793487549e-01" nType="-99"/>
          <Node pos="r" depth="2" NCoef="0" IVar="-1" Cut="0.0000000000000000e+00" cType="1" res="-1.9711913540959358e-02" rms="2.1593987941741943e-01" purity="4.7874823212623596e-01" nType="-99"/>
        </Node>
        <Node pos="r" depth="1" NCoef="0" IVar="4" Cut="7.3761405944824219e+00" cType="1" res="7.8064016997814178e-03" rms="1.8445929884910583e-01" purity="6.7125582695007324e-01" nType="0">
          <Node pos="l" depth="2" NCoef="0" IVar="-1" Cut="0.0000000000000000e+00" cType="1" res="1.1382063850760460e-02" rms="1.7314951121807098e-01" purity="6.8208748102188110e-01" nType="-99"/>
          <Node pos="r" depth="2" NCoef="0" IVar="-1" Cut="0.0000000000000000e+00" cType="1" res="-2.5349665433168411e-02" rms="2.2093740105628967e-01" purity="6.2310028076171875e-01" nType="-99"/>
        </Node>
      </Node>
    </BinaryTree>
    <BinaryTree type="DecisionTree" boostWeight="1.0000000000000000e+00" itree="329">
      <Node pos="s" depth="0" NCoef="0" IVar="8" Cut="2.1462006835937500e+03" cType="1" res="-2.2825458927400177e-06" rms="1.7712706327438354e-01" purity="5.0000000000000000e-01" nType="0">
        <Node pos="l" depth="1" NCoef="0" IVar="12" Cut="3.0015578613281250e+03" cType="1" res="-4.4106594286859035e-03" rms="1.8331642448902130e-01" purity="4.2910337448120117e-01" nType="0">
          <Node pos="l" depth="2" NCoef="0" IVar="-1" Cut="0.0000000000000000e+00" cType="1" res="-1.8743859604001045e-02" rms="1.6740943491458893e-01" purity="1.9916096329689026e-01" nType="-99"/>
          <Node pos="r" depth="2" NCoef="0" IVar="-1" Cut="0.0000000000000000e+00" cType="1" res="1.4206530759111047e-03" rms="1.8716269731521606e-01" purity="4.9696967005729675e-01" nType="-99"/>
        </Node>
        <Node pos="r" depth="1" NCoef="0" IVar="4" Cut="5.4148464202880859e+00" cType="1" res="8.2396818324923515e-03" rms="1.6461709141731262e-01" purity="6.3254940509796143e-01" nType="0">
          <Node pos="l" depth="2" NCoef="0" IVar="-1" Cut="0.0000000000000000e+00" cType="1" res="2.5313805788755417e-02" rms="1.1392865329980850e-01" purity="6.8166261911392212e-01" nType="-99"/>
          <Node pos="r" depth="2" NCoef="0" IVar="-1" Cut="0.0000000000000000e+00" cType="1" res="-4.1320039890706539e-03" rms="1.8797604739665985e-01" purity="6.0183483362197876e-01" nType="-99"/>
        </Node>
      </Node>
    </BinaryTree>
    <BinaryTree type="DecisionTree" boostWeight="1.0000000000000000e+00" itree="330">
      <Node pos="s" depth="0" NCoef="0" IVar="2" Cut="5.7871357421875000e+03" cType="1" res="7.8466079855843418e-08" rms="1.7682357132434845e-01" purity="5.0000000000000000e-01" nType="0">
        <Node pos="l" depth="1" NCoef="0" IVar="6" Cut="3.7283832550048828e+01" cType="1" res="2.7133682742714882e-03" rms="1.8199504911899567e-01" purity="5.6803071498870850e-01" nType="0">
          <Node pos="l" depth="2" NCoef="0" IVar="-1" Cut="0.0000000000000000e+00" cType="1" res="-1.0465648025274277e-02" rms="1.9019140303134918e-01" purity="3.2277110219001770e-01" nType="-99"/>
          <Node pos="r" depth="2" NCoef="0" IVar="-1" Cut="0.0000000000000000e+00" cType="1" res="5.0442824140191078e-03" rms="1.7936141788959503e-01" purity="6.3067412376403809e-01" nType="-99"/>
        </Node>
        <Node pos="r" depth="1" NCoef="0" IVar="10" Cut="6.0463964843750000e+02" cType="1" res="-1.2253393419086933e-02" rms="1.5067528188228607e-01" purity="1.9276672601699829e-01" nType="0">
          <Node pos="l" depth="2" NCoef="0" IVar="-1" Cut="0.0000000000000000e+00" cType="1" res="-1.9294099882245064e-02" rms="1.3836972415447235e-01" purity="1.7181770503520966e-01" nType="-99"/>
          <Node pos="r" depth="2" NCoef="0" IVar="-1" Cut="0.0000000000000000e+00" cType="1" res="1.6372945159673691e-02" rms="1.6975587606430054e-01" purity="2.3948596417903900e-01" nType="-99"/>
        </Node>
      </Node>
    </BinaryTree>
    <BinaryTree type="DecisionTree" boostWeight="1.0000000000000000e+00" itree="331">
      <Node pos="s" depth="0" NCoef="0" IVar="9" Cut="2.6159143066406250e+03" cType="1" res="-2.5761012238945113e-06" rms="1.7669922113418579e-01" purity="5.0000000000000000e-01" nType="0">
        <Node pos="l" depth="1" NCoef="0" IVar="6" Cut="1.2090515899658203e+02" cType="1" res="1.4050981029868126e-02" rms="1.4643462002277374e-01" purity="5.8519178628921509e-01" nType="0">
          <Node pos="l" depth="2" NCoef="0" IVar="-1" Cut="0.0000000000000000e+00" cType="1" res="2.1101821213960648e-02" rms="1.1156962066888809e-01" purity="6.4833277463912964e-01" nType="-99"/>
          <Node pos="r" depth="2" NCoef="0" IVar="-1" Cut="0.0000000000000000e+00" cType="1" res="-6.1276224441826344e-03" rms="1.9252046942710876e-01" purity="4.6857145428657532e-01" nType="-99"/>
        </Node>
        <Node pos="r" depth="1" NCoef="0" IVar="7" Cut="1.3213380859375000e+04" cType="1" res="-2.4244112428277731e-03" rms="1.8129536509513855e-01" purity="4.8531895875930786e-01" nType="0">
          <Node pos="l" depth="2" NCoef="0" IVar="-1" Cut="0.0000000000000000e+00" cType="1" res="-1.8212117254734039e-02" rms="1.5911208093166351e-01" purity="3.8362574577331543e-01" nType="-99"/>
          <Node pos="r" depth="2" NCoef="0" IVar="-1" Cut="0.0000000000000000e+00" cType="1" res="4.4505976256914437e-04" rms="1.8327632546424866e-01" purity="4.9643999338150024e-01" nType="-99"/>
        </Node>
      </Node>
    </BinaryTree>
    <BinaryTree type="DecisionTree" boostWeight="1.0000000000000000e+00" itree="332">
      <Node pos="s" depth="0" NCoef="0" IVar="2" Cut="5.3147377929687500e+03" cType="1" res="-1.1109835895695142e-06" rms="1.7648142576217651e-01" purity="5.0000000000000000e-01" nType="0">
        <Node pos="l" depth="1" NCoef="0" IVar="12" Cut="2.8847011718750000e+03" cType="1" res="-1.3099670410156250e-02" rms="6.4135752618312836e-02" purity="5.1217984408140182e-02" nType="0">
          <Node pos="l" depth="2" NCoef="0" IVar="-1" Cut="0.0000000000000000e+00" cType="1" res="-1.4991870848461986e-03" rms="7.9898335039615631e-02" purity="8.9227423071861267e-02" nType="-99"/>
          <Node pos="r" depth="2" NCoef="0" IVar="-1" Cut="0.0000000000000000e+00" cType="1" res="-4.0094111114740372e-02" rms="5.0569266080856323e-02" purity="2.7655985206365585e-02" nType="-99"/>
        </Node>
        <Node pos="r" depth="1" NCoef="0" IVar="5" Cut="5.6776779890060425e-01" cType="1" res="2.4467464536428452e-03" rms="1.9015632569789886e-01" purity="5.8386832475662231e-01" nType="0">
          <Node pos="l" depth="2" NCoef="0" IVar="-1" Cut="0.0000000000000000e+00" cType="1" res="-2.4465068709105253e-03" rms="1.9163691997528076e-01" purity="5.6521213054656982e-01" nType="-99"/>
          <Node pos="r" depth="2" NCoef="0" IVar="-1" Cut="0.0000000000000000e+00" cType="1" res="8.5883149877190590e-03" rms="1.8665100634098053e-01" purity="6.1838746070861816e-01" nType="-99"/>
        </Node>
      </Node>
    </BinaryTree>
    <BinaryTree type="DecisionTree" boostWeight="1.0000000000000000e+00" itree="333">
      <Node pos="s" depth="0" NCoef="0" IVar="11" Cut="8.3268609375000000e+04" cType="1" res="-5.2354248509800527e-06" rms="1.7632989585399628e-01" purity="5.0000000000000000e-01" nType="0">
        <Node pos="l" depth="1" NCoef="0" IVar="11" Cut="5.6241980468750000e+04" cType="1" res="-2.1959468722343445e-03" rms="1.8101181089878082e-01" purity="4.8498773574829102e-01" nType="0">
          <Node pos="l" depth="2" NCoef="0" IVar="-1" Cut="0.0000000000000000e+00" cType="1" res="2.7733480092138052e-03" rms="1.7116068303585052e-01" purity="4.8035326600074768e-01" nType="-99"/>
          <Node pos="r" depth="2" NCoef="0" IVar="-1" Cut="0.0000000000000000e+00" cType="1" res="-1.8615715205669403e-02" rms="2.2138665616512299e-01" purity="5.0861471891403198e-01" nType="-99"/>
        </Node>
        <Node pos="r" depth="1" NCoef="0" IVar="6" Cut="1.6150740051269531e+02" cType="1" res="1.4683432877063751e-02" rms="1.4009489119052887e-01" purity="6.0065674781799316e-01" nType="0">
          <Node pos="l" depth="2" NCoef="0" IVar="-1" Cut="0.0000000000000000e+00" cType="1" res="3.3515047281980515e-02" rms="1.4121484756469727e-01" purity="6.7291909456253052e-01" nType="-99"/>
          <Node pos="r" depth="2" NCoef="0" IVar="-1" Cut="0.0000000000000000e+00" cType="1" res="-1.1854234151542187e-02" rms="1.3041062653064728e-01" purity="5.4593878984451294e-01" nType="-99"/>
        </Node>
      </Node>
    </BinaryTree>
    <BinaryTree type="DecisionTree" boostWeight="1.0000000000000000e+00" itree="334">
      <Node pos="s" depth="0" NCoef="0" IVar="12" Cut="2.6805649414062500e+03" cType="1" res="-9.9597912139870459e-07" rms="1.7575468122959137e-01" purity="5.0000000000000000e-01" nType="0">
        <Node pos="l" depth="1" NCoef="0" IVar="7" Cut="2.1038777343750000e+04" cType="1" res="-9.7337365150451660e-03" rms="1.4701840281486511e-01" purity="2.7538958191871643e-01" nType="0">
          <Node pos="l" depth="2" NCoef="0" IVar="-1" Cut="0.0000000000000000e+00" cType="1" res="-2.6648394763469696e-02" rms="1.2833413481712341e-01" purity="1.7465388774871826e-01" nType="-99"/>
          <Node pos="r" depth="2" NCoef="0" IVar="-1" Cut="0.0000000000000000e+00" cType="1" res="5.3405086509883404e-03" rms="1.5455561876296997e-01" purity="3.3671927452087402e-01" nType="-99"/>
        </Node>
        <Node pos="r" depth="1" NCoef="0" IVar="9" Cut="8.8247343750000000e+03" cType="1" res="3.1408306676894426e-03" rms="1.8396580219268799e-01" purity="5.7250648736953735e-01" nType="0">
          <Node pos="l" depth="2" NCoef="0" IVar="-1" Cut="0.0000000000000000e+00" cType="1" res="-9.9526936537586153e-05" rms="1.8474340438842773e-01" purity="5.6370478868484497e-01" nType="-99"/>
          <Node pos="r" depth="2" NCoef="0" IVar="-1" Cut="0.0000000000000000e+00" cType="1" res="2.8337823227047920e-02" rms="1.6578377783298492e-01" purity="6.9627690315246582e-01" nType="-99"/>
        </Node>
      </Node>
    </BinaryTree>
    <BinaryTree type="DecisionTree" boostWeight="1.0000000000000000e+00" itree="335">
      <Node pos="s" depth="0" NCoef="0" IVar="8" Cut="2.1462006835937500e+03" cType="1" res="-1.3000384342376492e-06" rms="1.7548893392086029e-01" purity="5.0000000000000000e-01" nType="0">
        <Node pos="l" depth="1" NCoef="0" IVar="0" Cut="3.4864875488281250e+03" cType="1" res="-4.1608908213675022e-03" rms="1.8193422257900238e-01" purity="4.2910337448120117e-01" nType="0">
          <Node pos="l" depth="2" NCoef="0" IVar="-1" Cut="0.0000000000000000e+00" cType="1" res="4.1241976432502270e-03" rms="1.6351628303527832e-01" purity="3.6273744702339172e-01" nType="-99"/>
          <Node pos="r" depth="2" NCoef="0" IVar="-1" Cut="0.0000000000000000e+00" cType="1" res="-9.6054468303918839e-03" rms="2.0370648801326752e-01" purity="5.2079087495803833e-01" nType="-99"/>
        </Node>
        <Node pos="r" depth="1" NCoef="0" IVar="6" Cut="1.5105889892578125e+02" cType="1" res="7.7755306847393513e-03" rms="1.6247008740901947e-01" purity="6.3254940509796143e-01" nType="0">
          <Node pos="l" depth="2" NCoef="0" IVar="-1" Cut="0.0000000000000000e+00" cType="1" res="1.1942903511226177e-02" rms="1.5406462550163269e-01" purity="6.4543104171752930e-01" nType="-99"/>
          <Node pos="r" depth="2" NCoef="0" IVar="-1" Cut="0.0000000000000000e+00" cType="1" res="-1.7883786931633949e-02" rms="1.8327462673187256e-01" purity="5.9063625335693359e-01" nType="-99"/>
        </Node>
      </Node>
    </BinaryTree>
    <BinaryTree type="DecisionTree" boostWeight="1.0000000000000000e+00" itree="336">
      <Node pos="s" depth="0" NCoef="0" IVar="9" Cut="2.6159143066406250e+03" cType="1" res="2.3294559525766090e-07" rms="1.7510196566581726e-01" purity="5.0000000000000000e-01" nType="0">
        <Node pos="l" depth="1" NCoef="0" IVar="4" Cut="5.8063836097717285e+00" cType="1" res="1.3936636969447136e-02" rms="1.4496192336082458e-01" purity="5.8519178628921509e-01" nType="0">
          <Node pos="l" depth="2" NCoef="0" IVar="-1" Cut="0.0000000000000000e+00" cType="1" res="3.4366372972726822e-02" rms="9.4921566545963287e-02" purity="7.3832297325134277e-01" nType="-99"/>
          <Node pos="r" depth="2" NCoef="0" IVar="-1" Cut="0.0000000000000000e+00" cType="1" res="-1.3484106166288257e-03" rms="1.6800592839717865e-01" purity="4.8466938734054565e-01" nType="-99"/>
        </Node>
        <Node pos="r" depth="1" NCoef="0" IVar="4" Cut="1.3225860595703125e+00" cType="1" res="-2.4014133960008621e-03" rms="1.7967712879180908e-01" purity="4.8531895875930786e-01" nType="0">
          <Node pos="l" depth="2" NCoef="0" IVar="-1" Cut="0.0000000000000000e+00" cType="1" res="-3.0564783141016960e-02" rms="1.2777245044708252e-01" purity="4.6697035431861877e-02" nType="-99"/>
          <Node pos="r" depth="2" NCoef="0" IVar="-1" Cut="0.0000000000000000e+00" cType="1" res="5.1000184612348676e-05" rms="1.8261104822158813e-01" purity="5.1706230640411377e-01" nType="-99"/>
        </Node>
      </Node>
    </BinaryTree>
    <BinaryTree type="DecisionTree" boostWeight="1.0000000000000000e+00" itree="337">
      <Node pos="s" depth="0" NCoef="0" IVar="0" Cut="5.5822954101562500e+03" cType="1" res="-4.3590506493274006e-07" rms="1.7495450377464294e-01" purity="5.0000000000000000e-01" nType="0">
        <Node pos="l" depth="1" NCoef="0" IVar="12" Cut="4.8721313476562500e+03" cType="1" res="-3.3149179071187973e-03" rms="1.9353538751602173e-01" purity="4.1276991367340088e-01" nType="0">
          <Node pos="l" depth="2" NCoef="0" IVar="-1" Cut="0.0000000000000000e+00" cType="1" res="-4.1955290362238884e-03" rms="1.9071537256240845e-01" purity="3.9805826544761658e-01" nType="-99"/>
          <Node pos="r" depth="2" NCoef="0" IVar="-1" Cut="0.0000000000000000e+00" cType="1" res="1.8794862553477287e-02" rms="2.1896718442440033e-01" purity="6.0183483362197876e-01" nType="-99"/>
        </Node>
        <Node pos="r" depth="1" NCoef="0" IVar="3" Cut="1.9280505371093750e+03" cType="1" res="9.5532201230525970e-03" rms="1.0368575900793076e-01" purity="7.5143182277679443e-01" nType="0">
          <Node pos="l" depth="2" NCoef="0" IVar="-1" Cut="0.0000000000000000e+00" cType="1" res="3.2798863947391510e-02" rms="1.0966327041387558e-01" purity="6.2310028076171875e-01" nType="-99"/>
          <Node pos="r" depth="2" NCoef="0" IVar="-1" Cut="0.0000000000000000e+00" cType="1" res="-1.2609853874891996e-03" rms="9.9298618733882904e-02" purity="7.9449260234832764e-01" nType="-99"/>
        </Node>
      </Node>
    </BinaryTree>
    <BinaryTree type="DecisionTree" boostWeight="1.0000000000000000e+00" itree="338">
      <Node pos="s" depth="0" NCoef="0" IVar="3" Cut="1.4928527832031250e+03" cType="1" res="2.9694308523176005e-06" rms="1.7462913691997528e-01" purity="5.0000000000000000e-01" nType="0">
        <Node pos="l" depth="1" NCoef="0" IVar="6" Cut="1.6329069519042969e+02" cType="1" res="-1.3451113365590572e-02" rms="1.9461211562156677e-01" purity="2.8727829456329346e-01" nType="0">
          <Node pos="l" depth="2" NCoef="0" IVar="-1" Cut="0.0000000000000000e+00" cType="1" res="-2.7499947696924210e-02" rms="2.3017077147960663e-01" purity="2.7424749732017517e-01" nType="-99"/>
          <Node pos="r" depth="2" NCoef="0" IVar="-1" Cut="0.0000000000000000e+00" cType="1" res="1.4549870975315571e-02" rms="1.5858232975006104e-01" purity="2.9570859670639038e-01" nType="-99"/>
        </Node>
        <Node pos="r" depth="1" NCoef="0" IVar="6" Cut="4.0976727294921875e+02" cType="1" res="2.3719712626188993e-03" rms="1.7075900733470917e-01" purity="5.3745615482330322e-01" nType="0">
          <Node pos="l" depth="2" NCoef="0" IVar="-1" Cut="0.0000000000000000e+00" cType="1" res="3.2941666431725025e-03" rms="1.6830582916736603e-01" purity="5.6000328063964844e-01" nType="-99"/>
          <Node pos="r" depth="2" NCoef="0" IVar="-1" Cut="0.0000000000000000e+00" cType="1" res="-2.6991486549377441e-02" rms="1.9813792407512665e-01" purity="2.0122699439525604e-01" nType="-99"/>
        </Node>
      </Node>
    </BinaryTree>
    <BinaryTree type="DecisionTree" boostWeight="1.0000000000000000e+00" itree="339">
      <Node pos="s" depth="0" NCoef="0" IVar="2" Cut="5.7871357421875000e+03" cType="1" res="4.3515549918993202e-07" rms="1.7423969507217407e-01" purity="5.0000000000000000e-01" nType="0">
        <Node pos="l" depth="1" NCoef="0" IVar="2" Cut="5.7219150390625000e+03" cType="1" res="2.7039695996791124e-03" rms="1.7933961749076843e-01" purity="5.6803071498870850e-01" nType="0">
          <Node pos="l" depth="2" NCoef="0" IVar="-1" Cut="0.0000000000000000e+00" cType="1" res="-1.7905067943502218e-04" rms="1.8063877522945404e-01" purity="5.6188434362411499e-01" nType="-99"/>
          <Node pos="r" depth="2" NCoef="0" IVar="-1" Cut="0.0000000000000000e+00" cType="1" res="2.3519469425082207e-02" rms="1.5307760238647461e-01" purity="6.5640395879745483e-01" nType="-99"/>
        </Node>
        <Node pos="r" depth="1" NCoef="0" IVar="4" Cut="5.6752882003784180e+00" cType="1" res="-1.2208981439471245e-02" rms="1.4843802154064178e-01" purity="1.9276672601699829e-01" nType="0">
          <Node pos="l" depth="2" NCoef="0" IVar="-1" Cut="0.0000000000000000e+00" cType="1" res="7.2478037327528000e-03" rms="1.4575298130512238e-01" purity="2.9570859670639038e-01" nType="-99"/>
          <Node pos="r" depth="2" NCoef="0" IVar="-1" Cut="0.0000000000000000e+00" cType="1" res="-2.2980131208896637e-02" rms="1.4776453375816345e-01" purity="8.9227415621280670e-02" nType="-99"/>
        </Node>
      </Node>
    </BinaryTree>
    <BinaryTree type="DecisionTree" boostWeight="1.0000000000000000e+00" itree="340">
      <Node pos="s" depth="0" NCoef="0" IVar="11" Cut="2.6023939453125000e+04" cType="1" res="-2.1076427856314695e-06" rms="1.7408339679241180e-01" purity="5.0000000000000000e-01" nType="0">
        <Node pos="l" depth="1" NCoef="0" IVar="11" Cut="1.0564414062500000e+04" cType="1" res="7.2264191694557667e-03" rms="1.5344545245170593e-01" purity="4.1018313169479370e-01" nType="0">
          <Node pos="l" depth="2" NCoef="0" IVar="-1" Cut="0.0000000000000000e+00" cType="1" res="-4.1324738413095474e-02" rms="1.3108201324939728e-01" purity="1.1944646388292313e-01" nType="-99"/>
          <Node pos="r" depth="2" NCoef="0" IVar="-1" Cut="0.0000000000000000e+00" cType="1" res="1.6535354778170586e-02" rms="1.5667836368083954e-01" purity="5.0467514991760254e-01" nType="-99"/>
        </Node>
        <Node pos="r" depth="1" NCoef="0" IVar="1" Cut="5.4089277343750000e+04" cType="1" res="-4.1930736042559147e-03" rms="1.8486811220645905e-01" purity="5.5207413434982300e-01" nType="0">
          <Node pos="l" depth="2" NCoef="0" IVar="-1" Cut="0.0000000000000000e+00" cType="1" res="-3.6889474838972092e-02" rms="1.5633657574653625e-01" purity="2.6635730266571045e-01" nType="-99"/>
          <Node pos="r" depth="2" NCoef="0" IVar="-1" Cut="0.0000000000000000e+00" cType="1" res="2.3928559385240078e-03" rms="1.8634584546089172e-01" purity="5.8796781301498413e-01" nType="-99"/>
        </Node>
      </Node>
    </BinaryTree>
    <BinaryTree type="DecisionTree" boostWeight="1.0000000000000000e+00" itree="341">
      <Node pos="s" depth="0" NCoef="0" IVar="2" Cut="5.7398959960937500e+03" cType="1" res="-1.0296187610947527e-05" rms="1.7322978377342224e-01" purity="5.0000000000000000e-01" nType="0">
        <Node pos="l" depth="1" NCoef="0" IVar="2" Cut="5.3584111328125000e+03" cType="1" res="2.9037781059741974e-03" rms="1.7967744171619415e-01" purity="5.7164198160171509e-01" nType="0">
          <Node pos="l" depth="2" NCoef="0" IVar="-1" Cut="0.0000000000000000e+00" cType="1" res="-2.5064362213015556e-02" rms="7.5626336038112640e-02" purity="7.4208140373229980e-02" nType="-99"/>
          <Node pos="r" depth="2" NCoef="0" IVar="-1" Cut="0.0000000000000000e+00" cType="1" res="4.2385170236229897e-03" rms="2.0010618865489960e-01" purity="7.1960806846618652e-01" nType="-99"/>
        </Node>
        <Node pos="r" depth="1" NCoef="0" IVar="10" Cut="6.6445507812500000e+02" cType="1" res="-1.0974586009979248e-02" rms="1.4592818915843964e-01" purity="2.3044495284557343e-01" nType="0">
          <Node pos="l" depth="2" NCoef="0" IVar="-1" Cut="0.0000000000000000e+00" cType="1" res="-1.7982305958867073e-02" rms="1.3197486102581024e-01" purity="2.0512820780277252e-01" nType="-99"/>
          <Node pos="r" depth="2" NCoef="0" IVar="-1" Cut="0.0000000000000000e+00" cType="1" res="2.1190902218222618e-02" rms="1.7366372048854828e-01" purity="3.0597016215324402e-01" nType="-99"/>
        </Node>
      </Node>
    </BinaryTree>
    <BinaryTree type="DecisionTree" boostWeight="1.0000000000000000e+00" itree="342">
      <Node pos="s" depth="0" NCoef="0" IVar="9" Cut="2.6159143066406250e+03" cType="1" res="-1.4072969861445017e-05" rms="1.7301677167415619e-01" purity="5.0000000000000000e-01" nType="0">
        <Node pos="l" depth="1" NCoef="0" IVar="12" Cut="4.5130634765625000e+03" cType="1" res="1.3426396995782852e-02" rms="1.4457821846008301e-01" purity="5.8519178628921509e-01" nType="0">
          <Node pos="l" depth="2" NCoef="0" IVar="-1" Cut="0.0000000000000000e+00" cType="1" res="1.9891466945409775e-02" rms="1.3163511455059052e-01" purity="6.2732243537902832e-01" nType="-99"/>
          <Node pos="r" depth="2" NCoef="0" IVar="-1" Cut="0.0000000000000000e+00" cType="1" res="-6.9623226299881935e-03" rms="1.6003218293190002e-01" purity="5.1868891716003418e-01" nType="-99"/>
        </Node>
        <Node pos="r" depth="1" NCoef="0" IVar="4" Cut="1.3225860595703125e+00" cType="1" res="-2.3302554618567228e-03" rms="1.7735493183135986e-01" purity="4.8531895875930786e-01" nType="0">
          <Node pos="l" depth="2" NCoef="0" IVar="-1" Cut="0.0000000000000000e+00" cType="1" res="-2.9978668317198753e-02" rms="1.2449965626001358e-01" purity="4.6697035431861877e-02" nType="-99"/>
          <Node pos="r" depth="2" NCoef="0" IVar="-1" Cut="0.0000000000000000e+00" cType="1" res="2.5326116883661598e-05" rms="1.8034933507442474e-01" purity="5.1706230640411377e-01" nType="-99"/>
        </Node>
      </Node>
    </BinaryTree>
    <BinaryTree type="DecisionTree" boostWeight="1.0000000000000000e+00" itree="343">
      <Node pos="s" depth="0" NCoef="0" IVar="4" Cut="5.3332409858703613e+00" cType="1" res="-1.5123252524062991e-05" rms="1.7286734282970428e-01" purity="5.0000000000000000e-01" nType="0">
        <Node pos="l" depth="1" NCoef="0" IVar="5" Cut="2.6515886187553406e-01" cType="1" res="6.2399059534072876e-03" rms="1.4842391014099121e-01" purity="5.1294732093811035e-01" nType="0">
          <Node pos="l" depth="2" NCoef="0" IVar="-1" Cut="0.0000000000000000e+00" cType="1" res="-5.9854532591998577e-03" rms="1.5271173417568207e-01" purity="4.4163870811462402e-01" nType="-99"/>
          <Node pos="r" depth="2" NCoef="0" IVar="-1" Cut="0.0000000000000000e+00" cType="1" res="4.7502003610134125e-02" rms="9.9921323359012604e-02" purity="8.4640789031982422e-01" nType="-99"/>
        </Node>
        <Node pos="r" depth="1" NCoef="0" IVar="7" Cut="2.9158359375000000e+04" cType="1" res="-5.1472634077072144e-03" rms="1.9044239819049835e-01" purity="4.8937696218490601e-01" nType="0">
          <Node pos="l" depth="2" NCoef="0" IVar="-1" Cut="0.0000000000000000e+00" cType="1" res="-8.7974350899457932e-03" rms="1.9316853582859039e-01" purity="4.8967075347900391e-01" nType="-99"/>
          <Node pos="r" depth="2" NCoef="0" IVar="-1" Cut="0.0000000000000000e+00" cType="1" res="1.6684867441654205e-02" rms="1.7863775789737701e-01" purity="4.8854264616966248e-01" nType="-99"/>
        </Node>
      </Node>
    </BinaryTree>
    <BinaryTree type="DecisionTree" boostWeight="1.0000000000000000e+00" itree="344">
      <Node pos="s" depth="0" NCoef="0" IVar="7" Cut="3.9137101562500000e+04" cType="1" res="1.3795504401059588e-06" rms="1.7202922701835632e-01" purity="5.0000000000000000e-01" nType="0">
        <Node pos="l" depth="1" NCoef="0" IVar="7" Cut="1.0564618164062500e+04" cType="1" res="1.9657041411846876e-03" rms="1.7363940179347992e-01" purity="5.0317645072937012e-01" nType="0">
          <Node pos="l" depth="2" NCoef="0" IVar="-1" Cut="0.0000000000000000e+00" cType="1" res="2.6078393682837486e-02" rms="1.2148654460906982e-01" purity="6.3813227415084839e-01" nType="-99"/>
          <Node pos="r" depth="2" NCoef="0" IVar="-1" Cut="0.0000000000000000e+00" cType="1" res="-7.3156604776158929e-04" rms="1.7728745937347412e-01" purity="4.9088260531425476e-01" nType="-99"/>
        </Node>
        <Node pos="r" depth="1" NCoef="0" IVar="-1" Cut="0.0000000000000000e+00" cType="1" res="-1.1380289681255817e-02" rms="1.5385423600673676e-01" purity="4.6857142448425293e-01" nType="-99"/>
      </Node>
    </BinaryTree>
    <BinaryTree type="DecisionTree" boostWeight="1.0000000000000000e+00" itree="345">
      <Node pos="s" depth="0" NCoef="0" IVar="7" Cut="3.9137101562500000e+04" cType="1" res="3.2816431030369131e-06" rms="1.7186306416988373e-01" purity="5.0000000000000000e-01" nType="0">
        <Node pos="l" depth="1" NCoef="0" IVar="7" Cut="2.1507927734375000e+04" cType="1" res="1.7714438727125525e-03" rms="1.7351853847503662e-01" purity="5.0317645072937012e-01" nType="0">
          <Node pos="l" depth="2" NCoef="0" IVar="-1" Cut="0.0000000000000000e+00" cType="1" res="-4.3930783867835999e-03" rms="1.7397053539752960e-01" purity="4.9264550209045410e-01" nType="-99"/>
          <Node pos="r" depth="2" NCoef="0" IVar="-1" Cut="0.0000000000000000e+00" cType="1" res="7.7133565209805965e-03" rms="1.7243754863739014e-01" purity="5.1470923423767090e-01" nType="-99"/>
        </Node>
        <Node pos="r" depth="1" NCoef="0" IVar="-1" Cut="0.0000000000000000e+00" cType="1" res="-1.0249203070998192e-02" rms="1.5343612432479858e-01" purity="4.6857142448425293e-01" nType="-99"/>
      </Node>
    </BinaryTree>
    <BinaryTree type="DecisionTree" boostWeight="1.0000000000000000e+00" itree="346">
      <Node pos="s" depth="0" NCoef="0" IVar="2" Cut="5.7398959960937500e+03" cType="1" res="3.2866792025743052e-06" rms="1.7164382338523865e-01" purity="5.0000000000000000e-01" nType="0">
        <Node pos="l" depth="1" NCoef="0" IVar="2" Cut="5.6782807617187500e+03" cType="1" res="2.9486620333045721e-03" rms="1.7842762172222137e-01" purity="5.7164198160171509e-01" nType="0">
          <Node pos="l" depth="2" NCoef="0" IVar="-1" Cut="0.0000000000000000e+00" cType="1" res="-3.7254244671203196e-04" rms="1.7234282195568085e-01" purity="5.4735088348388672e-01" nType="-99"/>
          <Node pos="r" depth="2" NCoef="0" IVar="-1" Cut="0.0000000000000000e+00" cType="1" res="1.5602985396981239e-02" rms="2.2142452001571655e-01" purity="7.7909737825393677e-01" nType="-99"/>
        </Node>
        <Node pos="r" depth="1" NCoef="0" IVar="10" Cut="6.6445507812500000e+02" cType="1" res="-1.1078773997724056e-02" rms="1.4272652566432953e-01" purity="2.3044495284557343e-01" nType="0">
          <Node pos="l" depth="2" NCoef="0" IVar="-1" Cut="0.0000000000000000e+00" cType="1" res="-1.7668733373284340e-02" rms="1.2931613624095917e-01" purity="2.0512820780277252e-01" nType="-99"/>
          <Node pos="r" depth="2" NCoef="0" IVar="-1" Cut="0.0000000000000000e+00" cType="1" res="1.9063699990510941e-02" rms="1.7009600996971130e-01" purity="3.0597016215324402e-01" nType="-99"/>
        </Node>
      </Node>
    </BinaryTree>
    <BinaryTree type="DecisionTree" boostWeight="1.0000000000000000e+00" itree="347">
      <Node pos="s" depth="0" NCoef="0" IVar="2" Cut="5.6926562500000000e+03" cType="1" res="1.6097924344649073e-06" rms="1.7141337692737579e-01" purity="5.0000000000000000e-01" nType="0">
        <Node pos="l" depth="1" NCoef="0" IVar="9" Cut="7.3597397460937500e+03" cType="1" res="3.2975261565297842e-03" rms="1.7218798398971558e-01" purity="5.5998927354812622e-01" nType="0">
          <Node pos="l" depth="2" NCoef="0" IVar="-1" Cut="0.0000000000000000e+00" cType="1" res="-1.8966764910146594e-03" rms="1.7375005781650543e-01" purity="5.4036241769790649e-01" nType="-99"/>
          <Node pos="r" depth="2" NCoef="0" IVar="-1" Cut="0.0000000000000000e+00" cType="1" res="2.3945165798068047e-02" rms="1.5944914519786835e-01" purity="6.6294950246810913e-01" nType="-99"/>
        </Node>
        <Node pos="r" depth="1" NCoef="0" IVar="12" Cut="4.2056337890625000e+03" cType="1" res="-9.1146510094404221e-03" rms="1.6891780495643616e-01" purity="3.3407407999038696e-01" nType="0">
          <Node pos="l" depth="2" NCoef="0" IVar="-1" Cut="0.0000000000000000e+00" cType="1" res="-1.9658608362078667e-02" rms="1.6809068620204926e-01" purity="2.4986556172370911e-01" nType="-99"/>
          <Node pos="r" depth="2" NCoef="0" IVar="-1" Cut="0.0000000000000000e+00" cType="1" res="1.9665144383907318e-02" rms="1.6196402907371521e-01" purity="5.2042841911315918e-01" nType="-99"/>
        </Node>
      </Node>
    </BinaryTree>
    <BinaryTree type="DecisionTree" boostWeight="1.0000000000000000e+00" itree="348">
      <Node pos="s" depth="0" NCoef="0" IVar="2" Cut="5.3147377929687500e+03" cType="1" res="1.8528838836573414e-06" rms="1.7088671028614044e-01" purity="5.0000000000000000e-01" nType="0">
        <Node pos="l" depth="1" NCoef="0" IVar="12" Cut="2.8847011718750000e+03" cType="1" res="-1.2643413618206978e-02" rms="6.0278221964836121e-02" purity="5.1217984408140182e-02" nType="0">
          <Node pos="l" depth="2" NCoef="0" IVar="-1" Cut="0.0000000000000000e+00" cType="1" res="-3.2782480120658875e-03" rms="7.4226073920726776e-02" purity="8.9227423071861267e-02" nType="-99"/>
          <Node pos="r" depth="2" NCoef="0" IVar="-1" Cut="0.0000000000000000e+00" cType="1" res="-3.9208911359310150e-02" rms="4.8531468957662582e-02" purity="2.7655985206365585e-02" nType="-99"/>
        </Node>
        <Node pos="r" depth="1" NCoef="0" IVar="5" Cut="5.6776779890060425e-01" cType="1" res="2.3649989161640406e-03" rms="1.8424195051193237e-01" purity="5.8386832475662231e-01" nType="0">
          <Node pos="l" depth="2" NCoef="0" IVar="-1" Cut="0.0000000000000000e+00" cType="1" res="-2.4158873129636049e-03" rms="1.8466448783874512e-01" purity="5.6521213054656982e-01" nType="-99"/>
          <Node pos="r" depth="2" NCoef="0" IVar="-1" Cut="0.0000000000000000e+00" cType="1" res="8.4055503830313683e-03" rms="1.8276682496070862e-01" purity="6.1838746070861816e-01" nType="-99"/>
        </Node>
      </Node>
    </BinaryTree>
    <BinaryTree type="DecisionTree" boostWeight="1.0000000000000000e+00" itree="349">
      <Node pos="s" depth="0" NCoef="0" IVar="4" Cut="5.3332409858703613e+00" cType="1" res="-2.1834678136656294e-06" rms="1.7074714601039886e-01" purity="5.0000000000000000e-01" nType="0">
        <Node pos="l" depth="1" NCoef="0" IVar="5" Cut="2.6515886187553406e-01" cType="1" res="6.0815848410129547e-03" rms="1.4565017819404602e-01" purity="5.1294732093811035e-01" nType="0">
          <Node pos="l" depth="2" NCoef="0" IVar="-1" Cut="0.0000000000000000e+00" cType="1" res="-5.2099721506237984e-03" rms="1.5092834830284119e-01" purity="4.4163870811462402e-01" nType="-99"/>
          <Node pos="r" depth="2" NCoef="0" IVar="-1" Cut="0.0000000000000000e+00" cType="1" res="4.5688778162002563e-02" rms="9.4460546970367432e-02" purity="8.4640789031982422e-01" nType="-99"/>
        </Node>
        <Node pos="r" depth="1" NCoef="0" IVar="7" Cut="2.9158359375000000e+04" cType="1" res="-4.9938070587813854e-03" rms="1.8871787190437317e-01" purity="4.8937696218490601e-01" nType="0">
          <Node pos="l" depth="2" NCoef="0" IVar="-1" Cut="0.0000000000000000e+00" cType="1" res="-8.3393724635243416e-03" rms="1.9205333292484283e-01" purity="4.8967075347900391e-01" nType="-99"/>
          <Node pos="r" depth="2" NCoef="0" IVar="-1" Cut="0.0000000000000000e+00" cType="1" res="1.5586924739181995e-02" rms="1.7551234364509583e-01" purity="4.8854264616966248e-01" nType="-99"/>
        </Node>
      </Node>
    </BinaryTree>
    <BinaryTree type="DecisionTree" boostWeight="1.0000000000000000e+00" itree="350">
      <Node pos="s" depth="0" NCoef="0" IVar="7" Cut="3.9137101562500000e+04" cType="1" res="1.1398786227800883e-05" rms="1.7002639174461365e-01" purity="5.0000000000000000e-01" nType="0">
        <Node pos="l" depth="1" NCoef="0" IVar="7" Cut="1.0564618164062500e+04" cType="1" res="1.9724110607057810e-03" rms="1.7169438302516937e-01" purity="5.0317645072937012e-01" nType="0">
          <Node pos="l" depth="2" NCoef="0" IVar="-1" Cut="0.0000000000000000e+00" cType="1" res="2.4910796433687210e-02" rms="1.2119441479444504e-01" purity="6.3813227415084839e-01" nType="-99"/>
          <Node pos="r" depth="2" NCoef="0" IVar="-1" Cut="0.0000000000000000e+00" cType="1" res="-6.2189006712287664e-04" rms="1.7526608705520630e-01" purity="4.9088260531425476e-01" nType="-99"/>
        </Node>
        <Node pos="r" depth="1" NCoef="0" IVar="-1" Cut="0.0000000000000000e+00" cType="1" res="-1.1607876047492027e-02" rms="1.5117819607257843e-01" purity="4.6857142448425293e-01" nType="-99"/>
      </Node>
    </BinaryTree>
    <BinaryTree type="DecisionTree" boostWeight="1.0000000000000000e+00" itree="351">
      <Node pos="s" depth="0" NCoef="0" IVar="7" Cut="3.9137101562500000e+04" cType="1" res="1.2095096280972939e-05" rms="1.6987401247024536e-01" purity="5.0000000000000000e-01" nType="0">
        <Node pos="l" depth="1" NCoef="0" IVar="7" Cut="1.0564618164062500e+04" cType="1" res="1.7772522987797856e-03" rms="1.7159067094326019e-01" purity="5.0317645072937012e-01" nType="0">
          <Node pos="l" depth="2" NCoef="0" IVar="-1" Cut="0.0000000000000000e+00" cType="1" res="2.2759882733225822e-02" rms="1.2047059088945389e-01" purity="6.3813227415084839e-01" nType="-99"/>
          <Node pos="r" depth="2" NCoef="0" IVar="-1" Cut="0.0000000000000000e+00" cType="1" res="-5.5965577485039830e-04" rms="1.7525894939899445e-01" purity="4.9088260531425476e-01" nType="-99"/>
        </Node>
        <Node pos="r" depth="1" NCoef="0" IVar="-1" Cut="0.0000000000000000e+00" cType="1" res="-1.0453782044351101e-02" rms="1.5073667466640472e-01" purity="4.6857142448425293e-01" nType="-99"/>
      </Node>
    </BinaryTree>
    <BinaryTree type="DecisionTree" boostWeight="1.0000000000000000e+00" itree="352">
      <Node pos="s" depth="0" NCoef="0" IVar="8" Cut="2.1462006835937500e+03" cType="1" res="1.2373656318231951e-05" rms="1.6975603997707367e-01" purity="5.0000000000000000e-01" nType="0">
        <Node pos="l" depth="1" NCoef="0" IVar="12" Cut="3.0015578613281250e+03" cType="1" res="-3.9948499761521816e-03" rms="1.7564867436885834e-01" purity="4.2910337448120117e-01" nType="0">
          <Node pos="l" depth="2" NCoef="0" IVar="-1" Cut="0.0000000000000000e+00" cType="1" res="-1.9339658319950104e-02" rms="1.6041944921016693e-01" purity="1.9916096329689026e-01" nType="-99"/>
          <Node pos="r" depth="2" NCoef="0" IVar="-1" Cut="0.0000000000000000e+00" cType="1" res="1.6745270695537329e-03" rms="1.7929084599018097e-01" purity="4.9696967005729675e-01" nType="-99"/>
        </Node>
        <Node pos="r" depth="1" NCoef="0" IVar="4" Cut="5.4148464202880859e+00" cType="1" res="7.5043360702693462e-03" rms="1.5787860751152039e-01" purity="6.3254940509796143e-01" nType="0">
          <Node pos="l" depth="2" NCoef="0" IVar="-1" Cut="0.0000000000000000e+00" cType="1" res="2.5528265163302422e-02" rms="1.0702127963304520e-01" purity="6.8166261911392212e-01" nType="-99"/>
          <Node pos="r" depth="2" NCoef="0" IVar="-1" Cut="0.0000000000000000e+00" cType="1" res="-4.3900818563997746e-03" rms="1.8109989166259766e-01" purity="6.0183483362197876e-01" nType="-99"/>
        </Node>
      </Node>
    </BinaryTree>
    <BinaryTree type="DecisionTree" boostWeight="1.0000000000000000e+00" itree="353">
      <Node pos="s" depth="0" NCoef="0" IVar="10" Cut="7.1833148193359375e+02" cType="1" res="1.3173966181057040e-05" rms="1.6943922638893127e-01" purity="5.0000000000000000e-01" nType="0">
        <Node pos="l" depth="1" NCoef="0" IVar="10" Cut="5.6815917968750000e+02" cType="1" res="-1.8400409026071429e-03" rms="1.7550598084926605e-01" purity="4.7496151924133301e-01" nType="0">
          <Node pos="l" depth="2" NCoef="0" IVar="-1" Cut="0.0000000000000000e+00" cType="1" res="2.0522319246083498e-03" rms="1.6762384772300720e-01" purity="4.7046551108360291e-01" nType="-99"/>
          <Node pos="r" depth="2" NCoef="0" IVar="-1" Cut="0.0000000000000000e+00" cType="1" res="-1.7854813486337662e-02" rms="2.1069239079952240e-01" purity="4.9918049573898315e-01" nType="-99"/>
        </Node>
        <Node pos="r" depth="1" NCoef="0" IVar="1" Cut="5.8815292968750000e+04" cType="1" res="1.5683352947235107e-02" rms="1.0363323986530304e-01" purity="7.1171730756759644e-01" nType="0">
          <Node pos="l" depth="2" NCoef="0" IVar="-1" Cut="0.0000000000000000e+00" cType="1" res="-3.2741748727858067e-03" rms="1.2899371981620789e-01" purity="5.4799515008926392e-01" nType="-99"/>
          <Node pos="r" depth="2" NCoef="0" IVar="-1" Cut="0.0000000000000000e+00" cType="1" res="5.0659157335758209e-02" rms="6.1138853430747986e-02" purity="8.8227850198745728e-01" nType="-99"/>
        </Node>
      </Node>
    </BinaryTree>
    <BinaryTree type="DecisionTree" boostWeight="1.0000000000000000e+00" itree="354">
      <Node pos="s" depth="0" NCoef="0" IVar="2" Cut="5.3147377929687500e+03" cType="1" res="1.8346803699387237e-05" rms="1.6910170018672943e-01" purity="5.0000000000000000e-01" nType="0">
        <Node pos="l" depth="1" NCoef="0" IVar="12" Cut="2.8847011718750000e+03" cType="1" res="-1.2270708568394184e-02" rms="5.8922491967678070e-02" purity="5.1217984408140182e-02" nType="0">
          <Node pos="l" depth="2" NCoef="0" IVar="-1" Cut="0.0000000000000000e+00" cType="1" res="-3.0659451149404049e-03" rms="7.2991393506526947e-02" purity="8.9227423071861267e-02" nType="-99"/>
          <Node pos="r" depth="2" NCoef="0" IVar="-1" Cut="0.0000000000000000e+00" cType="1" res="-3.9436370134353638e-02" rms="4.7018866986036301e-02" purity="2.7655985206365585e-02" nType="-99"/>
        </Node>
        <Node pos="r" depth="1" NCoef="0" IVar="5" Cut="1.6016287803649902e+00" cType="1" res="2.3149240296334028e-03" rms="1.8236492574214935e-01" purity="5.8386832475662231e-01" nType="0">
          <Node pos="l" depth="2" NCoef="0" IVar="-1" Cut="0.0000000000000000e+00" cType="1" res="2.6123719289898872e-03" rms="1.8315079808235168e-01" purity="5.9506529569625854e-01" nType="-99"/>
          <Node pos="r" depth="2" NCoef="0" IVar="-1" Cut="0.0000000000000000e+00" cType="1" res="-2.0900553092360497e-02" rms="1.6531595587730408e-01" purity="4.1361919045448303e-01" nType="-99"/>
        </Node>
      </Node>
    </BinaryTree>
    <BinaryTree type="DecisionTree" boostWeight="1.0000000000000000e+00" itree="355">
      <Node pos="s" depth="0" NCoef="0" IVar="2" Cut="5.7871357421875000e+03" cType="1" res="1.2157216588093434e-05" rms="1.6896304488182068e-01" purity="5.0000000000000000e-01" nType="0">
        <Node pos="l" depth="1" NCoef="0" IVar="6" Cut="3.7283832550048828e+01" cType="1" res="2.5791910011321306e-03" rms="1.7408128082752228e-01" purity="5.6803071498870850e-01" nType="0">
          <Node pos="l" depth="2" NCoef="0" IVar="-1" Cut="0.0000000000000000e+00" cType="1" res="-1.0662090964615345e-02" rms="1.8057101964950562e-01" purity="3.2277110219001770e-01" nType="-99"/>
          <Node pos="r" depth="2" NCoef="0" IVar="-1" Cut="0.0000000000000000e+00" cType="1" res="5.0716609694063663e-03" rms="1.7191515862941742e-01" purity="6.3067412376403809e-01" nType="-99"/>
        </Node>
        <Node pos="r" depth="1" NCoef="0" IVar="11" Cut="3.6049121093750000e+04" cType="1" res="-1.1580808088183403e-02" rms="1.4302125573158264e-01" purity="1.9276672601699829e-01" nType="0">
          <Node pos="l" depth="2" NCoef="0" IVar="-1" Cut="0.0000000000000000e+00" cType="1" res="9.1873258352279663e-03" rms="1.4667111635208130e-01" purity="1.4497877657413483e-01" nType="-99"/>
          <Node pos="r" depth="2" NCoef="0" IVar="-1" Cut="0.0000000000000000e+00" cType="1" res="-2.1924857050180435e-02" rms="1.3519409298896790e-01" purity="2.4278312921524048e-01" nType="-99"/>
        </Node>
      </Node>
    </BinaryTree>
    <BinaryTree type="DecisionTree" boostWeight="1.0000000000000000e+00" itree="356">
      <Node pos="s" depth="0" NCoef="0" IVar="9" Cut="2.6159143066406250e+03" cType="1" res="8.8683636931818910e-06" rms="1.6882054507732391e-01" purity="5.0000000000000000e-01" nType="0">
        <Node pos="l" depth="1" NCoef="0" IVar="12" Cut="4.5130634765625000e+03" cType="1" res="1.2773703783750534e-02" rms="1.3934554159641266e-01" purity="5.8519178628921509e-01" nType="0">
          <Node pos="l" depth="2" NCoef="0" IVar="-1" Cut="0.0000000000000000e+00" cType="1" res="1.9067417830228806e-02" rms="1.2692844867706299e-01" purity="6.2732243537902832e-01" nType="-99"/>
          <Node pos="r" depth="2" NCoef="0" IVar="-1" Cut="0.0000000000000000e+00" cType="1" res="-5.8923289179801941e-03" rms="1.5454708039760590e-01" purity="5.1868891716003418e-01" nType="-99"/>
        </Node>
        <Node pos="r" depth="1" NCoef="0" IVar="7" Cut="1.3213380859375000e+04" cType="1" res="-2.1908825729042292e-03" rms="1.7329961061477661e-01" purity="4.8531895875930786e-01" nType="0">
          <Node pos="l" depth="2" NCoef="0" IVar="-1" Cut="0.0000000000000000e+00" cType="1" res="-1.7931615933775902e-02" rms="1.4972585439682007e-01" purity="3.8362574577331543e-01" nType="-99"/>
          <Node pos="r" depth="2" NCoef="0" IVar="-1" Cut="0.0000000000000000e+00" cType="1" res="4.6802830183878541e-04" rms="1.7543105781078339e-01" purity="4.9643999338150024e-01" nType="-99"/>
        </Node>
      </Node>
    </BinaryTree>
    <BinaryTree type="DecisionTree" boostWeight="1.0000000000000000e+00" itree="357">
      <Node pos="s" depth="0" NCoef="0" IVar="0" Cut="5.5822954101562500e+03" cType="1" res="8.6284562712535262e-06" rms="1.6859322786331177e-01" purity="5.0000000000000000e-01" nType="0">
        <Node pos="l" depth="1" NCoef="0" IVar="0" Cut="1.2386390380859375e+03" cType="1" res="-3.0534428078681231e-03" rms="1.8675856292247772e-01" purity="4.1276991367340088e-01" nType="0">
          <Node pos="l" depth="2" NCoef="0" IVar="-1" Cut="0.0000000000000000e+00" cType="1" res="-3.6078952252864838e-02" rms="1.3659435510635376e-01" purity="2.3948596417903900e-01" nType="-99"/>
          <Node pos="r" depth="2" NCoef="0" IVar="-1" Cut="0.0000000000000000e+00" cType="1" res="6.0920108808204532e-04" rms="1.8966504931449890e-01" purity="4.2694053053855896e-01" nType="-99"/>
        </Node>
        <Node pos="r" depth="1" NCoef="0" IVar="9" Cut="5.7423955078125000e+03" cType="1" res="8.8347364217042923e-03" rms="9.8552674055099487e-02" purity="7.5143182277679443e-01" nType="0">
          <Node pos="l" depth="2" NCoef="0" IVar="-1" Cut="0.0000000000000000e+00" cType="1" res="1.7864752560853958e-02" rms="9.8047792911529541e-02" purity="7.3756611347198486e-01" nType="-99"/>
          <Node pos="r" depth="2" NCoef="0" IVar="-1" Cut="0.0000000000000000e+00" cType="1" res="-2.7158316224813461e-02" rms="9.4068095088005066e-02" purity="7.8737998008728027e-01" nType="-99"/>
        </Node>
      </Node>
    </BinaryTree>
    <BinaryTree type="DecisionTree" boostWeight="1.0000000000000000e+00" itree="358">
      <Node pos="s" depth="0" NCoef="0" IVar="8" Cut="1.5782382812500000e+03" cType="1" res="7.0849846451892518e-06" rms="1.6820175945758820e-01" purity="5.0000000000000000e-01" nType="0">
        <Node pos="l" depth="1" NCoef="0" IVar="12" Cut="5.5220815429687500e+03" cType="1" res="-5.9182620607316494e-03" rms="1.7293554544448853e-01" purity="3.6754253506660461e-01" nType="0">
          <Node pos="l" depth="2" NCoef="0" IVar="-1" Cut="0.0000000000000000e+00" cType="1" res="-9.3764150515198708e-03" rms="1.7822061479091644e-01" purity="3.2384884357452393e-01" nType="-99"/>
          <Node pos="r" depth="2" NCoef="0" IVar="-1" Cut="0.0000000000000000e+00" cType="1" res="4.7017462551593781e-02" rms="1.1693625897169113e-01" purity="6.3813227415084839e-01" nType="-99"/>
        </Node>
        <Node pos="r" depth="1" NCoef="0" IVar="4" Cut="5.4370417594909668e+00" cType="1" res="4.3724910356104374e-03" rms="1.6449065506458282e-01" purity="5.9758591651916504e-01" nType="0">
          <Node pos="l" depth="2" NCoef="0" IVar="-1" Cut="0.0000000000000000e+00" cType="1" res="1.7254676669836044e-02" rms="1.1757654696702957e-01" purity="6.7768597602844238e-01" nType="-99"/>
          <Node pos="r" depth="2" NCoef="0" IVar="-1" Cut="0.0000000000000000e+00" cType="1" res="-5.5084740743041039e-03" rms="1.9093598425388336e-01" purity="5.3786522150039673e-01" nType="-99"/>
        </Node>
      </Node>
    </BinaryTree>
    <BinaryTree type="DecisionTree" boostWeight="1.0000000000000000e+00" itree="359">
      <Node pos="s" depth="0" NCoef="0" IVar="2" Cut="5.6926562500000000e+03" cType="1" res="1.4293588719738182e-05" rms="1.6763196885585785e-01" purity="5.0000000000000000e-01" nType="0">
        <Node pos="l" depth="1" NCoef="0" IVar="9" Cut="7.3597397460937500e+03" cType="1" res="3.2052588649094105e-03" rms="1.6870974004268646e-01" purity="5.5998927354812622e-01" nType="0">
          <Node pos="l" depth="2" NCoef="0" IVar="-1" Cut="0.0000000000000000e+00" cType="1" res="-1.7657472053542733e-03" rms="1.7054264247417450e-01" purity="5.4036241769790649e-01" nType="-99"/>
          <Node pos="r" depth="2" NCoef="0" IVar="-1" Cut="0.0000000000000000e+00" cType="1" res="2.3525221273303032e-02" rms="1.5481421351432800e-01" purity="6.6294950246810913e-01" nType="-99"/>
        </Node>
        <Node pos="r" depth="1" NCoef="0" IVar="9" Cut="7.4270390625000000e+03" cType="1" res="-8.8116806000471115e-03" rms="1.6429172456264496e-01" purity="3.3407407999038696e-01" nType="0">
          <Node pos="l" depth="2" NCoef="0" IVar="-1" Cut="0.0000000000000000e+00" cType="1" res="4.2360383085906506e-03" rms="1.5784072875976562e-01" purity="3.7583893537521362e-01" nType="-99"/>
          <Node pos="r" depth="2" NCoef="0" IVar="-1" Cut="0.0000000000000000e+00" cType="1" res="-4.2840432375669479e-02" rms="1.7399761080741882e-01" purity="2.0592667162418365e-01" nType="-99"/>
        </Node>
      </Node>
    </BinaryTree>
    <BinaryTree type="DecisionTree" boostWeight="1.0000000000000000e+00" itree="360">
      <Node pos="s" depth="0" NCoef="0" IVar="2" Cut="5.4564570312500000e+03" cType="1" res="1.3059619959676638e-05" rms="1.6704311966896057e-01" purity="5.0000000000000000e-01" nType="0">
        <Node pos="l" depth="1" NCoef="0" IVar="4" Cut="2.9238381385803223e+00" cType="1" res="-8.7264478206634521e-03" rms="9.2601090669631958e-02" purity="2.4002927541732788e-01" nType="0">
          <Node pos="l" depth="2" NCoef="0" IVar="-1" Cut="0.0000000000000000e+00" cType="1" res="-5.8241434395313263e-02" rms="7.5256213545799255e-02" purity="3.4067302942276001e-02" nType="-99"/>
          <Node pos="r" depth="2" NCoef="0" IVar="-1" Cut="0.0000000000000000e+00" cType="1" res="5.4187355563044548e-03" rms="9.5418855547904968e-02" purity="3.2562154531478882e-01" nType="-99"/>
        </Node>
        <Node pos="r" depth="1" NCoef="0" IVar="2" Cut="5.4897851562500000e+03" cType="1" res="3.2255779951810837e-03" rms="1.8700231611728668e-01" purity="5.9556156396865845e-01" nType="0">
          <Node pos="l" depth="2" NCoef="0" IVar="-1" Cut="0.0000000000000000e+00" cType="1" res="2.8908297419548035e-02" rms="1.5194781124591827e-01" purity="8.4102565050125122e-01" nType="-99"/>
          <Node pos="r" depth="2" NCoef="0" IVar="-1" Cut="0.0000000000000000e+00" cType="1" res="-5.0831236876547337e-04" rms="1.8911038339138031e-01" purity="5.7459855079650879e-01" nType="-99"/>
        </Node>
      </Node>
    </BinaryTree>
    <BinaryTree type="DecisionTree" boostWeight="1.0000000000000000e+00" itree="361">
      <Node pos="s" depth="0" NCoef="0" IVar="7" Cut="4.2463347656250000e+04" cType="1" res="2.3741131371934898e-06" rms="1.6663448512554169e-01" purity="5.0000000000000000e-01" nType="0">
        <Node pos="l" depth="1" NCoef="0" IVar="7" Cut="3.0254386718750000e+04" cType="1" res="1.3164371484890580e-03" rms="1.6696755588054657e-01" purity="5.0354140996932983e-01" nType="0">
          <Node pos="l" depth="2" NCoef="0" IVar="-1" Cut="0.0000000000000000e+00" cType="1" res="-1.8199945334345102e-03" rms="1.7141665518283844e-01" purity="5.0139570236206055e-01" nType="-99"/>
          <Node pos="r" depth="2" NCoef="0" IVar="-1" Cut="0.0000000000000000e+00" cType="1" res="1.2062367983162403e-02" rms="1.4825217425823212e-01" purity="5.1149046421051025e-01" nType="-99"/>
        </Node>
        <Node pos="r" depth="1" NCoef="0" IVar="-1" Cut="0.0000000000000000e+00" cType="1" res="-1.1324494145810604e-02" rms="1.5998306870460510e-01" purity="4.4492673873901367e-01" nType="-99"/>
      </Node>
    </BinaryTree>
    <BinaryTree type="DecisionTree" boostWeight="1.0000000000000000e+00" itree="362">
      <Node pos="s" depth="0" NCoef="0" IVar="12" Cut="2.6805649414062500e+03" cType="1" res="2.3433408387063537e-06" rms="1.6648165881633759e-01" purity="5.0000000000000000e-01" nType="0">
        <Node pos="l" depth="1" NCoef="0" IVar="7" Cut="3.5832437500000000e+04" cType="1" res="-9.2509025707840919e-03" rms="1.3714031875133514e-01" purity="2.7538958191871643e-01" nType="0">
          <Node pos="l" depth="2" NCoef="0" IVar="-1" Cut="0.0000000000000000e+00" cType="1" res="2.1376204676926136e-03" rms="1.3441781699657440e-01" purity="3.2657495141029358e-01" nType="-99"/>
          <Node pos="r" depth="2" NCoef="0" IVar="-1" Cut="0.0000000000000000e+00" cType="1" res="-3.0698612332344055e-02" rms="1.3875766098499298e-01" purity="1.2812499701976776e-01" nType="-99"/>
        </Node>
        <Node pos="r" depth="1" NCoef="0" IVar="2" Cut="5.7953681640625000e+03" cType="1" res="2.9893841128796339e-03" rms="1.7480099201202393e-01" purity="5.7250648736953735e-01" nType="0">
          <Node pos="l" depth="2" NCoef="0" IVar="-1" Cut="0.0000000000000000e+00" cType="1" res="4.6933852136135101e-03" rms="1.8081077933311462e-01" purity="6.3510829210281372e-01" nType="-99"/>
          <Node pos="r" depth="2" NCoef="0" IVar="-1" Cut="0.0000000000000000e+00" cType="1" res="-1.7919700592756271e-02" rms="1.3183161616325378e-01" purity="2.1484716236591339e-01" nType="-99"/>
        </Node>
      </Node>
    </BinaryTree>
    <BinaryTree type="DecisionTree" boostWeight="1.0000000000000000e+00" itree="363">
      <Node pos="s" depth="0" NCoef="0" IVar="3" Cut="3.3495236816406250e+03" cType="1" res="-1.7973534340853803e-06" rms="1.6636273264884949e-01" purity="5.0000000000000000e-01" nType="0">
        <Node pos="l" depth="1" NCoef="0" IVar="10" Cut="6.5294470214843750e+02" cType="1" res="-2.3041649255901575e-03" rms="1.7119722068309784e-01" purity="4.6687203645706177e-01" nType="0">
          <Node pos="l" depth="2" NCoef="0" IVar="-1" Cut="0.0000000000000000e+00" cType="1" res="9.5583172515034676e-04" rms="1.6995885968208313e-01" purity="4.7400817275047302e-01" nType="-99"/>
          <Node pos="r" depth="2" NCoef="0" IVar="-1" Cut="0.0000000000000000e+00" cType="1" res="-5.0920434296131134e-02" rms="1.7878217995166779e-01" purity="3.5942393541336060e-01" nType="-99"/>
        </Node>
        <Node pos="r" depth="1" NCoef="0" IVar="11" Cut="4.1571007812500000e+04" cType="1" res="1.2143772095441818e-02" rms="1.3744904100894928e-01" purity="6.7475825548171997e-01" nType="0">
          <Node pos="l" depth="2" NCoef="0" IVar="-1" Cut="0.0000000000000000e+00" cType="1" res="2.3417629301548004e-02" rms="1.3576352596282959e-01" purity="6.5797388553619385e-01" nType="-99"/>
          <Node pos="r" depth="2" NCoef="0" IVar="-1" Cut="0.0000000000000000e+00" cType="1" res="-1.2626601383090019e-02" rms="1.3510525226593018e-01" purity="7.0160424709320068e-01" nType="-99"/>
        </Node>
      </Node>
    </BinaryTree>
    <BinaryTree type="DecisionTree" boostWeight="1.0000000000000000e+00" itree="364">
      <Node pos="s" depth="0" NCoef="0" IVar="2" Cut="5.3147377929687500e+03" cType="1" res="-1.6780530813775840e-06" rms="1.6575048863887787e-01" purity="5.0000000000000000e-01" nType="0">
        <Node pos="l" depth="1" NCoef="0" IVar="12" Cut="2.8847011718750000e+03" cType="1" res="-1.2055632658302784e-02" rms="5.7292588055133820e-02" purity="5.1217984408140182e-02" nType="0">
          <Node pos="l" depth="2" NCoef="0" IVar="-1" Cut="0.0000000000000000e+00" cType="1" res="-4.5009478926658630e-03" rms="7.1316912770271301e-02" purity="8.9227423071861267e-02" nType="-99"/>
          <Node pos="r" depth="2" NCoef="0" IVar="-1" Cut="0.0000000000000000e+00" cType="1" res="-3.9378128945827484e-02" rms="4.5530464500188828e-02" purity="2.7655985206365585e-02" nType="-99"/>
        </Node>
        <Node pos="r" depth="1" NCoef="0" IVar="10" Cut="2.0833163452148438e+02" cType="1" res="2.2509635891765356e-03" rms="1.7877854406833649e-01" purity="5.8386832475662231e-01" nType="0">
          <Node pos="l" depth="2" NCoef="0" IVar="-1" Cut="0.0000000000000000e+00" cType="1" res="-1.1764659546315670e-02" rms="2.3028762638568878e-01" purity="3.5528594255447388e-01" nType="-99"/>
          <Node pos="r" depth="2" NCoef="0" IVar="-1" Cut="0.0000000000000000e+00" cType="1" res="2.9531961772590876e-03" rms="1.7258995771408081e-01" purity="6.0642069578170776e-01" nType="-99"/>
        </Node>
      </Node>
    </BinaryTree>
    <BinaryTree type="DecisionTree" boostWeight="1.0000000000000000e+00" itree="365">
      <Node pos="s" depth="0" NCoef="0" IVar="9" Cut="2.6159143066406250e+03" cType="1" res="-5.7051397561735939e-06" rms="1.6567303240299225e-01" purity="5.0000000000000000e-01" nType="0">
        <Node pos="l" depth="1" NCoef="0" IVar="4" Cut="5.8063836097717285e+00" cType="1" res="1.2479052878916264e-02" rms="1.3885812461376190e-01" purity="5.8519178628921509e-01" nType="0">
          <Node pos="l" depth="2" NCoef="0" IVar="-1" Cut="0.0000000000000000e+00" cType="1" res="3.2304376363754272e-02" rms="9.0535089373588562e-02" purity="7.3832297325134277e-01" nType="-99"/>
          <Node pos="r" depth="2" NCoef="0" IVar="-1" Cut="0.0000000000000000e+00" cType="1" res="-1.0131988674402237e-03" rms="1.6141033172607422e-01" purity="4.8466938734054565e-01" nType="-99"/>
        </Node>
        <Node pos="r" depth="1" NCoef="0" IVar="5" Cut="1.0472027063369751e+00" cType="1" res="-2.1571905817836523e-03" rms="1.6977424919605255e-01" purity="4.8531895875930786e-01" nType="0">
          <Node pos="l" depth="2" NCoef="0" IVar="-1" Cut="0.0000000000000000e+00" cType="1" res="-3.3581359311938286e-03" rms="1.7507734894752502e-01" purity="4.8605045676231384e-01" nType="-99"/>
          <Node pos="r" depth="2" NCoef="0" IVar="-1" Cut="0.0000000000000000e+00" cType="1" res="1.4503240585327148e-02" rms="1.2969942390918732e-01" purity="4.8073703050613403e-01" nType="-99"/>
        </Node>
      </Node>
    </BinaryTree>
    <BinaryTree type="DecisionTree" boostWeight="1.0000000000000000e+00" itree="366">
      <Node pos="s" depth="0" NCoef="0" IVar="4" Cut="8.9473457336425781e+00" cType="1" res="-2.4258877147076419e-06" rms="1.6544294357299805e-01" purity="5.0000000000000000e-01" nType="0">
        <Node pos="l" depth="1" NCoef="0" IVar="5" Cut="5.9902834892272949e-01" cType="1" res="1.2529838131740689e-03" rms="1.6840343177318573e-01" purity="5.2158498764038086e-01" nType="0">
          <Node pos="l" depth="2" NCoef="0" IVar="-1" Cut="0.0000000000000000e+00" cType="1" res="-3.7203126121312380e-03" rms="1.6395696997642517e-01" purity="4.8136192560195923e-01" nType="-99"/>
          <Node pos="r" depth="2" NCoef="0" IVar="-1" Cut="0.0000000000000000e+00" cType="1" res="1.1371068656444550e-02" rms="1.7759774625301361e-01" purity="6.2031698226928711e-01" nType="-99"/>
        </Node>
        <Node pos="r" depth="1" NCoef="0" IVar="-1" Cut="0.0000000000000000e+00" cType="1" res="-2.0924547687172890e-02" rms="1.0253279656171799e-01" purity="1.4186850190162659e-01" nType="-99"/>
      </Node>
    </BinaryTree>
    <BinaryTree type="DecisionTree" boostWeight="1.0000000000000000e+00" itree="367">
      <Node pos="s" depth="0" NCoef="0" IVar="8" Cut="2.1462006835937500e+03" cType="1" res="-1.8686906742004794e-06" rms="1.6527783870697021e-01" purity="5.0000000000000000e-01" nType="0">
        <Node pos="l" depth="1" NCoef="0" IVar="4" Cut="7.1402935981750488e+00" cType="1" res="-3.7779461126774549e-03" rms="1.7157113552093506e-01" purity="4.2910337448120117e-01" nType="0">
          <Node pos="l" depth="2" NCoef="0" IVar="-1" Cut="0.0000000000000000e+00" cType="1" res="1.5031172661110759e-03" rms="1.6533714532852173e-01" purity="4.7941285371780396e-01" nType="-99"/>
          <Node pos="r" depth="2" NCoef="0" IVar="-1" Cut="0.0000000000000000e+00" cType="1" res="-1.8933026120066643e-02" rms="1.9349509477615356e-01" purity="2.1601682901382446e-01" nType="-99"/>
        </Node>
        <Node pos="r" depth="1" NCoef="0" IVar="4" Cut="7.3090806007385254e+00" cType="1" res="7.0579396560788155e-03" rms="1.5256762504577637e-01" purity="6.3254940509796143e-01" nType="0">
          <Node pos="l" depth="2" NCoef="0" IVar="-1" Cut="0.0000000000000000e+00" cType="1" res="-2.1678805351257324e-03" rms="1.5441004931926727e-01" purity="5.9780055284500122e-01" nType="-99"/>
          <Node pos="r" depth="2" NCoef="0" IVar="-1" Cut="0.0000000000000000e+00" cType="1" res="2.9035352170467377e-02" rms="1.4175172150135040e-01" purity="7.4339771270751953e-01" nType="-99"/>
        </Node>
      </Node>
    </BinaryTree>
    <BinaryTree type="DecisionTree" boostWeight="1.0000000000000000e+00" itree="368">
      <Node pos="s" depth="0" NCoef="0" IVar="12" Cut="2.6805649414062500e+03" cType="1" res="-4.3687711581696931e-07" rms="1.6491948068141937e-01" purity="5.0000000000000000e-01" nType="0">
        <Node pos="l" depth="1" NCoef="0" IVar="7" Cut="2.1038777343750000e+04" cType="1" res="-9.4323074445128441e-03" rms="1.3455682992935181e-01" purity="2.7538958191871643e-01" nType="0">
          <Node pos="l" depth="2" NCoef="0" IVar="-1" Cut="0.0000000000000000e+00" cType="1" res="-2.5743896141648293e-02" rms="1.1964701116085052e-01" purity="1.7465388774871826e-01" nType="-99"/>
          <Node pos="r" depth="2" NCoef="0" IVar="-1" Cut="0.0000000000000000e+00" cType="1" res="4.5389258302748203e-03" rms="1.4050993323326111e-01" purity="3.3671927452087402e-01" nType="-99"/>
        </Node>
        <Node pos="r" depth="1" NCoef="0" IVar="4" Cut="7.1402935981750488e+00" cType="1" res="3.0442657880485058e-03" rms="1.7348119616508484e-01" purity="5.7250648736953735e-01" nType="0">
          <Node pos="l" depth="2" NCoef="0" IVar="-1" Cut="0.0000000000000000e+00" cType="1" res="5.4655275307595730e-03" rms="1.7300519347190857e-01" purity="6.0855114459991455e-01" nType="-99"/>
          <Node pos="r" depth="2" NCoef="0" IVar="-1" Cut="0.0000000000000000e+00" cType="1" res="-1.2773755006492138e-02" rms="1.7336361110210419e-01" purity="4.4244602322578430e-01" nType="-99"/>
        </Node>
      </Node>
    </BinaryTree>
    <BinaryTree type="DecisionTree" boostWeight="1.0000000000000000e+00" itree="369">
      <Node pos="s" depth="0" NCoef="0" IVar="8" Cut="2.1462006835937500e+03" cType="1" res="-2.3865247840149095e-06" rms="1.6469158232212067e-01" purity="5.0000000000000000e-01" nType="0">
        <Node pos="l" depth="1" NCoef="0" IVar="0" Cut="3.4864875488281250e+03" cType="1" res="-3.7135668098926544e-03" rms="1.7126087844371796e-01" purity="4.2910337448120117e-01" nType="0">
          <Node pos="l" depth="2" NCoef="0" IVar="-1" Cut="0.0000000000000000e+00" cType="1" res="4.6166451647877693e-03" rms="1.5350611507892609e-01" purity="3.6273744702339172e-01" nType="-99"/>
          <Node pos="r" depth="2" NCoef="0" IVar="-1" Cut="0.0000000000000000e+00" cType="1" res="-9.8720621317625046e-03" rms="1.9212375581264496e-01" purity="5.2079087495803833e-01" nType="-99"/>
        </Node>
        <Node pos="r" depth="1" NCoef="0" IVar="5" Cut="5.9068810939788818e-01" cType="1" res="6.9360891357064247e-03" rms="1.5140420198440552e-01" purity="6.3254940509796143e-01" nType="0">
          <Node pos="l" depth="2" NCoef="0" IVar="-1" Cut="0.0000000000000000e+00" cType="1" res="-2.9075967613607645e-03" rms="1.5708608925342560e-01" purity="5.5744391679763794e-01" nType="-99"/>
          <Node pos="r" depth="2" NCoef="0" IVar="-1" Cut="0.0000000000000000e+00" cType="1" res="2.5422837585210800e-02" rms="1.3443110883235931e-01" purity="8.0122137069702148e-01" nType="-99"/>
        </Node>
      </Node>
    </BinaryTree>
    <BinaryTree type="DecisionTree" boostWeight="1.0000000000000000e+00" itree="370">
      <Node pos="s" depth="0" NCoef="0" IVar="12" Cut="2.6805649414062500e+03" cType="1" res="2.1489810819730337e-07" rms="1.6433888673782349e-01" purity="5.0000000000000000e-01" nType="0">
        <Node pos="l" depth="1" NCoef="0" IVar="7" Cut="3.5832437500000000e+04" cType="1" res="-9.3773622065782547e-03" rms="1.3332201540470123e-01" purity="2.7538958191871643e-01" nType="0">
          <Node pos="l" depth="2" NCoef="0" IVar="-1" Cut="0.0000000000000000e+00" cType="1" res="1.5758192166686058e-03" rms="1.3063460588455200e-01" purity="3.2657495141029358e-01" nType="-99"/>
          <Node pos="r" depth="2" NCoef="0" IVar="-1" Cut="0.0000000000000000e+00" cType="1" res="-2.9920278117060661e-02" rms="1.3535168766975403e-01" purity="1.2812499701976776e-01" nType="-99"/>
        </Node>
        <Node pos="r" depth="1" NCoef="0" IVar="9" Cut="8.8247343750000000e+03" cType="1" res="3.0273909214884043e-03" rms="1.7306086421012878e-01" purity="5.7250648736953735e-01" nType="0">
          <Node pos="l" depth="2" NCoef="0" IVar="-1" Cut="0.0000000000000000e+00" cType="1" res="7.0806927396915853e-05" rms="1.7371112108230591e-01" purity="5.6370478868484497e-01" nType="-99"/>
          <Node pos="r" depth="2" NCoef="0" IVar="-1" Cut="0.0000000000000000e+00" cType="1" res="2.7055662125349045e-02" rms="1.5806540846824646e-01" purity="6.9627690315246582e-01" nType="-99"/>
        </Node>
      </Node>
    </BinaryTree>
    <BinaryTree type="DecisionTree" boostWeight="1.0000000000000000e+00" itree="371">
      <Node pos="s" depth="0" NCoef="0" IVar="11" Cut="2.6023939453125000e+04" cType="1" res="-1.0817758067105387e-07" rms="1.6411799192428589e-01" purity="5.0000000000000000e-01" nType="0">
        <Node pos="l" depth="1" NCoef="0" IVar="11" Cut="1.0564414062500000e+04" cType="1" res="6.6533712670207024e-03" rms="1.4546672999858856e-01" purity="4.1018313169479370e-01" nType="0">
          <Node pos="l" depth="2" NCoef="0" IVar="-1" Cut="0.0000000000000000e+00" cType="1" res="-4.2738988995552063e-02" rms="1.2189077585935593e-01" purity="1.1944646388292313e-01" nType="-99"/>
          <Node pos="r" depth="2" NCoef="0" IVar="-1" Cut="0.0000000000000000e+00" cType="1" res="1.6336301341652870e-02" rms="1.4924231171607971e-01" purity="5.0467514991760254e-01" nType="-99"/>
        </Node>
        <Node pos="r" depth="1" NCoef="0" IVar="1" Cut="5.4089277343750000e+04" cType="1" res="-3.8576722145080566e-03" rms="1.7390200495719910e-01" purity="5.5207413434982300e-01" nType="0">
          <Node pos="l" depth="2" NCoef="0" IVar="-1" Cut="0.0000000000000000e+00" cType="1" res="-3.5138912498950958e-02" rms="1.4704647660255432e-01" purity="2.6635730266571045e-01" nType="-99"/>
          <Node pos="r" depth="2" NCoef="0" IVar="-1" Cut="0.0000000000000000e+00" cType="1" res="2.2553673479706049e-03" rms="1.7541943490505219e-01" purity="5.8796781301498413e-01" nType="-99"/>
        </Node>
      </Node>
    </BinaryTree>
    <BinaryTree type="DecisionTree" boostWeight="1.0000000000000000e+00" itree="372">
      <Node pos="s" depth="0" NCoef="0" IVar="2" Cut="5.3147377929687500e+03" cType="1" res="-7.8693938121432438e-06" rms="1.6329723596572876e-01" purity="5.0000000000000000e-01" nType="0">
        <Node pos="l" depth="1" NCoef="0" IVar="1" Cut="6.3235265625000000e+04" cType="1" res="-1.1851153336465359e-02" rms="5.7821188122034073e-02" purity="5.1217984408140182e-02" nType="0">
          <Node pos="l" depth="2" NCoef="0" IVar="-1" Cut="0.0000000000000000e+00" cType="1" res="-5.6409511715173721e-02" rms="4.2505331337451935e-02" purity="0.0000000000000000e+00" nType="-99"/>
          <Node pos="r" depth="2" NCoef="0" IVar="-1" Cut="0.0000000000000000e+00" cType="1" res="-4.8314910382032394e-03" rms="7.0896625518798828e-02" purity="1.1186902970075607e-01" nType="-99"/>
        </Node>
        <Node pos="r" depth="1" NCoef="0" IVar="10" Cut="2.0833163452148438e+02" cType="1" res="2.2054021246731281e-03" rms="1.7604948580265045e-01" purity="5.8386832475662231e-01" nType="0">
          <Node pos="l" depth="2" NCoef="0" IVar="-1" Cut="0.0000000000000000e+00" cType="1" res="-1.1423556134104729e-02" rms="2.2791378200054169e-01" purity="3.5528594255447388e-01" nType="-99"/>
          <Node pos="r" depth="2" NCoef="0" IVar="-1" Cut="0.0000000000000000e+00" cType="1" res="2.9075541533529758e-03" rms="1.6981685161590576e-01" purity="6.0642069578170776e-01" nType="-99"/>
        </Node>
      </Node>
    </BinaryTree>
    <BinaryTree type="DecisionTree" boostWeight="1.0000000000000000e+00" itree="373">
      <Node pos="s" depth="0" NCoef="0" IVar="9" Cut="2.6159143066406250e+03" cType="1" res="-1.4229730368242599e-05" rms="1.6318003833293915e-01" purity="5.0000000000000000e-01" nType="0">
        <Node pos="l" depth="1" NCoef="0" IVar="4" Cut="5.8063836097717285e+00" cType="1" res="1.2025819160044193e-02" rms="1.3564948737621307e-01" purity="5.8519178628921509e-01" nType="0">
          <Node pos="l" depth="2" NCoef="0" IVar="-1" Cut="0.0000000000000000e+00" cType="1" res="3.1639538705348969e-02" rms="8.8800154626369476e-02" purity="7.3832297325134277e-01" nType="-99"/>
          <Node pos="r" depth="2" NCoef="0" IVar="-1" Cut="0.0000000000000000e+00" cType="1" res="-9.0229860506951809e-04" rms="1.5762163698673248e-01" purity="4.8466938734054565e-01" nType="-99"/>
        </Node>
        <Node pos="r" depth="1" NCoef="0" IVar="7" Cut="1.3213380859375000e+04" cType="1" res="-2.0890790037810802e-03" rms="1.6738034784793854e-01" purity="4.8531895875930786e-01" nType="0">
          <Node pos="l" depth="2" NCoef="0" IVar="-1" Cut="0.0000000000000000e+00" cType="1" res="-1.7372049391269684e-02" rms="1.4204791188240051e-01" purity="3.8362574577331543e-01" nType="-99"/>
          <Node pos="r" depth="2" NCoef="0" IVar="-1" Cut="0.0000000000000000e+00" cType="1" res="4.0404422907158732e-04" rms="1.6969747841358185e-01" purity="4.9643999338150024e-01" nType="-99"/>
        </Node>
      </Node>
    </BinaryTree>
    <BinaryTree type="DecisionTree" boostWeight="1.0000000000000000e+00" itree="374">
      <Node pos="s" depth="0" NCoef="0" IVar="10" Cut="7.1833148193359375e+02" cType="1" res="-1.0748396562121343e-05" rms="1.6298067569732666e-01" purity="5.0000000000000000e-01" nType="0">
        <Node pos="l" depth="1" NCoef="0" IVar="10" Cut="5.6815917968750000e+02" cType="1" res="-1.7118048854172230e-03" rms="1.6905589401721954e-01" purity="4.7496151924133301e-01" nType="0">
          <Node pos="l" depth="2" NCoef="0" IVar="-1" Cut="0.0000000000000000e+00" cType="1" res="1.8588509410619736e-03" rms="1.6173619031906128e-01" purity="4.7046551108360291e-01" nType="-99"/>
          <Node pos="r" depth="2" NCoef="0" IVar="-1" Cut="0.0000000000000000e+00" cType="1" res="-1.6434965655207634e-02" rms="2.0209571719169617e-01" purity="4.9918049573898315e-01" nType="-99"/>
        </Node>
        <Node pos="r" depth="1" NCoef="0" IVar="1" Cut="5.8815292968750000e+04" cType="1" res="1.4372828416526318e-02" rms="9.6304923295974731e-02" purity="7.1171730756759644e-01" nType="0">
          <Node pos="l" depth="2" NCoef="0" IVar="-1" Cut="0.0000000000000000e+00" cType="1" res="-1.8913660896942019e-03" rms="1.2202808260917664e-01" purity="5.4799515008926392e-01" nType="-99"/>
          <Node pos="r" depth="2" NCoef="0" IVar="-1" Cut="0.0000000000000000e+00" cType="1" res="4.9560010433197021e-02" rms="5.3161870688199997e-02" purity="8.8227850198745728e-01" nType="-99"/>
        </Node>
      </Node>
    </BinaryTree>
    <BinaryTree type="DecisionTree" boostWeight="1.0000000000000000e+00" itree="375">
      <Node pos="s" depth="0" NCoef="0" IVar="2" Cut="5.7871357421875000e+03" cType="1" res="-3.9411911529896315e-06" rms="1.6269563138484955e-01" purity="5.0000000000000000e-01" nType="0">
        <Node pos="l" depth="1" NCoef="0" IVar="11" Cut="8.3487898437500000e+04" cType="1" res="2.3180095013231039e-03" rms="1.6785183548927307e-01" purity="5.6803071498870850e-01" nType="0">
          <Node pos="l" depth="2" NCoef="0" IVar="-1" Cut="0.0000000000000000e+00" cType="1" res="-9.6192158525809646e-04" rms="1.7278999090194702e-01" purity="5.4906487464904785e-01" nType="-99"/>
          <Node pos="r" depth="2" NCoef="0" IVar="-1" Cut="0.0000000000000000e+00" cType="1" res="1.9405912607908249e-02" rms="1.2825661897659302e-01" purity="6.9177466630935669e-01" nType="-99"/>
        </Node>
        <Node pos="r" depth="1" NCoef="0" IVar="11" Cut="3.6049121093750000e+04" cType="1" res="-1.0490088723599911e-02" rms="1.3652278482913971e-01" purity="1.9276672601699829e-01" nType="0">
          <Node pos="l" depth="2" NCoef="0" IVar="-1" Cut="0.0000000000000000e+00" cType="1" res="8.3404267206788063e-03" rms="1.3844101130962372e-01" purity="1.4497877657413483e-01" nType="-99"/>
          <Node pos="r" depth="2" NCoef="0" IVar="-1" Cut="0.0000000000000000e+00" cType="1" res="-2.0485304296016693e-02" rms="1.3125374913215637e-01" purity="2.4278312921524048e-01" nType="-99"/>
        </Node>
      </Node>
    </BinaryTree>
    <BinaryTree type="DecisionTree" boostWeight="1.0000000000000000e+00" itree="376">
      <Node pos="s" depth="0" NCoef="0" IVar="2" Cut="5.4564570312500000e+03" cType="1" res="-3.7556580991804367e-06" rms="1.6247956454753876e-01" purity="5.0000000000000000e-01" nType="0">
        <Node pos="l" depth="1" NCoef="0" IVar="10" Cut="4.7385412597656250e+02" cType="1" res="-8.2059297710657120e-03" rms="8.8908664882183075e-02" purity="2.4002927541732788e-01" nType="0">
          <Node pos="l" depth="2" NCoef="0" IVar="-1" Cut="0.0000000000000000e+00" cType="1" res="-2.3109197616577148e-02" rms="8.6814239621162415e-02" purity="1.6133792698383331e-01" nType="-99"/>
          <Node pos="r" depth="2" NCoef="0" IVar="-1" Cut="0.0000000000000000e+00" cType="1" res="2.8713772073388100e-02" rms="8.5989750921726227e-02" purity="4.6857142448425293e-01" nType="-99"/>
        </Node>
        <Node pos="r" depth="1" NCoef="0" IVar="2" Cut="5.4897851562500000e+03" cType="1" res="3.0112466774880886e-03" rms="1.8211050331592560e-01" purity="5.9556156396865845e-01" nType="0">
          <Node pos="l" depth="2" NCoef="0" IVar="-1" Cut="0.0000000000000000e+00" cType="1" res="2.6971744373440742e-02" rms="1.4820617437362671e-01" purity="8.4102565050125122e-01" nType="-99"/>
          <Node pos="r" depth="2" NCoef="0" IVar="-1" Cut="0.0000000000000000e+00" cType="1" res="-3.9719941560178995e-04" rms="1.8423648178577423e-01" purity="5.7459855079650879e-01" nType="-99"/>
        </Node>
      </Node>
    </BinaryTree>
    <BinaryTree type="DecisionTree" boostWeight="1.0000000000000000e+00" itree="377">
      <Node pos="s" depth="0" NCoef="0" IVar="4" Cut="8.9473457336425781e+00" cType="1" res="-2.0856389255641261e-06" rms="1.6216763854026794e-01" purity="5.0000000000000000e-01" nType="0">
        <Node pos="l" depth="1" NCoef="0" IVar="5" Cut="9.2794299125671387e-01" cType="1" res="1.2052546953782439e-03" rms="1.6517829895019531e-01" purity="5.2158498764038086e-01" nType="0">
          <Node pos="l" depth="2" NCoef="0" IVar="-1" Cut="0.0000000000000000e+00" cType="1" res="-2.2199775557965040e-03" rms="1.5796655416488647e-01" purity="5.0570046901702881e-01" nType="-99"/>
          <Node pos="r" depth="2" NCoef="0" IVar="-1" Cut="0.0000000000000000e+00" cType="1" res="1.6596024855971336e-02" rms="2.0073543488979340e-01" purity="6.1654138565063477e-01" nType="-99"/>
        </Node>
        <Node pos="r" depth="1" NCoef="0" IVar="-1" Cut="0.0000000000000000e+00" cType="1" res="-2.1282812580466270e-02" rms="9.7577236592769623e-02" purity="1.4186850190162659e-01" nType="-99"/>
      </Node>
    </BinaryTree>
    <BinaryTree type="DecisionTree" boostWeight="1.0000000000000000e+00" itree="378">
      <Node pos="s" depth="0" NCoef="0" IVar="2" Cut="5.3147377929687500e+03" cType="1" res="-1.4663448837382020e-06" rms="1.6196347773075104e-01" purity="5.0000000000000000e-01" nType="0">
        <Node pos="l" depth="1" NCoef="0" IVar="9" Cut="4.2664521484375000e+03" cType="1" res="-1.1130562052130699e-02" rms="5.5058214813470840e-02" purity="5.1217984408140182e-02" nType="0">
          <Node pos="l" depth="2" NCoef="0" IVar="-1" Cut="0.0000000000000000e+00" cType="1" res="-3.8987468928098679e-02" rms="4.8482093960046768e-02" purity="2.9507016763091087e-02" nType="-99"/>
          <Node pos="r" depth="2" NCoef="0" IVar="-1" Cut="0.0000000000000000e+00" cType="1" res="-5.3109992295503616e-03" rms="6.1990302056074142e-02" purity="8.1027671694755554e-02" nType="-99"/>
        </Node>
        <Node pos="r" depth="1" NCoef="0" IVar="5" Cut="1.6016287803649902e+00" cType="1" res="2.0783378276973963e-03" rms="1.7475827038288116e-01" purity="5.8386832475662231e-01" nType="0">
          <Node pos="l" depth="2" NCoef="0" IVar="-1" Cut="0.0000000000000000e+00" cType="1" res="2.4439974222332239e-03" rms="1.7558313906192780e-01" purity="5.9506529569625854e-01" nType="-99"/>
          <Node pos="r" depth="2" NCoef="0" IVar="-1" Cut="0.0000000000000000e+00" cType="1" res="-1.9909214228391647e-02" rms="1.5776069462299347e-01" purity="4.1361919045448303e-01" nType="-99"/>
        </Node>
      </Node>
    </BinaryTree>
    <BinaryTree type="DecisionTree" boostWeight="1.0000000000000000e+00" itree="379">
      <Node pos="s" depth="0" NCoef="0" IVar="8" Cut="2.1462006835937500e+03" cType="1" res="-4.8362508096033707e-06" rms="1.6183672845363617e-01" purity="5.0000000000000000e-01" nType="0">
        <Node pos="l" depth="1" NCoef="0" IVar="0" Cut="3.4864875488281250e+03" cType="1" res="-3.6505397874861956e-03" rms="1.6854718327522278e-01" purity="4.2910337448120117e-01" nType="0">
          <Node pos="l" depth="2" NCoef="0" IVar="-1" Cut="0.0000000000000000e+00" cType="1" res="4.2248708195984364e-03" rms="1.5081666409969330e-01" purity="3.6273744702339172e-01" nType="-99"/>
          <Node pos="r" depth="2" NCoef="0" IVar="-1" Cut="0.0000000000000000e+00" cType="1" res="-9.3745207414031029e-03" rms="1.8947534263134003e-01" purity="5.2079087495803833e-01" nType="-99"/>
        </Node>
        <Node pos="r" depth="1" NCoef="0" IVar="4" Cut="5.4148464202880859e+00" cType="1" res="6.8112234584987164e-03" rms="1.4823907613754272e-01" purity="6.3254940509796143e-01" nType="0">
          <Node pos="l" depth="2" NCoef="0" IVar="-1" Cut="0.0000000000000000e+00" cType="1" res="2.4733785539865494e-02" rms="1.0115963965654373e-01" purity="6.8166261911392212e-01" nType="-99"/>
          <Node pos="r" depth="2" NCoef="0" IVar="-1" Cut="0.0000000000000000e+00" cType="1" res="-4.1019245982170105e-03" rms="1.6991904377937317e-01" purity="6.0183483362197876e-01" nType="-99"/>
        </Node>
      </Node>
    </BinaryTree>
    <BinaryTree type="DecisionTree" boostWeight="1.0000000000000000e+00" itree="380">
      <Node pos="s" depth="0" NCoef="0" IVar="9" Cut="2.6159143066406250e+03" cType="1" res="-1.2012797014904208e-06" rms="1.6152402758598328e-01" purity="5.0000000000000000e-01" nType="0">
        <Node pos="l" depth="1" NCoef="0" IVar="4" Cut="5.8063836097717285e+00" cType="1" res="1.2296237051486969e-02" rms="1.3433206081390381e-01" purity="5.8519178628921509e-01" nType="0">
          <Node pos="l" depth="2" NCoef="0" IVar="-1" Cut="0.0000000000000000e+00" cType="1" res="3.2026477158069611e-02" rms="8.5407480597496033e-02" purity="7.3832297325134277e-01" nType="-99"/>
          <Node pos="r" depth="2" NCoef="0" IVar="-1" Cut="0.0000000000000000e+00" cType="1" res="-3.2377414754591882e-04" rms="1.5712326765060425e-01" purity="4.8466938734054565e-01" nType="-99"/>
        </Node>
        <Node pos="r" depth="1" NCoef="0" IVar="5" Cut="1.0472027063369751e+00" cType="1" res="-2.1204061340540648e-03" rms="1.6566783189773560e-01" purity="4.8531895875930786e-01" nType="0">
          <Node pos="l" depth="2" NCoef="0" IVar="-1" Cut="0.0000000000000000e+00" cType="1" res="-3.2912229653447866e-03" rms="1.7126461863517761e-01" purity="4.8605045676231384e-01" nType="-99"/>
          <Node pos="r" depth="2" NCoef="0" IVar="-1" Cut="0.0000000000000000e+00" cType="1" res="1.4352988451719284e-02" rms="1.2306912243366241e-01" purity="4.8073703050613403e-01" nType="-99"/>
        </Node>
      </Node>
    </BinaryTree>
    <BinaryTree type="DecisionTree" boostWeight="1.0000000000000000e+00" itree="381">
      <Node pos="s" depth="0" NCoef="0" IVar="0" Cut="7.8586020507812500e+03" cType="1" res="1.4656383200417622e-06" rms="1.6130630671977997e-01" purity="5.0000000000000000e-01" nType="0">
        <Node pos="l" depth="1" NCoef="0" IVar="1" Cut="3.5187273437500000e+04" cType="1" res="-1.5163763891905546e-03" rms="1.6887572407722473e-01" purity="4.5284247398376465e-01" nType="0">
          <Node pos="l" depth="2" NCoef="0" IVar="-1" Cut="0.0000000000000000e+00" cType="1" res="3.2366719096899033e-02" rms="1.0598816722631454e-01" purity="5.0191277265548706e-01" nType="-99"/>
          <Node pos="r" depth="2" NCoef="0" IVar="-1" Cut="0.0000000000000000e+00" cType="1" res="-3.2236350234597921e-03" rms="1.7362777888774872e-01" purity="4.4773027300834656e-01" nType="-99"/>
        </Node>
        <Node pos="r" depth="1" NCoef="0" IVar="-1" Cut="0.0000000000000000e+00" cType="1" res="3.6093663424253464e-02" rms="3.2138209789991379e-02" purity="9.6677386760711670e-01" nType="-99"/>
      </Node>
    </BinaryTree>
    <BinaryTree type="DecisionTree" boostWeight="1.0000000000000000e+00" itree="382">
      <Node pos="s" depth="0" NCoef="0" IVar="12" Cut="4.0340742187500000e+03" cType="1" res="7.5905604717263486e-06" rms="1.6104157269001007e-01" purity="5.0000000000000000e-01" nType="0">
        <Node pos="l" depth="1" NCoef="0" IVar="1" Cut="1.1873253906250000e+05" cType="1" res="-3.4734981600195169e-03" rms="1.5603189170360565e-01" purity="4.0680369734764099e-01" nType="0">
          <Node pos="l" depth="2" NCoef="0" IVar="-1" Cut="0.0000000000000000e+00" cType="1" res="8.6061813635751605e-04" rms="1.5404541790485382e-01" purity="4.1041043400764465e-01" nType="-99"/>
          <Node pos="r" depth="2" NCoef="0" IVar="-1" Cut="0.0000000000000000e+00" cType="1" res="-2.6280242949724197e-02" rms="1.6740314662456512e-01" purity="3.7020313739776611e-01" nType="-99"/>
        </Node>
        <Node pos="r" depth="1" NCoef="0" IVar="4" Cut="7.3761405944824219e+00" cType="1" res="6.4043742604553699e-03" rms="1.6967640817165375e-01" purity="6.7125582695007324e-01" nType="0">
          <Node pos="l" depth="2" NCoef="0" IVar="-1" Cut="0.0000000000000000e+00" cType="1" res="1.0825562290847301e-02" rms="1.5940645337104797e-01" purity="6.8208748102188110e-01" nType="-99"/>
          <Node pos="r" depth="2" NCoef="0" IVar="-1" Cut="0.0000000000000000e+00" cType="1" res="-2.4776767939329147e-02" rms="2.0298711955547333e-01" purity="6.2310028076171875e-01" nType="-99"/>
        </Node>
      </Node>
    </BinaryTree>
    <BinaryTree type="DecisionTree" boostWeight="1.0000000000000000e+00" itree="383">
      <Node pos="s" depth="0" NCoef="0" IVar="11" Cut="8.3268609375000000e+04" cType="1" res="7.3772857831500005e-06" rms="1.6058525443077087e-01" purity="5.0000000000000000e-01" nType="0">
        <Node pos="l" depth="1" NCoef="0" IVar="1" Cut="7.7016500000000000e+04" cType="1" res="-1.9074953161180019e-03" rms="1.6525644063949585e-01" purity="4.8498773574829102e-01" nType="0">
          <Node pos="l" depth="2" NCoef="0" IVar="-1" Cut="0.0000000000000000e+00" cType="1" res="4.2897127568721771e-03" rms="1.5423834323883057e-01" purity="4.6404650807380676e-01" nType="-99"/>
          <Node pos="r" depth="2" NCoef="0" IVar="-1" Cut="0.0000000000000000e+00" cType="1" res="-1.2511311098933220e-02" rms="1.8967099487781525e-01" purity="5.4036241769790649e-01" nType="-99"/>
        </Node>
        <Node pos="r" depth="1" NCoef="0" IVar="6" Cut="1.6150740051269531e+02" cType="1" res="1.2846552766859531e-02" rms="1.2406747043132782e-01" purity="6.0065674781799316e-01" nType="0">
          <Node pos="l" depth="2" NCoef="0" IVar="-1" Cut="0.0000000000000000e+00" cType="1" res="3.2934617251157761e-02" rms="1.2913399934768677e-01" purity="6.7291909456253052e-01" nType="-99"/>
          <Node pos="r" depth="2" NCoef="0" IVar="-1" Cut="0.0000000000000000e+00" cType="1" res="-1.2889218516647816e-02" rms="1.1162014305591583e-01" purity="5.4593878984451294e-01" nType="-99"/>
        </Node>
      </Node>
    </BinaryTree>
    <BinaryTree type="DecisionTree" boostWeight="1.0000000000000000e+00" itree="384">
      <Node pos="s" depth="0" NCoef="0" IVar="2" Cut="5.7871357421875000e+03" cType="1" res="9.6762396424310282e-06" rms="1.6003964841365814e-01" purity="5.0000000000000000e-01" nType="0">
        <Node pos="l" depth="1" NCoef="0" IVar="6" Cut="3.7283832550048828e+01" cType="1" res="2.2806699853390455e-03" rms="1.6502325236797333e-01" purity="5.6803071498870850e-01" nType="0">
          <Node pos="l" depth="2" NCoef="0" IVar="-1" Cut="0.0000000000000000e+00" cType="1" res="-1.0537552647292614e-02" rms="1.7278954386711121e-01" purity="3.2277110219001770e-01" nType="-99"/>
          <Node pos="r" depth="2" NCoef="0" IVar="-1" Cut="0.0000000000000000e+00" cType="1" res="4.9211289733648300e-03" rms="1.6254578530788422e-01" purity="6.3067412376403809e-01" nType="-99"/>
        </Node>
        <Node pos="r" depth="1" NCoef="0" IVar="7" Cut="2.2302466796875000e+04" cType="1" res="-1.0246344842016697e-02" rms="1.3478949666023254e-01" purity="1.9276672601699829e-01" nType="0">
          <Node pos="l" depth="2" NCoef="0" IVar="-1" Cut="0.0000000000000000e+00" cType="1" res="-2.6487654075026512e-02" rms="1.1581000685691833e-01" purity="1.9385343790054321e-01" nType="-99"/>
          <Node pos="r" depth="2" NCoef="0" IVar="-1" Cut="0.0000000000000000e+00" cType="1" res="5.8129099197685719e-03" rms="1.4647731184959412e-01" purity="1.9184491038322449e-01" nType="-99"/>
        </Node>
      </Node>
    </BinaryTree>
    <BinaryTree type="DecisionTree" boostWeight="1.0000000000000000e+00" itree="385">
      <Node pos="s" depth="0" NCoef="0" IVar="3" Cut="1.4928527832031250e+03" cType="1" res="6.0142201618873514e-06" rms="1.5994574129581451e-01" purity="5.0000000000000000e-01" nType="0">
        <Node pos="l" depth="1" NCoef="0" IVar="9" Cut="4.7694833984375000e+03" cType="1" res="-1.1365916579961777e-02" rms="1.8092595040798187e-01" purity="2.8727829456329346e-01" nType="0">
          <Node pos="l" depth="2" NCoef="0" IVar="-1" Cut="0.0000000000000000e+00" cType="1" res="1.6046047210693359e-02" rms="1.6860778629779816e-01" purity="3.7740585207939148e-01" nType="-99"/>
          <Node pos="r" depth="2" NCoef="0" IVar="-1" Cut="0.0000000000000000e+00" cType="1" res="-3.1961236149072647e-02" rms="1.8448071181774139e-01" purity="1.8833255767822266e-01" nType="-99"/>
        </Node>
        <Node pos="r" depth="1" NCoef="0" IVar="6" Cut="4.0976727294921875e+02" cType="1" res="2.0083894487470388e-03" rms="1.5587368607521057e-01" purity="5.3745615482330322e-01" nType="0">
          <Node pos="l" depth="2" NCoef="0" IVar="-1" Cut="0.0000000000000000e+00" cType="1" res="3.1462565530091524e-03" rms="1.5412186086177826e-01" purity="5.6000328063964844e-01" nType="-99"/>
          <Node pos="r" depth="2" NCoef="0" IVar="-1" Cut="0.0000000000000000e+00" cType="1" res="-2.6471560820937157e-02" rms="1.7482224106788635e-01" purity="2.0122699439525604e-01" nType="-99"/>
        </Node>
      </Node>
    </BinaryTree>
    <BinaryTree type="DecisionTree" boostWeight="1.0000000000000000e+00" itree="386">
      <Node pos="s" depth="0" NCoef="0" IVar="1" Cut="4.5094367187500000e+04" cType="1" res="2.9564164378825808e-06" rms="1.5946954488754272e-01" purity="5.0000000000000000e-01" nType="0">
        <Node pos="l" depth="1" NCoef="0" IVar="1" Cut="3.7435679687500000e+04" cType="1" res="-9.6699027344584465e-03" rms="1.5787526965141296e-01" purity="4.1836735606193542e-01" nType="0">
          <Node pos="l" depth="2" NCoef="0" IVar="-1" Cut="0.0000000000000000e+00" cType="1" res="2.8097448870539665e-02" rms="1.0782191157341003e-01" purity="4.6857145428657532e-01" nType="-99"/>
          <Node pos="r" depth="2" NCoef="0" IVar="-1" Cut="0.0000000000000000e+00" cType="1" res="-3.8226965814828873e-02" rms="1.9071473181247711e-01" purity="3.5768809914588928e-01" nType="-99"/>
        </Node>
        <Node pos="r" depth="1" NCoef="0" IVar="1" Cut="6.4151363281250000e+04" cType="1" res="2.4088961072266102e-03" rms="1.5977269411087036e-01" purity="5.2030456066131592e-01" nType="0">
          <Node pos="l" depth="2" NCoef="0" IVar="-1" Cut="0.0000000000000000e+00" cType="1" res="1.1145399883389473e-02" rms="1.3697533309459686e-01" purity="4.7360515594482422e-01" nType="-99"/>
          <Node pos="r" depth="2" NCoef="0" IVar="-1" Cut="0.0000000000000000e+00" cType="1" res="-3.2665620092302561e-03" rms="1.7049676179885864e-01" purity="5.4593873023986816e-01" nType="-99"/>
        </Node>
      </Node>
    </BinaryTree>
    <BinaryTree type="DecisionTree" boostWeight="1.0000000000000000e+00" itree="387">
      <Node pos="s" depth="0" NCoef="0" IVar="2" Cut="5.3147377929687500e+03" cType="1" res="2.5584276954759844e-06" rms="1.5851008892059326e-01" purity="5.0000000000000000e-01" nType="0">
        <Node pos="l" depth="1" NCoef="0" IVar="9" Cut="4.2664521484375000e+03" cType="1" res="-1.0986028239130974e-02" rms="5.5501032620668411e-02" purity="5.1217984408140182e-02" nType="0">
          <Node pos="l" depth="2" NCoef="0" IVar="-1" Cut="0.0000000000000000e+00" cType="1" res="-3.9681535214185715e-02" rms="4.8939101397991180e-02" purity="2.9507016763091087e-02" nType="-99"/>
          <Node pos="r" depth="2" NCoef="0" IVar="-1" Cut="0.0000000000000000e+00" cType="1" res="-3.5451203584671021e-03" rms="6.2248595058917999e-02" purity="8.1027671694755554e-02" nType="-99"/>
        </Node>
        <Node pos="r" depth="1" NCoef="0" IVar="5" Cut="5.6776779890060425e-01" cType="1" res="2.0561043638736010e-03" rms="1.7093403637409210e-01" purity="5.8386832475662231e-01" nType="0">
          <Node pos="l" depth="2" NCoef="0" IVar="-1" Cut="0.0000000000000000e+00" cType="1" res="-2.6682931929826736e-03" rms="1.7089167237281799e-01" purity="5.6521213054656982e-01" nType="-99"/>
          <Node pos="r" depth="2" NCoef="0" IVar="-1" Cut="0.0000000000000000e+00" cType="1" res="8.5632931441068649e-03" rms="1.7030759155750275e-01" purity="6.1838746070861816e-01" nType="-99"/>
        </Node>
      </Node>
    </BinaryTree>
    <BinaryTree type="DecisionTree" boostWeight="1.0000000000000000e+00" itree="388">
      <Node pos="s" depth="0" NCoef="0" IVar="2" Cut="5.8343754882812500e+03" cType="1" res="-8.1148345998371951e-07" rms="1.5835374593734741e-01" purity="5.0000000000000000e-01" nType="0">
        <Node pos="l" depth="1" NCoef="0" IVar="6" Cut="6.8348541259765625e+01" cType="1" res="1.9652366172522306e-03" rms="1.6212028264999390e-01" purity="5.6466394662857056e-01" nType="0">
          <Node pos="l" depth="2" NCoef="0" IVar="-1" Cut="0.0000000000000000e+00" cType="1" res="-7.2025759145617485e-03" rms="1.8083390593528748e-01" purity="4.4982251524925232e-01" nType="-99"/>
          <Node pos="r" depth="2" NCoef="0" IVar="-1" Cut="0.0000000000000000e+00" cType="1" res="7.6429704204201698e-03" rms="1.4987519383430481e-01" purity="6.2916868925094604e-01" nType="-99"/>
        </Node>
        <Node pos="r" depth="1" NCoef="0" IVar="6" Cut="1.5955770874023438e+02" cType="1" res="-1.0918185114860535e-02" rms="1.3502746820449829e-01" purity="1.4092373847961426e-01" nType="0">
          <Node pos="l" depth="2" NCoef="0" IVar="-1" Cut="0.0000000000000000e+00" cType="1" res="5.4211458191275597e-03" rms="1.3409918546676636e-01" purity="1.5518546104431152e-01" nType="-99"/>
          <Node pos="r" depth="2" NCoef="0" IVar="-1" Cut="0.0000000000000000e+00" cType="1" res="-2.5129057466983795e-02" rms="1.3282868266105652e-01" purity="1.2220565974712372e-01" nType="-99"/>
        </Node>
      </Node>
    </BinaryTree>
    <BinaryTree type="DecisionTree" boostWeight="1.0000000000000000e+00" itree="389">
      <Node pos="s" depth="0" NCoef="0" IVar="7" Cut="1.9179617187500000e+04" cType="1" res="-1.8899062297350611e-06" rms="1.5822732448577881e-01" purity="5.0000000000000000e-01" nType="0">
        <Node pos="l" depth="1" NCoef="0" IVar="10" Cut="3.4120617675781250e+02" cType="1" res="-5.9037762694060802e-03" rms="1.5952685475349426e-01" purity="4.8705983161926270e-01" nType="0">
          <Node pos="l" depth="2" NCoef="0" IVar="-1" Cut="0.0000000000000000e+00" cType="1" res="-2.9843997210264206e-02" rms="1.6167682409286499e-01" purity="3.3503574132919312e-01" nType="-99"/>
          <Node pos="r" depth="2" NCoef="0" IVar="-1" Cut="0.0000000000000000e+00" cType="1" res="1.0016644373536110e-02" rms="1.5402419865131378e-01" purity="5.6271439790725708e-01" nType="-99"/>
        </Node>
        <Node pos="r" depth="1" NCoef="0" IVar="12" Cut="4.7108286132812500e+03" cType="1" res="3.7137856706976891e-03" rms="1.5729013085365295e-01" purity="5.0814682245254517e-01" nType="0">
          <Node pos="l" depth="2" NCoef="0" IVar="-1" Cut="0.0000000000000000e+00" cType="1" res="-3.0967185739427805e-03" rms="1.6535320878028870e-01" purity="4.2300453782081604e-01" nType="-99"/>
          <Node pos="r" depth="2" NCoef="0" IVar="-1" Cut="0.0000000000000000e+00" cType="1" res="2.6087386533617973e-02" rms="1.2314124405384064e-01" purity="7.8737998008728027e-01" nType="-99"/>
        </Node>
      </Node>
    </BinaryTree>
    <BinaryTree type="DecisionTree" boostWeight="1.0000000000000000e+00" itree="390">
      <Node pos="s" depth="0" NCoef="0" IVar="9" Cut="2.6159143066406250e+03" cType="1" res="1.0738528999354457e-07" rms="1.5743860602378845e-01" purity="5.0000000000000000e-01" nType="0">
        <Node pos="l" depth="1" NCoef="0" IVar="12" Cut="4.5130634765625000e+03" cType="1" res="1.2000395916402340e-02" rms="1.3037487864494324e-01" purity="5.8519178628921509e-01" nType="0">
          <Node pos="l" depth="2" NCoef="0" IVar="-1" Cut="0.0000000000000000e+00" cType="1" res="1.9154151901602745e-02" rms="1.2251234799623489e-01" purity="6.2732243537902832e-01" nType="-99"/>
          <Node pos="r" depth="2" NCoef="0" IVar="-1" Cut="0.0000000000000000e+00" cType="1" res="-6.4587476663291454e-03" rms="1.3941457867622375e-01" purity="5.1868891716003418e-01" nType="-99"/>
        </Node>
        <Node pos="r" depth="1" NCoef="0" IVar="7" Cut="1.3213380859375000e+04" cType="1" res="-2.0678902510553598e-03" rms="1.6155539453029633e-01" purity="4.8531895875930786e-01" nType="0">
          <Node pos="l" depth="2" NCoef="0" IVar="-1" Cut="0.0000000000000000e+00" cType="1" res="-1.8607346341013908e-02" rms="1.3608707487583160e-01" purity="3.8362574577331543e-01" nType="-99"/>
          <Node pos="r" depth="2" NCoef="0" IVar="-1" Cut="0.0000000000000000e+00" cType="1" res="4.6605872921645641e-04" rms="1.6385845839977264e-01" purity="4.9643999338150024e-01" nType="-99"/>
        </Node>
      </Node>
    </BinaryTree>
    <BinaryTree type="DecisionTree" boostWeight="1.0000000000000000e+00" itree="391">
      <Node pos="s" depth="0" NCoef="0" IVar="4" Cut="1.7191365957260132e+00" cType="1" res="5.9544538544287207e-07" rms="1.5720100700855255e-01" purity="5.0000000000000000e-01" nType="0">
        <Node pos="l" depth="1" NCoef="0" IVar="9" Cut="4.2508598632812500e+03" cType="1" res="-1.2913968414068222e-02" rms="1.0727523267269135e-01" purity="1.9036564230918884e-01" nType="0">
          <Node pos="l" depth="2" NCoef="0" IVar="-1" Cut="0.0000000000000000e+00" cType="1" res="2.4232845753431320e-03" rms="9.1877199709415436e-02" purity="2.5324273109436035e-01" nType="-99"/>
          <Node pos="r" depth="2" NCoef="0" IVar="-1" Cut="0.0000000000000000e+00" cType="1" res="-2.0308321341872215e-02" rms="1.1759613454341888e-01" purity="1.3464696705341339e-01" nType="-99"/>
        </Node>
        <Node pos="r" depth="1" NCoef="0" IVar="4" Cut="5.1828784942626953e+00" cType="1" res="1.6453432617709041e-03" rms="1.6238793730735779e-01" purity="5.3943377733230591e-01" nType="0">
          <Node pos="l" depth="2" NCoef="0" IVar="-1" Cut="0.0000000000000000e+00" cType="1" res="9.8257372155785561e-03" rms="1.3628365099430084e-01" purity="6.1728394031524658e-01" nType="-99"/>
          <Node pos="r" depth="2" NCoef="0" IVar="-1" Cut="0.0000000000000000e+00" cType="1" res="-3.2552098855376244e-03" rms="1.7543543875217438e-01" purity="4.9406257271766663e-01" nType="-99"/>
        </Node>
      </Node>
    </BinaryTree>
    <BinaryTree type="DecisionTree" boostWeight="1.0000000000000000e+00" itree="392">
      <Node pos="s" depth="0" NCoef="0" IVar="9" Cut="2.6159143066406250e+03" cType="1" res="2.5199852871082840e-07" rms="1.5715555846691132e-01" purity="5.0000000000000000e-01" nType="0">
        <Node pos="l" depth="1" NCoef="0" IVar="12" Cut="4.5130634765625000e+03" cType="1" res="1.0969247668981552e-02" rms="1.2934510409832001e-01" purity="5.8519178628921509e-01" nType="0">
          <Node pos="l" depth="2" NCoef="0" IVar="-1" Cut="0.0000000000000000e+00" cType="1" res="1.7559573054313660e-02" rms="1.2174579501152039e-01" purity="6.2732243537902832e-01" nType="-99"/>
          <Node pos="r" depth="2" NCoef="0" IVar="-1" Cut="0.0000000000000000e+00" cType="1" res="-5.8310721069574356e-03" rms="1.3843464851379395e-01" purity="5.1868891716003418e-01" nType="-99"/>
        </Node>
        <Node pos="r" depth="1" NCoef="0" IVar="4" Cut="3.6862556934356689e+00" cType="1" res="-1.8900238210335374e-03" rms="1.6138967871665955e-01" purity="4.8531895875930786e-01" nType="0">
          <Node pos="l" depth="2" NCoef="0" IVar="-1" Cut="0.0000000000000000e+00" cType="1" res="-1.2282914482057095e-02" rms="1.2329532206058502e-01" purity="3.3054998517036438e-01" nType="-99"/>
          <Node pos="r" depth="2" NCoef="0" IVar="-1" Cut="0.0000000000000000e+00" cType="1" res="1.7404351383447647e-03" rms="1.7294263839721680e-01" purity="5.4167973995208740e-01" nType="-99"/>
        </Node>
      </Node>
    </BinaryTree>
    <BinaryTree type="DecisionTree" boostWeight="1.0000000000000000e+00" itree="393">
      <Node pos="s" depth="0" NCoef="0" IVar="2" Cut="5.3147377929687500e+03" cType="1" res="3.1659072874390404e-07" rms="1.5699940919876099e-01" purity="5.0000000000000000e-01" nType="0">
        <Node pos="l" depth="1" NCoef="0" IVar="1" Cut="6.3235265625000000e+04" cType="1" res="-1.0685532353818417e-02" rms="5.5108014494180679e-02" purity="5.1217984408140182e-02" nType="0">
          <Node pos="l" depth="2" NCoef="0" IVar="-1" Cut="0.0000000000000000e+00" cType="1" res="-5.6018967181444168e-02" rms="3.9625920355319977e-02" purity="0.0000000000000000e+00" nType="-99"/>
          <Node pos="r" depth="2" NCoef="0" IVar="-1" Cut="0.0000000000000000e+00" cType="1" res="-4.1806227527558804e-03" rms="6.8230822682380676e-02" purity="1.1186902970075607e-01" nType="-99"/>
        </Node>
        <Node pos="r" depth="1" NCoef="0" IVar="5" Cut="1.6016287803649902e+00" cType="1" res="1.9972869195044041e-03" rms="1.6929951310157776e-01" purity="5.8386832475662231e-01" nType="0">
          <Node pos="l" depth="2" NCoef="0" IVar="-1" Cut="0.0000000000000000e+00" cType="1" res="2.3608964402228594e-03" rms="1.7038524150848389e-01" purity="5.9506529569625854e-01" nType="-99"/>
          <Node pos="r" depth="2" NCoef="0" IVar="-1" Cut="0.0000000000000000e+00" cType="1" res="-1.8644006922841072e-02" rms="1.4827011525630951e-01" purity="4.1361919045448303e-01" nType="-99"/>
        </Node>
      </Node>
    </BinaryTree>
    <BinaryTree type="DecisionTree" boostWeight="1.0000000000000000e+00" itree="394">
      <Node pos="s" depth="0" NCoef="0" IVar="2" Cut="5.6926562500000000e+03" cType="1" res="-6.3083220993576106e-06" rms="1.5685191750526428e-01" purity="5.0000000000000000e-01" nType="0">
        <Node pos="l" depth="1" NCoef="0" IVar="9" Cut="7.3597397460937500e+03" cType="1" res="2.8839590959250927e-03" rms="1.5792314708232880e-01" purity="5.5998927354812622e-01" nType="0">
          <Node pos="l" depth="2" NCoef="0" IVar="-1" Cut="0.0000000000000000e+00" cType="1" res="-1.8518911674618721e-03" rms="1.5946710109710693e-01" purity="5.4036241769790649e-01" nType="-99"/>
          <Node pos="r" depth="2" NCoef="0" IVar="-1" Cut="0.0000000000000000e+00" cType="1" res="2.3282941430807114e-02" rms="1.4588706195354462e-01" purity="6.6294950246810913e-01" nType="-99"/>
        </Node>
        <Node pos="r" depth="1" NCoef="0" IVar="4" Cut="5.2251124382019043e+00" cType="1" res="-8.0005740746855736e-03" rms="1.5356712043285370e-01" purity="3.3407407999038696e-01" nType="0">
          <Node pos="l" depth="2" NCoef="0" IVar="-1" Cut="0.0000000000000000e+00" cType="1" res="1.4944028109312057e-02" rms="1.3270388543605804e-01" purity="3.8831886649131775e-01" nType="-99"/>
          <Node pos="r" depth="2" NCoef="0" IVar="-1" Cut="0.0000000000000000e+00" cType="1" res="-2.0744878798723221e-02" rms="1.6589012742042542e-01" purity="2.8611305356025696e-01" nType="-99"/>
        </Node>
      </Node>
    </BinaryTree>
    <BinaryTree type="DecisionTree" boostWeight="1.0000000000000000e+00" itree="395">
      <Node pos="s" depth="0" NCoef="0" IVar="3" Cut="3.3495236816406250e+03" cType="1" res="-5.6072140068863519e-06" rms="1.5640266239643097e-01" purity="5.0000000000000000e-01" nType="0">
        <Node pos="l" depth="1" NCoef="0" IVar="10" Cut="6.5294470214843750e+02" cType="1" res="-2.0858072675764561e-03" rms="1.6136807203292847e-01" purity="4.6687203645706177e-01" nType="0">
          <Node pos="l" depth="2" NCoef="0" IVar="-1" Cut="0.0000000000000000e+00" cType="1" res="1.0066260583698750e-03" rms="1.6027851402759552e-01" purity="4.7400817275047302e-01" nType="-99"/>
          <Node pos="r" depth="2" NCoef="0" IVar="-1" Cut="0.0000000000000000e+00" cType="1" res="-4.9567840993404388e-02" rms="1.6738142073154449e-01" purity="3.5942393541336060e-01" nType="-99"/>
        </Node>
        <Node pos="r" depth="1" NCoef="0" IVar="5" Cut="5.9068810939788818e-01" cType="1" res="1.0967971757054329e-02" rms="1.2647110223770142e-01" purity="6.7475825548171997e-01" nType="0">
          <Node pos="l" depth="2" NCoef="0" IVar="-1" Cut="0.0000000000000000e+00" cType="1" res="-1.8391973571851850e-03" rms="1.1099103093147278e-01" purity="6.2902730703353882e-01" nType="-99"/>
          <Node pos="r" depth="2" NCoef="0" IVar="-1" Cut="0.0000000000000000e+00" cType="1" res="3.1608801335096359e-02" rms="1.4963485300540924e-01" purity="7.6779025793075562e-01" nType="-99"/>
        </Node>
      </Node>
    </BinaryTree>
    <BinaryTree type="DecisionTree" boostWeight="1.0000000000000000e+00" itree="396">
      <Node pos="s" depth="0" NCoef="0" IVar="2" Cut="5.8343754882812500e+03" cType="1" res="-5.2267432693042792e-06" rms="1.5583407878875732e-01" purity="5.0000000000000000e-01" nType="0">
        <Node pos="l" depth="1" NCoef="0" IVar="6" Cut="6.8348541259765625e+01" cType="1" res="1.9849073141813278e-03" rms="1.5952655673027039e-01" purity="5.6466394662857056e-01" nType="0">
          <Node pos="l" depth="2" NCoef="0" IVar="-1" Cut="0.0000000000000000e+00" cType="1" res="-6.9257672876119614e-03" rms="1.7841655015945435e-01" purity="4.4982251524925232e-01" nType="-99"/>
          <Node pos="r" depth="2" NCoef="0" IVar="-1" Cut="0.0000000000000000e+00" cType="1" res="7.5265238992869854e-03" rms="1.4718934893608093e-01" purity="6.2916868925094604e-01" nType="-99"/>
        </Node>
        <Node pos="r" depth="1" NCoef="0" IVar="5" Cut="2.7261134982109070e-01" cType="1" res="-1.1056348681449890e-02" rms="1.3294340670108795e-01" purity="1.4092373847961426e-01" nType="0">
          <Node pos="l" depth="2" NCoef="0" IVar="-1" Cut="0.0000000000000000e+00" cType="1" res="-3.4694246947765350e-02" rms="1.0512030869722366e-01" purity="4.2224511504173279e-02" nType="-99"/>
          <Node pos="r" depth="2" NCoef="0" IVar="-1" Cut="0.0000000000000000e+00" cType="1" res="4.1071502491831779e-03" rms="1.4743626117706299e-01" purity="2.1157389879226685e-01" nType="-99"/>
        </Node>
      </Node>
    </BinaryTree>
    <BinaryTree type="DecisionTree" boostWeight="1.0000000000000000e+00" itree="397">
      <Node pos="s" depth="0" NCoef="0" IVar="8" Cut="2.1462006835937500e+03" cType="1" res="-7.8363837019423954e-06" rms="1.5571556985378265e-01" purity="5.0000000000000000e-01" nType="0">
        <Node pos="l" depth="1" NCoef="0" IVar="12" Cut="3.0015578613281250e+03" cType="1" res="-3.6220282781869173e-03" rms="1.6168218851089478e-01" purity="4.2910337448120117e-01" nType="0">
          <Node pos="l" depth="2" NCoef="0" IVar="-1" Cut="0.0000000000000000e+00" cType="1" res="-1.7881464213132858e-02" rms="1.4749369025230408e-01" purity="1.9916096329689026e-01" nType="-99"/>
          <Node pos="r" depth="2" NCoef="0" IVar="-1" Cut="0.0000000000000000e+00" cType="1" res="1.4084334252402186e-03" rms="1.6516157984733582e-01" purity="4.9696967005729675e-01" nType="-99"/>
        </Node>
        <Node pos="r" depth="1" NCoef="0" IVar="4" Cut="7.3090806007385254e+00" cType="1" res="6.7493082024157047e-03" rms="1.4365443587303162e-01" purity="6.3254940509796143e-01" nType="0">
          <Node pos="l" depth="2" NCoef="0" IVar="-1" Cut="0.0000000000000000e+00" cType="1" res="-1.8059741705656052e-03" rms="1.4646255970001221e-01" purity="5.9780055284500122e-01" nType="-99"/>
          <Node pos="r" depth="2" NCoef="0" IVar="-1" Cut="0.0000000000000000e+00" cType="1" res="2.8251614421606064e-02" rms="1.3003352284431458e-01" purity="7.4339771270751953e-01" nType="-99"/>
        </Node>
      </Node>
    </BinaryTree>
    <BinaryTree type="DecisionTree" boostWeight="1.0000000000000000e+00" itree="398">
      <Node pos="s" depth="0" NCoef="0" IVar="12" Cut="2.6805649414062500e+03" cType="1" res="-6.4697433117544279e-06" rms="1.5539433062076569e-01" purity="5.0000000000000000e-01" nType="0">
        <Node pos="l" depth="1" NCoef="0" IVar="7" Cut="2.1038777343750000e+04" cType="1" res="-8.0295819789171219e-03" rms="1.2479347735643387e-01" purity="2.7538958191871643e-01" nType="0">
          <Node pos="l" depth="2" NCoef="0" IVar="-1" Cut="0.0000000000000000e+00" cType="1" res="-2.5303941220045090e-02" rms="1.0978233814239502e-01" purity="1.7465388774871826e-01" nType="-99"/>
          <Node pos="r" depth="2" NCoef="0" IVar="-1" Cut="0.0000000000000000e+00" cType="1" res="4.8708436079323292e-03" rms="1.3096553087234497e-01" purity="3.3671927452087402e-01" nType="-99"/>
        </Node>
        <Node pos="r" depth="1" NCoef="0" IVar="4" Cut="7.1402935981750488e+00" cType="1" res="2.5834715925157070e-03" rms="1.6397462785243988e-01" purity="5.7250648736953735e-01" nType="0">
          <Node pos="l" depth="2" NCoef="0" IVar="-1" Cut="0.0000000000000000e+00" cType="1" res="5.0920248031616211e-03" rms="1.6348254680633545e-01" purity="6.0855114459991455e-01" nType="-99"/>
          <Node pos="r" depth="2" NCoef="0" IVar="-1" Cut="0.0000000000000000e+00" cType="1" res="-1.2242337688803673e-02" rms="1.6416588425636292e-01" purity="4.4244602322578430e-01" nType="-99"/>
        </Node>
      </Node>
    </BinaryTree>
    <BinaryTree type="DecisionTree" boostWeight="1.0000000000000000e+00" itree="399">
      <Node pos="s" depth="0" NCoef="0" IVar="8" Cut="2.1462006835937500e+03" cType="1" res="-7.7393679021042772e-06" rms="1.5519496798515320e-01" purity="5.0000000000000000e-01" nType="0">
        <Node pos="l" depth="1" NCoef="0" IVar="0" Cut="3.4864875488281250e+03" cType="1" res="-3.5352758131921291e-03" rms="1.6142575442790985e-01" purity="4.2910337448120117e-01" nType="0">
          <Node pos="l" depth="2" NCoef="0" IVar="-1" Cut="0.0000000000000000e+00" cType="1" res="4.1968929581344128e-03" rms="1.4475473761558533e-01" purity="3.6273744702339172e-01" nType="-99"/>
          <Node pos="r" depth="2" NCoef="0" IVar="-1" Cut="0.0000000000000000e+00" cType="1" res="-9.3812355771660805e-03" rms="1.8111850321292877e-01" purity="5.2079087495803833e-01" nType="-99"/>
        </Node>
        <Node pos="r" depth="1" NCoef="0" IVar="4" Cut="7.3090806007385254e+00" cType="1" res="6.5873935818672180e-03" rms="1.4258456230163574e-01" purity="6.3254940509796143e-01" nType="0">
          <Node pos="l" depth="2" NCoef="0" IVar="-1" Cut="0.0000000000000000e+00" cType="1" res="-1.4115044614300132e-03" rms="1.4593005180358887e-01" purity="5.9780055284500122e-01" nType="-99"/>
          <Node pos="r" depth="2" NCoef="0" IVar="-1" Cut="0.0000000000000000e+00" cType="1" res="2.6603927835822105e-02" rms="1.2762789428234100e-01" purity="7.4339771270751953e-01" nType="-99"/>
        </Node>
      </Node>
    </BinaryTree>
    <BinaryTree type="DecisionTree" boostWeight="1.0000000000000000e+00" itree="400">
      <Node pos="s" depth="0" NCoef="0" IVar="2" Cut="5.5981762695312500e+03" cType="1" res="-5.3645671869162470e-06" rms="1.5484851598739624e-01" purity="5.0000000000000000e-01" nType="0">
        <Node pos="l" depth="1" NCoef="0" IVar="2" Cut="5.5744311523437500e+03" cType="1" res="4.1150222532451153e-03" rms="1.5190778672695160e-01" purity="5.0821632146835327e-01" nType="0">
          <Node pos="l" depth="2" NCoef="0" IVar="-1" Cut="0.0000000000000000e+00" cType="1" res="-1.2559264432638884e-03" rms="1.5043507516384125e-01" purity="4.6857142448425293e-01" nType="-99"/>
          <Node pos="r" depth="2" NCoef="0" IVar="-1" Cut="0.0000000000000000e+00" cType="1" res="3.3494684845209122e-02" rms="1.5452085435390472e-01" purity="8.8808667659759521e-01" nType="-99"/>
        </Node>
        <Node pos="r" depth="1" NCoef="0" IVar="7" Cut="1.6294243164062500e+04" cType="1" res="-5.6154322810471058e-03" rms="1.5859289467334747e-01" purity="4.8881316184997559e-01" nType="0">
          <Node pos="l" depth="2" NCoef="0" IVar="-1" Cut="0.0000000000000000e+00" cType="1" res="2.5487616658210754e-02" rms="1.3210639357566833e-01" purity="6.1584681272506714e-01" nType="-99"/>
          <Node pos="r" depth="2" NCoef="0" IVar="-1" Cut="0.0000000000000000e+00" cType="1" res="-1.0991040617227554e-02" rms="1.6257552802562714e-01" purity="4.5582211017608643e-01" nType="-99"/>
        </Node>
      </Node>
    </BinaryTree>
    <BinaryTree type="DecisionTree" boostWeight="1.0000000000000000e+00" itree="401">
      <Node pos="s" depth="0" NCoef="0" IVar="0" Cut="4.4441420898437500e+03" cType="1" res="8.4979041048427462e-07" rms="1.5428422391414642e-01" purity="5.0000000000000000e-01" nType="0">
        <Node pos="l" depth="1" NCoef="0" IVar="0" Cut="3.4613144531250000e+03" cType="1" res="-3.4280694089829922e-03" rms="1.5164479613304138e-01" purity="4.0433102846145630e-01" nType="0">
          <Node pos="l" depth="2" NCoef="0" IVar="-1" Cut="0.0000000000000000e+00" cType="1" res="2.9477390926331282e-03" rms="1.4317172765731812e-01" purity="3.9415597915649414e-01" nType="-99"/>
          <Node pos="r" depth="2" NCoef="0" IVar="-1" Cut="0.0000000000000000e+00" cType="1" res="-1.7953250557184219e-02" rms="1.7877504229545593e-01" purity="4.4599846005439758e-01" nType="-99"/>
        </Node>
        <Node pos="r" depth="1" NCoef="0" IVar="4" Cut="7.3761405944824219e+00" cType="1" res="6.2281116843223572e-03" rms="1.5877641737461090e-01" purity="6.7374444007873535e-01" nType="0">
          <Node pos="l" depth="2" NCoef="0" IVar="-1" Cut="0.0000000000000000e+00" cType="1" res="1.2641198001801968e-02" rms="1.5024556219577789e-01" purity="6.9393515586853027e-01" nType="-99"/>
          <Node pos="r" depth="2" NCoef="0" IVar="-1" Cut="0.0000000000000000e+00" cType="1" res="-2.1176945418119431e-02" rms="1.8162496387958527e-01" purity="5.9982788562774658e-01" nType="-99"/>
        </Node>
      </Node>
    </BinaryTree>
    <BinaryTree type="DecisionTree" boostWeight="1.0000000000000000e+00" itree="402">
      <Node pos="s" depth="0" NCoef="0" IVar="0" Cut="2.1678354492187500e+03" cType="1" res="1.9538324522727635e-06" rms="1.5377539396286011e-01" purity="5.0000000000000000e-01" nType="0">
        <Node pos="l" depth="1" NCoef="0" IVar="12" Cut="2.8951069335937500e+03" cType="1" res="-7.6271002180874348e-03" rms="1.6216634213924408e-01" purity="3.1297710537910461e-01" nType="0">
          <Node pos="l" depth="2" NCoef="0" IVar="-1" Cut="0.0000000000000000e+00" cType="1" res="-1.8758874386548996e-02" rms="1.6679039597511292e-01" purity="2.4519434571266174e-01" nType="-99"/>
          <Node pos="r" depth="2" NCoef="0" IVar="-1" Cut="0.0000000000000000e+00" cType="1" res="1.2216969393193722e-02" rms="1.5059605240821838e-01" purity="4.0523257851600647e-01" nType="-99"/>
        </Node>
        <Node pos="r" depth="1" NCoef="0" IVar="3" Cut="2.2355212402343750e+03" cType="1" res="2.7703917585313320e-03" rms="1.5051934123039246e-01" purity="5.6786704063415527e-01" nType="0">
          <Node pos="l" depth="2" NCoef="0" IVar="-1" Cut="0.0000000000000000e+00" cType="1" res="-5.1848292350769043e-03" rms="1.5525990724563599e-01" purity="4.4204851984977722e-01" nType="-99"/>
          <Node pos="r" depth="2" NCoef="0" IVar="-1" Cut="0.0000000000000000e+00" cType="1" res="1.1454371735453606e-02" rms="1.4442643523216248e-01" purity="7.0085465908050537e-01" nType="-99"/>
        </Node>
      </Node>
    </BinaryTree>
    <BinaryTree type="DecisionTree" boostWeight="1.0000000000000000e+00" itree="403">
      <Node pos="s" depth="0" NCoef="0" IVar="12" Cut="4.0340742187500000e+03" cType="1" res="1.8328291844227351e-06" rms="1.5348526835441589e-01" purity="5.0000000000000000e-01" nType="0">
        <Node pos="l" depth="1" NCoef="0" IVar="6" Cut="3.9071942138671875e+02" cType="1" res="-3.4041721373796463e-03" rms="1.4923195540904999e-01" purity="4.0680369734764099e-01" nType="0">
          <Node pos="l" depth="2" NCoef="0" IVar="-1" Cut="0.0000000000000000e+00" cType="1" res="8.4731966489925981e-04" rms="1.5054336190223694e-01" purity="4.3909588456153870e-01" nType="-99"/>
          <Node pos="r" depth="2" NCoef="0" IVar="-1" Cut="0.0000000000000000e+00" cType="1" res="-4.1654366999864578e-02" rms="1.2996323406696320e-01" purity="1.2220565974712372e-01" nType="-99"/>
        </Node>
        <Node pos="r" depth="1" NCoef="0" IVar="4" Cut="7.3761405944824219e+00" cType="1" res="6.2606441788375378e-03" rms="1.6082045435905457e-01" purity="6.7125582695007324e-01" nType="0">
          <Node pos="l" depth="2" NCoef="0" IVar="-1" Cut="0.0000000000000000e+00" cType="1" res="1.0101716965436935e-02" rms="1.5072093904018402e-01" purity="6.8208748102188110e-01" nType="-99"/>
          <Node pos="r" depth="2" NCoef="0" IVar="-1" Cut="0.0000000000000000e+00" cType="1" res="-2.0912392064929008e-02" rms="1.9491310417652130e-01" purity="6.2310028076171875e-01" nType="-99"/>
        </Node>
      </Node>
    </BinaryTree>
    <BinaryTree type="DecisionTree" boostWeight="1.0000000000000000e+00" itree="404">
      <Node pos="s" depth="0" NCoef="0" IVar="11" Cut="8.3268609375000000e+04" cType="1" res="-6.0921183830942027e-07" rms="1.5303324162960052e-01" purity="5.0000000000000000e-01" nType="0">
        <Node pos="l" depth="1" NCoef="0" IVar="1" Cut="7.7016500000000000e+04" cType="1" res="-1.7701636534184217e-03" rms="1.5739533305168152e-01" purity="4.8498773574829102e-01" nType="0">
          <Node pos="l" depth="2" NCoef="0" IVar="-1" Cut="0.0000000000000000e+00" cType="1" res="3.8950543384999037e-03" rms="1.4742846786975861e-01" purity="4.6404650807380676e-01" nType="-99"/>
          <Node pos="r" depth="2" NCoef="0" IVar="-1" Cut="0.0000000000000000e+00" cType="1" res="-1.1527206748723984e-02" rms="1.7973150312900543e-01" purity="5.4036241769790649e-01" nType="-99"/>
        </Node>
        <Node pos="r" depth="1" NCoef="0" IVar="6" Cut="1.6150740051269531e+02" cType="1" res="1.1864210478961468e-02" rms="1.1907169967889786e-01" purity="6.0065674781799316e-01" nType="0">
          <Node pos="l" depth="2" NCoef="0" IVar="-1" Cut="0.0000000000000000e+00" cType="1" res="3.2008536159992218e-02" rms="1.2484706193208694e-01" purity="6.7291909456253052e-01" nType="-99"/>
          <Node pos="r" depth="2" NCoef="0" IVar="-1" Cut="0.0000000000000000e+00" cType="1" res="-1.2491495348513126e-02" rms="1.0679606348276138e-01" purity="5.4593878984451294e-01" nType="-99"/>
        </Node>
      </Node>
    </BinaryTree>
    <BinaryTree type="DecisionTree" boostWeight="1.0000000000000000e+00" itree="405">
      <Node pos="s" depth="0" NCoef="0" IVar="1" Cut="4.5094367187500000e+04" cType="1" res="2.0697825675597414e-06" rms="1.5254241228103638e-01" purity="5.0000000000000000e-01" nType="0">
        <Node pos="l" depth="1" NCoef="0" IVar="1" Cut="3.7435679687500000e+04" cType="1" res="-9.3501210212707520e-03" rms="1.5114060044288635e-01" purity="4.1836735606193542e-01" nType="0">
          <Node pos="l" depth="2" NCoef="0" IVar="-1" Cut="0.0000000000000000e+00" cType="1" res="2.6581963524222374e-02" rms="1.0028147697448730e-01" purity="4.6857145428657532e-01" nType="-99"/>
          <Node pos="r" depth="2" NCoef="0" IVar="-1" Cut="0.0000000000000000e+00" cType="1" res="-3.5982623696327209e-02" rms="1.8567167222499847e-01" purity="3.5768809914588928e-01" nType="-99"/>
        </Node>
        <Node pos="r" depth="1" NCoef="0" IVar="1" Cut="6.4151363281250000e+04" cType="1" res="2.3282493930310011e-03" rms="1.5280023217201233e-01" purity="5.2030456066131592e-01" nType="0">
          <Node pos="l" depth="2" NCoef="0" IVar="-1" Cut="0.0000000000000000e+00" cType="1" res="1.0445619001984596e-02" rms="1.3282109797000885e-01" purity="4.7360515594482422e-01" nType="-99"/>
          <Node pos="r" depth="2" NCoef="0" IVar="-1" Cut="0.0000000000000000e+00" cType="1" res="-2.9085795395076275e-03" rms="1.6230498254299164e-01" purity="5.4593873023986816e-01" nType="-99"/>
        </Node>
      </Node>
    </BinaryTree>
    <BinaryTree type="DecisionTree" boostWeight="1.0000000000000000e+00" itree="406">
      <Node pos="s" depth="0" NCoef="0" IVar="2" Cut="5.6926562500000000e+03" cType="1" res="1.6027776155169704e-06" rms="1.5169876813888550e-01" purity="5.0000000000000000e-01" nType="0">
        <Node pos="l" depth="1" NCoef="0" IVar="9" Cut="7.3597397460937500e+03" cType="1" res="2.8295763768255711e-03" rms="1.5315210819244385e-01" purity="5.5998927354812622e-01" nType="0">
          <Node pos="l" depth="2" NCoef="0" IVar="-1" Cut="0.0000000000000000e+00" cType="1" res="-1.9470535917207599e-03" rms="1.5436606109142303e-01" purity="5.4036241769790649e-01" nType="-99"/>
          <Node pos="r" depth="2" NCoef="0" IVar="-1" Cut="0.0000000000000000e+00" cType="1" res="2.3704811930656433e-02" rms="1.4282338321208954e-01" purity="6.6294950246810913e-01" nType="-99"/>
        </Node>
        <Node pos="r" depth="1" NCoef="0" IVar="4" Cut="5.2251124382019043e+00" cType="1" res="-7.8203622251749039e-03" rms="1.4732198417186737e-01" purity="3.3407407999038696e-01" nType="0">
          <Node pos="l" depth="2" NCoef="0" IVar="-1" Cut="0.0000000000000000e+00" cType="1" res="1.4851728454232216e-02" rms="1.2822353839874268e-01" purity="3.8831886649131775e-01" nType="-99"/>
          <Node pos="r" depth="2" NCoef="0" IVar="-1" Cut="0.0000000000000000e+00" cType="1" res="-2.0616365596652031e-02" rms="1.5842287242412567e-01" purity="2.8611305356025696e-01" nType="-99"/>
        </Node>
      </Node>
    </BinaryTree>
    <BinaryTree type="DecisionTree" boostWeight="1.0000000000000000e+00" itree="407">
      <Node pos="s" depth="0" NCoef="0" IVar="4" Cut="1.7191365957260132e+00" cType="1" res="1.6185844060601084e-06" rms="1.5123191475868225e-01" purity="5.0000000000000000e-01" nType="0">
        <Node pos="l" depth="1" NCoef="0" IVar="9" Cut="4.2508598632812500e+03" cType="1" res="-1.2913970276713371e-02" rms="1.0444963723421097e-01" purity="1.9036564230918884e-01" nType="0">
          <Node pos="l" depth="2" NCoef="0" IVar="-1" Cut="0.0000000000000000e+00" cType="1" res="1.0105428518727422e-03" rms="8.9604593813419342e-02" purity="2.5324273109436035e-01" nType="-99"/>
          <Node pos="r" depth="2" NCoef="0" IVar="-1" Cut="0.0000000000000000e+00" cType="1" res="-1.9733494147658348e-02" rms="1.1462195217609406e-01" purity="1.3464696705341339e-01" nType="-99"/>
        </Node>
        <Node pos="r" depth="1" NCoef="0" IVar="6" Cut="6.7652587890625000e+01" cType="1" res="1.6464969376102090e-03" rms="1.5611052513122559e-01" purity="5.3943377733230591e-01" nType="0">
          <Node pos="l" depth="2" NCoef="0" IVar="-1" Cut="0.0000000000000000e+00" cType="1" res="-5.7351891882717609e-03" rms="1.7215511202812195e-01" purity="4.0033161640167236e-01" nType="-99"/>
          <Node pos="r" depth="2" NCoef="0" IVar="-1" Cut="0.0000000000000000e+00" cType="1" res="7.0262202061712742e-03" rms="1.4382357895374298e-01" purity="6.3263797760009766e-01" nType="-99"/>
        </Node>
      </Node>
    </BinaryTree>
    <BinaryTree type="DecisionTree" boostWeight="1.0000000000000000e+00" itree="408">
      <Node pos="s" depth="0" NCoef="0" IVar="4" Cut="7.7426443099975586e+00" cType="1" res="9.6646670044719940e-07" rms="1.5124866366386414e-01" purity="5.0000000000000000e-01" nType="0">
        <Node pos="l" depth="1" NCoef="0" IVar="4" Cut="6.8466138839721680e+00" cType="1" res="-1.9174835179001093e-03" rms="1.5449367463588715e-01" purity="5.1043224334716797e-01" nType="0">
          <Node pos="l" depth="2" NCoef="0" IVar="-1" Cut="0.0000000000000000e+00" cType="1" res="1.9950682763010263e-03" rms="1.4922478795051575e-01" purity="5.2557229995727539e-01" nType="-99"/>
          <Node pos="r" depth="2" NCoef="0" IVar="-1" Cut="0.0000000000000000e+00" cType="1" res="-2.0385853946208954e-02" rms="1.8508943915367126e-01" purity="3.9805823564529419e-01" nType="-99"/>
        </Node>
        <Node pos="r" depth="1" NCoef="0" IVar="9" Cut="3.8076682128906250e+03" cType="1" res="1.1148021556437016e-02" rms="1.3025262951850891e-01" purity="4.3938377499580383e-01" nType="0">
          <Node pos="l" depth="2" NCoef="0" IVar="-1" Cut="0.0000000000000000e+00" cType="1" res="-2.1175723522901535e-02" rms="9.4390362501144409e-02" purity="2.6635730266571045e-01" nType="-99"/>
          <Node pos="r" depth="2" NCoef="0" IVar="-1" Cut="0.0000000000000000e+00" cType="1" res="2.9072236269712448e-02" rms="1.5047548711299896e-01" purity="5.9982788562774658e-01" nType="-99"/>
        </Node>
      </Node>
    </BinaryTree>
    <BinaryTree type="DecisionTree" boostWeight="1.0000000000000000e+00" itree="409">
      <Node pos="s" depth="0" NCoef="0" IVar="9" Cut="2.6159143066406250e+03" cType="1" res="8.8746986648402526e-07" rms="1.5081086754798889e-01" purity="5.0000000000000000e-01" nType="0">
        <Node pos="l" depth="1" NCoef="0" IVar="7" Cut="1.1676865234375000e+04" cType="1" res="1.1589755304157734e-02" rms="1.2185851484537125e-01" purity="5.8519178628921509e-01" nType="0">
          <Node pos="l" depth="2" NCoef="0" IVar="-1" Cut="0.0000000000000000e+00" cType="1" res="2.8126142919063568e-02" rms="9.6072033047676086e-02" purity="6.2085032463073730e-01" nType="-99"/>
          <Node pos="r" depth="2" NCoef="0" IVar="-1" Cut="0.0000000000000000e+00" cType="1" res="5.3948321146890521e-04" rms="1.3427937030792236e-01" purity="5.6306469440460205e-01" nType="-99"/>
        </Node>
        <Node pos="r" depth="1" NCoef="0" IVar="4" Cut="3.6862556934356689e+00" cType="1" res="-1.9962103106081486e-03" rms="1.5516836941242218e-01" purity="4.8531895875930786e-01" nType="0">
          <Node pos="l" depth="2" NCoef="0" IVar="-1" Cut="0.0000000000000000e+00" cType="1" res="-1.2581034563481808e-02" rms="1.2005428969860077e-01" purity="3.3054998517036438e-01" nType="-99"/>
          <Node pos="r" depth="2" NCoef="0" IVar="-1" Cut="0.0000000000000000e+00" cType="1" res="1.7219100845977664e-03" rms="1.6586297750473022e-01" purity="5.4167973995208740e-01" nType="-99"/>
        </Node>
      </Node>
    </BinaryTree>
    <BinaryTree type="DecisionTree" boostWeight="1.0000000000000000e+00" itree="410">
      <Node pos="s" depth="0" NCoef="0" IVar="2" Cut="5.3147377929687500e+03" cType="1" res="1.5441376035596477e-06" rms="1.5065494179725647e-01" purity="5.0000000000000000e-01" nType="0">
        <Node pos="l" depth="1" NCoef="0" IVar="6" Cut="1.5137452697753906e+02" cType="1" res="-1.0658529587090015e-02" rms="5.2321508526802063e-02" purity="5.1217984408140182e-02" nType="0">
          <Node pos="l" depth="2" NCoef="0" IVar="-1" Cut="0.0000000000000000e+00" cType="1" res="-5.4065160453319550e-02" rms="3.2713010907173157e-02" purity="0.0000000000000000e+00" nType="-99"/>
          <Node pos="r" depth="2" NCoef="0" IVar="-1" Cut="0.0000000000000000e+00" cType="1" res="-8.4791127592325211e-03" rms="6.2317758798599243e-02" purity="8.9227415621280670e-02" nType="-99"/>
        </Node>
        <Node pos="r" depth="1" NCoef="0" IVar="5" Cut="5.6776779890060425e-01" cType="1" res="1.9936973694711924e-03" rms="1.6248603165149689e-01" purity="5.8386832475662231e-01" nType="0">
          <Node pos="l" depth="2" NCoef="0" IVar="-1" Cut="0.0000000000000000e+00" cType="1" res="-2.5839265435934067e-03" rms="1.6338564455509186e-01" purity="5.6521213054656982e-01" nType="-99"/>
          <Node pos="r" depth="2" NCoef="0" IVar="-1" Cut="0.0000000000000000e+00" cType="1" res="8.4742624312639236e-03" rms="1.6014350950717926e-01" purity="6.1838746070861816e-01" nType="-99"/>
        </Node>
      </Node>
    </BinaryTree>
    <BinaryTree type="DecisionTree" boostWeight="1.0000000000000000e+00" itree="411">
      <Node pos="s" depth="0" NCoef="0" IVar="8" Cut="2.1462006835937500e+03" cType="1" res="-3.9743135857861489e-06" rms="1.5051083266735077e-01" purity="5.0000000000000000e-01" nType="0">
        <Node pos="l" depth="1" NCoef="0" IVar="12" Cut="3.0015578613281250e+03" cType="1" res="-3.3903582952916622e-03" rms="1.5569886565208435e-01" purity="4.2910337448120117e-01" nType="0">
          <Node pos="l" depth="2" NCoef="0" IVar="-1" Cut="0.0000000000000000e+00" cType="1" res="-1.7074696719646454e-02" rms="1.4503355324268341e-01" purity="1.9916096329689026e-01" nType="-99"/>
          <Node pos="r" depth="2" NCoef="0" IVar="-1" Cut="0.0000000000000000e+00" cType="1" res="1.3790929224342108e-03" rms="1.5826843678951263e-01" purity="4.9696967005729675e-01" nType="-99"/>
        </Node>
        <Node pos="r" depth="1" NCoef="0" IVar="4" Cut="7.3090806007385254e+00" cType="1" res="6.3272574916481972e-03" rms="1.4007806777954102e-01" purity="6.3254940509796143e-01" nType="0">
          <Node pos="l" depth="2" NCoef="0" IVar="-1" Cut="0.0000000000000000e+00" cType="1" res="-1.8449166091158986e-03" rms="1.4335520565509796e-01" purity="5.9780055284500122e-01" nType="-99"/>
          <Node pos="r" depth="2" NCoef="0" IVar="-1" Cut="0.0000000000000000e+00" cType="1" res="2.7968561276793480e-02" rms="1.2502229213714600e-01" purity="7.4339771270751953e-01" nType="-99"/>
        </Node>
      </Node>
    </BinaryTree>
    <BinaryTree type="DecisionTree" boostWeight="1.0000000000000000e+00" itree="412">
      <Node pos="s" depth="0" NCoef="0" IVar="4" Cut="8.9473457336425781e+00" cType="1" res="-2.9367845399974613e-06" rms="1.5020699799060822e-01" purity="5.0000000000000000e-01" nType="0">
        <Node pos="l" depth="1" NCoef="0" IVar="5" Cut="9.2794299125671387e-01" cType="1" res="1.1081720003858209e-03" rms="1.5303434431552887e-01" purity="5.2158498764038086e-01" nType="0">
          <Node pos="l" depth="2" NCoef="0" IVar="-1" Cut="0.0000000000000000e+00" cType="1" res="-2.0324615761637688e-03" rms="1.4737252891063690e-01" purity="5.0570046901702881e-01" nType="-99"/>
          <Node pos="r" depth="2" NCoef="0" IVar="-1" Cut="0.0000000000000000e+00" cType="1" res="1.5657838433980942e-02" rms="1.8132373690605164e-01" purity="6.1654138565063477e-01" nType="-99"/>
        </Node>
        <Node pos="r" depth="1" NCoef="0" IVar="-1" Cut="0.0000000000000000e+00" cType="1" res="-2.1157177165150642e-02" rms="8.9311823248863220e-02" purity="1.4186850190162659e-01" nType="-99"/>
      </Node>
    </BinaryTree>
    <BinaryTree type="DecisionTree" boostWeight="1.0000000000000000e+00" itree="413">
      <Node pos="s" depth="0" NCoef="0" IVar="2" Cut="5.6926562500000000e+03" cType="1" res="-2.3467589471692918e-06" rms="1.5003859996795654e-01" purity="5.0000000000000000e-01" nType="0">
        <Node pos="l" depth="1" NCoef="0" IVar="9" Cut="7.3597397460937500e+03" cType="1" res="2.6540595572441816e-03" rms="1.5176725387573242e-01" purity="5.5998927354812622e-01" nType="0">
          <Node pos="l" depth="2" NCoef="0" IVar="-1" Cut="0.0000000000000000e+00" cType="1" res="-1.8917103298008442e-03" rms="1.5327748656272888e-01" purity="5.4036241769790649e-01" nType="-99"/>
          <Node pos="r" depth="2" NCoef="0" IVar="-1" Cut="0.0000000000000000e+00" cType="1" res="2.3026995360851288e-02" rms="1.4008903503417969e-01" purity="6.6294950246810913e-01" nType="-99"/>
        </Node>
        <Node pos="r" depth="1" NCoef="0" IVar="4" Cut="5.2251124382019043e+00" cType="1" res="-7.3497700504958630e-03" rms="1.4489668607711792e-01" purity="3.3407407999038696e-01" nType="0">
          <Node pos="l" depth="2" NCoef="0" IVar="-1" Cut="0.0000000000000000e+00" cType="1" res="1.4399276115000248e-02" rms="1.2799797952175140e-01" purity="3.8831886649131775e-01" nType="-99"/>
          <Node pos="r" depth="2" NCoef="0" IVar="-1" Cut="0.0000000000000000e+00" cType="1" res="-2.0012825727462769e-02" rms="1.5467238426208496e-01" purity="2.8611305356025696e-01" nType="-99"/>
        </Node>
      </Node>
    </BinaryTree>
    <BinaryTree type="DecisionTree" boostWeight="1.0000000000000000e+00" itree="414">
      <Node pos="s" depth="0" NCoef="0" IVar="8" Cut="2.1462006835937500e+03" cType="1" res="-1.9425388018134981e-06" rms="1.4960996806621552e-01" purity="5.0000000000000000e-01" nType="0">
        <Node pos="l" depth="1" NCoef="0" IVar="3" Cut="1.6816038818359375e+03" cType="1" res="-3.4056212753057480e-03" rms="1.5482690930366516e-01" purity="4.2910337448120117e-01" nType="0">
          <Node pos="l" depth="2" NCoef="0" IVar="-1" Cut="0.0000000000000000e+00" cType="1" res="-1.0685507208108902e-02" rms="1.3606159389019012e-01" purity="3.2532304525375366e-01" nType="-99"/>
          <Node pos="r" depth="2" NCoef="0" IVar="-1" Cut="0.0000000000000000e+00" cType="1" res="3.3475230447947979e-03" rms="1.6775909066200256e-01" purity="5.1194357872009277e-01" nType="-99"/>
        </Node>
        <Node pos="r" depth="1" NCoef="0" IVar="4" Cut="7.3090806007385254e+00" cType="1" res="6.3616237603127956e-03" rms="1.3911005854606628e-01" purity="6.3254940509796143e-01" nType="0">
          <Node pos="l" depth="2" NCoef="0" IVar="-1" Cut="0.0000000000000000e+00" cType="1" res="-1.3218001695349813e-03" rms="1.4269778132438660e-01" purity="5.9780055284500122e-01" nType="-99"/>
          <Node pos="r" depth="2" NCoef="0" IVar="-1" Cut="0.0000000000000000e+00" cType="1" res="2.6477167382836342e-02" rms="1.2348143011331558e-01" purity="7.4339771270751953e-01" nType="-99"/>
        </Node>
      </Node>
    </BinaryTree>
    <BinaryTree type="DecisionTree" boostWeight="1.0000000000000000e+00" itree="415">
      <Node pos="s" depth="0" NCoef="0" IVar="0" Cut="2.1678354492187500e+03" cType="1" res="-7.3980766046588542e-07" rms="1.4935474097728729e-01" purity="5.0000000000000000e-01" nType="0">
        <Node pos="l" depth="1" NCoef="0" IVar="11" Cut="3.4242796875000000e+04" cType="1" res="-7.5186002068221569e-03" rms="1.5800680220127106e-01" purity="3.1297710537910461e-01" nType="0">
          <Node pos="l" depth="2" NCoef="0" IVar="-1" Cut="0.0000000000000000e+00" cType="1" res="-2.1465443074703217e-02" rms="1.3566699624061584e-01" purity="1.8061673641204834e-01" nType="-99"/>
          <Node pos="r" depth="2" NCoef="0" IVar="-1" Cut="0.0000000000000000e+00" cType="1" res="9.8158018663525581e-03" rms="1.8429698050022125e-01" purity="5.2429670095443726e-01" nType="-99"/>
        </Node>
        <Node pos="r" depth="1" NCoef="0" IVar="4" Cut="5.8063836097717285e+00" cType="1" res="2.7273481246083975e-03" rms="1.4599272608757019e-01" purity="5.6786704063415527e-01" nType="0">
          <Node pos="l" depth="2" NCoef="0" IVar="-1" Cut="0.0000000000000000e+00" cType="1" res="9.3211717903614044e-03" rms="1.2943947315216064e-01" purity="6.1560517549514771e-01" nType="-99"/>
          <Node pos="r" depth="2" NCoef="0" IVar="-1" Cut="0.0000000000000000e+00" cType="1" res="-5.6545198895037174e-03" rms="1.6192573308944702e-01" purity="5.1410657167434692e-01" nType="-99"/>
        </Node>
      </Node>
    </BinaryTree>
    <BinaryTree type="DecisionTree" boostWeight="1.0000000000000000e+00" itree="416">
      <Node pos="s" depth="0" NCoef="0" IVar="2" Cut="5.8343754882812500e+03" cType="1" res="-1.8882356016547419e-06" rms="1.4909061789512634e-01" purity="5.0000000000000000e-01" nType="0">
        <Node pos="l" depth="1" NCoef="0" IVar="6" Cut="6.8348541259765625e+01" cType="1" res="1.8928874051198363e-03" rms="1.5297399461269379e-01" purity="5.6466394662857056e-01" nType="0">
          <Node pos="l" depth="2" NCoef="0" IVar="-1" Cut="0.0000000000000000e+00" cType="1" res="-6.9702691398561001e-03" rms="1.7185078561306000e-01" purity="4.4982251524925232e-01" nType="-99"/>
          <Node pos="r" depth="2" NCoef="0" IVar="-1" Cut="0.0000000000000000e+00" cType="1" res="7.4977097101509571e-03" rms="1.4061240851879120e-01" purity="6.2916868925094604e-01" nType="-99"/>
        </Node>
        <Node pos="r" depth="1" NCoef="0" IVar="5" Cut="2.7261134982109070e-01" cType="1" res="-1.0523489676415920e-02" rms="1.2483428418636322e-01" purity="1.4092373847961426e-01" nType="0">
          <Node pos="l" depth="2" NCoef="0" IVar="-1" Cut="0.0000000000000000e+00" cType="1" res="-3.4905511885881424e-02" rms="1.0361424088478088e-01" purity="4.2224511504173279e-02" nType="-99"/>
          <Node pos="r" depth="2" NCoef="0" IVar="-1" Cut="0.0000000000000000e+00" cType="1" res="4.3734046630561352e-03" rms="1.3570198416709900e-01" purity="2.1157389879226685e-01" nType="-99"/>
        </Node>
      </Node>
    </BinaryTree>
    <BinaryTree type="DecisionTree" boostWeight="1.0000000000000000e+00" itree="417">
      <Node pos="s" depth="0" NCoef="0" IVar="8" Cut="2.1462006835937500e+03" cType="1" res="-4.6780464799667243e-06" rms="1.4896716177463531e-01" purity="5.0000000000000000e-01" nType="0">
        <Node pos="l" depth="1" NCoef="0" IVar="12" Cut="3.0015578613281250e+03" cType="1" res="-3.3833794295787811e-03" rms="1.5449649095535278e-01" purity="4.2910337448120117e-01" nType="0">
          <Node pos="l" depth="2" NCoef="0" IVar="-1" Cut="0.0000000000000000e+00" cType="1" res="-1.6382955014705658e-02" rms="1.4374192059040070e-01" purity="1.9916096329689026e-01" nType="-99"/>
          <Node pos="r" depth="2" NCoef="0" IVar="-1" Cut="0.0000000000000000e+00" cType="1" res="1.1642921017482877e-03" rms="1.5714354813098907e-01" purity="4.9696967005729675e-01" nType="-99"/>
        </Node>
        <Node pos="r" depth="1" NCoef="0" IVar="6" Cut="1.5105889892578125e+02" cType="1" res="6.3121900893747807e-03" rms="1.3781452178955078e-01" purity="6.3254940509796143e-01" nType="0">
          <Node pos="l" depth="2" NCoef="0" IVar="-1" Cut="0.0000000000000000e+00" cType="1" res="1.0932804085314274e-02" rms="1.3158608973026276e-01" purity="6.4543104171752930e-01" nType="-99"/>
          <Node pos="r" depth="2" NCoef="0" IVar="-1" Cut="0.0000000000000000e+00" cType="1" res="-1.4809333719313145e-02" rms="1.5368416905403137e-01" purity="5.9063625335693359e-01" nType="-99"/>
        </Node>
      </Node>
    </BinaryTree>
    <BinaryTree type="DecisionTree" boostWeight="1.0000000000000000e+00" itree="418">
      <Node pos="s" depth="0" NCoef="0" IVar="2" Cut="5.4564570312500000e+03" cType="1" res="-4.3965619624941610e-06" rms="1.4869999885559082e-01" purity="5.0000000000000000e-01" nType="0">
        <Node pos="l" depth="1" NCoef="0" IVar="4" Cut="2.9238381385803223e+00" cType="1" res="-7.4903406202793121e-03" rms="8.1215284764766693e-02" purity="2.4002927541732788e-01" nType="0">
          <Node pos="l" depth="2" NCoef="0" IVar="-1" Cut="0.0000000000000000e+00" cType="1" res="-5.7294055819511414e-02" rms="6.6977702081203461e-02" purity="3.4067302942276001e-02" nType="-99"/>
          <Node pos="r" depth="2" NCoef="0" IVar="-1" Cut="0.0000000000000000e+00" cType="1" res="4.6784649603068829e-03" rms="8.3762094378471375e-02" purity="3.2562154531478882e-01" nType="-99"/>
        </Node>
        <Node pos="r" depth="1" NCoef="0" IVar="2" Cut="5.4897851562500000e+03" cType="1" res="2.7473296504467726e-03" rms="1.6669401526451111e-01" purity="5.9556156396865845e-01" nType="0">
          <Node pos="l" depth="2" NCoef="0" IVar="-1" Cut="0.0000000000000000e+00" cType="1" res="2.6140652596950531e-02" rms="1.3642957806587219e-01" purity="8.4102565050125122e-01" nType="-99"/>
          <Node pos="r" depth="2" NCoef="0" IVar="-1" Cut="0.0000000000000000e+00" cType="1" res="-3.8309171213768423e-04" rms="1.6859301924705505e-01" purity="5.7459855079650879e-01" nType="-99"/>
        </Node>
      </Node>
    </BinaryTree>
    <BinaryTree type="DecisionTree" boostWeight="1.0000000000000000e+00" itree="419">
      <Node pos="s" depth="0" NCoef="0" IVar="4" Cut="8.9473457336425781e+00" cType="1" res="-1.2112932381569408e-05" rms="1.4836852252483368e-01" purity="5.0000000000000000e-01" nType="0">
        <Node pos="l" depth="1" NCoef="0" IVar="5" Cut="5.9902834892272949e-01" cType="1" res="1.0661839041858912e-03" rms="1.5115934610366821e-01" purity="5.2158498764038086e-01" nType="0">
          <Node pos="l" depth="2" NCoef="0" IVar="-1" Cut="0.0000000000000000e+00" cType="1" res="-3.2371145207434893e-03" rms="1.4872871339321136e-01" purity="4.8136192560195923e-01" nType="-99"/>
          <Node pos="r" depth="2" NCoef="0" IVar="-1" Cut="0.0000000000000000e+00" cType="1" res="1.0213870555162430e-02" rms="1.5604409575462341e-01" purity="6.2031698226928711e-01" nType="-99"/>
        </Node>
        <Node pos="r" depth="1" NCoef="0" IVar="-1" Cut="0.0000000000000000e+00" cType="1" res="-2.0895496010780334e-02" rms="8.8342055678367615e-02" purity="1.4186850190162659e-01" nType="-99"/>
      </Node>
    </BinaryTree>
    <BinaryTree type="DecisionTree" boostWeight="1.0000000000000000e+00" itree="420">
      <Node pos="s" depth="0" NCoef="0" IVar="11" Cut="8.3268609375000000e+04" cType="1" res="-1.0807442777149845e-05" rms="1.4824561774730682e-01" purity="5.0000000000000000e-01" nType="0">
        <Node pos="l" depth="1" NCoef="0" IVar="11" Cut="1.0463782226562500e+04" cType="1" res="-1.6790899680927396e-03" rms="1.5276594460010529e-01" purity="4.8498773574829102e-01" nType="0">
          <Node pos="l" depth="2" NCoef="0" IVar="-1" Cut="0.0000000000000000e+00" cType="1" res="-4.2169023305177689e-02" rms="1.0959988832473755e-01" purity="9.2342339456081390e-02" nType="-99"/>
          <Node pos="r" depth="2" NCoef="0" IVar="-1" Cut="0.0000000000000000e+00" cType="1" res="1.4727640664204955e-03" rms="1.5635284781455994e-01" purity="5.2878856658935547e-01" nType="-99"/>
        </Node>
        <Node pos="r" depth="1" NCoef="0" IVar="6" Cut="1.6150740051269531e+02" cType="1" res="1.1174987070262432e-02" rms="1.1273733526468277e-01" purity="6.0065674781799316e-01" nType="0">
          <Node pos="l" depth="2" NCoef="0" IVar="-1" Cut="0.0000000000000000e+00" cType="1" res="3.0668571591377258e-02" rms="1.1653256416320801e-01" purity="6.7291909456253052e-01" nType="-99"/>
          <Node pos="r" depth="2" NCoef="0" IVar="-1" Cut="0.0000000000000000e+00" cType="1" res="-1.1419734917581081e-02" rms="1.0312810540199280e-01" purity="5.4593878984451294e-01" nType="-99"/>
        </Node>
      </Node>
    </BinaryTree>
    <BinaryTree type="DecisionTree" boostWeight="1.0000000000000000e+00" itree="421">
      <Node pos="s" depth="0" NCoef="0" IVar="11" Cut="2.6023939453125000e+04" cType="1" res="-1.2297962712182198e-05" rms="1.4778767526149750e-01" purity="5.0000000000000000e-01" nType="0">
        <Node pos="l" depth="1" NCoef="0" IVar="12" Cut="2.7225319824218750e+03" cType="1" res="6.2123960815370083e-03" rms="1.3339249789714813e-01" purity="4.1018313169479370e-01" nType="0">
          <Node pos="l" depth="2" NCoef="0" IVar="-1" Cut="0.0000000000000000e+00" cType="1" res="-2.1666904911398888e-02" rms="8.7491631507873535e-02" purity="1.8061673641204834e-01" nType="-99"/>
          <Node pos="r" depth="2" NCoef="0" IVar="-1" Cut="0.0000000000000000e+00" cType="1" res="1.9638163968920708e-02" rms="1.5459255874156952e-01" purity="5.6679189205169678e-01" nType="-99"/>
        </Node>
        <Node pos="r" depth="1" NCoef="0" IVar="1" Cut="5.4089277343750000e+04" cType="1" res="-3.6212599370628595e-03" rms="1.5541058778762817e-01" purity="5.5207413434982300e-01" nType="0">
          <Node pos="l" depth="2" NCoef="0" IVar="-1" Cut="0.0000000000000000e+00" cType="1" res="-3.4365605562925339e-02" rms="1.2926122546195984e-01" purity="2.6635730266571045e-01" nType="-99"/>
          <Node pos="r" depth="2" NCoef="0" IVar="-1" Cut="0.0000000000000000e+00" cType="1" res="2.0082185510545969e-03" rms="1.5704829990863800e-01" purity="5.8796781301498413e-01" nType="-99"/>
        </Node>
      </Node>
    </BinaryTree>
    <BinaryTree type="DecisionTree" boostWeight="1.0000000000000000e+00" itree="422">
      <Node pos="s" depth="0" NCoef="0" IVar="2" Cut="5.3619775390625000e+03" cType="1" res="-1.5091916793608107e-05" rms="1.4721190929412842e-01" purity="5.0000000000000000e-01" nType="0">
        <Node pos="l" depth="1" NCoef="0" IVar="10" Cut="4.0959487915039062e+02" cType="1" res="-9.2215845361351967e-03" rms="7.0516780018806458e-02" purity="8.7747447192668915e-02" nType="0">
          <Node pos="l" depth="2" NCoef="0" IVar="-1" Cut="0.0000000000000000e+00" cType="1" res="-3.9767563343048096e-02" rms="6.1973631381988525e-02" purity="4.3260354548692703e-02" nType="-99"/>
          <Node pos="r" depth="2" NCoef="0" IVar="-1" Cut="0.0000000000000000e+00" cType="1" res="1.9091589376330376e-02" rms="8.0993689596652985e-02" purity="1.8061673641204834e-01" nType="-99"/>
        </Node>
        <Node pos="r" depth="1" NCoef="0" IVar="2" Cut="5.4715375976562500e+03" cType="1" res="2.0582827273756266e-03" rms="1.5940089523792267e-01" purity="5.9284245967864990e-01" nType="0">
          <Node pos="l" depth="2" NCoef="0" IVar="-1" Cut="0.0000000000000000e+00" cType="1" res="1.8128639087080956e-02" rms="1.0275413841009140e-01" purity="6.8059527873992920e-01" nType="-99"/>
          <Node pos="r" depth="2" NCoef="0" IVar="-1" Cut="0.0000000000000000e+00" cType="1" res="-9.1427558800205588e-04" rms="1.6655616462230682e-01" purity="5.7851701974868774e-01" nType="-99"/>
        </Node>
      </Node>
    </BinaryTree>
    <BinaryTree type="DecisionTree" boostWeight="1.0000000000000000e+00" itree="423">
      <Node pos="s" depth="0" NCoef="0" IVar="8" Cut="2.1462006835937500e+03" cType="1" res="-1.7265983842662536e-05" rms="1.4689515531063080e-01" purity="5.0000000000000000e-01" nType="0">
        <Node pos="l" depth="1" NCoef="0" IVar="4" Cut="7.1402935981750488e+00" cType="1" res="-3.2693070825189352e-03" rms="1.5215283632278442e-01" purity="4.2910337448120117e-01" nType="0">
          <Node pos="l" depth="2" NCoef="0" IVar="-1" Cut="0.0000000000000000e+00" cType="1" res="1.1280297767370939e-03" rms="1.4692308008670807e-01" purity="4.7941285371780396e-01" nType="-99"/>
          <Node pos="r" depth="2" NCoef="0" IVar="-1" Cut="0.0000000000000000e+00" cType="1" res="-1.6714058816432953e-02" rms="1.7094404995441437e-01" purity="2.1601682901382446e-01" nType="-99"/>
        </Node>
        <Node pos="r" depth="1" NCoef="0" IVar="4" Cut="5.4148464202880859e+00" cType="1" res="6.0627968050539494e-03" rms="1.3631527125835419e-01" purity="6.3254940509796143e-01" nType="0">
          <Node pos="l" depth="2" NCoef="0" IVar="-1" Cut="0.0000000000000000e+00" cType="1" res="2.3369671776890755e-02" rms="9.2659540474414825e-02" purity="6.8166261911392212e-01" nType="-99"/>
          <Node pos="r" depth="2" NCoef="0" IVar="-1" Cut="0.0000000000000000e+00" cType="1" res="-3.5989887546747923e-03" rms="1.5654766559600830e-01" purity="6.0183483362197876e-01" nType="-99"/>
        </Node>
      </Node>
    </BinaryTree>
    <BinaryTree type="DecisionTree" boostWeight="1.0000000000000000e+00" itree="424">
      <Node pos="s" depth="0" NCoef="0" IVar="2" Cut="5.8343754882812500e+03" cType="1" res="-1.3419339666143060e-05" rms="1.4667621254920959e-01" purity="5.0000000000000000e-01" nType="0">
        <Node pos="l" depth="1" NCoef="0" IVar="6" Cut="6.8348541259765625e+01" cType="1" res="1.8897001864388585e-03" rms="1.5052571892738342e-01" purity="5.6466394662857056e-01" nType="0">
          <Node pos="l" depth="2" NCoef="0" IVar="-1" Cut="0.0000000000000000e+00" cType="1" res="-6.6821328364312649e-03" rms="1.6951160132884979e-01" purity="4.4982251524925232e-01" nType="-99"/>
          <Node pos="r" depth="2" NCoef="0" IVar="-1" Cut="0.0000000000000000e+00" cType="1" res="7.3761828243732452e-03" rms="1.3812291622161865e-01" purity="6.2916868925094604e-01" nType="-99"/>
        </Node>
        <Node pos="r" depth="1" NCoef="0" IVar="11" Cut="3.6049121093750000e+04" cType="1" res="-1.0581353679299355e-02" rms="1.2259323894977570e-01" purity="1.4092373847961426e-01" nType="0">
          <Node pos="l" depth="2" NCoef="0" IVar="-1" Cut="0.0000000000000000e+00" cType="1" res="7.3172813281416893e-03" rms="1.2030617147684097e-01" purity="1.0314465314149857e-01" nType="-99"/>
          <Node pos="r" depth="2" NCoef="0" IVar="-1" Cut="0.0000000000000000e+00" cType="1" res="-2.1532623097300529e-02" rms="1.2222634255886078e-01" purity="1.8061673641204834e-01" nType="-99"/>
        </Node>
      </Node>
    </BinaryTree>
    <BinaryTree type="DecisionTree" boostWeight="1.0000000000000000e+00" itree="425">
      <Node pos="s" depth="0" NCoef="0" IVar="9" Cut="2.6159143066406250e+03" cType="1" res="-1.2817139577236958e-05" rms="1.4656491577625275e-01" purity="5.0000000000000000e-01" nType="0">
        <Node pos="l" depth="1" NCoef="0" IVar="7" Cut="1.1676865234375000e+04" cType="1" res="1.0991111397743225e-02" rms="1.1922803521156311e-01" purity="5.8519178628921509e-01" nType="0">
          <Node pos="l" depth="2" NCoef="0" IVar="-1" Cut="0.0000000000000000e+00" cType="1" res="2.8696404770016670e-02" rms="9.2342451214790344e-02" purity="6.2085032463073730e-01" nType="-99"/>
          <Node pos="r" depth="2" NCoef="0" IVar="-1" Cut="0.0000000000000000e+00" cType="1" res="2.4476654289173894e-05" rms="1.3202832639217377e-01" purity="5.6306469440460205e-01" nType="-99"/>
        </Node>
        <Node pos="r" depth="1" NCoef="0" IVar="11" Cut="1.9852843750000000e+04" cType="1" res="-1.9091129070147872e-03" rms="1.5069487690925598e-01" purity="4.8531895875930786e-01" nType="0">
          <Node pos="l" depth="2" NCoef="0" IVar="-1" Cut="0.0000000000000000e+00" cType="1" res="8.0640101805329323e-03" rms="1.4231407642364502e-01" purity="3.8551461696624756e-01" nType="-99"/>
          <Node pos="r" depth="2" NCoef="0" IVar="-1" Cut="0.0000000000000000e+00" cType="1" res="-4.4281380251049995e-03" rms="1.5391555428504944e-01" purity="5.2859503030776978e-01" nType="-99"/>
        </Node>
      </Node>
    </BinaryTree>
    <BinaryTree type="DecisionTree" boostWeight="1.0000000000000000e+00" itree="426">
      <Node pos="s" depth="0" NCoef="0" IVar="2" Cut="5.4564570312500000e+03" cType="1" res="-1.0053663572762161e-05" rms="1.4632996916770935e-01" purity="5.0000000000000000e-01" nType="0">
        <Node pos="l" depth="1" NCoef="0" IVar="10" Cut="4.7385412597656250e+02" cType="1" res="-7.2425440885126591e-03" rms="7.7052973210811615e-02" purity="2.4002927541732788e-01" nType="0">
          <Node pos="l" depth="2" NCoef="0" IVar="-1" Cut="0.0000000000000000e+00" cType="1" res="-2.2161107510328293e-02" rms="7.5142540037631989e-02" purity="1.6133792698383331e-01" nType="-99"/>
          <Node pos="r" depth="2" NCoef="0" IVar="-1" Cut="0.0000000000000000e+00" cType="1" res="2.5309069082140923e-02" rms="7.5835369527339935e-02" purity="4.6857142448425293e-01" nType="-99"/>
        </Node>
        <Node pos="r" depth="1" NCoef="0" IVar="2" Cut="5.4897851562500000e+03" cType="1" res="2.6485067792236805e-03" rms="1.6454379260540009e-01" purity="5.9556156396865845e-01" nType="0">
          <Node pos="l" depth="2" NCoef="0" IVar="-1" Cut="0.0000000000000000e+00" cType="1" res="2.3494344204664230e-02" rms="1.3354405760765076e-01" purity="8.4102565050125122e-01" nType="-99"/>
          <Node pos="r" depth="2" NCoef="0" IVar="-1" Cut="0.0000000000000000e+00" cType="1" res="-1.6683466674294323e-04" rms="1.6659796237945557e-01" purity="5.7459855079650879e-01" nType="-99"/>
        </Node>
      </Node>
    </BinaryTree>
    <BinaryTree type="DecisionTree" boostWeight="1.0000000000000000e+00" itree="427">
      <Node pos="s" depth="0" NCoef="0" IVar="9" Cut="2.6159143066406250e+03" cType="1" res="-8.5510164353763685e-06" rms="1.4611312747001648e-01" purity="5.0000000000000000e-01" nType="0">
        <Node pos="l" depth="1" NCoef="0" IVar="4" Cut="5.8063836097717285e+00" cType="1" res="1.0131855495274067e-02" rms="1.1822132766246796e-01" purity="5.8519178628921509e-01" nType="0">
          <Node pos="l" depth="2" NCoef="0" IVar="-1" Cut="0.0000000000000000e+00" cType="1" res="3.1344264745712280e-02" rms="7.4831128120422363e-02" purity="7.3832297325134277e-01" nType="-99"/>
          <Node pos="r" depth="2" NCoef="0" IVar="-1" Cut="0.0000000000000000e+00" cType="1" res="-8.7390356929972768e-04" rms="1.3836960494518280e-01" purity="4.8466938734054565e-01" nType="-99"/>
        </Node>
        <Node pos="r" depth="1" NCoef="0" IVar="7" Cut="1.3213380859375000e+04" cType="1" res="-1.7560368869453669e-03" rms="1.5032900869846344e-01" purity="4.8531895875930786e-01" nType="0">
          <Node pos="l" depth="2" NCoef="0" IVar="-1" Cut="0.0000000000000000e+00" cType="1" res="-1.7785361036658287e-02" rms="1.2029824405908585e-01" purity="3.8362574577331543e-01" nType="-99"/>
          <Node pos="r" depth="2" NCoef="0" IVar="-1" Cut="0.0000000000000000e+00" cType="1" res="4.4748195796273649e-04" rms="1.5306395292282104e-01" purity="4.9643999338150024e-01" nType="-99"/>
        </Node>
      </Node>
    </BinaryTree>
    <BinaryTree type="DecisionTree" boostWeight="1.0000000000000000e+00" itree="428">
      <Node pos="s" depth="0" NCoef="0" IVar="2" Cut="5.3147377929687500e+03" cType="1" res="-5.9226358644082211e-06" rms="1.4593300223350525e-01" purity="5.0000000000000000e-01" nType="0">
        <Node pos="l" depth="1" NCoef="0" IVar="6" Cut="1.5137452697753906e+02" cType="1" res="-9.7585516050457954e-03" rms="4.9826715141534805e-02" purity="5.1217984408140182e-02" nType="0">
          <Node pos="l" depth="2" NCoef="0" IVar="-1" Cut="0.0000000000000000e+00" cType="1" res="-5.4134380072355270e-02" rms="3.2478127628564835e-02" purity="0.0000000000000000e+00" nType="-99"/>
          <Node pos="r" depth="2" NCoef="0" IVar="-1" Cut="0.0000000000000000e+00" cType="1" res="-7.3068309575319290e-03" rms="5.8756571263074875e-02" purity="8.9227415621280670e-02" nType="-99"/>
        </Node>
        <Node pos="r" depth="1" NCoef="0" IVar="10" Cut="2.0833163452148438e+02" cType="1" res="1.8166475929319859e-03" rms="1.5745238959789276e-01" purity="5.8386832475662231e-01" nType="0">
          <Node pos="l" depth="2" NCoef="0" IVar="-1" Cut="0.0000000000000000e+00" cType="1" res="-1.0561343282461166e-02" rms="2.1103695034980774e-01" purity="3.5528594255447388e-01" nType="-99"/>
          <Node pos="r" depth="2" NCoef="0" IVar="-1" Cut="0.0000000000000000e+00" cType="1" res="2.7321912348270416e-03" rms="1.5092302858829498e-01" purity="6.0642069578170776e-01" nType="-99"/>
        </Node>
      </Node>
    </BinaryTree>
    <BinaryTree type="DecisionTree" boostWeight="1.0000000000000000e+00" itree="429">
      <Node pos="s" depth="0" NCoef="0" IVar="11" Cut="8.3268609375000000e+04" cType="1" res="-1.0916523933701683e-05" rms="1.4586554467678070e-01" purity="5.0000000000000000e-01" nType="0">
        <Node pos="l" depth="1" NCoef="0" IVar="1" Cut="7.7016500000000000e+04" cType="1" res="-1.6534600872546434e-03" rms="1.5043009817600250e-01" purity="4.8498773574829102e-01" nType="0">
          <Node pos="l" depth="2" NCoef="0" IVar="-1" Cut="0.0000000000000000e+00" cType="1" res="3.9509385824203491e-03" rms="1.3992296159267426e-01" purity="4.6404650807380676e-01" nType="-99"/>
          <Node pos="r" depth="2" NCoef="0" IVar="-1" Cut="0.0000000000000000e+00" cType="1" res="-1.1472299695014954e-02" rms="1.7388996481895447e-01" purity="5.4036241769790649e-01" nType="-99"/>
        </Node>
        <Node pos="r" depth="1" NCoef="0" IVar="6" Cut="1.6150740051269531e+02" cType="1" res="1.1002298444509506e-02" rms="1.0985984653234482e-01" purity="6.0065674781799316e-01" nType="0">
          <Node pos="l" depth="2" NCoef="0" IVar="-1" Cut="0.0000000000000000e+00" cType="1" res="3.0376920476555824e-02" rms="1.1254502832889557e-01" purity="6.7291909456253052e-01" nType="-99"/>
          <Node pos="r" depth="2" NCoef="0" IVar="-1" Cut="0.0000000000000000e+00" cType="1" res="-1.0617473162710667e-02" rms="1.0168667882680893e-01" purity="5.4593878984451294e-01" nType="-99"/>
        </Node>
      </Node>
    </BinaryTree>
    <BinaryTree type="DecisionTree" boostWeight="1.0000000000000000e+00" itree="430">
      <Node pos="s" depth="0" NCoef="0" IVar="2" Cut="5.8343754882812500e+03" cType="1" res="-7.4570184551703278e-06" rms="1.4543072879314423e-01" purity="5.0000000000000000e-01" nType="0">
        <Node pos="l" depth="1" NCoef="0" IVar="6" Cut="6.8348541259765625e+01" cType="1" res="1.7511420883238316e-03" rms="1.4930367469787598e-01" purity="5.6466394662857056e-01" nType="0">
          <Node pos="l" depth="2" NCoef="0" IVar="-1" Cut="0.0000000000000000e+00" cType="1" res="-6.3834283500909805e-03" rms="1.6744752228260040e-01" purity="4.4982251524925232e-01" nType="-99"/>
          <Node pos="r" depth="2" NCoef="0" IVar="-1" Cut="0.0000000000000000e+00" cType="1" res="7.0037636905908585e-03" rms="1.3753157854080200e-01" purity="6.2916868925094604e-01" nType="-99"/>
        </Node>
        <Node pos="r" depth="1" NCoef="0" IVar="5" Cut="2.7261134982109070e-01" cType="1" res="-9.7728762775659561e-03" rms="1.2123911827802658e-01" purity="1.4092373847961426e-01" nType="0">
          <Node pos="l" depth="2" NCoef="0" IVar="-1" Cut="0.0000000000000000e+00" cType="1" res="-3.3976398408412933e-02" rms="9.7838968038558960e-02" purity="4.2224511504173279e-02" nType="-99"/>
          <Node pos="r" depth="2" NCoef="0" IVar="-1" Cut="0.0000000000000000e+00" cType="1" res="3.8144334685057402e-03" rms="1.3356788456439972e-01" purity="2.1157389879226685e-01" nType="-99"/>
        </Node>
      </Node>
    </BinaryTree>
    <BinaryTree type="DecisionTree" boostWeight="1.0000000000000000e+00" itree="431">
      <Node pos="s" depth="0" NCoef="0" IVar="8" Cut="2.1462006835937500e+03" cType="1" res="-9.3545759227708913e-06" rms="1.4533993601799011e-01" purity="5.0000000000000000e-01" nType="0">
        <Node pos="l" depth="1" NCoef="0" IVar="0" Cut="3.4864875488281250e+03" cType="1" res="-3.1812821980565786e-03" rms="1.5073972940444946e-01" purity="4.2910337448120117e-01" nType="0">
          <Node pos="l" depth="2" NCoef="0" IVar="-1" Cut="0.0000000000000000e+00" cType="1" res="4.0087061934173107e-03" rms="1.3470515608787537e-01" purity="3.6273744702339172e-01" nType="-99"/>
          <Node pos="r" depth="2" NCoef="0" IVar="-1" Cut="0.0000000000000000e+00" cType="1" res="-8.8593224063515663e-03" rms="1.6971278190612793e-01" purity="5.2079087495803833e-01" nType="-99"/>
        </Node>
        <Node pos="r" depth="1" NCoef="0" IVar="5" Cut="5.9068810939788818e-01" cType="1" res="5.9209265746176243e-03" rms="1.3446424901485443e-01" purity="6.3254940509796143e-01" nType="0">
          <Node pos="l" depth="2" NCoef="0" IVar="-1" Cut="0.0000000000000000e+00" cType="1" res="-2.2417681757360697e-03" rms="1.4163629710674286e-01" purity="5.5744391679763794e-01" nType="-99"/>
          <Node pos="r" depth="2" NCoef="0" IVar="-1" Cut="0.0000000000000000e+00" cType="1" res="2.3250875994563103e-02" rms="1.1428736150264740e-01" purity="8.0122137069702148e-01" nType="-99"/>
        </Node>
      </Node>
    </BinaryTree>
    <BinaryTree type="DecisionTree" boostWeight="1.0000000000000000e+00" itree="432">
      <Node pos="s" depth="0" NCoef="0" IVar="12" Cut="4.7108286132812500e+03" cType="1" res="-6.7112123360857368e-06" rms="1.4505727589130402e-01" purity="5.0000000000000000e-01" nType="0">
        <Node pos="l" depth="1" NCoef="0" IVar="11" Cut="3.2151783203125000e+04" cType="1" res="-2.6221983134746552e-03" rms="1.4882363379001617e-01" purity="4.3397724628448486e-01" nType="0">
          <Node pos="l" depth="2" NCoef="0" IVar="-1" Cut="0.0000000000000000e+00" cType="1" res="-1.0707651264965534e-02" rms="1.4175319671630859e-01" purity="3.4512344002723694e-01" nType="-99"/>
          <Node pos="r" depth="2" NCoef="0" IVar="-1" Cut="0.0000000000000000e+00" cType="1" res="6.0165356844663620e-03" rms="1.5590806305408478e-01" purity="5.4036241769790649e-01" nType="-99"/>
        </Node>
        <Node pos="r" depth="1" NCoef="0" IVar="2" Cut="5.6679995117187500e+03" cType="1" res="7.5671784579753876e-03" rms="1.3326366245746613e-01" purity="6.9118773937225342e-01" nType="0">
          <Node pos="l" depth="2" NCoef="0" IVar="-1" Cut="0.0000000000000000e+00" cType="1" res="-1.0245312936604023e-02" rms="1.3013140857219696e-01" purity="7.0910763740539551e-01" nType="-99"/>
          <Node pos="r" depth="2" NCoef="0" IVar="-1" Cut="0.0000000000000000e+00" cType="1" res="3.5103376954793930e-02" rms="1.2914562225341797e-01" purity="6.5052193403244019e-01" nType="-99"/>
        </Node>
      </Node>
    </BinaryTree>
    <BinaryTree type="DecisionTree" boostWeight="1.0000000000000000e+00" itree="433">
      <Node pos="s" depth="0" NCoef="0" IVar="2" Cut="5.6926562500000000e+03" cType="1" res="-2.7845194381370675e-06" rms="1.4443404972553253e-01" purity="5.0000000000000000e-01" nType="0">
        <Node pos="l" depth="1" NCoef="0" IVar="9" Cut="8.0922368164062500e+03" cType="1" res="2.6464289985597134e-03" rms="1.4662311971187592e-01" purity="5.5998927354812622e-01" nType="0">
          <Node pos="l" depth="2" NCoef="0" IVar="-1" Cut="0.0000000000000000e+00" cType="1" res="-1.3642493868246675e-03" rms="1.4518626034259796e-01" purity="5.4611080884933472e-01" nType="-99"/>
          <Node pos="r" depth="2" NCoef="0" IVar="-1" Cut="0.0000000000000000e+00" cType="1" res="2.4015575647354126e-02" rms="1.5258245170116425e-01" purity="6.5983909368515015e-01" nType="-99"/>
        </Node>
        <Node pos="r" depth="1" NCoef="0" IVar="4" Cut="5.2251124382019043e+00" cType="1" res="-7.3303128592669964e-03" rms="1.3793402910232544e-01" purity="3.3407407999038696e-01" nType="0">
          <Node pos="l" depth="2" NCoef="0" IVar="-1" Cut="0.0000000000000000e+00" cType="1" res="1.4553025364875793e-02" rms="1.1999477446079254e-01" purity="3.8831886649131775e-01" nType="-99"/>
          <Node pos="r" depth="2" NCoef="0" IVar="-1" Cut="0.0000000000000000e+00" cType="1" res="-2.0053857937455177e-02" rms="1.4848722517490387e-01" purity="2.8611305356025696e-01" nType="-99"/>
        </Node>
      </Node>
    </BinaryTree>
    <BinaryTree type="DecisionTree" boostWeight="1.0000000000000000e+00" itree="434">
      <Node pos="s" depth="0" NCoef="0" IVar="8" Cut="2.1462006835937500e+03" cType="1" res="-2.4813521122268867e-06" rms="1.4402179419994354e-01" purity="5.0000000000000000e-01" nType="0">
        <Node pos="l" depth="1" NCoef="0" IVar="12" Cut="3.0015578613281250e+03" cType="1" res="-3.2960779499262571e-03" rms="1.4911893010139465e-01" purity="4.2910337448120117e-01" nType="0">
          <Node pos="l" depth="2" NCoef="0" IVar="-1" Cut="0.0000000000000000e+00" cType="1" res="-1.6884036362171173e-02" rms="1.3863445818424225e-01" purity="1.9916096329689026e-01" nType="-99"/>
          <Node pos="r" depth="2" NCoef="0" IVar="-1" Cut="0.0000000000000000e+00" cType="1" res="1.2080457527190447e-03" rms="1.5168663859367371e-01" purity="4.9696967005729675e-01" nType="-99"/>
        </Node>
        <Node pos="r" depth="1" NCoef="0" IVar="6" Cut="1.5105889892578125e+02" cType="1" res="6.1552743427455425e-03" rms="1.3375554978847504e-01" purity="6.3254940509796143e-01" nType="0">
          <Node pos="l" depth="2" NCoef="0" IVar="-1" Cut="0.0000000000000000e+00" cType="1" res="1.0731345042586327e-02" rms="1.2745007872581482e-01" purity="6.4543104171752930e-01" nType="-99"/>
          <Node pos="r" depth="2" NCoef="0" IVar="-1" Cut="0.0000000000000000e+00" cType="1" res="-1.3537037186324596e-02" rms="1.5015637874603271e-01" purity="5.9063625335693359e-01" nType="-99"/>
        </Node>
      </Node>
    </BinaryTree>
    <BinaryTree type="DecisionTree" boostWeight="1.0000000000000000e+00" itree="435">
      <Node pos="s" depth="0" NCoef="0" IVar="4" Cut="8.9473457336425781e+00" cType="1" res="-2.5036827082658419e-06" rms="1.4376540482044220e-01" purity="5.0000000000000000e-01" nType="0">
        <Node pos="l" depth="1" NCoef="0" IVar="5" Cut="5.9902834892272949e-01" cType="1" res="1.0531195439398289e-03" rms="1.4661461114883423e-01" purity="5.2158498764038086e-01" nType="0">
          <Node pos="l" depth="2" NCoef="0" IVar="-1" Cut="0.0000000000000000e+00" cType="1" res="-3.2129348255693913e-03" rms="1.4392438530921936e-01" purity="4.8136192560195923e-01" nType="-99"/>
          <Node pos="r" depth="2" NCoef="0" IVar="-1" Cut="0.0000000000000000e+00" cType="1" res="1.0143836028873920e-02" rms="1.5213520824909210e-01" purity="6.2031698226928711e-01" nType="-99"/>
        </Node>
        <Node pos="r" depth="1" NCoef="0" IVar="-1" Cut="0.0000000000000000e+00" cType="1" res="-2.1763909608125687e-02" rms="8.1339038908481598e-02" purity="1.4186850190162659e-01" nType="-99"/>
      </Node>
    </BinaryTree>
    <BinaryTree type="DecisionTree" boostWeight="1.0000000000000000e+00" itree="436">
      <Node pos="s" depth="0" NCoef="0" IVar="8" Cut="2.1462006835937500e+03" cType="1" res="-2.2048136543162400e-06" rms="1.4364063739776611e-01" purity="5.0000000000000000e-01" nType="0">
        <Node pos="l" depth="1" NCoef="0" IVar="0" Cut="3.4864875488281250e+03" cType="1" res="-3.0604947824031115e-03" rms="1.4887483417987823e-01" purity="4.2910337448120117e-01" nType="0">
          <Node pos="l" depth="2" NCoef="0" IVar="-1" Cut="0.0000000000000000e+00" cType="1" res="3.8671167567372322e-03" rms="1.3359101116657257e-01" purity="3.6273744702339172e-01" nType="-99"/>
          <Node pos="r" depth="2" NCoef="0" IVar="-1" Cut="0.0000000000000000e+00" cType="1" res="-8.5857883095741272e-03" rms="1.6704495251178741e-01" purity="5.2079087495803833e-01" nType="-99"/>
        </Node>
        <Node pos="r" depth="1" NCoef="0" IVar="4" Cut="5.4148464202880859e+00" cType="1" res="5.7156179100275040e-03" rms="1.3311620056629181e-01" purity="6.3254940509796143e-01" nType="0">
          <Node pos="l" depth="2" NCoef="0" IVar="-1" Cut="0.0000000000000000e+00" cType="1" res="2.2902665659785271e-02" rms="8.8890098035335541e-02" purity="6.8166261911392212e-01" nType="-99"/>
          <Node pos="r" depth="2" NCoef="0" IVar="-1" Cut="0.0000000000000000e+00" cType="1" res="-3.4274437930434942e-03" rms="1.5353435277938843e-01" purity="6.0183483362197876e-01" nType="-99"/>
        </Node>
      </Node>
    </BinaryTree>
    <BinaryTree type="DecisionTree" boostWeight="1.0000000000000000e+00" itree="437">
      <Node pos="s" depth="0" NCoef="0" IVar="12" Cut="4.7108286132812500e+03" cType="1" res="4.0075647689263860e-07" rms="1.4339800179004669e-01" purity="5.0000000000000000e-01" nType="0">
        <Node pos="l" depth="1" NCoef="0" IVar="4" Cut="1.3225860595703125e+00" cType="1" res="-2.5350765790790319e-03" rms="1.4760750532150269e-01" purity="4.3397724628448486e-01" nType="0">
          <Node pos="l" depth="2" NCoef="0" IVar="-1" Cut="0.0000000000000000e+00" cType="1" res="-5.7376198470592499e-02" rms="6.0215178877115250e-02" purity="0.0000000000000000e+00" nType="-99"/>
          <Node pos="r" depth="2" NCoef="0" IVar="-1" Cut="0.0000000000000000e+00" cType="1" res="3.9772983291186392e-04" rms="1.5199722349643707e-01" purity="4.6857142448425293e-01" nType="-99"/>
        </Node>
        <Node pos="r" depth="1" NCoef="0" IVar="11" Cut="5.4293945312500000e+04" cType="1" res="7.3425993323326111e-03" rms="1.3016587495803833e-01" purity="6.9118773937225342e-01" nType="0">
          <Node pos="l" depth="2" NCoef="0" IVar="-1" Cut="0.0000000000000000e+00" cType="1" res="3.1242955476045609e-02" rms="9.8493315279483795e-02" purity="7.3832297325134277e-01" nType="-99"/>
          <Node pos="r" depth="2" NCoef="0" IVar="-1" Cut="0.0000000000000000e+00" cType="1" res="-1.4407585375010967e-02" rms="1.4638978242874146e-01" purity="6.5201121568679810e-01" nType="-99"/>
        </Node>
      </Node>
    </BinaryTree>
    <BinaryTree type="DecisionTree" boostWeight="1.0000000000000000e+00" itree="438">
      <Node pos="s" depth="0" NCoef="0" IVar="11" Cut="8.3268609375000000e+04" cType="1" res="-4.6615255087090191e-06" rms="1.4280377328395844e-01" purity="5.0000000000000000e-01" nType="0">
        <Node pos="l" depth="1" NCoef="0" IVar="11" Cut="1.0463782226562500e+04" cType="1" res="-1.6611717874184251e-03" rms="1.4731290936470032e-01" purity="4.8498773574829102e-01" nType="0">
          <Node pos="l" depth="2" NCoef="0" IVar="-1" Cut="0.0000000000000000e+00" cType="1" res="-4.1029375046491623e-02" rms="1.0567798465490341e-01" purity="9.2342339456081390e-02" nType="-99"/>
          <Node pos="r" depth="2" NCoef="0" IVar="-1" Cut="0.0000000000000000e+00" cType="1" res="1.2954940320923924e-03" rms="1.5082563459873199e-01" purity="5.2878856658935547e-01" nType="-99"/>
        </Node>
        <Node pos="r" depth="1" NCoef="0" IVar="6" Cut="1.6150740051269531e+02" cType="1" res="1.1102200485765934e-02" rms="1.0714408010244370e-01" purity="6.0065674781799316e-01" nType="0">
          <Node pos="l" depth="2" NCoef="0" IVar="-1" Cut="0.0000000000000000e+00" cType="1" res="2.8651090338826180e-02" rms="1.1168128252029419e-01" purity="6.7291909456253052e-01" nType="-99"/>
          <Node pos="r" depth="2" NCoef="0" IVar="-1" Cut="0.0000000000000000e+00" cType="1" res="-8.7360320612788200e-03" rms="9.8458051681518555e-02" purity="5.4593878984451294e-01" nType="-99"/>
        </Node>
      </Node>
    </BinaryTree>
    <BinaryTree type="DecisionTree" boostWeight="1.0000000000000000e+00" itree="439">
      <Node pos="s" depth="0" NCoef="0" IVar="2" Cut="5.6926562500000000e+03" cType="1" res="-6.4883256527537014e-06" rms="1.4240975677967072e-01" purity="5.0000000000000000e-01" nType="0">
        <Node pos="l" depth="1" NCoef="0" IVar="9" Cut="8.0922368164062500e+03" cType="1" res="2.5790638756006956e-03" rms="1.4468403160572052e-01" purity="5.5998927354812622e-01" nType="0">
          <Node pos="l" depth="2" NCoef="0" IVar="-1" Cut="0.0000000000000000e+00" cType="1" res="-1.2347785523161292e-03" rms="1.4320120215415955e-01" purity="5.4611080884933472e-01" nType="-99"/>
          <Node pos="r" depth="2" NCoef="0" IVar="-1" Cut="0.0000000000000000e+00" cType="1" res="2.2934326902031898e-02" rms="1.5137527883052826e-01" purity="6.5983909368515015e-01" nType="-99"/>
        </Node>
        <Node pos="r" depth="1" NCoef="0" IVar="4" Cut="5.2251124382019043e+00" cType="1" res="-7.1579343639314175e-03" rms="1.3566486537456512e-01" purity="3.3407407999038696e-01" nType="0">
          <Node pos="l" depth="2" NCoef="0" IVar="-1" Cut="0.0000000000000000e+00" cType="1" res="1.3310492038726807e-02" rms="1.1725489050149918e-01" purity="3.8831886649131775e-01" nType="-99"/>
          <Node pos="r" depth="2" NCoef="0" IVar="-1" Cut="0.0000000000000000e+00" cType="1" res="-1.8913878127932549e-02" rms="1.4700663089752197e-01" purity="2.8611305356025696e-01" nType="-99"/>
        </Node>
      </Node>
    </BinaryTree>
    <BinaryTree type="DecisionTree" boostWeight="1.0000000000000000e+00" itree="440">
      <Node pos="s" depth="0" NCoef="0" IVar="10" Cut="7.1833148193359375e+02" cType="1" res="-5.8204595916322432e-06" rms="1.4205940067768097e-01" purity="5.0000000000000000e-01" nType="0">
        <Node pos="l" depth="1" NCoef="0" IVar="10" Cut="5.6815917968750000e+02" cType="1" res="-1.4910942409187555e-03" rms="1.4730231463909149e-01" purity="4.7496151924133301e-01" nType="0">
          <Node pos="l" depth="2" NCoef="0" IVar="-1" Cut="0.0000000000000000e+00" cType="1" res="2.0778349135071039e-03" rms="1.4074048399925232e-01" purity="4.7046551108360291e-01" nType="-99"/>
          <Node pos="r" depth="2" NCoef="0" IVar="-1" Cut="0.0000000000000000e+00" cType="1" res="-1.7180284485220909e-02" rms="1.7659321427345276e-01" purity="4.9918049573898315e-01" nType="-99"/>
        </Node>
        <Node pos="r" depth="1" NCoef="0" IVar="1" Cut="5.8815292968750000e+04" cType="1" res="1.2553168460726738e-02" rms="8.4713742136955261e-02" purity="7.1171730756759644e-01" nType="0">
          <Node pos="l" depth="2" NCoef="0" IVar="-1" Cut="0.0000000000000000e+00" cType="1" res="-1.6654278442729264e-04" rms="1.0798566043376923e-01" purity="5.4799515008926392e-01" nType="-99"/>
          <Node pos="r" depth="2" NCoef="0" IVar="-1" Cut="0.0000000000000000e+00" cType="1" res="4.8343326896429062e-02" rms="4.6470355242490768e-02" purity="8.8227850198745728e-01" nType="-99"/>
        </Node>
      </Node>
    </BinaryTree>
    <BinaryTree type="DecisionTree" boostWeight="1.0000000000000000e+00" itree="441">
      <Node pos="s" depth="0" NCoef="0" IVar="2" Cut="5.3619775390625000e+03" cType="1" res="-7.4051564524779678e-07" rms="1.4176841080188751e-01" purity="5.0000000000000000e-01" nType="0">
        <Node pos="l" depth="1" NCoef="0" IVar="10" Cut="4.0959487915039062e+02" cType="1" res="-8.9555848389863968e-03" rms="6.4577408134937286e-02" purity="8.7747447192668915e-02" nType="0">
          <Node pos="l" depth="2" NCoef="0" IVar="-1" Cut="0.0000000000000000e+00" cType="1" res="-3.8315601646900177e-02" rms="5.6840416043996811e-02" purity="4.3260354548692703e-02" nType="-99"/>
          <Node pos="r" depth="2" NCoef="0" IVar="-1" Cut="0.0000000000000000e+00" cType="1" res="1.4722795225679874e-02" rms="7.4802406132221222e-02" purity="1.8061673641204834e-01" nType="-99"/>
        </Node>
        <Node pos="r" depth="1" NCoef="0" IVar="2" Cut="5.4715375976562500e+03" cType="1" res="2.0159608684480190e-03" rms="1.5382871031761169e-01" purity="5.9284245967864990e-01" nType="0">
          <Node pos="l" depth="2" NCoef="0" IVar="-1" Cut="0.0000000000000000e+00" cType="1" res="1.7776604741811752e-02" rms="9.5288783311843872e-02" purity="6.8059527873992920e-01" nType="-99"/>
          <Node pos="r" depth="2" NCoef="0" IVar="-1" Cut="0.0000000000000000e+00" cType="1" res="-7.8212906373664737e-04" rms="1.6114243865013123e-01" purity="5.7851701974868774e-01" nType="-99"/>
        </Node>
      </Node>
    </BinaryTree>
    <BinaryTree type="DecisionTree" boostWeight="1.0000000000000000e+00" itree="442">
      <Node pos="s" depth="0" NCoef="0" IVar="2" Cut="5.4564570312500000e+03" cType="1" res="-3.8826533454994205e-06" rms="1.4151090383529663e-01" purity="5.0000000000000000e-01" nType="0">
        <Node pos="l" depth="1" NCoef="0" IVar="1" Cut="8.2231265625000000e+04" cType="1" res="-6.9717979058623314e-03" rms="7.0956490933895111e-02" purity="2.4002927541732788e-01" nType="0">
          <Node pos="l" depth="2" NCoef="0" IVar="-1" Cut="0.0000000000000000e+00" cType="1" res="-3.0110374093055725e-02" rms="5.5231597274541855e-02" purity="1.4263349771499634e-01" nType="-99"/>
          <Node pos="r" depth="2" NCoef="0" IVar="-1" Cut="0.0000000000000000e+00" cType="1" res="1.3926028273999691e-02" rms="9.4653189182281494e-02" purity="4.6857142448425293e-01" nType="-99"/>
        </Node>
        <Node pos="r" depth="1" NCoef="0" IVar="2" Cut="5.4897851562500000e+03" cType="1" res="2.5574236642569304e-03" rms="1.5972235798835754e-01" purity="5.9556156396865845e-01" nType="0">
          <Node pos="l" depth="2" NCoef="0" IVar="-1" Cut="0.0000000000000000e+00" cType="1" res="2.1815063431859016e-02" rms="1.3191312551498413e-01" purity="8.4102565050125122e-01" nType="-99"/>
          <Node pos="r" depth="2" NCoef="0" IVar="-1" Cut="0.0000000000000000e+00" cType="1" res="-4.5633965783054009e-05" rms="1.6160388290882111e-01" purity="5.7459855079650879e-01" nType="-99"/>
        </Node>
      </Node>
    </BinaryTree>
    <BinaryTree type="DecisionTree" boostWeight="1.0000000000000000e+00" itree="443">
      <Node pos="s" depth="0" NCoef="0" IVar="8" Cut="2.1462006835937500e+03" cType="1" res="-5.8147943491348997e-06" rms="1.4136414229869843e-01" purity="5.0000000000000000e-01" nType="0">
        <Node pos="l" depth="1" NCoef="0" IVar="4" Cut="7.1402935981750488e+00" cType="1" res="-3.1623395625501871e-03" rms="1.4610666036605835e-01" purity="4.2910337448120117e-01" nType="0">
          <Node pos="l" depth="2" NCoef="0" IVar="-1" Cut="0.0000000000000000e+00" cType="1" res="9.1507926117628813e-04" rms="1.4066065847873688e-01" purity="4.7941285371780396e-01" nType="-99"/>
          <Node pos="r" depth="2" NCoef="0" IVar="-1" Cut="0.0000000000000000e+00" cType="1" res="-1.5696415677666664e-02" rms="1.6586425900459290e-01" purity="2.1601682901382446e-01" nType="-99"/>
        </Node>
        <Node pos="r" depth="1" NCoef="0" IVar="4" Cut="7.3090806007385254e+00" cType="1" res="5.8956691063940525e-03" rms="1.3183876872062683e-01" purity="6.3254940509796143e-01" nType="0">
          <Node pos="l" depth="2" NCoef="0" IVar="-1" Cut="0.0000000000000000e+00" cType="1" res="-1.1082291603088379e-03" rms="1.3552244007587433e-01" purity="5.9780055284500122e-01" nType="-99"/>
          <Node pos="r" depth="2" NCoef="0" IVar="-1" Cut="0.0000000000000000e+00" cType="1" res="2.5399278849363327e-02" rms="1.1633227020502090e-01" purity="7.4339771270751953e-01" nType="-99"/>
        </Node>
      </Node>
    </BinaryTree>
    <BinaryTree type="DecisionTree" boostWeight="1.0000000000000000e+00" itree="444">
      <Node pos="s" depth="0" NCoef="0" IVar="2" Cut="5.8343754882812500e+03" cType="1" res="-4.4136313590570353e-06" rms="1.4111118018627167e-01" purity="5.0000000000000000e-01" nType="0">
        <Node pos="l" depth="1" NCoef="0" IVar="6" Cut="6.8348541259765625e+01" cType="1" res="1.7537658568471670e-03" rms="1.4463722705841064e-01" purity="5.6466394662857056e-01" nType="0">
          <Node pos="l" depth="2" NCoef="0" IVar="-1" Cut="0.0000000000000000e+00" cType="1" res="-6.6158967092633247e-03" rms="1.6328594088554382e-01" purity="4.4982251524925232e-01" nType="-99"/>
          <Node pos="r" depth="2" NCoef="0" IVar="-1" Cut="0.0000000000000000e+00" cType="1" res="7.2863078676164150e-03" rms="1.3245056569576263e-01" purity="6.2916868925094604e-01" nType="-99"/>
        </Node>
        <Node pos="r" depth="1" NCoef="0" IVar="11" Cut="3.6049121093750000e+04" cType="1" res="-9.7675034776329994e-03" rms="1.1918452382087708e-01" purity="1.4092373847961426e-01" nType="0">
          <Node pos="l" depth="2" NCoef="0" IVar="-1" Cut="0.0000000000000000e+00" cType="1" res="7.9433349892497063e-03" rms="1.1779776960611343e-01" purity="1.0314465314149857e-01" nType="-99"/>
          <Node pos="r" depth="2" NCoef="0" IVar="-1" Cut="0.0000000000000000e+00" cType="1" res="-2.1427549421787262e-02" rms="1.1792396008968353e-01" purity="1.8061673641204834e-01" nType="-99"/>
        </Node>
      </Node>
    </BinaryTree>
    <BinaryTree type="DecisionTree" boostWeight="1.0000000000000000e+00" itree="445">
      <Node pos="s" depth="0" NCoef="0" IVar="9" Cut="2.6159143066406250e+03" cType="1" res="-4.7447938413824886e-06" rms="1.4100244641304016e-01" purity="5.0000000000000000e-01" nType="0">
        <Node pos="l" depth="1" NCoef="0" IVar="12" Cut="4.5130634765625000e+03" cType="1" res="1.0026756674051285e-02" rms="1.1387436836957932e-01" purity="5.8519178628921509e-01" nType="0">
          <Node pos="l" depth="2" NCoef="0" IVar="-1" Cut="0.0000000000000000e+00" cType="1" res="1.7565211281180382e-02" rms="1.0813276469707489e-01" purity="6.2732243537902832e-01" nType="-99"/>
          <Node pos="r" depth="2" NCoef="0" IVar="-1" Cut="0.0000000000000000e+00" cType="1" res="-5.5199516937136650e-03" rms="1.2049640715122223e-01" purity="5.1868891716003418e-01" nType="-99"/>
        </Node>
        <Node pos="r" depth="1" NCoef="0" IVar="11" Cut="1.9852843750000000e+04" cType="1" res="-1.7334631411358714e-03" rms="1.4509616792201996e-01" purity="4.8531895875930786e-01" nType="0">
          <Node pos="l" depth="2" NCoef="0" IVar="-1" Cut="0.0000000000000000e+00" cType="1" res="8.2169631496071815e-03" rms="1.3871991634368896e-01" purity="3.8551461696624756e-01" nType="-99"/>
          <Node pos="r" depth="2" NCoef="0" IVar="-1" Cut="0.0000000000000000e+00" cType="1" res="-4.4123418629169464e-03" rms="1.4750580489635468e-01" purity="5.2859503030776978e-01" nType="-99"/>
        </Node>
      </Node>
    </BinaryTree>
    <BinaryTree type="DecisionTree" boostWeight="1.0000000000000000e+00" itree="446">
      <Node pos="s" depth="0" NCoef="0" IVar="4" Cut="8.9473457336425781e+00" cType="1" res="-3.5818566175294109e-06" rms="1.4076893031597137e-01" purity="5.0000000000000000e-01" nType="0">
        <Node pos="l" depth="1" NCoef="0" IVar="5" Cut="9.2794299125671387e-01" cType="1" res="9.8287500441074371e-04" rms="1.4356282353401184e-01" purity="5.2158498764038086e-01" nType="0">
          <Node pos="l" depth="2" NCoef="0" IVar="-1" Cut="0.0000000000000000e+00" cType="1" res="-1.8335280474275351e-03" rms="1.3763462007045746e-01" purity="5.0570046901702881e-01" nType="-99"/>
          <Node pos="r" depth="2" NCoef="0" IVar="-1" Cut="0.0000000000000000e+00" cType="1" res="1.4099271968007088e-02" rms="1.7337709665298462e-01" purity="6.1654138565063477e-01" nType="-99"/>
        </Node>
        <Node pos="r" depth="1" NCoef="0" IVar="-1" Cut="0.0000000000000000e+00" cType="1" res="-2.1025298163294792e-02" rms="7.9696498811244965e-02" purity="1.4186850190162659e-01" nType="-99"/>
      </Node>
    </BinaryTree>
    <BinaryTree type="DecisionTree" boostWeight="1.0000000000000000e+00" itree="447">
      <Node pos="s" depth="0" NCoef="0" IVar="2" Cut="5.8343754882812500e+03" cType="1" res="-3.0678083930979483e-06" rms="1.4063332974910736e-01" purity="5.0000000000000000e-01" nType="0">
        <Node pos="l" depth="1" NCoef="0" IVar="6" Cut="1.3047795104980469e+02" cType="1" res="1.6868435777723789e-03" rms="1.4429031312465668e-01" purity="5.6466394662857056e-01" nType="0">
          <Node pos="l" depth="2" NCoef="0" IVar="-1" Cut="0.0000000000000000e+00" cType="1" res="-4.0945080108940601e-03" rms="1.5996113419532776e-01" purity="5.4832124710083008e-01" nType="-99"/>
          <Node pos="r" depth="2" NCoef="0" IVar="-1" Cut="0.0000000000000000e+00" cType="1" res="9.5439236611127853e-03" rms="1.2174341827630997e-01" purity="5.8460742235183716e-01" nType="-99"/>
        </Node>
        <Node pos="r" depth="1" NCoef="0" IVar="5" Cut="2.7261134982109070e-01" cType="1" res="-9.3870675191283226e-03" rms="1.1784670501947403e-01" purity="1.4092373847961426e-01" nType="0">
          <Node pos="l" depth="2" NCoef="0" IVar="-1" Cut="0.0000000000000000e+00" cType="1" res="-3.3759355545043945e-02" rms="9.4677984714508057e-02" purity="4.2224511504173279e-02" nType="-99"/>
          <Node pos="r" depth="2" NCoef="0" IVar="-1" Cut="0.0000000000000000e+00" cType="1" res="3.7823757156729698e-03" rms="1.3009126484394073e-01" purity="2.1157389879226685e-01" nType="-99"/>
        </Node>
      </Node>
    </BinaryTree>
    <BinaryTree type="DecisionTree" boostWeight="1.0000000000000000e+00" itree="448">
      <Node pos="s" depth="0" NCoef="0" IVar="8" Cut="2.1462006835937500e+03" cType="1" res="-4.8891083679336589e-06" rms="1.4051449298858643e-01" purity="5.0000000000000000e-01" nType="0">
        <Node pos="l" depth="1" NCoef="0" IVar="3" Cut="1.6816038818359375e+03" cType="1" res="-3.0990636441856623e-03" rms="1.4556579291820526e-01" purity="4.2910337448120117e-01" nType="0">
          <Node pos="l" depth="2" NCoef="0" IVar="-1" Cut="0.0000000000000000e+00" cType="1" res="-1.0504744946956635e-02" rms="1.2814445793628693e-01" purity="3.2532304525375366e-01" nType="-99"/>
          <Node pos="r" depth="2" NCoef="0" IVar="-1" Cut="0.0000000000000000e+00" cType="1" res="3.3522266894578934e-03" rms="1.5759845077991486e-01" purity="5.1194357872009277e-01" nType="-99"/>
        </Node>
        <Node pos="r" depth="1" NCoef="0" IVar="4" Cut="5.8884048461914062e+00" cType="1" res="5.7800239883363247e-03" rms="1.3035036623477936e-01" purity="6.3254940509796143e-01" nType="0">
          <Node pos="l" depth="2" NCoef="0" IVar="-1" Cut="0.0000000000000000e+00" cType="1" res="1.8474247306585312e-02" rms="9.5161370933055878e-02" purity="6.6090959310531616e-01" nType="-99"/>
          <Node pos="r" depth="2" NCoef="0" IVar="-1" Cut="0.0000000000000000e+00" cType="1" res="-4.6741967089474201e-03" rms="1.5592321753501892e-01" purity="6.0527771711349487e-01" nType="-99"/>
        </Node>
      </Node>
    </BinaryTree>
    <BinaryTree type="DecisionTree" boostWeight="1.0000000000000000e+00" itree="449">
      <Node pos="s" depth="0" NCoef="0" IVar="12" Cut="4.7108286132812500e+03" cType="1" res="-3.3115622954937862e-06" rms="1.4032258093357086e-01" purity="5.0000000000000000e-01" nType="0">
        <Node pos="l" depth="1" NCoef="0" IVar="0" Cut="3.6916093750000000e+03" cType="1" res="-2.4525632616132498e-03" rms="1.4440232515335083e-01" purity="4.3397724628448486e-01" nType="0">
          <Node pos="l" depth="2" NCoef="0" IVar="-1" Cut="0.0000000000000000e+00" cType="1" res="2.6915455237030983e-03" rms="1.2713569402694702e-01" purity="4.0458148717880249e-01" nType="-99"/>
          <Node pos="r" depth="2" NCoef="0" IVar="-1" Cut="0.0000000000000000e+00" cType="1" res="-1.2841221876442432e-02" rms="1.8585540354251862e-01" purity="5.2257037162780762e-01" nType="-99"/>
        </Node>
        <Node pos="r" depth="1" NCoef="0" IVar="2" Cut="5.6679995117187500e+03" cType="1" res="7.0891957730054855e-03" rms="1.2751077115535736e-01" purity="6.9118773937225342e-01" nType="0">
          <Node pos="l" depth="2" NCoef="0" IVar="-1" Cut="0.0000000000000000e+00" cType="1" res="-9.1736130416393280e-03" rms="1.2552194297313690e-01" purity="7.0910763740539551e-01" nType="-99"/>
          <Node pos="r" depth="2" NCoef="0" IVar="-1" Cut="0.0000000000000000e+00" cType="1" res="3.3056307584047318e-02" rms="1.2252068519592285e-01" purity="6.5052193403244019e-01" nType="-99"/>
        </Node>
      </Node>
    </BinaryTree>
    <BinaryTree type="DecisionTree" boostWeight="1.0000000000000000e+00" itree="450">
      <Node pos="s" depth="0" NCoef="0" IVar="8" Cut="2.1462006835937500e+03" cType="1" res="-4.2488974116849931e-08" rms="1.3973899185657501e-01" purity="5.0000000000000000e-01" nType="0">
        <Node pos="l" depth="1" NCoef="0" IVar="12" Cut="3.0015578613281250e+03" cType="1" res="-3.0432639177888632e-03" rms="1.4457623660564423e-01" purity="4.2910337448120117e-01" nType="0">
          <Node pos="l" depth="2" NCoef="0" IVar="-1" Cut="0.0000000000000000e+00" cType="1" res="-1.7098493874073029e-02" rms="1.3603863120079041e-01" purity="1.9916096329689026e-01" nType="-99"/>
          <Node pos="r" depth="2" NCoef="0" IVar="-1" Cut="0.0000000000000000e+00" cType="1" res="1.3941910583525896e-03" rms="1.4660297334194183e-01" purity="4.9696967005729675e-01" nType="-99"/>
        </Node>
        <Node pos="r" depth="1" NCoef="0" IVar="12" Cut="4.0455397949218750e+03" cType="1" res="5.6896079331636429e-03" rms="1.3002310693264008e-01" purity="6.3254940509796143e-01" nType="0">
          <Node pos="l" depth="2" NCoef="0" IVar="-1" Cut="0.0000000000000000e+00" cType="1" res="-1.2619082117453218e-03" rms="1.4652559161186218e-01" purity="5.1925557851791382e-01" nType="-99"/>
          <Node pos="r" depth="2" NCoef="0" IVar="-1" Cut="0.0000000000000000e+00" cType="1" res="3.9646178483963013e-02" rms="6.4388640224933624e-02" purity="9.3568468093872070e-01" nType="-99"/>
        </Node>
      </Node>
    </BinaryTree>
    <BinaryTree type="DecisionTree" boostWeight="1.0000000000000000e+00" itree="451">
      <Node pos="s" depth="0" NCoef="0" IVar="2" Cut="5.6926562500000000e+03" cType="1" res="3.8851030694786459e-06" rms="1.3948535919189453e-01" purity="5.0000000000000000e-01" nType="0">
        <Node pos="l" depth="1" NCoef="0" IVar="3" Cut="1.4928527832031250e+03" cType="1" res="2.5475309230387211e-03" rms="1.4224469661712646e-01" purity="5.5998927354812622e-01" nType="0">
          <Node pos="l" depth="2" NCoef="0" IVar="-1" Cut="0.0000000000000000e+00" cType="1" res="-1.4249759726226330e-02" rms="1.6894754767417908e-01" purity="2.8781110048294067e-01" nType="-99"/>
          <Node pos="r" depth="2" NCoef="0" IVar="-1" Cut="0.0000000000000000e+00" cType="1" res="5.2195689640939236e-03" rms="1.3692000508308411e-01" purity="6.0425531864166260e-01" nType="-99"/>
        </Node>
        <Node pos="r" depth="1" NCoef="0" IVar="4" Cut="5.2251124382019043e+00" cType="1" res="-7.0316507481038570e-03" rms="1.3129575550556183e-01" purity="3.3407407999038696e-01" nType="0">
          <Node pos="l" depth="2" NCoef="0" IVar="-1" Cut="0.0000000000000000e+00" cType="1" res="1.2670970521867275e-02" rms="1.1244314908981323e-01" purity="3.8831886649131775e-01" nType="-99"/>
          <Node pos="r" depth="2" NCoef="0" IVar="-1" Cut="0.0000000000000000e+00" cType="1" res="-1.8366962671279907e-02" rms="1.4315600693225861e-01" purity="2.8611305356025696e-01" nType="-99"/>
        </Node>
      </Node>
    </BinaryTree>
    <BinaryTree type="DecisionTree" boostWeight="1.0000000000000000e+00" itree="452">
      <Node pos="s" depth="0" NCoef="0" IVar="2" Cut="5.3147377929687500e+03" cType="1" res="2.2643973807134898e-06" rms="1.3923342525959015e-01" purity="5.0000000000000000e-01" nType="0">
        <Node pos="l" depth="1" NCoef="0" IVar="6" Cut="1.5137452697753906e+02" cType="1" res="-9.5488280057907104e-03" rms="4.8525612801313400e-02" purity="5.1217984408140182e-02" nType="0">
          <Node pos="l" depth="2" NCoef="0" IVar="-1" Cut="0.0000000000000000e+00" cType="1" res="-5.4379314184188843e-02" rms="3.3141531050205231e-02" purity="0.0000000000000000e+00" nType="-99"/>
          <Node pos="r" depth="2" NCoef="0" IVar="-1" Cut="0.0000000000000000e+00" cType="1" res="-8.0172391608357430e-03" rms="5.6634601205587387e-02" purity="8.9227415621280670e-02" nType="-99"/>
        </Node>
        <Node pos="r" depth="1" NCoef="0" IVar="10" Cut="5.5565881347656250e+02" cType="1" res="1.7871714662760496e-03" rms="1.5016159415245056e-01" purity="5.8386832475662231e-01" nType="0">
          <Node pos="l" depth="2" NCoef="0" IVar="-1" Cut="0.0000000000000000e+00" cType="1" res="3.5438807681202888e-03" rms="1.5389905869960785e-01" purity="5.7431203126907349e-01" nType="-99"/>
          <Node pos="r" depth="2" NCoef="0" IVar="-1" Cut="0.0000000000000000e+00" cType="1" res="-6.9175981916487217e-03" rms="1.4030113816261292e-01" purity="6.0676527023315430e-01" nType="-99"/>
        </Node>
      </Node>
    </BinaryTree>
    <BinaryTree type="DecisionTree" boostWeight="1.0000000000000000e+00" itree="453">
      <Node pos="s" depth="0" NCoef="0" IVar="3" Cut="3.3495236816406250e+03" cType="1" res="-3.0411915759032127e-06" rms="1.3911356031894684e-01" purity="5.0000000000000000e-01" nType="0">
        <Node pos="l" depth="1" NCoef="0" IVar="10" Cut="6.5294470214843750e+02" cType="1" res="-1.8749788869172335e-03" rms="1.4389252662658691e-01" purity="4.6687203645706177e-01" nType="0">
          <Node pos="l" depth="2" NCoef="0" IVar="-1" Cut="0.0000000000000000e+00" cType="1" res="8.3109975093975663e-04" rms="1.4371968805789948e-01" purity="4.7400817275047302e-01" nType="-99"/>
          <Node pos="r" depth="2" NCoef="0" IVar="-1" Cut="0.0000000000000000e+00" cType="1" res="-4.6188909560441971e-02" rms="1.3851357996463776e-01" purity="3.5942393541336060e-01" nType="-99"/>
        </Node>
        <Node pos="r" depth="1" NCoef="0" IVar="11" Cut="4.1571007812500000e+04" cType="1" res="9.8719019442796707e-03" rms="1.1000868678092957e-01" purity="6.7475825548171997e-01" nType="0">
          <Node pos="l" depth="2" NCoef="0" IVar="-1" Cut="0.0000000000000000e+00" cType="1" res="2.2189239040017128e-02" rms="1.0638372600078583e-01" purity="6.5797388553619385e-01" nType="-99"/>
          <Node pos="r" depth="2" NCoef="0" IVar="-1" Cut="0.0000000000000000e+00" cType="1" res="-1.0517946444451809e-02" rms="1.1219815164804459e-01" purity="7.0160424709320068e-01" nType="-99"/>
        </Node>
      </Node>
    </BinaryTree>
    <BinaryTree type="DecisionTree" boostWeight="1.0000000000000000e+00" itree="454">
      <Node pos="s" depth="0" NCoef="0" IVar="8" Cut="2.1462006835937500e+03" cType="1" res="-3.7476613670150982e-06" rms="1.3861396908760071e-01" purity="5.0000000000000000e-01" nType="0">
        <Node pos="l" depth="1" NCoef="0" IVar="0" Cut="3.4864875488281250e+03" cType="1" res="-3.0438003595918417e-03" rms="1.4378540217876434e-01" purity="4.2910337448120117e-01" nType="0">
          <Node pos="l" depth="2" NCoef="0" IVar="-1" Cut="0.0000000000000000e+00" cType="1" res="3.5030250437557697e-03" rms="1.2914110720157623e-01" purity="3.6273744702339172e-01" nType="-99"/>
          <Node pos="r" depth="2" NCoef="0" IVar="-1" Cut="0.0000000000000000e+00" cType="1" res="-8.2787480205297470e-03" rms="1.6126501560211182e-01" purity="5.2079087495803833e-01" nType="-99"/>
        </Node>
        <Node pos="r" depth="1" NCoef="0" IVar="4" Cut="7.3090806007385254e+00" cType="1" res="5.6799785234034061e-03" rms="1.2819455564022064e-01" purity="6.3254940509796143e-01" nType="0">
          <Node pos="l" depth="2" NCoef="0" IVar="-1" Cut="0.0000000000000000e+00" cType="1" res="-1.0454839793965220e-03" rms="1.3163696229457855e-01" purity="5.9780055284500122e-01" nType="-99"/>
          <Node pos="r" depth="2" NCoef="0" IVar="-1" Cut="0.0000000000000000e+00" cType="1" res="2.4751540273427963e-02" rms="1.1373727023601532e-01" purity="7.4339771270751953e-01" nType="-99"/>
        </Node>
      </Node>
    </BinaryTree>
    <BinaryTree type="DecisionTree" boostWeight="1.0000000000000000e+00" itree="455">
      <Node pos="s" depth="0" NCoef="0" IVar="0" Cut="2.1678354492187500e+03" cType="1" res="-2.2095387066656258e-06" rms="1.3833022117614746e-01" purity="5.0000000000000000e-01" nType="0">
        <Node pos="l" depth="1" NCoef="0" IVar="8" Cut="1.5104876708984375e+03" cType="1" res="-6.8472395651042461e-03" rms="1.4615678787231445e-01" purity="3.1297710537910461e-01" nType="0">
          <Node pos="l" depth="2" NCoef="0" IVar="-1" Cut="0.0000000000000000e+00" cType="1" res="1.9557919353246689e-02" rms="1.3306772708892822e-01" purity="2.4848483502864838e-01" nType="-99"/>
          <Node pos="r" depth="2" NCoef="0" IVar="-1" Cut="0.0000000000000000e+00" cType="1" res="-1.4070869423449039e-02" rms="1.5053410828113556e-01" purity="3.5015529394149780e-01" nType="-99"/>
        </Node>
        <Node pos="r" depth="1" NCoef="0" IVar="8" Cut="1.5782382812500000e+03" cType="1" res="2.4817208759486675e-03" rms="1.3529264926910400e-01" purity="5.6786704063415527e-01" nType="0">
          <Node pos="l" depth="2" NCoef="0" IVar="-1" Cut="0.0000000000000000e+00" cType="1" res="-6.0880109667778015e-03" rms="1.4111141860485077e-01" purity="4.1770136356353760e-01" nType="-99"/>
          <Node pos="r" depth="2" NCoef="0" IVar="-1" Cut="0.0000000000000000e+00" cType="1" res="9.2472340911626816e-03" rms="1.3027292490005493e-01" purity="6.7705839872360229e-01" nType="-99"/>
        </Node>
      </Node>
    </BinaryTree>
    <BinaryTree type="DecisionTree" boostWeight="1.0000000000000000e+00" itree="456">
      <Node pos="s" depth="0" NCoef="0" IVar="9" Cut="8.1966767578125000e+03" cType="1" res="-1.4850866136839613e-06" rms="1.3795536756515503e-01" purity="5.0000000000000000e-01" nType="0">
        <Node pos="l" depth="1" NCoef="0" IVar="9" Cut="6.8936367187500000e+03" cType="1" res="-1.5213127480819821e-03" rms="1.3672901690006256e-01" purity="5.0301074981689453e-01" nType="0">
          <Node pos="l" depth="2" NCoef="0" IVar="-1" Cut="0.0000000000000000e+00" cType="1" res="1.5846026362851262e-03" rms="1.4097727835178375e-01" purity="5.1583510637283325e-01" nType="-99"/>
          <Node pos="r" depth="2" NCoef="0" IVar="-1" Cut="0.0000000000000000e+00" cType="1" res="-2.2995483130216599e-02" rms="1.0142041742801666e-01" purity="4.1908004879951477e-01" nType="-99"/>
        </Node>
        <Node pos="r" depth="1" NCoef="0" IVar="10" Cut="4.6481982421875000e+02" cType="1" res="1.0269333608448505e-02" rms="1.4555768668651581e-01" purity="4.7965413331985474e-01" nType="0">
          <Node pos="l" depth="2" NCoef="0" IVar="-1" Cut="0.0000000000000000e+00" cType="1" res="3.8581669330596924e-02" rms="1.4175075292587280e-01" purity="4.2728567123413086e-01" nType="-99"/>
          <Node pos="r" depth="2" NCoef="0" IVar="-1" Cut="0.0000000000000000e+00" cType="1" res="-3.1311299651861191e-02" rms="1.3478909432888031e-01" purity="5.4036241769790649e-01" nType="-99"/>
        </Node>
      </Node>
    </BinaryTree>
    <BinaryTree type="DecisionTree" boostWeight="1.0000000000000000e+00" itree="457">
      <Node pos="s" depth="0" NCoef="0" IVar="2" Cut="5.3619775390625000e+03" cType="1" res="4.8559746801402071e-07" rms="1.3717539608478546e-01" purity="5.0000000000000000e-01" nType="0">
        <Node pos="l" depth="1" NCoef="0" IVar="10" Cut="4.0959487915039062e+02" cType="1" res="-8.2349497824907303e-03" rms="6.1186786741018295e-02" purity="8.7747447192668915e-02" nType="0">
          <Node pos="l" depth="2" NCoef="0" IVar="-1" Cut="0.0000000000000000e+00" cType="1" res="-3.7968575954437256e-02" rms="5.3668878972530365e-02" purity="4.3260354548692703e-02" nType="-99"/>
          <Node pos="r" depth="2" NCoef="0" IVar="-1" Cut="0.0000000000000000e+00" cType="1" res="1.4162890613079071e-02" rms="7.1316890418529510e-02" purity="1.8061673641204834e-01" nType="-99"/>
        </Node>
        <Node pos="r" depth="1" NCoef="0" IVar="2" Cut="5.4715375976562500e+03" cType="1" res="1.8551703542470932e-03" rms="1.4897312223911285e-01" purity="5.9284245967864990e-01" nType="0">
          <Node pos="l" depth="2" NCoef="0" IVar="-1" Cut="0.0000000000000000e+00" cType="1" res="1.6780082136392593e-02" rms="8.8949218392372131e-02" purity="6.8059527873992920e-01" nType="-99"/>
          <Node pos="r" depth="2" NCoef="0" IVar="-1" Cut="0.0000000000000000e+00" cType="1" res="-6.7450309870764613e-04" rms="1.5640725195407867e-01" purity="5.7851701974868774e-01" nType="-99"/>
        </Node>
      </Node>
    </BinaryTree>
    <BinaryTree type="DecisionTree" boostWeight="1.0000000000000000e+00" itree="458">
      <Node pos="s" depth="0" NCoef="0" IVar="12" Cut="4.7108286132812500e+03" cType="1" res="-2.5527756406518165e-06" rms="1.3694974780082703e-01" purity="5.0000000000000000e-01" nType="0">
        <Node pos="l" depth="1" NCoef="0" IVar="11" Cut="3.2151783203125000e+04" cType="1" res="-2.3254782427102327e-03" rms="1.4100818336009979e-01" purity="4.3397724628448486e-01" nType="0">
          <Node pos="l" depth="2" NCoef="0" IVar="-1" Cut="0.0000000000000000e+00" cType="1" res="-9.9925175309181213e-03" rms="1.3421522080898285e-01" purity="3.4512344002723694e-01" nType="-99"/>
          <Node pos="r" depth="2" NCoef="0" IVar="-1" Cut="0.0000000000000000e+00" cType="1" res="5.6367344222962856e-03" rms="1.4793059229850769e-01" purity="5.4036241769790649e-01" nType="-99"/>
        </Node>
        <Node pos="r" depth="1" NCoef="0" IVar="11" Cut="5.4293945312500000e+04" cType="1" res="6.7241406068205833e-03" rms="1.2420830130577087e-01" purity="6.9118773937225342e-01" nType="0">
          <Node pos="l" depth="2" NCoef="0" IVar="-1" Cut="0.0000000000000000e+00" cType="1" res="2.8544260188937187e-02" rms="9.4365902245044708e-02" purity="7.3832297325134277e-01" nType="-99"/>
          <Node pos="r" depth="2" NCoef="0" IVar="-1" Cut="0.0000000000000000e+00" cType="1" res="-1.2650140561163425e-02" rms="1.4034149050712585e-01" purity="6.5201121568679810e-01" nType="-99"/>
        </Node>
      </Node>
    </BinaryTree>
    <BinaryTree type="DecisionTree" boostWeight="1.0000000000000000e+00" itree="459">
      <Node pos="s" depth="0" NCoef="0" IVar="8" Cut="2.1462006835937500e+03" cType="1" res="1.0871325457628700e-06" rms="1.3652200996875763e-01" purity="5.0000000000000000e-01" nType="0">
        <Node pos="l" depth="1" NCoef="0" IVar="4" Cut="7.1402935981750488e+00" cType="1" res="-2.9073613695800304e-03" rms="1.4121170341968536e-01" purity="4.2910337448120117e-01" nType="0">
          <Node pos="l" depth="2" NCoef="0" IVar="-1" Cut="0.0000000000000000e+00" cType="1" res="8.9162803487852216e-04" rms="1.3558581471443176e-01" purity="4.7941285371780396e-01" nType="-99"/>
          <Node pos="r" depth="2" NCoef="0" IVar="-1" Cut="0.0000000000000000e+00" cType="1" res="-1.4938714914023876e-02" rms="1.6170319914817810e-01" purity="2.1601682901382446e-01" nType="-99"/>
        </Node>
        <Node pos="r" depth="1" NCoef="0" IVar="4" Cut="5.8884048461914062e+00" cType="1" res="5.4387641139328480e-03" rms="1.2711304426193237e-01" purity="6.3254940509796143e-01" nType="0">
          <Node pos="l" depth="2" NCoef="0" IVar="-1" Cut="0.0000000000000000e+00" cType="1" res="1.7636811360716820e-02" rms="9.3711964786052704e-02" purity="6.6090959310531616e-01" nType="-99"/>
          <Node pos="r" depth="2" NCoef="0" IVar="-1" Cut="0.0000000000000000e+00" cType="1" res="-4.4275633990764618e-03" rms="1.5159411728382111e-01" purity="6.0527771711349487e-01" nType="-99"/>
        </Node>
      </Node>
    </BinaryTree>
    <BinaryTree type="DecisionTree" boostWeight="1.0000000000000000e+00" itree="460">
      <Node pos="s" depth="0" NCoef="0" IVar="2" Cut="5.8343754882812500e+03" cType="1" res="1.8778073354042135e-06" rms="1.3634172081947327e-01" purity="5.0000000000000000e-01" nType="0">
        <Node pos="l" depth="1" NCoef="0" IVar="6" Cut="6.8348541259765625e+01" cType="1" res="1.7529652686789632e-03" rms="1.3975162804126740e-01" purity="5.6466394662857056e-01" nType="0">
          <Node pos="l" depth="2" NCoef="0" IVar="-1" Cut="0.0000000000000000e+00" cType="1" res="-6.1314962804317474e-03" rms="1.5798719227313995e-01" purity="4.4982251524925232e-01" nType="-99"/>
          <Node pos="r" depth="2" NCoef="0" IVar="-1" Cut="0.0000000000000000e+00" cType="1" res="7.0030908100306988e-03" rms="1.2788175046443939e-01" purity="6.2916868925094604e-01" nType="-99"/>
        </Node>
        <Node pos="r" depth="1" NCoef="0" IVar="5" Cut="2.7261134982109070e-01" cType="1" res="-9.7218295559287071e-03" rms="1.1510702222585678e-01" purity="1.4092373847961426e-01" nType="0">
          <Node pos="l" depth="2" NCoef="0" IVar="-1" Cut="0.0000000000000000e+00" cType="1" res="-3.4899611026048660e-02" rms="9.3084476888179779e-02" purity="4.2224511504173279e-02" nType="-99"/>
          <Node pos="r" depth="2" NCoef="0" IVar="-1" Cut="0.0000000000000000e+00" cType="1" res="3.6551677621901035e-03" rms="1.2664839625358582e-01" purity="2.1157389879226685e-01" nType="-99"/>
        </Node>
      </Node>
    </BinaryTree>
    <BinaryTree type="DecisionTree" boostWeight="1.0000000000000000e+00" itree="461">
      <Node pos="s" depth="0" NCoef="0" IVar="4" Cut="1.7191365957260132e+00" cType="1" res="-9.5262407739937771e-07" rms="1.3624569773674011e-01" purity="5.0000000000000000e-01" nType="0">
        <Node pos="l" depth="1" NCoef="0" IVar="9" Cut="4.2508598632812500e+03" cType="1" res="-1.1873783543705940e-02" rms="8.9600041508674622e-02" purity="1.9036564230918884e-01" nType="0">
          <Node pos="l" depth="2" NCoef="0" IVar="-1" Cut="0.0000000000000000e+00" cType="1" res="1.8534024711698294e-03" rms="8.1092521548271179e-02" purity="2.5324273109436035e-01" nType="-99"/>
          <Node pos="r" depth="2" NCoef="0" IVar="-1" Cut="0.0000000000000000e+00" cType="1" res="-2.1117333322763443e-02" rms="9.4917550683021545e-02" purity="1.3464696705341339e-01" nType="-99"/>
        </Node>
        <Node pos="r" depth="1" NCoef="0" IVar="6" Cut="2.2315925598144531e+02" cType="1" res="1.5111243119463325e-03" rms="1.4101174473762512e-01" purity="5.3943377733230591e-01" nType="0">
          <Node pos="l" depth="2" NCoef="0" IVar="-1" Cut="0.0000000000000000e+00" cType="1" res="-1.2220612261444330e-03" rms="1.4685876667499542e-01" purity="5.4260933399200439e-01" nType="-99"/>
          <Node pos="r" depth="2" NCoef="0" IVar="-1" Cut="0.0000000000000000e+00" cType="1" res="1.5849400311708450e-02" rms="1.0755320638418198e-01" purity="5.2429670095443726e-01" nType="-99"/>
        </Node>
      </Node>
    </BinaryTree>
    <BinaryTree type="DecisionTree" boostWeight="1.0000000000000000e+00" itree="462">
      <Node pos="s" depth="0" NCoef="0" IVar="8" Cut="1.8622194824218750e+03" cType="1" res="-9.2770682158516138e-07" rms="1.3616262376308441e-01" purity="5.0000000000000000e-01" nType="0">
        <Node pos="l" depth="1" NCoef="0" IVar="1" Cut="5.3036671875000000e+04" cType="1" res="-3.6520175635814667e-03" rms="1.4347223937511444e-01" purity="3.9366996288299561e-01" nType="0">
          <Node pos="l" depth="2" NCoef="0" IVar="-1" Cut="0.0000000000000000e+00" cType="1" res="-2.3357408121228218e-02" rms="1.2304052710533142e-01" purity="2.7424749732017517e-01" nType="-99"/>
          <Node pos="r" depth="2" NCoef="0" IVar="-1" Cut="0.0000000000000000e+00" cType="1" res="5.0723967142403126e-03" rms="1.5077120065689087e-01" purity="4.4960832595825195e-01" nType="-99"/>
        </Node>
        <Node pos="r" depth="1" NCoef="0" IVar="9" Cut="8.0922368164062500e+03" cType="1" res="4.5179389417171478e-03" rms="1.2638632953166962e-01" purity="6.3160210847854614e-01" nType="0">
          <Node pos="l" depth="2" NCoef="0" IVar="-1" Cut="0.0000000000000000e+00" cType="1" res="7.7316099777817726e-03" rms="1.2361853569746017e-01" purity="6.3565891981124878e-01" nType="-99"/>
          <Node pos="r" depth="2" NCoef="0" IVar="-1" Cut="0.0000000000000000e+00" cType="1" res="-2.5530198588967323e-02" rms="1.3977521657943726e-01" purity="6.0183483362197876e-01" nType="-99"/>
        </Node>
      </Node>
    </BinaryTree>
    <BinaryTree type="DecisionTree" boostWeight="1.0000000000000000e+00" itree="463">
      <Node pos="s" depth="0" NCoef="0" IVar="2" Cut="5.4564570312500000e+03" cType="1" res="-2.4145656425389461e-06" rms="1.3568677008152008e-01" purity="5.0000000000000000e-01" nType="0">
        <Node pos="l" depth="1" NCoef="0" IVar="4" Cut="2.9238381385803223e+00" cType="1" res="-6.7387078888714314e-03" rms="6.7159026861190796e-02" purity="2.4002927541732788e-01" nType="0">
          <Node pos="l" depth="2" NCoef="0" IVar="-1" Cut="0.0000000000000000e+00" cType="1" res="-5.4446283727884293e-02" rms="5.2541680634021759e-02" purity="3.4067302942276001e-02" nType="-99"/>
          <Node pos="r" depth="2" NCoef="0" IVar="-1" Cut="0.0000000000000000e+00" cType="1" res="3.0471340287476778e-03" rms="7.0425607264041901e-02" purity="3.2562154531478882e-01" nType="-99"/>
        </Node>
        <Node pos="r" depth="1" NCoef="0" IVar="12" Cut="2.6933044433593750e+03" cType="1" res="2.4737508501857519e-03" rms="1.5328972041606903e-01" purity="5.9556156396865845e-01" nType="0">
          <Node pos="l" depth="2" NCoef="0" IVar="-1" Cut="0.0000000000000000e+00" cType="1" res="-9.6329990774393082e-03" rms="1.2778311967849731e-01" purity="3.0597016215324402e-01" nType="-99"/>
          <Node pos="r" depth="2" NCoef="0" IVar="-1" Cut="0.0000000000000000e+00" cType="1" res="4.3295728974044323e-03" rms="1.5888606011867523e-01" purity="6.6989690065383911e-01" nType="-99"/>
        </Node>
      </Node>
    </BinaryTree>
    <BinaryTree type="DecisionTree" boostWeight="1.0000000000000000e+00" itree="464">
      <Node pos="s" depth="0" NCoef="0" IVar="9" Cut="8.1966767578125000e+03" cType="1" res="-1.0941536856989842e-05" rms="1.3552504777908325e-01" purity="5.0000000000000000e-01" nType="0">
        <Node pos="l" depth="1" NCoef="0" IVar="10" Cut="3.4829486083984375e+02" cType="1" res="-1.5697696944698691e-03" rms="1.3496272265911102e-01" purity="5.0301074981689453e-01" nType="0">
          <Node pos="l" depth="2" NCoef="0" IVar="-1" Cut="0.0000000000000000e+00" cType="1" res="-8.9223263785243034e-03" rms="1.4169251918792725e-01" purity="3.9600330591201782e-01" nType="-99"/>
          <Node pos="r" depth="2" NCoef="0" IVar="-1" Cut="0.0000000000000000e+00" cType="1" res="5.5543822236359119e-03" rms="1.2848241627216339e-01" purity="5.9126490354537964e-01" nType="-99"/>
        </Node>
        <Node pos="r" depth="1" NCoef="0" IVar="10" Cut="4.6481982421875000e+02" cType="1" res="1.0523438453674316e-02" rms="1.3880750536918640e-01" purity="4.7965413331985474e-01" nType="0">
          <Node pos="l" depth="2" NCoef="0" IVar="-1" Cut="0.0000000000000000e+00" cType="1" res="3.6190897226333618e-02" rms="1.3747406005859375e-01" purity="4.2728567123413086e-01" nType="-99"/>
          <Node pos="r" depth="2" NCoef="0" IVar="-1" Cut="0.0000000000000000e+00" cType="1" res="-2.6865663006901741e-02" rms="1.2791700661182404e-01" purity="5.4036241769790649e-01" nType="-99"/>
        </Node>
      </Node>
    </BinaryTree>
    <BinaryTree type="DecisionTree" boostWeight="1.0000000000000000e+00" itree="465">
      <Node pos="s" depth="0" NCoef="0" IVar="8" Cut="1.8622194824218750e+03" cType="1" res="-7.2796801759977825e-06" rms="1.3491347432136536e-01" purity="5.0000000000000000e-01" nType="0">
        <Node pos="l" depth="1" NCoef="0" IVar="1" Cut="5.3036671875000000e+04" cType="1" res="-3.7088256794959307e-03" rms="1.4237736165523529e-01" purity="3.9366996288299561e-01" nType="0">
          <Node pos="l" depth="2" NCoef="0" IVar="-1" Cut="0.0000000000000000e+00" cType="1" res="-2.1579956635832787e-02" rms="1.2191347777843475e-01" purity="2.7424749732017517e-01" nType="-99"/>
          <Node pos="r" depth="2" NCoef="0" IVar="-1" Cut="0.0000000000000000e+00" cType="1" res="4.3037799187004566e-03" rms="1.4993201196193695e-01" purity="4.4960832595825195e-01" nType="-99"/>
        </Node>
        <Node pos="r" depth="1" NCoef="0" IVar="4" Cut="5.4148464202880859e+00" cType="1" res="4.5740348286926746e-03" rms="1.2490843981504440e-01" purity="6.3160210847854614e-01" nType="0">
          <Node pos="l" depth="2" NCoef="0" IVar="-1" Cut="0.0000000000000000e+00" cType="1" res="1.9712463021278381e-02" rms="8.5005484521389008e-02" purity="7.1343123912811279e-01" nType="-99"/>
          <Node pos="r" depth="2" NCoef="0" IVar="-1" Cut="0.0000000000000000e+00" cType="1" res="-3.8215513341128826e-03" rms="1.4510333538055420e-01" purity="5.7597041130065918e-01" nType="-99"/>
        </Node>
      </Node>
    </BinaryTree>
    <BinaryTree type="DecisionTree" boostWeight="1.0000000000000000e+00" itree="466">
      <Node pos="s" depth="0" NCoef="0" IVar="2" Cut="5.8343754882812500e+03" cType="1" res="-5.9734566093538888e-06" rms="1.3460718095302582e-01" purity="5.0000000000000000e-01" nType="0">
        <Node pos="l" depth="1" NCoef="0" IVar="6" Cut="6.8348541259765625e+01" cType="1" res="1.6784968320280313e-03" rms="1.3786633312702179e-01" purity="5.6466394662857056e-01" nType="0">
          <Node pos="l" depth="2" NCoef="0" IVar="-1" Cut="0.0000000000000000e+00" cType="1" res="-5.5965413339436054e-03" rms="1.5598656237125397e-01" purity="4.4982251524925232e-01" nType="-99"/>
          <Node pos="r" depth="2" NCoef="0" IVar="-1" Cut="0.0000000000000000e+00" cType="1" res="6.5778493881225586e-03" rms="1.2613856792449951e-01" purity="6.2916868925094604e-01" nType="-99"/>
        </Node>
        <Node pos="r" depth="1" NCoef="0" IVar="11" Cut="3.6049121093750000e+04" cType="1" res="-9.3597592785954475e-03" rms="1.1438811570405960e-01" purity="1.4092373847961426e-01" nType="0">
          <Node pos="l" depth="2" NCoef="0" IVar="-1" Cut="0.0000000000000000e+00" cType="1" res="7.3652458377182484e-03" rms="1.1213505268096924e-01" purity="1.0314465314149857e-01" nType="-99"/>
          <Node pos="r" depth="2" NCoef="0" IVar="-1" Cut="0.0000000000000000e+00" cType="1" res="-2.1040800958871841e-02" rms="1.1429640650749207e-01" purity="1.8061673641204834e-01" nType="-99"/>
        </Node>
      </Node>
    </BinaryTree>
    <BinaryTree type="DecisionTree" boostWeight="1.0000000000000000e+00" itree="467">
      <Node pos="s" depth="0" NCoef="0" IVar="9" Cut="2.6159143066406250e+03" cType="1" res="-6.2015474213694688e-06" rms="1.3453198969364166e-01" purity="5.0000000000000000e-01" nType="0">
        <Node pos="l" depth="1" NCoef="0" IVar="4" Cut="5.8063836097717285e+00" cType="1" res="9.6526900306344032e-03" rms="1.1031077057123184e-01" purity="5.8519178628921509e-01" nType="0">
          <Node pos="l" depth="2" NCoef="0" IVar="-1" Cut="0.0000000000000000e+00" cType="1" res="3.0752668157219887e-02" rms="7.0295087993144989e-02" purity="7.3832297325134277e-01" nType="-99"/>
          <Node pos="r" depth="2" NCoef="0" IVar="-1" Cut="0.0000000000000000e+00" cType="1" res="-2.1110773377586156e-04" rms="1.2908525764942169e-01" purity="4.8466938734054565e-01" nType="-99"/>
        </Node>
        <Node pos="r" depth="1" NCoef="0" IVar="11" Cut="1.9852843750000000e+04" cType="1" res="-1.6707085305824876e-03" rms="1.3820993900299072e-01" purity="4.8531895875930786e-01" nType="0">
          <Node pos="l" depth="2" NCoef="0" IVar="-1" Cut="0.0000000000000000e+00" cType="1" res="7.9118758440017700e-03" rms="1.3432972133159637e-01" purity="3.8551461696624756e-01" nType="-99"/>
          <Node pos="r" depth="2" NCoef="0" IVar="-1" Cut="0.0000000000000000e+00" cType="1" res="-4.3278024531900883e-03" rms="1.3961423933506012e-01" purity="5.2859503030776978e-01" nType="-99"/>
        </Node>
      </Node>
    </BinaryTree>
    <BinaryTree type="DecisionTree" boostWeight="1.0000000000000000e+00" itree="468">
      <Node pos="s" depth="0" NCoef="0" IVar="7" Cut="1.9179617187500000e+04" cType="1" res="-3.5926768759964034e-06" rms="1.3434174656867981e-01" purity="5.0000000000000000e-01" nType="0">
        <Node pos="l" depth="1" NCoef="0" IVar="10" Cut="3.4120617675781250e+02" cType="1" res="-5.0226035527884960e-03" rms="1.3526469469070435e-01" purity="4.8705983161926270e-01" nType="0">
          <Node pos="l" depth="2" NCoef="0" IVar="-1" Cut="0.0000000000000000e+00" cType="1" res="-2.6298057287931442e-02" rms="1.3360673189163208e-01" purity="3.3503574132919312e-01" nType="-99"/>
          <Node pos="r" depth="2" NCoef="0" IVar="-1" Cut="0.0000000000000000e+00" cType="1" res="8.3507932722568512e-03" rms="1.3322159647941589e-01" purity="5.6271439790725708e-01" nType="-99"/>
        </Node>
        <Node pos="r" depth="1" NCoef="0" IVar="5" Cut="4.6060702204704285e-01" cType="1" res="3.1562473159283400e-03" rms="1.3366076350212097e-01" purity="5.0814682245254517e-01" nType="0">
          <Node pos="l" depth="2" NCoef="0" IVar="-1" Cut="0.0000000000000000e+00" cType="1" res="-6.2565142288804054e-03" rms="1.3218747079372406e-01" purity="4.8822736740112305e-01" nType="-99"/>
          <Node pos="r" depth="2" NCoef="0" IVar="-1" Cut="0.0000000000000000e+00" cType="1" res="1.4072467572987080e-02" rms="1.3419082760810852e-01" purity="5.3707098960876465e-01" nType="-99"/>
        </Node>
      </Node>
    </BinaryTree>
    <BinaryTree type="DecisionTree" boostWeight="1.0000000000000000e+00" itree="469">
      <Node pos="s" depth="0" NCoef="0" IVar="12" Cut="4.7108286132812500e+03" cType="1" res="-4.0395834730588831e-06" rms="1.3363884389400482e-01" purity="5.0000000000000000e-01" nType="0">
        <Node pos="l" depth="1" NCoef="0" IVar="0" Cut="3.6916093750000000e+03" cType="1" res="-2.4326562415808439e-03" rms="1.3763257861137390e-01" purity="4.3397724628448486e-01" nType="0">
          <Node pos="l" depth="2" NCoef="0" IVar="-1" Cut="0.0000000000000000e+00" cType="1" res="2.4957628920674324e-03" rms="1.2008729577064514e-01" purity="4.0458148717880249e-01" nType="-99"/>
          <Node pos="r" depth="2" NCoef="0" IVar="-1" Cut="0.0000000000000000e+00" cType="1" res="-1.2453702278435230e-02" rms="1.7941522598266602e-01" purity="5.2257037162780762e-01" nType="-99"/>
        </Node>
        <Node pos="r" depth="1" NCoef="0" IVar="2" Cut="5.6679995117187500e+03" cType="1" res="7.0287133567035198e-03" rms="1.2106009572744370e-01" purity="6.9118773937225342e-01" nType="0">
          <Node pos="l" depth="2" NCoef="0" IVar="-1" Cut="0.0000000000000000e+00" cType="1" res="-7.8074540942907333e-03" rms="1.1905594170093536e-01" purity="7.0910763740539551e-01" nType="-99"/>
          <Node pos="r" depth="2" NCoef="0" IVar="-1" Cut="0.0000000000000000e+00" cType="1" res="3.1288865953683853e-02" rms="1.1774712800979614e-01" purity="6.5052193403244019e-01" nType="-99"/>
        </Node>
      </Node>
    </BinaryTree>
    <BinaryTree type="DecisionTree" boostWeight="1.0000000000000000e+00" itree="470">
      <Node pos="s" depth="0" NCoef="0" IVar="8" Cut="2.1462006835937500e+03" cType="1" res="-1.2728110050375108e-06" rms="1.3313128054141998e-01" purity="5.0000000000000000e-01" nType="0">
        <Node pos="l" depth="1" NCoef="0" IVar="3" Cut="1.6816038818359375e+03" cType="1" res="-2.9052081517875195e-03" rms="1.3711705803871155e-01" purity="4.2910337448120117e-01" nType="0">
          <Node pos="l" depth="2" NCoef="0" IVar="-1" Cut="0.0000000000000000e+00" cType="1" res="-1.0078342631459236e-02" rms="1.2020070105791092e-01" purity="3.2532304525375366e-01" nType="-99"/>
          <Node pos="r" depth="2" NCoef="0" IVar="-1" Cut="0.0000000000000000e+00" cType="1" res="3.1367898918688297e-03" rms="1.4881043136119843e-01" purity="5.1194357872009277e-01" nType="-99"/>
        </Node>
        <Node pos="r" depth="1" NCoef="0" IVar="6" Cut="1.5105889892578125e+02" cType="1" res="5.4279658943414688e-03" rms="1.2515924870967865e-01" purity="6.3254940509796143e-01" nType="0">
          <Node pos="l" depth="2" NCoef="0" IVar="-1" Cut="0.0000000000000000e+00" cType="1" res="1.0001434944570065e-02" rms="1.2206406891345978e-01" purity="6.4543104171752930e-01" nType="-99"/>
          <Node pos="r" depth="2" NCoef="0" IVar="-1" Cut="0.0000000000000000e+00" cType="1" res="-1.2543714605271816e-02" rms="1.3276913762092590e-01" purity="5.9063625335693359e-01" nType="-99"/>
        </Node>
      </Node>
    </BinaryTree>
    <BinaryTree type="DecisionTree" boostWeight="1.0000000000000000e+00" itree="471">
      <Node pos="s" depth="0" NCoef="0" IVar="9" Cut="2.6159143066406250e+03" cType="1" res="-1.0553739002716611e-06" rms="1.3292786478996277e-01" purity="5.0000000000000000e-01" nType="0">
        <Node pos="l" depth="1" NCoef="0" IVar="7" Cut="1.1676865234375000e+04" cType="1" res="9.7394008189439774e-03" rms="1.0894226282835007e-01" purity="5.8519178628921509e-01" nType="0">
          <Node pos="l" depth="2" NCoef="0" IVar="-1" Cut="0.0000000000000000e+00" cType="1" res="2.6679858565330505e-02" rms="8.2090303301811218e-02" purity="6.2085032463073730e-01" nType="-99"/>
          <Node pos="r" depth="2" NCoef="0" IVar="-1" Cut="0.0000000000000000e+00" cType="1" res="5.0200533587485552e-04" rms="1.2180263549089432e-01" purity="5.6306469440460205e-01" nType="-99"/>
        </Node>
        <Node pos="r" depth="1" NCoef="0" IVar="7" Cut="1.3213380859375000e+04" cType="1" res="-1.6796182608231902e-03" rms="1.3656646013259888e-01" purity="4.8531895875930786e-01" nType="0">
          <Node pos="l" depth="2" NCoef="0" IVar="-1" Cut="0.0000000000000000e+00" cType="1" res="-1.7485199496150017e-02" rms="1.1290019750595093e-01" purity="3.8362574577331543e-01" nType="-99"/>
          <Node pos="r" depth="2" NCoef="0" IVar="-1" Cut="0.0000000000000000e+00" cType="1" res="3.9448431925848126e-04" rms="1.3873191177845001e-01" purity="4.9643999338150024e-01" nType="-99"/>
        </Node>
      </Node>
    </BinaryTree>
    <BinaryTree type="DecisionTree" boostWeight="1.0000000000000000e+00" itree="472">
      <Node pos="s" depth="0" NCoef="0" IVar="2" Cut="5.8343754882812500e+03" cType="1" res="2.3367842771904179e-08" rms="1.3275969028472900e-01" purity="5.0000000000000000e-01" nType="0">
        <Node pos="l" depth="1" NCoef="0" IVar="6" Cut="3.7283832550048828e+01" cType="1" res="1.6542945522814989e-03" rms="1.3602633774280548e-01" purity="5.6466394662857056e-01" nType="0">
          <Node pos="l" depth="2" NCoef="0" IVar="-1" Cut="0.0000000000000000e+00" cType="1" res="-9.6717402338981628e-03" rms="1.3807161152362823e-01" purity="3.1642779707908630e-01" nType="-99"/>
          <Node pos="r" depth="2" NCoef="0" IVar="-1" Cut="0.0000000000000000e+00" cType="1" res="4.5255795121192932e-03" rms="1.3515445590019226e-01" purity="6.3086199760437012e-01" nType="-99"/>
        </Node>
        <Node pos="r" depth="1" NCoef="0" IVar="5" Cut="2.7261134982109070e-01" cType="1" res="-9.1860676184296608e-03" rms="1.1247169971466064e-01" purity="1.4092373847961426e-01" nType="0">
          <Node pos="l" depth="2" NCoef="0" IVar="-1" Cut="0.0000000000000000e+00" cType="1" res="-3.2767817378044128e-02" rms="8.9379832148551941e-02" purity="4.2224511504173279e-02" nType="-99"/>
          <Node pos="r" depth="2" NCoef="0" IVar="-1" Cut="0.0000000000000000e+00" cType="1" res="2.5484231300652027e-03" rms="1.2497451901435852e-01" purity="2.1157389879226685e-01" nType="-99"/>
        </Node>
      </Node>
    </BinaryTree>
    <BinaryTree type="DecisionTree" boostWeight="1.0000000000000000e+00" itree="473">
      <Node pos="s" depth="0" NCoef="0" IVar="2" Cut="5.3147377929687500e+03" cType="1" res="-2.7376079287932953e-06" rms="1.3272388279438019e-01" purity="5.0000000000000000e-01" nType="0">
        <Node pos="l" depth="1" NCoef="0" IVar="1" Cut="6.3235265625000000e+04" cType="1" res="-9.0699801221489906e-03" rms="4.6740896999835968e-02" purity="5.1217984408140182e-02" nType="0">
          <Node pos="l" depth="2" NCoef="0" IVar="-1" Cut="0.0000000000000000e+00" cType="1" res="-5.6044798344373703e-02" rms="3.7459377199411392e-02" purity="0.0000000000000000e+00" nType="-99"/>
          <Node pos="r" depth="2" NCoef="0" IVar="-1" Cut="0.0000000000000000e+00" cType="1" res="-3.6290092393755913e-03" rms="5.4909612983465195e-02" purity="1.1186902970075607e-01" nType="-99"/>
        </Node>
        <Node pos="r" depth="1" NCoef="0" IVar="5" Cut="1.6016287803649902e+00" cType="1" res="1.6917476896196604e-03" rms="1.4311227202415466e-01" purity="5.8386832475662231e-01" nType="0">
          <Node pos="l" depth="2" NCoef="0" IVar="-1" Cut="0.0000000000000000e+00" cType="1" res="2.2670091129839420e-03" rms="1.4439751207828522e-01" purity="5.9506529569625854e-01" nType="-99"/>
          <Node pos="r" depth="2" NCoef="0" IVar="-1" Cut="0.0000000000000000e+00" cType="1" res="-1.7455818131566048e-02" rms="1.1907463520765305e-01" purity="4.1361919045448303e-01" nType="-99"/>
        </Node>
      </Node>
    </BinaryTree>
    <BinaryTree type="DecisionTree" boostWeight="1.0000000000000000e+00" itree="474">
      <Node pos="s" depth="0" NCoef="0" IVar="9" Cut="2.6159143066406250e+03" cType="1" res="-8.2118685895693488e-06" rms="1.3258457183837891e-01" purity="5.0000000000000000e-01" nType="0">
        <Node pos="l" depth="1" NCoef="0" IVar="4" Cut="5.8063836097717285e+00" cType="1" res="9.5914341509342194e-03" rms="1.0752750188112259e-01" purity="5.8519178628921509e-01" nType="0">
          <Node pos="l" depth="2" NCoef="0" IVar="-1" Cut="0.0000000000000000e+00" cType="1" res="3.0366221442818642e-02" rms="6.9092288613319397e-02" purity="7.3832297325134277e-01" nType="-99"/>
          <Node pos="r" depth="2" NCoef="0" IVar="-1" Cut="0.0000000000000000e+00" cType="1" res="2.0586038590408862e-04" rms="1.2569698691368103e-01" purity="4.8466938734054565e-01" nType="-99"/>
        </Node>
        <Node pos="r" depth="1" NCoef="0" IVar="4" Cut="1.3225860595703125e+00" cType="1" res="-1.6625090502202511e-03" rms="1.3637033104896545e-01" purity="4.8531895875930786e-01" nType="0">
          <Node pos="l" depth="2" NCoef="0" IVar="-1" Cut="0.0000000000000000e+00" cType="1" res="-2.9276771470904350e-02" rms="8.7980337440967560e-02" purity="4.6697035431861877e-02" nType="-99"/>
          <Node pos="r" depth="2" NCoef="0" IVar="-1" Cut="0.0000000000000000e+00" cType="1" res="7.9446341260336339e-05" rms="1.3905431330204010e-01" purity="5.1706230640411377e-01" nType="-99"/>
        </Node>
      </Node>
    </BinaryTree>
    <BinaryTree type="DecisionTree" boostWeight="1.0000000000000000e+00" itree="475">
      <Node pos="s" depth="0" NCoef="0" IVar="12" Cut="4.7108286132812500e+03" cType="1" res="-7.9341862146975473e-06" rms="1.3250447809696198e-01" purity="5.0000000000000000e-01" nType="0">
        <Node pos="l" depth="1" NCoef="0" IVar="11" Cut="3.2151783203125000e+04" cType="1" res="-2.2619944065809250e-03" rms="1.3671110570430756e-01" purity="4.3397724628448486e-01" nType="0">
          <Node pos="l" depth="2" NCoef="0" IVar="-1" Cut="0.0000000000000000e+00" cType="1" res="-9.2157544568181038e-03" rms="1.2984052300453186e-01" purity="3.4512344002723694e-01" nType="-99"/>
          <Node pos="r" depth="2" NCoef="0" IVar="-1" Cut="0.0000000000000000e+00" cType="1" res="4.9286945722997189e-03" rms="1.4388369023799896e-01" purity="5.4036241769790649e-01" nType="-99"/>
        </Node>
        <Node pos="r" depth="1" NCoef="0" IVar="11" Cut="5.4293945312500000e+04" cType="1" res="6.5193404443562031e-03" rms="1.1925048381090164e-01" purity="6.9118773937225342e-01" nType="0">
          <Node pos="l" depth="2" NCoef="0" IVar="-1" Cut="0.0000000000000000e+00" cType="1" res="2.7056803926825523e-02" rms="9.1542594134807587e-02" purity="7.3832297325134277e-01" nType="-99"/>
          <Node pos="r" depth="2" NCoef="0" IVar="-1" Cut="0.0000000000000000e+00" cType="1" res="-1.1170415207743645e-02" rms="1.3473635911941528e-01" purity="6.5201121568679810e-01" nType="-99"/>
        </Node>
      </Node>
    </BinaryTree>
    <BinaryTree type="DecisionTree" boostWeight="1.0000000000000000e+00" itree="476">
      <Node pos="s" depth="0" NCoef="0" IVar="8" Cut="2.1462006835937500e+03" cType="1" res="-4.3488512346812058e-06" rms="1.3215355575084686e-01" purity="5.0000000000000000e-01" nType="0">
        <Node pos="l" depth="1" NCoef="0" IVar="12" Cut="3.0015578613281250e+03" cType="1" res="-2.8949128463864326e-03" rms="1.3628727197647095e-01" purity="4.2910337448120117e-01" nType="0">
          <Node pos="l" depth="2" NCoef="0" IVar="-1" Cut="0.0000000000000000e+00" cType="1" res="-1.6039049252867699e-02" rms="1.2547624111175537e-01" purity="1.9916096329689026e-01" nType="-99"/>
          <Node pos="r" depth="2" NCoef="0" IVar="-1" Cut="0.0000000000000000e+00" cType="1" res="1.1197645217180252e-03" rms="1.3899715244770050e-01" purity="4.9696967005729675e-01" nType="-99"/>
        </Node>
        <Node pos="r" depth="1" NCoef="0" IVar="5" Cut="5.9068810939788818e-01" cType="1" res="5.3998907096683979e-03" rms="1.2387534976005554e-01" purity="6.3254940509796143e-01" nType="0">
          <Node pos="l" depth="2" NCoef="0" IVar="-1" Cut="0.0000000000000000e+00" cType="1" res="-1.5696600312367082e-03" rms="1.2986984848976135e-01" purity="5.5744391679763794e-01" nType="-99"/>
          <Node pos="r" depth="2" NCoef="0" IVar="-1" Cut="0.0000000000000000e+00" cType="1" res="2.1249121055006981e-02" rms="1.0743540525436401e-01" purity="8.0122137069702148e-01" nType="-99"/>
        </Node>
      </Node>
    </BinaryTree>
    <BinaryTree type="DecisionTree" boostWeight="1.0000000000000000e+00" itree="477">
      <Node pos="s" depth="0" NCoef="0" IVar="11" Cut="2.6023939453125000e+04" cType="1" res="-3.5134012250637170e-06" rms="1.3196143507957458e-01" purity="5.0000000000000000e-01" nType="0">
        <Node pos="l" depth="1" NCoef="0" IVar="12" Cut="2.7225319824218750e+03" cType="1" res="5.2221575751900673e-03" rms="1.2260404974222183e-01" purity="4.1018313169479370e-01" nType="0">
          <Node pos="l" depth="2" NCoef="0" IVar="-1" Cut="0.0000000000000000e+00" cType="1" res="-2.2391550242900848e-02" rms="7.9594507813453674e-02" purity="1.8061673641204834e-01" nType="-99"/>
          <Node pos="r" depth="2" NCoef="0" IVar="-1" Cut="0.0000000000000000e+00" cType="1" res="1.9024288281798363e-02" rms="1.4253692328929901e-01" purity="5.6679189205169678e-01" nType="-99"/>
        </Node>
        <Node pos="r" depth="1" NCoef="0" IVar="1" Cut="5.4089277343750000e+04" cType="1" res="-3.0332605820149183e-03" rms="1.3700324296951294e-01" purity="5.5207413434982300e-01" nType="0">
          <Node pos="l" depth="2" NCoef="0" IVar="-1" Cut="0.0000000000000000e+00" cType="1" res="-3.2903909683227539e-02" rms="1.1259534955024719e-01" purity="2.6635730266571045e-01" nType="-99"/>
          <Node pos="r" depth="2" NCoef="0" IVar="-1" Cut="0.0000000000000000e+00" cType="1" res="1.8555729184299707e-03" rms="1.3871161639690399e-01" purity="5.8796781301498413e-01" nType="-99"/>
        </Node>
      </Node>
    </BinaryTree>
    <BinaryTree type="DecisionTree" boostWeight="1.0000000000000000e+00" itree="478">
      <Node pos="s" depth="0" NCoef="0" IVar="2" Cut="5.8343754882812500e+03" cType="1" res="-6.6468819568399340e-06" rms="1.3145904242992401e-01" purity="5.0000000000000000e-01" nType="0">
        <Node pos="l" depth="1" NCoef="0" IVar="9" Cut="8.8247343750000000e+03" cType="1" res="1.7347051762044430e-03" rms="1.3481466472148895e-01" purity="5.6466394662857056e-01" nType="0">
          <Node pos="l" depth="2" NCoef="0" IVar="-1" Cut="0.0000000000000000e+00" cType="1" res="-5.2386999595910311e-04" rms="1.3542750477790833e-01" purity="5.5678796768188477e-01" nType="-99"/>
          <Node pos="r" depth="2" NCoef="0" IVar="-1" Cut="0.0000000000000000e+00" cType="1" res="1.9062692299485207e-02" rms="1.2470734119415283e-01" purity="6.5201121568679810e-01" nType="-99"/>
        </Node>
        <Node pos="r" depth="1" NCoef="0" IVar="4" Cut="4.7749361991882324e+00" cType="1" res="-9.6762944012880325e-03" rms="1.1049660295248032e-01" purity="1.4092373847961426e-01" nType="0">
          <Node pos="l" depth="2" NCoef="0" IVar="-1" Cut="0.0000000000000000e+00" cType="1" res="1.3454454950988293e-02" rms="7.5490608811378479e-02" purity="1.8061673641204834e-01" nType="-99"/>
          <Node pos="r" depth="2" NCoef="0" IVar="-1" Cut="0.0000000000000000e+00" cType="1" res="-1.6953732818365097e-02" rms="1.2647850811481476e-01" purity="1.1553363502025604e-01" nType="-99"/>
        </Node>
      </Node>
    </BinaryTree>
    <BinaryTree type="DecisionTree" boostWeight="1.0000000000000000e+00" itree="479">
      <Node pos="s" depth="0" NCoef="0" IVar="8" Cut="2.1462006835937500e+03" cType="1" res="-6.1026394178043120e-06" rms="1.3137559592723846e-01" purity="5.0000000000000000e-01" nType="0">
        <Node pos="l" depth="1" NCoef="0" IVar="0" Cut="3.4864875488281250e+03" cType="1" res="-2.8044406790286303e-03" rms="1.3555365800857544e-01" purity="4.2910337448120117e-01" nType="0">
          <Node pos="l" depth="2" NCoef="0" IVar="-1" Cut="0.0000000000000000e+00" cType="1" res="3.5468656569719315e-03" rms="1.2049000710248947e-01" purity="3.6273744702339172e-01" nType="-99"/>
          <Node pos="r" depth="2" NCoef="0" IVar="-1" Cut="0.0000000000000000e+00" cType="1" res="-8.1717781722545624e-03" rms="1.5341246128082275e-01" purity="5.2079087495803833e-01" nType="-99"/>
        </Node>
        <Node pos="r" depth="1" NCoef="0" IVar="4" Cut="7.3090806007385254e+00" cType="1" res="5.2257105708122253e-03" rms="1.2301405519247055e-01" purity="6.3254940509796143e-01" nType="0">
          <Node pos="l" depth="2" NCoef="0" IVar="-1" Cut="0.0000000000000000e+00" cType="1" res="-5.7185057085007429e-04" rms="1.2682349979877472e-01" purity="5.9780055284500122e-01" nType="-99"/>
          <Node pos="r" depth="2" NCoef="0" IVar="-1" Cut="0.0000000000000000e+00" cType="1" res="2.2673271596431732e-02" rms="1.0785540193319321e-01" purity="7.4339771270751953e-01" nType="-99"/>
        </Node>
      </Node>
    </BinaryTree>
    <BinaryTree type="DecisionTree" boostWeight="1.0000000000000000e+00" itree="480">
      <Node pos="s" depth="0" NCoef="0" IVar="12" Cut="4.7108286132812500e+03" cType="1" res="-4.5982246774656232e-06" rms="1.3112579286098480e-01" purity="5.0000000000000000e-01" nType="0">
        <Node pos="l" depth="1" NCoef="0" IVar="4" Cut="1.3225860595703125e+00" cType="1" res="-2.2580884397029877e-03" rms="1.3551881909370422e-01" purity="4.3397724628448486e-01" nType="0">
          <Node pos="l" depth="2" NCoef="0" IVar="-1" Cut="0.0000000000000000e+00" cType="1" res="-5.6100416928529739e-02" rms="5.0501905381679535e-02" purity="0.0000000000000000e+00" nType="-99"/>
          <Node pos="r" depth="2" NCoef="0" IVar="-1" Cut="0.0000000000000000e+00" cType="1" res="2.1179516625124961e-04" rms="1.3977858424186707e-01" purity="4.6857142448425293e-01" nType="-99"/>
        </Node>
        <Node pos="r" depth="1" NCoef="0" IVar="2" Cut="5.6679995117187500e+03" cType="1" res="6.5210256725549698e-03" rms="1.1723751574754715e-01" purity="6.9118773937225342e-01" nType="0">
          <Node pos="l" depth="2" NCoef="0" IVar="-1" Cut="0.0000000000000000e+00" cType="1" res="-6.9859037175774574e-03" rms="1.1539020389318466e-01" purity="7.0910763740539551e-01" nType="-99"/>
          <Node pos="r" depth="2" NCoef="0" IVar="-1" Cut="0.0000000000000000e+00" cType="1" res="2.9032375663518906e-02" rms="1.1486799269914627e-01" purity="6.5052193403244019e-01" nType="-99"/>
        </Node>
      </Node>
    </BinaryTree>
    <BinaryTree type="DecisionTree" boostWeight="1.0000000000000000e+00" itree="481">
      <Node pos="s" depth="0" NCoef="0" IVar="2" Cut="5.6926562500000000e+03" cType="1" res="-1.0302302143827546e-05" rms="1.3068209588527679e-01" purity="5.0000000000000000e-01" nType="0">
        <Node pos="l" depth="1" NCoef="0" IVar="9" Cut="7.3597397460937500e+03" cType="1" res="2.5251063052564859e-03" rms="1.3420465588569641e-01" purity="5.5998927354812622e-01" nType="0">
          <Node pos="l" depth="2" NCoef="0" IVar="-1" Cut="0.0000000000000000e+00" cType="1" res="-1.2704859254881740e-03" rms="1.3661038875579834e-01" purity="5.4036241769790649e-01" nType="-99"/>
          <Node pos="r" depth="2" NCoef="0" IVar="-1" Cut="0.0000000000000000e+00" cType="1" res="2.1144278347492218e-02" rms="1.1838331073522568e-01" purity="6.6294950246810913e-01" nType="-99"/>
        </Node>
        <Node pos="r" depth="1" NCoef="0" IVar="4" Cut="5.2251124382019043e+00" cType="1" res="-7.0230551064014435e-03" rms="1.2012504786252975e-01" purity="3.3407407999038696e-01" nType="0">
          <Node pos="l" depth="2" NCoef="0" IVar="-1" Cut="0.0000000000000000e+00" cType="1" res="1.3478431850671768e-02" rms="1.0250760614871979e-01" purity="3.8831886649131775e-01" nType="-99"/>
          <Node pos="r" depth="2" NCoef="0" IVar="-1" Cut="0.0000000000000000e+00" cType="1" res="-1.9021678715944290e-02" rms="1.3085713982582092e-01" purity="2.8611305356025696e-01" nType="-99"/>
        </Node>
      </Node>
    </BinaryTree>
    <BinaryTree type="DecisionTree" boostWeight="1.0000000000000000e+00" itree="482">
      <Node pos="s" depth="0" NCoef="0" IVar="4" Cut="8.9473457336425781e+00" cType="1" res="-9.3270882643992081e-06" rms="1.3037104904651642e-01" purity="5.0000000000000000e-01" nType="0">
        <Node pos="l" depth="1" NCoef="0" IVar="5" Cut="2.7011370658874512e-01" cType="1" res="9.3359057791531086e-04" rms="1.3296088576316833e-01" purity="5.2158498764038086e-01" nType="0">
          <Node pos="l" depth="2" NCoef="0" IVar="-1" Cut="0.0000000000000000e+00" cType="1" res="-6.8620252422988415e-03" rms="1.1392138153314590e-01" purity="4.4357019662857056e-01" nType="-99"/>
          <Node pos="r" depth="2" NCoef="0" IVar="-1" Cut="0.0000000000000000e+00" cType="1" res="5.1407599821686745e-03" rms="1.4505919814109802e-01" purity="5.7903313636779785e-01" nType="-99"/>
        </Node>
        <Node pos="r" depth="1" NCoef="0" IVar="-1" Cut="0.0000000000000000e+00" cType="1" res="-2.1687613800168037e-02" rms="7.3632657527923584e-02" purity="1.4186850190162659e-01" nType="-99"/>
      </Node>
    </BinaryTree>
    <BinaryTree type="DecisionTree" boostWeight="1.0000000000000000e+00" itree="483">
      <Node pos="s" depth="0" NCoef="0" IVar="11" Cut="8.3268609375000000e+04" cType="1" res="-8.7567887021577917e-06" rms="1.3024045526981354e-01" purity="5.0000000000000000e-01" nType="0">
        <Node pos="l" depth="1" NCoef="0" IVar="11" Cut="1.0463782226562500e+04" cType="1" res="-1.5315188793465495e-03" rms="1.3425019383430481e-01" purity="4.8498773574829102e-01" nType="0">
          <Node pos="l" depth="2" NCoef="0" IVar="-1" Cut="0.0000000000000000e+00" cType="1" res="-4.0394298732280731e-02" rms="9.6868008375167847e-02" purity="9.2342339456081390e-02" nType="-99"/>
          <Node pos="r" depth="2" NCoef="0" IVar="-1" Cut="0.0000000000000000e+00" cType="1" res="1.1595912510529160e-03" rms="1.3744394481182098e-01" purity="5.2878856658935547e-01" nType="-99"/>
        </Node>
        <Node pos="r" depth="1" NCoef="0" IVar="6" Cut="1.6150740051269531e+02" cType="1" res="1.0201326571404934e-02" rms="9.8650373518466949e-02" purity="6.0065674781799316e-01" nType="0">
          <Node pos="l" depth="2" NCoef="0" IVar="-1" Cut="0.0000000000000000e+00" cType="1" res="2.8334267437458038e-02" rms="1.0364065319299698e-01" purity="6.7291909456253052e-01" nType="-99"/>
          <Node pos="r" depth="2" NCoef="0" IVar="-1" Cut="0.0000000000000000e+00" cType="1" res="-8.9099360629916191e-03" rms="8.9901000261306763e-02" purity="5.4593878984451294e-01" nType="-99"/>
        </Node>
      </Node>
    </BinaryTree>
    <BinaryTree type="DecisionTree" boostWeight="1.0000000000000000e+00" itree="484">
      <Node pos="s" depth="0" NCoef="0" IVar="2" Cut="5.3619775390625000e+03" cType="1" res="-9.5323657660628669e-06" rms="1.2986639142036438e-01" purity="5.0000000000000000e-01" nType="0">
        <Node pos="l" depth="1" NCoef="0" IVar="10" Cut="4.0959487915039062e+02" cType="1" res="-8.3818845450878143e-03" rms="5.5452752858400345e-02" purity="8.7747447192668915e-02" nType="0">
          <Node pos="l" depth="2" NCoef="0" IVar="-1" Cut="0.0000000000000000e+00" cType="1" res="-3.7600796669721603e-02" rms="4.9475900828838348e-02" purity="4.3260354548692703e-02" nType="-99"/>
          <Node pos="r" depth="2" NCoef="0" IVar="-1" Cut="0.0000000000000000e+00" cType="1" res="1.0347714647650719e-02" rms="6.3733018934726715e-02" purity="1.8061673641204834e-01" nType="-99"/>
        </Node>
        <Node pos="r" depth="1" NCoef="0" IVar="2" Cut="5.4715375976562500e+03" cType="1" res="1.8759872764348984e-03" rms="1.4125019311904907e-01" purity="5.9284245967864990e-01" nType="0">
          <Node pos="l" depth="2" NCoef="0" IVar="-1" Cut="0.0000000000000000e+00" cType="1" res="1.8782475963234901e-02" rms="8.1676520407199860e-02" purity="6.8059527873992920e-01" nType="-99"/>
          <Node pos="r" depth="2" NCoef="0" IVar="-1" Cut="0.0000000000000000e+00" cType="1" res="-7.3165603680536151e-04" rms="1.4851357042789459e-01" purity="5.7851701974868774e-01" nType="-99"/>
        </Node>
      </Node>
    </BinaryTree>
    <BinaryTree type="DecisionTree" boostWeight="1.0000000000000000e+00" itree="485">
      <Node pos="s" depth="0" NCoef="0" IVar="4" Cut="7.1402935981750488e+00" cType="1" res="-1.1174372048117220e-05" rms="1.2964951992034912e-01" purity="5.0000000000000000e-01" nType="0">
        <Node pos="l" depth="1" NCoef="0" IVar="5" Cut="5.3793847560882568e-01" cType="1" res="2.0412688609212637e-03" rms="1.2648242712020874e-01" purity="5.2511304616928101e-01" nType="0">
          <Node pos="l" depth="2" NCoef="0" IVar="-1" Cut="0.0000000000000000e+00" cType="1" res="-2.4863164871931076e-03" rms="1.2726388871669769e-01" purity="4.8688980937004089e-01" nType="-99"/>
          <Node pos="r" depth="2" NCoef="0" IVar="-1" Cut="0.0000000000000000e+00" cType="1" res="1.6856972128152847e-02" rms="1.2126228213310242e-01" purity="6.7475825548171997e-01" nType="-99"/>
        </Node>
        <Node pos="r" depth="1" NCoef="0" IVar="7" Cut="2.7717892578125000e+04" cType="1" res="-7.4275350198149681e-03" rms="1.4024965465068817e-01" purity="4.0925589203834534e-01" nType="0">
          <Node pos="l" depth="2" NCoef="0" IVar="-1" Cut="0.0000000000000000e+00" cType="1" res="-2.0693259313702583e-02" rms="1.4117275178432465e-01" purity="3.6327025294303894e-01" nType="-99"/>
          <Node pos="r" depth="2" NCoef="0" IVar="-1" Cut="0.0000000000000000e+00" cType="1" res="4.1390631347894669e-02" rms="1.2110199779272079e-01" purity="5.4799515008926392e-01" nType="-99"/>
        </Node>
      </Node>
    </BinaryTree>
    <BinaryTree type="DecisionTree" boostWeight="1.0000000000000000e+00" itree="486">
      <Node pos="s" depth="0" NCoef="0" IVar="2" Cut="5.8343754882812500e+03" cType="1" res="-7.4053677963092923e-06" rms="1.2892797589302063e-01" purity="5.0000000000000000e-01" nType="0">
        <Node pos="l" depth="1" NCoef="0" IVar="6" Cut="6.8348541259765625e+01" cType="1" res="1.7080516554415226e-03" rms="1.3232578337192535e-01" purity="5.6466394662857056e-01" nType="0">
          <Node pos="l" depth="2" NCoef="0" IVar="-1" Cut="0.0000000000000000e+00" cType="1" res="-6.0208509676158428e-03" rms="1.5105788409709930e-01" purity="4.4982251524925232e-01" nType="-99"/>
          <Node pos="r" depth="2" NCoef="0" IVar="-1" Cut="0.0000000000000000e+00" cType="1" res="7.1171331219375134e-03" rms="1.2006142735481262e-01" purity="6.2916868925094604e-01" nType="-99"/>
        </Node>
        <Node pos="r" depth="1" NCoef="0" IVar="11" Cut="3.6049121093750000e+04" cType="1" res="-9.5332590863108635e-03" rms="1.0763851553201675e-01" purity="1.4092373847961426e-01" nType="0">
          <Node pos="l" depth="2" NCoef="0" IVar="-1" Cut="0.0000000000000000e+00" cType="1" res="6.7076291888952255e-03" rms="1.0721246898174286e-01" purity="1.0314465314149857e-01" nType="-99"/>
          <Node pos="r" depth="2" NCoef="0" IVar="-1" Cut="0.0000000000000000e+00" cType="1" res="-2.1830216050148010e-02" rms="1.0566442459821701e-01" purity="1.8061673641204834e-01" nType="-99"/>
        </Node>
      </Node>
    </BinaryTree>
    <BinaryTree type="DecisionTree" boostWeight="1.0000000000000000e+00" itree="487">
      <Node pos="s" depth="0" NCoef="0" IVar="8" Cut="2.1462006835937500e+03" cType="1" res="-7.4673171184258536e-06" rms="1.2884293496608734e-01" purity="5.0000000000000000e-01" nType="0">
        <Node pos="l" depth="1" NCoef="0" IVar="12" Cut="3.0015578613281250e+03" cType="1" res="-3.0081069562584162e-03" rms="1.3251031935214996e-01" purity="4.2910337448120117e-01" nType="0">
          <Node pos="l" depth="2" NCoef="0" IVar="-1" Cut="0.0000000000000000e+00" cType="1" res="-1.6198763623833656e-02" rms="1.2183436006307602e-01" purity="1.9916096329689026e-01" nType="-99"/>
          <Node pos="r" depth="2" NCoef="0" IVar="-1" Cut="0.0000000000000000e+00" cType="1" res="9.7713642753660679e-04" rms="1.3518953323364258e-01" purity="4.9696967005729675e-01" nType="-99"/>
        </Node>
        <Node pos="r" depth="1" NCoef="0" IVar="4" Cut="5.8884048461914062e+00" cType="1" res="5.6025711819529533e-03" rms="1.2149159610271454e-01" purity="6.3254940509796143e-01" nType="0">
          <Node pos="l" depth="2" NCoef="0" IVar="-1" Cut="0.0000000000000000e+00" cType="1" res="1.8131978809833527e-02" rms="8.8037997484207153e-02" purity="6.6090959310531616e-01" nType="-99"/>
          <Node pos="r" depth="2" NCoef="0" IVar="-1" Cut="0.0000000000000000e+00" cType="1" res="-3.9797779172658920e-03" rms="1.4581370353698730e-01" purity="6.0527771711349487e-01" nType="-99"/>
        </Node>
      </Node>
    </BinaryTree>
    <BinaryTree type="DecisionTree" boostWeight="1.0000000000000000e+00" itree="488">
      <Node pos="s" depth="0" NCoef="0" IVar="11" Cut="2.6023939453125000e+04" cType="1" res="-6.1891796576674096e-06" rms="1.2865523993968964e-01" purity="5.0000000000000000e-01" nType="0">
        <Node pos="l" depth="1" NCoef="0" IVar="12" Cut="2.7225319824218750e+03" cType="1" res="5.1054260693490505e-03" rms="1.1951043456792831e-01" purity="4.1018313169479370e-01" nType="0">
          <Node pos="l" depth="2" NCoef="0" IVar="-1" Cut="0.0000000000000000e+00" cType="1" res="-2.0102949813008308e-02" rms="7.7702008187770844e-02" purity="1.8061673641204834e-01" nType="-99"/>
          <Node pos="r" depth="2" NCoef="0" IVar="-1" Cut="0.0000000000000000e+00" cType="1" res="1.7675817012786865e-02" rms="1.3927267491817474e-01" purity="5.6679189205169678e-01" nType="-99"/>
        </Node>
        <Node pos="r" depth="1" NCoef="0" IVar="1" Cut="5.4089277343750000e+04" cType="1" res="-2.9698088765144348e-03" rms="1.3358148932456970e-01" purity="5.5207413434982300e-01" nType="0">
          <Node pos="l" depth="2" NCoef="0" IVar="-1" Cut="0.0000000000000000e+00" cType="1" res="-2.9803520068526268e-02" rms="1.1116946488618851e-01" purity="2.6635730266571045e-01" nType="-99"/>
          <Node pos="r" depth="2" NCoef="0" IVar="-1" Cut="0.0000000000000000e+00" cType="1" res="1.4499205863103271e-03" rms="1.3530135154724121e-01" purity="5.8796781301498413e-01" nType="-99"/>
        </Node>
      </Node>
    </BinaryTree>
    <BinaryTree type="DecisionTree" boostWeight="1.0000000000000000e+00" itree="489">
      <Node pos="s" depth="0" NCoef="0" IVar="2" Cut="5.8343754882812500e+03" cType="1" res="-8.0348036135546863e-06" rms="1.2826082110404968e-01" purity="5.0000000000000000e-01" nType="0">
        <Node pos="l" depth="1" NCoef="0" IVar="6" Cut="6.8348541259765625e+01" cType="1" res="1.6966500552371144e-03" rms="1.3175764679908752e-01" purity="5.6466394662857056e-01" nType="0">
          <Node pos="l" depth="2" NCoef="0" IVar="-1" Cut="0.0000000000000000e+00" cType="1" res="-5.1856720820069313e-03" rms="1.5007540583610535e-01" purity="4.4982251524925232e-01" nType="-99"/>
          <Node pos="r" depth="2" NCoef="0" IVar="-1" Cut="0.0000000000000000e+00" cType="1" res="6.4477631822228432e-03" rms="1.1988928914070129e-01" purity="6.2916868925094604e-01" nType="-99"/>
        </Node>
        <Node pos="r" depth="1" NCoef="0" IVar="11" Cut="3.6049121093750000e+04" cType="1" res="-9.4740716740489006e-03" rms="1.0628325492143631e-01" purity="1.4092373847961426e-01" nType="0">
          <Node pos="l" depth="2" NCoef="0" IVar="-1" Cut="0.0000000000000000e+00" cType="1" res="4.8772608861327171e-03" rms="1.0433778911828995e-01" purity="1.0314465314149857e-01" nType="-99"/>
          <Node pos="r" depth="2" NCoef="0" IVar="-1" Cut="0.0000000000000000e+00" cType="1" res="-2.0421203225851059e-02" rms="1.0638229548931122e-01" purity="1.8061673641204834e-01" nType="-99"/>
        </Node>
      </Node>
    </BinaryTree>
    <BinaryTree type="DecisionTree" boostWeight="1.0000000000000000e+00" itree="490">
      <Node pos="s" depth="0" NCoef="0" IVar="8" Cut="1.8622194824218750e+03" cType="1" res="-7.9083192758844234e-06" rms="1.2821809947490692e-01" purity="5.0000000000000000e-01" nType="0">
        <Node pos="l" depth="1" NCoef="0" IVar="1" Cut="5.3036671875000000e+04" cType="1" res="-3.6082696169614792e-03" rms="1.3478362560272217e-01" purity="3.9366996288299561e-01" nType="0">
          <Node pos="l" depth="2" NCoef="0" IVar="-1" Cut="0.0000000000000000e+00" cType="1" res="-1.9877668470144272e-02" rms="1.1370556056499481e-01" purity="2.7424749732017517e-01" nType="-99"/>
          <Node pos="r" depth="2" NCoef="0" IVar="-1" Cut="0.0000000000000000e+00" cType="1" res="3.4118641633540392e-03" rms="1.4280445873737335e-01" purity="4.4960832595825195e-01" nType="-99"/>
        </Node>
        <Node pos="r" depth="1" NCoef="0" IVar="9" Cut="8.0922368164062500e+03" cType="1" res="4.4481726363301277e-03" rms="1.1944384127855301e-01" purity="6.3160210847854614e-01" nType="0">
          <Node pos="l" depth="2" NCoef="0" IVar="-1" Cut="0.0000000000000000e+00" cType="1" res="7.7948733232915401e-03" rms="1.1707792431116104e-01" purity="6.3565891981124878e-01" nType="-99"/>
          <Node pos="r" depth="2" NCoef="0" IVar="-1" Cut="0.0000000000000000e+00" cType="1" res="-2.3846097290515900e-02" rms="1.3081988692283630e-01" purity="6.0183483362197876e-01" nType="-99"/>
        </Node>
      </Node>
    </BinaryTree>
    <BinaryTree type="DecisionTree" boostWeight="1.0000000000000000e+00" itree="491">
      <Node pos="s" depth="0" NCoef="0" IVar="2" Cut="5.3619775390625000e+03" cType="1" res="-8.0838635767577216e-06" rms="1.2786184251308441e-01" purity="5.0000000000000000e-01" nType="0">
        <Node pos="l" depth="1" NCoef="0" IVar="11" Cut="4.9459464843750000e+04" cType="1" res="-8.4659457206726074e-03" rms="5.4343447089195251e-02" purity="8.7747447192668915e-02" nType="0">
          <Node pos="l" depth="2" NCoef="0" IVar="-1" Cut="0.0000000000000000e+00" cType="1" res="-5.0765410065650940e-02" rms="3.5954050719738007e-02" purity="2.0561683923006058e-02" nType="-99"/>
          <Node pos="r" depth="2" NCoef="0" IVar="-1" Cut="0.0000000000000000e+00" cType="1" res="7.9864999279379845e-03" rms="8.1833466887474060e-02" purity="2.5324273109436035e-01" nType="-99"/>
        </Node>
        <Node pos="r" depth="1" NCoef="0" IVar="10" Cut="2.0833163452148438e+02" cType="1" res="1.8966930219903588e-03" rms="1.3908870518207550e-01" purity="5.9284245967864990e-01" nType="0">
          <Node pos="l" depth="2" NCoef="0" IVar="-1" Cut="0.0000000000000000e+00" cType="1" res="-1.0222562588751316e-02" rms="1.9605626165866852e-01" purity="3.5528594255447388e-01" nType="-99"/>
          <Node pos="r" depth="2" NCoef="0" IVar="-1" Cut="0.0000000000000000e+00" cType="1" res="3.0297634657472372e-03" rms="1.3168202340602875e-01" purity="6.1711454391479492e-01" nType="-99"/>
        </Node>
      </Node>
    </BinaryTree>
    <BinaryTree type="DecisionTree" boostWeight="1.0000000000000000e+00" itree="492">
      <Node pos="s" depth="0" NCoef="0" IVar="9" Cut="2.6159143066406250e+03" cType="1" res="-1.4438597645494156e-05" rms="1.2772190570831299e-01" purity="5.0000000000000000e-01" nType="0">
        <Node pos="l" depth="1" NCoef="0" IVar="7" Cut="1.1676865234375000e+04" cType="1" res="9.7052250057458878e-03" rms="1.0418154299259186e-01" purity="5.8519178628921509e-01" nType="0">
          <Node pos="l" depth="2" NCoef="0" IVar="-1" Cut="0.0000000000000000e+00" cType="1" res="2.8102964162826538e-02" rms="8.0806024372577667e-02" purity="6.2085032463073730e-01" nType="-99"/>
          <Node pos="r" depth="2" NCoef="0" IVar="-1" Cut="0.0000000000000000e+00" cType="1" res="1.2869450438302010e-04" rms="1.1532149463891983e-01" purity="5.6306469440460205e-01" nType="-99"/>
        </Node>
        <Node pos="r" depth="1" NCoef="0" IVar="11" Cut="1.9852843750000000e+04" cType="1" res="-1.6894183354452252e-03" rms="1.3128046691417694e-01" purity="4.8531895875930786e-01" nType="0">
          <Node pos="l" depth="2" NCoef="0" IVar="-1" Cut="0.0000000000000000e+00" cType="1" res="8.1601543352007866e-03" rms="1.2953552603721619e-01" purity="3.8551461696624756e-01" nType="-99"/>
          <Node pos="r" depth="2" NCoef="0" IVar="-1" Cut="0.0000000000000000e+00" cType="1" res="-4.5483787544071674e-03" rms="1.3177622854709625e-01" purity="5.2859503030776978e-01" nType="-99"/>
        </Node>
      </Node>
    </BinaryTree>
    <BinaryTree type="DecisionTree" boostWeight="1.0000000000000000e+00" itree="493">
      <Node pos="s" depth="0" NCoef="0" IVar="2" Cut="5.9760947265625000e+03" cType="1" res="-1.1558829100977164e-05" rms="1.2750937044620514e-01" purity="5.0000000000000000e-01" nType="0">
        <Node pos="l" depth="1" NCoef="0" IVar="10" Cut="7.1833148193359375e+02" cType="1" res="1.0144264670088887e-03" rms="1.2917014956474304e-01" purity="5.2805095911026001e-01" nType="0">
          <Node pos="l" depth="2" NCoef="0" IVar="-1" Cut="0.0000000000000000e+00" cType="1" res="-8.1420037895441055e-04" rms="1.3427554070949554e-01" purity="4.9918052554130554e-01" nType="-99"/>
          <Node pos="r" depth="2" NCoef="0" IVar="-1" Cut="0.0000000000000000e+00" cType="1" res="2.8763074427843094e-02" rms="6.7964941263198853e-02" purity="7.7909737825393677e-01" nType="-99"/>
        </Node>
        <Node pos="r" depth="1" NCoef="0" IVar="-1" Cut="0.0000000000000000e+00" cType="1" res="-1.4721605926752090e-02" rms="9.8513133823871613e-02" purity="8.4930084645748138e-02" nType="-99"/>
      </Node>
    </BinaryTree>
    <BinaryTree type="DecisionTree" boostWeight="1.0000000000000000e+00" itree="494">
      <Node pos="s" depth="0" NCoef="0" IVar="2" Cut="5.7398959960937500e+03" cType="1" res="-9.2195887191337533e-06" rms="1.2742194533348083e-01" purity="5.0000000000000000e-01" nType="0">
        <Node pos="l" depth="1" NCoef="0" IVar="10" Cut="5.4309777832031250e+02" cType="1" res="1.9280641572549939e-03" rms="1.3330605626106262e-01" purity="5.7164198160171509e-01" nType="0">
          <Node pos="l" depth="2" NCoef="0" IVar="-1" Cut="0.0000000000000000e+00" cType="1" res="4.5422846451401711e-03" rms="1.3337931036949158e-01" purity="5.2109122276306152e-01" nType="-99"/>
          <Node pos="r" depth="2" NCoef="0" IVar="-1" Cut="0.0000000000000000e+00" cType="1" res="-1.1066845618188381e-02" rms="1.3219170272350311e-01" purity="7.2951245307922363e-01" nType="-99"/>
        </Node>
        <Node pos="r" depth="1" NCoef="0" IVar="4" Cut="5.6752882003784180e+00" cType="1" res="-7.2983060963451862e-03" rms="1.0196471214294434e-01" purity="2.3044495284557343e-01" nType="0">
          <Node pos="l" depth="2" NCoef="0" IVar="-1" Cut="0.0000000000000000e+00" cType="1" res="7.2099752724170685e-03" rms="9.7612202167510986e-02" purity="3.1436154246330261e-01" nType="-99"/>
          <Node pos="r" depth="2" NCoef="0" IVar="-1" Cut="0.0000000000000000e+00" cType="1" res="-2.0648315548896790e-02" rms="1.0418397933244705e-01" purity="1.3603185117244720e-01" nType="-99"/>
        </Node>
      </Node>
    </BinaryTree>
    <BinaryTree type="DecisionTree" boostWeight="1.0000000000000000e+00" itree="495">
      <Node pos="s" depth="0" NCoef="0" IVar="8" Cut="1.8622194824218750e+03" cType="1" res="-9.7450192697579041e-06" rms="1.2725815176963806e-01" purity="5.0000000000000000e-01" nType="0">
        <Node pos="l" depth="1" NCoef="0" IVar="1" Cut="5.3036671875000000e+04" cType="1" res="-3.4089826513081789e-03" rms="1.3417433202266693e-01" purity="3.9366996288299561e-01" nType="0">
          <Node pos="l" depth="2" NCoef="0" IVar="-1" Cut="0.0000000000000000e+00" cType="1" res="-1.8774224445223808e-02" rms="1.1308123171329498e-01" purity="2.7424749732017517e-01" nType="-99"/>
          <Node pos="r" depth="2" NCoef="0" IVar="-1" Cut="0.0000000000000000e+00" cType="1" res="3.1687170267105103e-03" rms="1.4229753613471985e-01" purity="4.4960832595825195e-01" nType="-99"/>
        </Node>
        <Node pos="r" depth="1" NCoef="0" IVar="9" Cut="8.0922368164062500e+03" cType="1" res="4.1974098421633244e-03" rms="1.1800330132246017e-01" purity="6.3160210847854614e-01" nType="0">
          <Node pos="l" depth="2" NCoef="0" IVar="-1" Cut="0.0000000000000000e+00" cType="1" res="7.1579408831894398e-03" rms="1.1614643782377243e-01" purity="6.3565891981124878e-01" nType="-99"/>
          <Node pos="r" depth="2" NCoef="0" IVar="-1" Cut="0.0000000000000000e+00" cType="1" res="-2.0762270316481590e-02" rms="1.2709577381610870e-01" purity="6.0183483362197876e-01" nType="-99"/>
        </Node>
      </Node>
    </BinaryTree>
    <BinaryTree type="DecisionTree" boostWeight="1.0000000000000000e+00" itree="496">
      <Node pos="s" depth="0" NCoef="0" IVar="2" Cut="5.3619775390625000e+03" cType="1" res="-9.5770019470364787e-06" rms="1.2696900963783264e-01" purity="5.0000000000000000e-01" nType="0">
        <Node pos="l" depth="1" NCoef="0" IVar="10" Cut="4.0959487915039062e+02" cType="1" res="-7.8899469226598740e-03" rms="5.3174447268247604e-02" purity="8.7747447192668915e-02" nType="0">
          <Node pos="l" depth="2" NCoef="0" IVar="-1" Cut="0.0000000000000000e+00" cType="1" res="-3.7372987717390060e-02" rms="4.8161782324314117e-02" purity="4.3260354548692703e-02" nType="-99"/>
          <Node pos="r" depth="2" NCoef="0" IVar="-1" Cut="0.0000000000000000e+00" cType="1" res="1.1133357882499695e-02" rms="5.9846773743629456e-02" purity="1.8061673641204834e-01" nType="-99"/>
        </Node>
        <Node pos="r" depth="1" NCoef="0" IVar="2" Cut="5.4715375976562500e+03" cType="1" res="1.7651441739872098e-03" rms="1.3819485902786255e-01" purity="5.9284245967864990e-01" nType="0">
          <Node pos="l" depth="2" NCoef="0" IVar="-1" Cut="0.0000000000000000e+00" cType="1" res="1.7545387148857117e-02" rms="8.0696351826190948e-02" purity="6.8059527873992920e-01" nType="-99"/>
          <Node pos="r" depth="2" NCoef="0" IVar="-1" Cut="0.0000000000000000e+00" cType="1" res="-6.4085575286298990e-04" rms="1.4525869488716125e-01" purity="5.7851701974868774e-01" nType="-99"/>
        </Node>
      </Node>
    </BinaryTree>
    <BinaryTree type="DecisionTree" boostWeight="1.0000000000000000e+00" itree="497">
      <Node pos="s" depth="0" NCoef="0" IVar="0" Cut="7.8586020507812500e+03" cType="1" res="-1.1212147910555359e-05" rms="1.2676747143268585e-01" purity="5.0000000000000000e-01" nType="0">
        <Node pos="l" depth="1" NCoef="0" IVar="1" Cut="3.5187273437500000e+04" cType="1" res="-1.1960150441154838e-03" rms="1.3264480233192444e-01" purity="4.5284247398376465e-01" nType="0">
          <Node pos="l" depth="2" NCoef="0" IVar="-1" Cut="0.0000000000000000e+00" cType="1" res="3.0285421758890152e-02" rms="7.6036080718040466e-02" purity="5.0191277265548706e-01" nType="-99"/>
          <Node pos="r" depth="2" NCoef="0" IVar="-1" Cut="0.0000000000000000e+00" cType="1" res="-2.9001112561672926e-03" rms="1.3690268993377686e-01" purity="4.4773027300834656e-01" nType="-99"/>
        </Node>
        <Node pos="r" depth="1" NCoef="0" IVar="-1" Cut="0.0000000000000000e+00" cType="1" res="3.4677505493164062e-02" rms="2.8762364760041237e-02" purity="9.6677386760711670e-01" nType="-99"/>
      </Node>
    </BinaryTree>
    <BinaryTree type="DecisionTree" boostWeight="1.0000000000000000e+00" itree="498">
      <Node pos="s" depth="0" NCoef="0" IVar="2" Cut="5.4564570312500000e+03" cType="1" res="-5.4767056099080946e-06" rms="1.2657789885997772e-01" purity="5.0000000000000000e-01" nType="0">
        <Node pos="l" depth="1" NCoef="0" IVar="10" Cut="4.7385412597656250e+02" cType="1" res="-6.1166705563664436e-03" rms="5.8629229664802551e-02" purity="2.4002927541732788e-01" nType="0">
          <Node pos="l" depth="2" NCoef="0" IVar="-1" Cut="0.0000000000000000e+00" cType="1" res="-2.2470347583293915e-02" rms="5.5798508226871490e-02" purity="1.6133792698383331e-01" nType="-99"/>
          <Node pos="r" depth="2" NCoef="0" IVar="-1" Cut="0.0000000000000000e+00" cType="1" res="2.2156368941068649e-02" rms="6.1637546867132187e-02" purity="4.6857142448425293e-01" nType="-99"/>
        </Node>
        <Node pos="r" depth="1" NCoef="0" IVar="10" Cut="5.5602227783203125e+02" cType="1" res="2.2409111261367798e-03" rms="1.4362834393978119e-01" purity="5.9556156396865845e-01" nType="0">
          <Node pos="l" depth="2" NCoef="0" IVar="-1" Cut="0.0000000000000000e+00" cType="1" res="4.4924155808985233e-03" rms="1.4654114842414856e-01" purity="5.9295910596847534e-01" nType="-99"/>
          <Node pos="r" depth="2" NCoef="0" IVar="-1" Cut="0.0000000000000000e+00" cType="1" res="-8.0686127766966820e-03" rms="1.3563449680805206e-01" purity="6.0183483362197876e-01" nType="-99"/>
        </Node>
      </Node>
    </BinaryTree>
    <BinaryTree type="DecisionTree" boostWeight="1.0000000000000000e+00" itree="499">
      <Node pos="s" depth="0" NCoef="0" IVar="9" Cut="2.6159143066406250e+03" cType="1" res="-6.0314891925372649e-06" rms="1.2638285756111145e-01" purity="5.0000000000000000e-01" nType="0">
        <Node pos="l" depth="1" NCoef="0" IVar="4" Cut="5.8063836097717285e+00" cType="1" res="8.6918007582426071e-03" rms="1.0268080979585648e-01" purity="5.8519178628921509e-01" nType="0">
          <Node pos="l" depth="2" NCoef="0" IVar="-1" Cut="0.0000000000000000e+00" cType="1" res="3.0180461704730988e-02" rms="6.6079773008823395e-02" purity="7.3832297325134277e-01" nType="-99"/>
          <Node pos="r" depth="2" NCoef="0" IVar="-1" Cut="0.0000000000000000e+00" cType="1" res="-2.7322271489538252e-04" rms="1.1996494978666306e-01" purity="4.8466938734054565e-01" nType="-99"/>
        </Node>
        <Node pos="r" depth="1" NCoef="0" IVar="11" Cut="1.9852843750000000e+04" cType="1" res="-1.5049199573695660e-03" rms="1.2997294962406158e-01" purity="4.8531895875930786e-01" nType="0">
          <Node pos="l" depth="2" NCoef="0" IVar="-1" Cut="0.0000000000000000e+00" cType="1" res="6.8281805142760277e-03" rms="1.2791389226913452e-01" purity="3.8551461696624756e-01" nType="-99"/>
          <Node pos="r" depth="2" NCoef="0" IVar="-1" Cut="0.0000000000000000e+00" cType="1" res="-3.9115361869335175e-03" rms="1.3067658245563507e-01" purity="5.2859503030776978e-01" nType="-99"/>
        </Node>
      </Node>
    </BinaryTree>
  </Weights>
</MethodSetup>
