{"variables_constraints": [[0.014, 5.298], [1.0, 16.384], [1.379, 12.489], [1.388, 14.494], [0.152, 15.921], [4.302e-13, 6.758], [0.418, 19.061], [3.868e-11, 9.999]], "sigmanet.sigma": [1.75], "sigmanet.nn.0.bias": [0.17353495955467224, -0.49463316798210144, 0.3678796589374542, 0.09350831061601639, 0.2571796774864197, -0.28750741481781006, 0.5781902074813843, -0.1638273149728775, 0.12378561496734619, 0.2825776934623718, -0.3230079710483551, 0.26645103096961975, 0.659473180770874, -0.6721055507659912, 0.31848934292793274, -0.387811541557312, 0.17753082513809204, 0.2382870614528656, 0.2749846577644348, -0.08513505756855011, -0.2915419042110443, 0.08473863452672958, 0.15336409211158752, -0.3405277729034424, -0.10060679912567139, -0.1910782903432846, -0.04763930290937424, -0.16216400265693665, -0.10507052391767502, -0.06888318806886673, -0.34177297353744507, 0.3278830647468567], "sigmanet.nn.0.weight_orig": [[0.05836388096213341, 0.04921531304717064, 0.005413317587226629, 0.0008211859967559576, 0.008926112204790115, -6.147156818769872e-05, 0.0006865862524136901, 0.04307347908616066], [0.1202501431107521, -5.201177827984793e-06, -2.1842864953214303e-05, 3.374034713488072e-05, -1.8184529835707508e-05, 0.0003342998679727316, 4.624894245353062e-06, 0.12744005024433136], [0.044675614684820175, -0.00124172936193645, -0.30114540457725525, -1.8922572053270414e-05, -0.1957492083311081, -0.0015236245235428214, -1.7819453205447644e-05, -0.02274947240948677], [0.0010559835936874151, 0.004088907036930323, 0.0012416213285177946, 0.0060358671471476555, 0.035940464586019516, -0.0014112652279436588, 0.11860387772321701, -0.08233920484781265], [0.08042959868907928, 0.03243910148739815, 0.0031640147790312767, 0.09744244813919067, 0.050767477601766586, -0.0010434855939820409, 0.05417060852050781, -0.009059373289346695], [0.022770682349801064, 0.008909473195672035, 0.008472969755530357, 0.08128286898136139, 0.06732197850942612, -0.0023672289680689573, 0.09989123791456223, -0.012445121072232723], [-3.714506601681933e-05, -0.0005968546029180288, -1.4494400602416135e-05, -0.0004300237924326211, -0.00010647955059539527, 0.06623274832963943, -9.696125744085293e-06, 0.06651408970355988], [-0.0040116445161402225, -0.0038003104273229837, -0.0024401089176535606, -0.0060373093001544476, -0.028833206743001938, 0.0010160646634176373, -0.0024856668896973133, -0.023809850215911865], [0.03274420276284218, 0.012986930087208748, 0.06002454459667206, 0.003688780590891838, 0.007026877719908953, -0.0014431718736886978, 0.12313255667686462, 0.014368567615747452], [0.07285230606794357, 0.0006674138130620122, 0.0015351615147665143, 0.002449177671223879, 0.001157584018073976, -0.000360825884854421, 6.176948954816908e-05, 0.03940863162279129], [0.008606279268860817, -0.4162704348564148, 0.0001469882408855483, 7.089080463629216e-05, 3.3778756915125996e-05, 0.002832713071256876, 4.904379693471128e-06, -0.04937024787068367], [-0.050067462027072906, 0.006106494460254908, -0.32024744153022766, -0.18891796469688416, 1.9239816538174637e-05, -2.701411722227931e-05, -1.9199906091671437e-05, 0.0025805921759456396], [-0.015630902722477913, -0.0023680534213781357, -0.0017009149305522442, -0.424975723028183, -0.10305044800043106, 4.160542812314816e-05, 1.4953604932088638e-06, 0.02948899380862713], [-0.24319660663604736, -0.19195479154586792, 0.00018161858315579593, 9.120003232965246e-05, 0.0001422169298166409, -0.941326916217804, 2.991303972521564e-06, 0.14091067016124725], [0.05810699611902237, -0.00022944844386074692, -0.2924627363681793, -5.407925527833868e-06, -0.02850387990474701, -0.00032826990354806185, -1.4216080671758391e-05, 0.033188316971063614], [-0.0014610548969358206, -0.01809566281735897, -0.0001408374955644831, -0.0010845264187082648, -0.05936719477176666, 0.11142038553953171, -0.0007835584110580385, -0.06194622069597244], [0.051532015204429626, 0.009879102930426598, 0.041937053203582764, 0.002099977806210518, 4.250969141139649e-05, -0.00031215278431773186, 0.004974513314664364, -4.1497954953229055e-05], [0.0014392206212505698, 0.004007835406810045, 0.0012525722850114107, 0.006723508238792419, 0.05609749257564545, -0.00011591726797632873, 0.06797635555267334, -7.092471787473187e-05], [0.0008422228274866939, 0.0011430790182203054, 0.0024346173740923405, 0.0003516684228088707, 0.08891302347183228, -0.0016718413680791855, 0.00029040483059361577, 0.0031856338027864695], [-0.019428158178925514, -0.0815189778804779, -0.0011301531922072172, -0.002187612932175398, -0.006896985229104757, 0.0009796291124075651, -0.0022029238753020763, -0.03999338671565056], [-0.0012021171860396862, -0.012075983919203281, -0.002592962933704257, -0.08327305316925049, -0.010948478244245052, -1.1097728929598816e-05, -0.05592876672744751, 0.07709123194217682], [-0.004309291485697031, -0.059594232589006424, -0.030545461922883987, -0.023029513657093048, -0.00508735328912735, 0.00031961238710209727, -0.07585560530424118, -0.020591827109456062], [0.0023201273288577795, 0.012901977635920048, 0.012024284340441227, 0.00571447005495429, 0.04396059364080429, -0.0010767497587949038, 0.0013797162100672722, -0.0008103790460154414], [-0.0005228029913268983, -0.0005654693231917918, -0.0037565724924206734, -0.0006110712420195341, -0.02610909193754196, 0.0015667491825297475, -0.0015770763857290149, -0.005164733622223139], [0.060558442026376724, 0.08311350643634796, 0.0025343948509544134, 0.006536894477903843, 0.03159065172076225, -0.0011995028471574187, 0.006433435715734959, -0.011292998678982258], [-0.07375320792198181, -0.0015191639540717006, -0.002857582876458764, -0.0007118008797988296, -0.014173854142427444, 0.0006419435376301408, -7.807257497915998e-05, -0.0525781512260437], [0.0018816193332895637, 0.03915147855877876, 0.03382117301225662, 0.050311844795942307, 0.00038620922714471817, -0.0002830330631695688, 0.03451928496360779, 0.05925440415740013], [-0.00236042239703238, -0.023552456870675087, -0.003380394075065851, -0.0019716934766620398, -0.07710488140583038, 0.0007051322027109563, -0.030637435615062714, 0.022722210735082626], [-0.08738667517900467, -0.0033273273147642612, -0.003924969583749771, -0.0010802701581269503, -0.08072502166032791, 0.0017024027183651924, -0.1258985698223114, 0.03205370157957077], [-0.0012819879921153188, -0.0013322815066203475, -0.005337059032171965, -0.0059919701889157295, -0.031860582530498505, 0.002602166263386607, -0.131334587931633, 0.030931895598769188], [-0.003876009490340948, -0.0665789544582367, -0.0033322821836918592, -0.07579848915338516, -0.051416750997304916, 0.0007028136751614511, -0.0784703716635704, 0.0038540042005479336], [-0.02320856600999832, -0.0009253020398318768, -0.0009477191488258541, -0.07038342207670212, -0.03788548335433006, 0.00450156582519412, -0.13271541893482208, -0.031833432614803314]], "sigmanet.nn.2.bias": [0.05720352753996849, -0.10762478411197662, 0.03788469731807709, 0.030558211728930473, 0.3077460825443268, -0.029053598642349243, -0.411981463432312, 0.06075439229607582, 0.0926821380853653, 0.09585483372211456, -0.0006893292884342372, -0.03283042833209038, -0.08336906135082245, -0.06980754435062408, -0.07203815132379532, 0.03344695642590523, 0.043182581663131714, 0.13816483318805695, -0.09158213436603546, 0.029385000467300415, 0.13162143528461456, 0.07042903453111649, 0.033404551446437836, 0.3700820505619049, -0.3429584205150604, -0.43101462721824646, 0.10427433997392654, -0.025422675535082817, -0.3444128632545471, 0.9922072887420654, 0.048533275723457336, 0.2120470106601715, -0.09251140058040619, 0.16117383539676666, 0.4622578024864197, 0.016481362283229828, -0.1578443944454193, -0.016003094613552094, 0.268530011177063, -0.19476449489593506, -0.13580858707427979, -0.10612598806619644, -0.06412719935178757, -0.4209330081939697, -0.10913287848234177, -0.05661975219845772, -0.3275405168533325, -0.008176328614354134, 0.055229708552360535, 0.10016511380672455, 0.31782177090644836, 0.2234783172607422, 0.05069754645228386, -0.11013586074113846, -0.3650200068950653, -0.005728060379624367, -0.06850874423980713, -0.16879725456237793, -0.17921601235866547, -0.07807904481887817, 0.16044679284095764, 0.10823091864585876, -0.047082338482141495, -0.15268129110336304], "sigmanet.nn.2.weight_orig": [[-0.00278664194047451, -0.07718755304813385, 0.0004517175257205963, -0.19154472649097443, -0.16449576616287231, -0.1341671645641327, 0.11778604984283447, 0.02523903362452984, -0.09974004328250885, -0.12546224892139435, 0.11181598156690598, -0.00047515518963336945, 0.11021991819143295, -0.0001816845324356109, 0.05134527012705803, 0.0035764332860708237, -0.14575165510177612, -0.021853499114513397, 0.03990032151341438, -0.05599362403154373, 0.09913943707942963, 0.24236838519573212, 0.0823957771062851, -0.05067801848053932, 0.012284082360565662, -0.07488071918487549, 0.15320438146591187, -0.09435947984457016, 0.13234764337539673, 0.18085737526416779, 0.12017150968313217, 0.12556825578212738], [2.9117541998857632e-05, -0.0005903755081817508, -2.526190110074822e-05, 2.63832112068485e-06, 3.826510237558978e-06, -1.6575657355133444e-05, 1.3403655430010986e-05, 0.000345627311617136, -0.0009953441331163049, -3.803498202614719e-06, -1.4387391274794936e-05, -0.00027490180218592286, -1.299201358051505e-05, -0.0003730081079993397, 4.572652869683225e-06, 0.0010238654213026166, -2.974062954308465e-05, -1.3177034816180822e-05, 2.314807534276042e-05, -0.0014973662327975035, -1.1534790246514603e-05, -1.0095298421219923e-05, 0.00025733071379363537, 1.1486648872960359e-05, -4.1106060962192714e-05, -2.2680998881696723e-05, 3.0139142381813144e-06, -2.44283855863614e-05, -4.795615041075507e-06, -6.87291867507156e-06, 2.2234609787119552e-05, -3.2865648336155573e-06], [0.0001469008857384324, -0.01756722293794155, 0.0009418727131560445, -0.2596154510974884, -0.03183344379067421, -0.21120645105838776, 0.019006747752428055, 0.0037546048406511545, -0.15341266989707947, -0.25921857357025146, 0.02303548902273178, -0.1312164068222046, 0.23542581498622894, -0.00022901128977537155, 0.18181060254573822, 0.00025445176288485527, -0.22225065529346466, -0.28240683674812317, 0.19632165133953094, -0.01791878417134285, 0.04095974937081337, 0.08896274119615555, 0.012076457031071186, -0.19696979224681854, 0.11555880308151245, -0.03613194823265076, 0.23503056168556213, -0.25066250562667847, 0.19353841245174408, 0.0240486953407526, 0.2698569893836975, 0.2581675946712494], [-0.00010826583456946537, 0.0006577946478500962, -0.00023610626521985978, 1.1064861610066146e-05, 1.1534930308698677e-05, 1.6750298527767882e-05, -0.002005824586376548, -0.011814343743026257, 4.5782413508277386e-05, 6.769119499949738e-05, -4.159066156717017e-05, -0.001371479593217373, -0.0006371781346388161, 0.00027439117548055947, -8.306824020110071e-05, -0.0005039581446908414, 0.001301617594435811, 0.00011403908865759149, -0.0007111537852324545, 0.0023974354844540358, -0.0003835356328636408, -1.0652103810571134e-05, -0.016278361901640892, 8.328018884640187e-05, -0.001612342894077301, 0.0024580564349889755, -0.00047786024515517056, 2.33914270211244e-05, -0.00024954762193374336, -0.00046871486119925976, -9.462194611842278e-06, -7.980232112458907e-06], [0.0007010847330093384, -0.0008851284510456026, 4.960110527463257e-05, -6.662473879259778e-06, -1.716361680337286e-06, 1.3339604265638627e-05, 4.586585419019684e-06, -0.0003211925213690847, -0.0006213615415617824, -3.418009782762965e-06, -3.201140998498886e-06, 0.0008026610594242811, 2.8714732252410613e-05, 0.00018178013851866126, -8.230829735111911e-06, -0.00010828360973391682, 2.0928637241013348e-05, 4.472964064916596e-06, 3.056886271224357e-05, -4.761793388752267e-05, -8.029199307202362e-06, 2.4579662749601994e-06, 0.0007246501045301557, -1.4097521670919377e-05, 4.2871892219409347e-05, 5.356392193789361e-06, -5.254153620626312e-06, 1.2221260476508178e-05, 1.4106598200669396e-07, 8.30747558211442e-06, 8.629532203485724e-06, -1.5209023331408389e-05], [0.00025545296375639737, -0.0010538770584389567, 2.9040729714324698e-05, -5.644831617246382e-06, -1.9398508811718784e-05, -5.8570512919686735e-06, 0.0006202075746841729, 0.0005176417180337012, -0.0010220172116532922, -3.355309445396415e-06, -8.011884347070009e-06, -0.0014193367678672075, 1.5145950783335138e-05, 5.194416007725522e-05, 1.5349745808634907e-05, 0.0002870897005777806, -1.7755728549673222e-05, -3.3655582228675485e-05, 1.0337358617107384e-05, -0.00036383874248713255, 7.951627594593447e-06, 6.7372316152614076e-06, 1.3552526070270687e-05, 3.253461215990683e-07, 0.0010201435070484877, 1.2918355423607863e-05, 2.1830621335539035e-05, -2.2679651010548696e-05, 7.648573046026286e-06, -5.923303888266673e-06, -9.329114618594758e-06, 1.3196750842325855e-05], [9.272896568290889e-05, 0.0005269355024211109, -0.00015693715249653906, -6.667009984084871e-06, 2.368306240896345e-06, -2.3263361072167754e-05, -4.688937042374164e-05, -0.010327025316655636, 0.00026009234716184437, -4.5629465716956474e-07, -2.230169229733292e-05, 0.2555643618106842, -2.0400677385623567e-05, -0.0002947677858173847, -2.7579901143326424e-05, -0.001985108247026801, 5.891832915949635e-05, 5.773501015937654e-06, -5.576551120611839e-05, 0.00034562527434900403, -1.0135609045391902e-05, -6.4720557020336855e-06, -0.00041982042603194714, 8.261826587840915e-05, -0.0012298669898882508, 1.3193756785767619e-05, 2.5043662390089594e-05, 6.547916768795403e-07, 7.559064670203952e-06, 5.826779670314863e-06, -9.073603905562777e-06, -7.625224611729209e-07], [-0.0030925290193408728, -0.0004965036059729755, 1.1026264429092407, -2.6103970185431535e-07, -1.3157164175936487e-05, -1.3675441550731193e-05, 0.0009885287145152688, 0.07675549387931824, -0.00017552811186760664, -1.1121752322651446e-05, 0.0004064731765538454, -0.6122976541519165, 0.00034213269827887416, 0.00023386786051560193, 0.0009504131157882512, 0.8146200776100159, -0.005240168888121843, -2.1838586690137163e-05, 0.00013001813204027712, -0.06770887970924377, 1.5205029740172904e-05, 1.1262495718256105e-05, 0.01570901833474636, -0.0005781720974482596, 0.0003317582595627755, -5.6569384469185024e-05, -2.340893479413353e-05, -1.3265511370263994e-05, 3.1243630473909434e-06, -6.759890311514027e-06, -2.6181491193710826e-05, 7.404311872960534e-06], [-1.5921548765618354e-05, 0.0006422587321139872, -6.846706128271762e-06, 2.3720949684502557e-06, 2.7878227228939068e-06, 9.577220225764904e-06, -5.362790761864744e-05, -0.0018859683768823743, 0.0027314662002027035, 1.7942633348866366e-05, -1.6278190742013976e-05, -0.0031416648998856544, -3.0249277187976986e-05, -4.726834231405519e-05, -1.5453373634954914e-05, -0.001978070940822363, 1.7644853869569488e-05, 5.291563411446987e-06, -0.0007333818939514458, 0.00038413755828514695, -1.8123251720680855e-05, -2.8979839044041e-05, -0.0005961369606666267, 1.4189447028911673e-05, 0.0006067592184990644, 3.4831612083507935e-06, -7.606142389704473e-06, 1.5570911273243837e-05, -2.378818862780463e-05, -2.223174124083016e-05, -5.767314632976195e-06, -7.014496532065095e-06], [-0.0004475821042433381, 0.0021861372515559196, -0.00011654455738607794, 2.6052233806694858e-05, -5.252998107607709e-06, 1.2577351299114525e-05, -0.000504348601680249, -0.00016413835692219436, 0.0013300764840096235, 2.0959614630555734e-05, -2.761116093097371e-06, 0.0004554494807962328, -5.020197932026349e-05, 0.0005566056934185326, -1.7147871403722093e-05, -0.0019625441636890173, -1.86165652849013e-05, 1.6605836208327673e-05, -0.0005314567824825644, 0.00046334663056768477, -1.2354445061646402e-05, -1.0246407327940688e-05, -0.002245516050606966, 0.00043272366747260094, -0.004147916566580534, -1.4326185919344425e-05, -1.6593829059274867e-05, -9.950456842489075e-06, -1.736302874633111e-05, 3.129418928438099e-06, -2.0361141650937498e-05, -1.400763721903786e-05], [-0.0038468800485134125, 0.0055158245377242565, -0.0009525485802441835, 0.0007878217147663236, 0.0004420085751917213, 0.0001591068139532581, -0.004429942462593317, -0.03973011672496796, 0.003934075124561787, 6.296679930528626e-05, -2.297279570484534e-05, 0.0007493937737308443, -0.00023083279666025192, -0.00018386548617854714, -0.00030450374470092356, -0.00011894290946656838, 0.0007299439748749137, 8.026206160138827e-06, -0.001892049447633326, 0.0006140373880043626, -5.851323658134788e-05, -0.0002981304132845253, -0.013666593469679356, 0.0005291332490742207, -0.00010972147720167413, 0.0013742012670263648, -0.0019672673661261797, 0.00016403300105594099, -0.00018560329044703394, -0.0002086186723317951, -0.00019219548266846687, -0.0001803426130209118], [0.0001357696164632216, -0.08192882686853409, 0.0033819011878222227, -0.04736144095659256, -0.12175091356039047, -0.08800210803747177, 0.0849410817027092, 0.02166098915040493, -0.07735344022512436, -0.0951172411441803, 0.1373191475868225, -0.0004501101211644709, 0.08754048496484756, -0.001460645697079599, 0.07396984100341797, -1.5091163731995039e-06, -0.09939137101173401, -0.12053008377552032, 0.0649818405508995, -0.01705854758620262, 0.031604185700416565, 0.14074605703353882, 0.011682928539812565, -0.05234719067811966, 0.06600383669137955, -0.11352774500846863, 0.10945043712854385, -0.0827207863330841, 0.1049262285232544, 0.024452803656458855, 0.07595713436603546, 0.10535764694213867], [-5.89024493820034e-05, -0.00021243626542855054, 0.00011681971227517352, -0.0002203313197242096, -3.169134652125649e-05, -0.00013458704052027315, 0.001247279578819871, 0.014499186538159847, -0.002573150908574462, -2.6392359359306283e-05, 0.001937527908012271, 0.0024872098583728075, 1.684984817984514e-05, -0.0019098754273727536, 0.0019005899084731936, 0.000999694922938943, -0.0038019560743123293, -2.1275329345371574e-05, 6.721777754137293e-05, -0.0007156615611165762, 0.0007829586393199861, 5.647369471262209e-05, 0.004475895315408707, -5.0115835620090365e-05, 0.00023785587109159678, -0.0004889967967756093, 8.620712833362631e-06, -0.00011910568719031289, 7.950578583404422e-05, 0.0005084070144221187, 0.0007245329907163978, 2.32069050980499e-05], [-0.0021657829638570547, -0.08613336831331253, 0.0014126868918538094, -0.13111957907676697, -0.1502738744020462, -0.08152373135089874, 0.08620795607566833, 0.023379556834697723, -0.02787133678793907, -0.13059765100479126, 0.16991664469242096, -0.0038681435398757458, 0.09655255824327469, -0.0014205320039764047, 0.05501312389969826, 0.0010918061016127467, -0.11840368807315826, -0.05042491480708122, 0.09147340804338455, -0.01777191273868084, 0.0964738056063652, 0.19458754360675812, 0.06344962120056152, -0.13916993141174316, 0.012631427496671677, -0.1505633294582367, 0.13491761684417725, -0.12092430889606476, 0.030301159247756004, 0.15466707944869995, 0.11631371080875397, 0.1357714980840683], [-0.00022546191758010536, -0.08363088965415955, 0.0006985709187574685, -0.0004151947796344757, -0.0005522032151930034, -0.01999502070248127, 0.08765392005443573, 0.003926559817045927, -0.08904121071100235, -0.004841289017349482, 0.02652735635638237, 0.0020070625469088554, 0.007557787001132965, -0.0010415507713332772, 0.061397306621074677, 4.365921995486133e-05, -0.08418675512075424, -0.020561715587973595, 0.08708936721086502, -0.07451335340738297, 0.04807392135262489, 0.0041885836981236935, 0.011764870025217533, -0.01101248525083065, 0.015258935280144215, -0.07025498151779175, 0.02304038219153881, -0.01953168958425522, 0.005631778389215469, 0.008679735474288464, 0.026638934388756752, 0.0003388634358998388], [-0.0006673330208286643, 0.08926897495985031, -0.0003210386785212904, 0.09953183680772781, 0.01793517731130123, 0.03552897274494171, -0.08894633501768112, -0.031039904803037643, 0.01569407433271408, 0.07365551590919495, -0.11311598867177963, 0.0029742340557277203, -0.06834758073091507, 0.0009189367410726845, -0.05917339771986008, -4.485207318793982e-05, 0.03154528886079788, 0.015106216073036194, -0.02188662439584732, 0.06734610348939896, -0.15926697850227356, -0.012556699104607105, -0.06341146677732468, 0.11313825845718384, -0.022470595315098763, 0.01986534520983696, -0.027597397565841675, 0.012036495842039585, -0.09379474073648453, -0.08875398337841034, -0.0981135442852974, -0.011173421517014503], [-0.0039990912191569805, -0.035892657935619354, 0.005109444726258516, -0.06750093400478363, -0.1222369596362114, -0.09931879490613937, 0.0789574608206749, 0.019317785277962685, -0.01504560373723507, -0.10858698189258575, 0.07356829196214676, -0.00045709681580774486, 0.07933526486158371, 0.0001961537345778197, 0.08350470662117004, 0.001076184562407434, -0.04189049080014229, -0.034650977700948715, 0.058450743556022644, -0.020410029217600822, 0.15150998532772064, 0.17150011658668518, 0.02043439820408821, -0.12161889672279358, 0.04423902556300163, -0.11937935650348663, 0.12097891420125961, -0.10103269666433334, 0.11287468671798706, 0.10127626359462738, 0.09892944246530533, 0.10940877348184586], [0.00022916858142707497, 0.0001597642694832757, -6.468562060035765e-05, 2.1071899027447216e-05, 4.190326944808476e-05, 3.1365405448013917e-05, -1.5889147107372992e-05, -0.01116339210420847, 0.0015268037095665932, 2.485268487362191e-05, -8.701344995643012e-06, -0.000662397185806185, -3.388216282473877e-05, 0.0012382715940475464, -5.82349493924994e-05, -9.306450374424458e-05, 4.3171821744181216e-06, 2.100282108585816e-05, -7.20719326636754e-05, 0.0017695565475150943, -0.00030801669345237315, -2.7897283416677965e-06, -0.0017770833801478148, 3.182778527843766e-05, -0.0015585297951474786, 0.0002981801226269454, -2.212520303146448e-05, 3.377035682206042e-05, -7.741188892396167e-05, -2.471514198987279e-05, -2.1851848941878416e-05, -7.94879269960802e-06], [-0.00016851210966706276, -0.0017017846694216132, -3.4149510611314327e-05, -6.91999593982473e-06, 7.154675927267817e-07, -1.1787891708081588e-05, 0.0004783498588949442, 8.382180567423347e-06, -4.077623816556297e-05, -1.7167110399896046e-06, 6.721513273078017e-06, -0.00015174657164607197, 1.506752596469596e-06, -0.0001598932285560295, -4.0662976061867084e-06, 0.00018010094936471432, -1.0806493264681194e-05, -1.2569966202136129e-05, 0.001031899475492537, -0.0003623399534262717, 1.965743285836652e-05, -6.455752100009704e-06, 0.00046742698759771883, -0.0004822631017304957, 0.00023343054635915905, -8.036131475819275e-06, -6.022818070050562e-06, 8.762057404965162e-06, 1.4128664588497486e-05, 4.595985046762507e-06, 2.4111610400723293e-05, -7.269318871294672e-07], [-0.0007808414520695806, 0.0011370498687028885, -0.00010675469093257561, 2.0739968022098765e-05, 3.933461630367674e-05, 0.00025832283427007496, -0.0004590711905620992, -0.008122256956994534, 0.002132163383066654, -4.738851203001104e-06, -5.804262400488369e-05, -0.0023862970992922783, -1.0055921848106664e-05, 0.0018374554347246885, 1.0263996045978274e-05, -0.0008426894200965762, 0.0033970510121434927, 3.40626975230407e-05, -6.997218406468164e-06, 0.0011129506165161729, -0.00018587058002594858, -2.1191794076003134e-05, -0.0016821359749883413, 0.00011311895650578663, -0.002171792322769761, 2.8326416213531047e-05, -9.959274029824883e-05, -9.226618203683756e-06, -1.3414716704573948e-05, -9.05315209820401e-06, -2.420525561319664e-05, -1.110591347242007e-05], [5.668296216754243e-05, 0.038022350519895554, -0.0026165437884628773, 0.001055414555594325, 0.0005288590327836573, 3.10480609186925e-05, -0.00030787597643211484, -0.02019375003874302, 0.002432611072435975, 0.0001520243677077815, -0.00031916596344672143, 0.0006549905519932508, -0.0008519508992321789, 0.00012979889288544655, -0.000360390666173771, -0.0008482602424919605, 0.0008183037280105054, 0.0058145103976130486, -4.6541663323296234e-05, 0.0095975361764431, -6.13318698015064e-05, -5.139402492204681e-05, -0.05875493213534355, 0.0025851870886981487, -0.008942976593971252, 0.0006715206545777619, -1.2859090020356234e-05, 0.0005321450880728662, -3.524371641105972e-05, -0.0009006291511468589, -0.0013879152247682214, -6.875703547848389e-05], [-0.0008327080286107957, 0.0551227368414402, -0.0009061249438673258, 0.002113945782184601, 0.003328868420794606, 0.0032336039002984762, -0.02727835439145565, -0.05484648421406746, 0.03326386213302612, 0.00016234997019637376, -0.001956866355612874, 0.0013039617333561182, -0.004148397594690323, 0.000235421844990924, -0.005245018284767866, -0.00024477794067934155, 0.007744516711682081, 0.0031147373374551535, -0.006652947515249252, 0.07844799011945724, -0.001554689952172339, -0.003126882715150714, -0.016814053058624268, 0.02788924053311348, -0.076494500041008, 0.008508624508976936, -0.0012184074148535728, 0.0011495747603476048, -0.0031260282266885042, -0.001123154885135591, -0.00012146111839683726, -0.003243562299758196], [2.31117955991067e-05, 0.013103710487484932, -0.0012131058610975742, 0.03810693323612213, 0.057416949421167374, 0.06982561200857162, -0.07715911418199539, -0.005032022949308157, 0.07903090119361877, 0.030388880521059036, -0.10904699563980103, 0.0011560030980035663, -0.07402347773313522, 0.00026097000227309763, -0.07612685114145279, -8.916490332921967e-05, 0.04975959658622742, 0.07736814022064209, -0.054156430065631866, 0.015302770771086216, -0.13643676042556763, -0.08978845924139023, -0.04663919657468796, 0.1027330681681633, -0.07302682101726532, 0.10806240886449814, -0.03342917561531067, 0.07691165804862976, -0.09501377493143082, -0.0791652724146843, -0.09120920300483704, -0.0663536787033081], [1.721874468785245e-06, -0.00029583723517134786, 3.244549225200899e-05, 8.028693628148176e-06, -5.460418378788745e-06, 5.793139735033037e-06, 0.0007849216344766319, 1.062353840097785e-05, -2.4265313186333515e-05, -8.015134881134145e-06, 8.852874088915996e-06, -0.001448916387744248, 2.633028088894207e-05, -0.0001720171858323738, -7.64095238992013e-06, 0.002177348593249917, -7.926347279862966e-06, -4.185380021226592e-06, 2.6027295461972244e-05, -5.180047082831152e-05, 2.2328963211748487e-07, -1.0218181159871165e-05, 0.0007438268512487411, -5.842579048476182e-05, 0.00033995567355304956, -1.1009566151187755e-05, 1.3690176274394616e-05, 6.5352514866390266e-06, 6.71267071084003e-06, 1.7677159576123813e-06, 1.4000258488522377e-05, 6.261478574742796e-06], [-0.005126212723553181, 0.0010516172042116523, -0.00012105167843401432, -1.2445922266124398e-06, 2.6044634068966843e-05, 1.3385882084548939e-05, -1.2427032743289601e-05, -0.005499646998941898, -0.00010951531294267625, 1.044200644173543e-06, -1.2731149581668433e-05, -0.0006635893951170146, -3.327606464154087e-05, 0.0006198536138981581, 2.1197556634433568e-05, 0.0011318515753373504, 8.679187158122659e-05, 6.986837888689479e-06, -1.5117888324311934e-05, 0.002636353950947523, -1.9552715457393788e-05, -5.1571736548794433e-05, -0.00023455242626369, 9.800552652450278e-05, -0.0013507805997505784, -1.636168235563673e-05, -1.6370006051147357e-05, 3.293111876701005e-05, 1.3189803667046363e-06, -2.3495329514844343e-05, -2.3077043806551956e-05, 1.1383465334802167e-06], [-0.0007422506459988654, 0.0005911416956223547, -0.00014243059558793902, 7.598429874633439e-06, -4.985415102964907e-07, -1.1192579222552013e-05, -2.9192117381171556e-06, -0.00023843922826927155, 0.0008890668977983296, 1.290861200686777e-05, 7.925940735731274e-06, 0.0011112927459180355, -7.182770332292421e-06, 0.0005848019500263035, 9.328831765742507e-06, -0.000979727366939187, 8.138638804666698e-06, 5.905750185775105e-06, -0.001130552962422371, 0.0009076130809262395, 1.1911807632714044e-05, -1.3666243830812164e-05, -0.0010188319720327854, 8.815928595140576e-05, -0.001985863083973527, 9.65746494330233e-06, -3.3524564059916884e-05, 2.4174709324142896e-05, 1.4880192793498281e-06, 1.3229506521383883e-06, -1.7807240510592237e-05, -1.4060186913411599e-05], [0.00010276807734044269, 0.00040565436938777566, -0.00013501598732545972, 9.331096407549921e-06, 1.446388523618225e-05, 0.0002417966170469299, -0.0001590396132087335, -0.04833817109465599, 0.0002776171313598752, 4.974903276888654e-06, 3.699652097566286e-06, 0.00031709071481600404, -4.6836335968691856e-05, 0.0005837275530211627, -2.5059802283067256e-05, -0.0008635341073386371, 1.034178876579972e-05, 8.033277481445111e-06, -0.0001456305180909112, 0.0009300181991420686, -1.3947670595371164e-05, 1.771907705006015e-06, -0.0009170062257908285, 0.00043627319973893464, -0.0017542463028803468, 0.0012014128733426332, -1.5451834769919515e-05, 3.972275590058416e-05, -2.7290575417282525e-06, -1.8011050997301936e-05, -1.596440233697649e-05, -1.2078213330823928e-05], [0.0006339888204820454, 0.0009419830748811364, -1.864656042016577e-05, 8.62209162733052e-06, 1.4227472320271772e-06, -7.101863047864754e-06, 1.6258978575933725e-05, -6.52509625069797e-05, 0.001999118598178029, 1.8372202248428948e-06, 1.009548668662319e-05, -0.000728009210433811, 1.156087910203496e-05, 0.00036105612525716424, -9.99054464045912e-06, -0.00032994619687087834, 1.2580423572217114e-05, 6.561648206115933e-06, -0.00012339329987298697, 2.3650347429793328e-05, -9.00835857464699e-06, -3.073669176956173e-07, -0.00015457801055163145, 3.905715129803866e-05, -0.001023800577968359, -1.672124744800385e-05, 4.638745849661063e-06, 1.864702790044248e-05, -1.4607887351303361e-05, -1.457696612305881e-06, -3.2723546610213816e-05, 2.1528419438254787e-06], [0.18710310757160187, -0.00015670590801164508, 0.00017762818606570363, -3.273875336162746e-06, -2.4527626010240056e-06, -5.785238681710325e-05, 0.0004493372398428619, -0.024089159443974495, -0.0007360917516052723, -2.0599120034603402e-05, 1.2949213669344317e-05, -0.016782350838184357, 4.647988680517301e-05, -0.5670649409294128, 8.54121390148066e-05, 0.15371201932430267, -0.0004026132810395211, -4.144480669765471e-07, 3.364353005963494e-06, 8.563250958104618e-06, 2.1737552742706612e-05, 2.3144681108533405e-05, 0.0008973997319117188, -0.0006346979644149542, 0.0005079244147054851, -3.8904086977709085e-05, 2.4658345864736475e-05, -3.0508665531669976e-06, 2.4333534383913502e-05, 4.022926134439331e-07, 1.3633652997668833e-05, 6.4846485656744335e-06], [-0.14173373579978943, 0.00012932998652104288, -0.00020439480431377888, 5.668706307915272e-06, 1.1577575605770107e-05, 8.875143066688906e-06, -0.0004444726218935102, 0.016228875145316124, 0.0005360685172490776, 7.042875949991867e-06, -6.412775837816298e-05, 0.016154522076249123, -6.633553766732803e-06, 0.5547971129417419, -3.531599213602021e-05, -0.1323712319135666, 0.0003897614369634539, -4.4130861169833224e-06, -1.4888723853800911e-05, -0.00015828790492378175, 1.1970770174229983e-05, 1.4530038242810406e-05, -0.00015293285832740366, 0.0003019217401742935, -0.0007651904015801847, 5.316600072546862e-05, -3.933383050025441e-05, 1.7955226212507114e-05, -1.4531586202792823e-05, -3.1877136734692613e-06, -9.538488484395202e-06, -1.2692402151515125e-06], [-0.003902781754732132, 0.054603949189186096, -0.0030284731183201075, 0.00016563228564336896, 0.0015774508938193321, 0.003206469351425767, -0.05709690973162651, -0.018908707424998283, 0.03325652703642845, 0.0002899206301663071, -0.0005569205968640745, -0.0012461061123758554, -0.000950629182625562, 0.0002241873153252527, -0.03864729031920433, -9.992496052291244e-05, 0.06059764325618744, 0.005293379072099924, -0.04189767688512802, 0.06767544895410538, -0.004386219661682844, -0.00040335411904379725, -0.04717012494802475, 0.023501800373196602, -0.05428306385874748, 0.00292169488966465, -0.00304927839897573, 0.005760865285992622, -0.002346140332520008, -0.0038209930062294006, -0.003495763288810849, -0.000901994644664228], [0.00022941202041693032, 0.0011861366219818592, -5.275784496916458e-05, 1.9634355339803733e-05, -1.0516607289901003e-05, 1.5213190636131912e-05, -2.3437733034370467e-05, -0.0005538490368053317, 1.62582473421935e-05, 4.085645741724875e-06, 9.700673217594158e-06, 0.0010884901275858283, -2.3307427909458056e-05, 0.0005913887289352715, -1.4132161595625803e-05, -0.0001545581762911752, 2.361617225687951e-05, 1.7828175259637646e-05, -7.854284922359511e-05, 0.0009049013024196029, -9.871180736809038e-06, -2.0687582946266048e-05, -0.00013503014633897692, 2.7610902179731056e-05, -0.00033525199978612363, 1.2093252735212445e-05, -1.5525345588685013e-05, -2.4539131118217483e-06, -1.0223514436802361e-05, -5.376022272685077e-06, -1.115916165872477e-05, -8.145269930537324e-06], [0.004461838398128748, -0.005135503131896257, 0.00020322483032941818, -3.041560148631106e-06, -0.00012681940279435366, -4.718199488706887e-05, 0.00033833913039416075, 0.0120562007650733, -0.00021170788386370987, -1.9997825802420266e-05, 8.141485523083247e-06, -0.0005216582794673741, 1.9183002223144285e-05, -0.00020980380941182375, 0.0011155141983181238, 0.00013811215467285365, -4.5768694690195844e-05, -5.1037627599725965e-06, 0.000912583083845675, -0.0009593078284524381, 0.0001835964503698051, 1.1847181667690165e-05, 3.6441364500205964e-05, -1.3612990187539253e-05, 0.004686009604483843, -5.179606523597613e-05, 0.0005505309090949595, -3.211519288015552e-05, -1.7321610812359722e-06, 0.00010262682189932093, -1.5241791516018566e-05, 0.0006450346554629505], [9.442402370041236e-05, 0.019146980717778206, -0.00030540721490979195, 0.000588378170505166, 0.000278656865702942, 0.03235422074794769, -0.07567805051803589, -0.024849535897374153, 0.06975658982992172, 0.0035545961000025272, -0.007869549095630646, -0.002050371142104268, -0.046641793102025986, 0.0002536493120715022, -0.05019614100456238, -0.001002487842924893, 0.017351187765598297, 0.04287383705377579, -0.08332869410514832, 0.06657674908638, -0.01916319690644741, -0.012098703533411026, -0.06894788146018982, 0.016117021441459656, -0.011670267209410667, 0.09536696970462799, -0.048316940665245056, 0.04220326989889145, -0.032812297344207764, -0.005926812067627907, -0.017216775566339493, -0.00697749387472868], [0.00015177922614384443, -0.0011662031756713986, 1.7326055967714638e-05, 5.022698132961523e-06, 1.0259301461701398e-06, 1.0273369298374746e-05, 0.00028473653947003186, 0.0001797422592062503, -0.0014295442961156368, -9.095610948861577e-07, -4.791365881828824e-06, -0.0012430045753717422, 1.746525231283158e-05, -0.00018831850320566446, 1.7313281205133535e-05, -0.0013157430803403258, -1.4820838259765878e-05, -1.5477415900022606e-06, 0.0005033127381466329, -0.0022416352294385433, -1.0351999662816525e-05, 5.605712431133725e-06, 0.0002287724200868979, -2.690825203899294e-05, -0.0005730592529289424, -1.0372605174779892e-05, -1.0752298294391949e-05, 3.8587536437262315e-06, -1.1962305507040583e-05, 2.484746801201254e-05, 1.0186032341152895e-05, 1.0232271051791031e-05], [0.0006928163347765803, -0.10286819934844971, 0.002400627825409174, -0.1216299831867218, -0.279774934053421, -0.18943677842617035, 0.05741427093744278, 0.051419246941804886, -0.14066487550735474, -0.20877817273139954, 0.26861754059791565, -0.0320955254137516, 0.19064177572727203, -0.00056369265075773, 0.15642033517360687, 0.0002746927202679217, -0.03950672969222069, -0.2553516626358032, 0.16456769406795502, -0.10256759822368622, 0.08481373637914658, 0.09499114006757736, 0.09845267981290817, -0.031256381422281265, 0.11116528511047363, -0.020160475745797157, 0.021110570058226585, -0.1631523072719574, 0.17069217562675476, 0.3015245795249939, 0.019762415438890457, 0.19217324256896973], [0.0001262193836737424, -0.05393683910369873, 0.0018740331288427114, -0.05169413611292839, -0.05592051520943642, -0.06391559541225433, 0.07712924480438232, 0.017897458747029305, -0.08176928013563156, -0.04773188382387161, 0.06301680207252502, 0.002043867250904441, 0.056264642626047134, -9.231995500158519e-05, 0.057790763676166534, 9.976870933314785e-05, -0.06641450524330139, -0.04567646235227585, 0.07332863658666611, -0.07047495990991592, 0.01709298975765705, 0.06563670933246613, 0.04830196127295494, -0.08505603671073914, 0.029403872787952423, -0.09602813422679901, 0.08891361206769943, -0.04949307441711426, 0.06718074530363083, 0.05590006709098816, 0.053347550332546234, 0.032091036438941956], [-0.00601585116237402, 0.00047313611139543355, 3.989157630712725e-05, 1.1209319382032845e-05, -4.611267740983749e-06, 3.044031655008439e-05, -0.0019047517562285066, 0.00027199354371987283, 0.002423684112727642, 8.192957466235384e-06, -5.008585958421463e-06, -0.0009232814772985876, 1.567104300193023e-05, 0.0002884367131628096, -2.3401685211865697e-06, 0.0008148026536218822, 2.233427221653983e-05, -2.9593545605166582e-06, -0.0004735688853543252, 0.0014272541739046574, -1.1831446499854792e-05, -6.277810371102532e-06, -0.0019080181373283267, -1.2033980965497904e-05, -0.00030252133728936315, 4.649651145882672e-06, -1.540497032692656e-05, 4.080325652466854e-06, -2.655950993357692e-05, -6.989404027990531e-06, -1.1908985470654443e-05, -2.371964365011081e-05], [0.00016446954396087676, -9.84771304501919e-06, 3.42315761372447e-05, -1.8923327615993912e-06, 7.235917564685224e-06, -7.705960342718754e-06, 0.0009079693118110299, 2.8557738914969377e-05, 7.063928933348507e-05, -1.7127293176599778e-05, -7.0973983383737504e-06, 0.0007858278113417327, 2.5809662474785e-05, -0.0005716914311051369, 1.8072527382173575e-05, 0.0003144997463095933, 1.109626919060247e-05, 7.0463061092596035e-06, 0.00019077576871495694, -0.0011949528707191348, 1.679983688518405e-05, 4.076059212820837e-06, -2.451576801831834e-05, -6.638660124735907e-05, 0.0005534986848942935, 9.819051228987519e-06, 1.3438559108180925e-05, -1.6856894944794476e-05, 1.7598011254449375e-05, -5.274422392176348e-07, 9.24620599107584e-06, -4.857947715208866e-06], [-0.0010841712355613708, 0.0005908822640776634, -1.8402815840090625e-05, 1.2011872968287207e-05, -9.637049515731633e-06, 6.167614628793672e-06, -0.00018642991199158132, -3.5255084185337182e-06, -0.0010989392176270485, 1.5615971278748475e-05, 1.3833273442287464e-05, -0.000998431583866477, -2.174977225877228e-06, 0.00023379374761134386, 1.2608947145054117e-05, 0.0003069776576012373, -1.2733403309539426e-05, 6.901508641021792e-06, -3.5428369301371276e-05, 0.001784700551070273, 7.207982434920268e-06, -5.8341324802313466e-06, -0.0011980421841144562, 2.6683610485633835e-05, 2.382849015702959e-05, -1.2688192327914294e-05, -2.8458578071877128e-06, 1.9972630980191752e-05, -2.043389031314291e-05, -2.5289691620855592e-06, -1.4578690752387047e-05, -2.043956783381873e-06], [-0.00230783480219543, -0.036834705621004105, 0.0007779437000863254, -0.002431560307741165, -0.0016556215705350041, -0.0005330739077180624, 0.002081510378047824, 0.02917492762207985, -0.020665273070335388, -0.0010048372205346823, 0.000660993333440274, -0.0030794863123446703, 0.0004695729003287852, -0.0004948972491547465, 0.000827938609290868, 0.00016651011537760496, -0.0007397289737127721, -0.0004898679908365011, 0.002915913937613368, -0.032374028116464615, 0.0019240922993049026, 0.0010956028709188104, 0.012382362969219685, -6.751161890861113e-06, 0.04184773564338684, -0.008257567882537842, 0.0033045464660972357, -0.0002583787718322128, 0.0001867584651336074, 0.0028603223618119955, 0.0006914889672771096, 0.0012792210327461362], [9.404357115272433e-05, -0.0008100912673398852, -1.1930428627238143e-05, -2.9261825602588942e-06, -5.048449111200171e-06, 9.222017979482189e-06, 1.4227142855816055e-05, 0.0003930100065190345, -4.321770029491745e-05, -1.6460639017168432e-05, 1.819814497139305e-05, 4.610096220858395e-05, 8.14953546068864e-06, 0.0002362047671340406, 1.5668449123040773e-05, 0.00012124297063564882, -3.2536590879317373e-06, -8.192752829927485e-06, -1.392606645822525e-05, 0.00017402398225385696, -7.317760264413664e-06, 2.0212917661410756e-05, 0.0013383105397224426, -1.66145200637402e-05, 0.0008910006145015359, 9.947870239557233e-06, -1.7808990378398448e-05, -2.2525409804075025e-06, 1.599327879375778e-05, -2.466626654040738e-07, 1.2427151887095533e-05, -2.288941459482885e-06], [-4.072282536071725e-05, -0.06510460376739502, 0.0010362324537709355, -0.11933720111846924, -0.1278449445962906, -0.09914453327655792, 0.1445053070783615, 0.05713256448507309, -0.11028681695461273, -0.04597734287381172, 0.028380319476127625, -0.020678376778960228, 0.06782516092061996, -0.0009013346862047911, 0.12203487008810043, 5.3202795243123546e-05, -0.1243445873260498, -0.1549878716468811, 0.12484952807426453, -0.08767399191856384, 0.23587563633918762, 0.021208273246884346, 0.08224599063396454, -0.14458762109279633, 0.09580526500940323, -0.185466006398201, 0.1308363378047943, -0.12059012800455093, 0.09363219887018204, 0.10638093203306198, 0.13437727093696594, 0.08699627220630646], [0.0020333698485046625, 0.0008725989027880132, -0.000135928436066024, 8.309160875796806e-06, 1.8915343389380723e-06, 1.8241828001919203e-05, -8.808750862954184e-05, -0.0047577666118741035, -0.0001737881830194965, 1.6391188182751648e-05, -9.116820365306921e-06, 0.0007714545936323702, -1.1498003004817292e-05, 0.0005226738285273314, -9.88626925391145e-06, -4.133875700063072e-05, -2.1898860723013058e-05, -7.742121852061246e-06, -0.00017881597159430385, 6.720241071889177e-05, -1.0175891475228127e-05, -2.264178874611389e-05, -0.0002636689750943333, 4.172783974354388e-06, -0.0002893964701797813, 3.681347607198404e-06, -6.4488208408874925e-06, 3.38794848175894e-06, -1.0122451385541353e-05, -5.1839333536918275e-06, -3.6478361380432034e-06, -1.710517426545266e-05], [-0.00016594663611613214, -0.00022564135724678636, 4.376023935037665e-05, -6.153158756205812e-05, -0.00020097350352443755, -0.0002429512533126399, 0.00039341329829767346, 0.007954174652695656, -0.000739016686566174, -7.579181328765117e-06, 0.0004612049087882042, -0.0003351158229634166, 1.881593925645575e-05, -0.0002801793743856251, 5.753803634434007e-05, 0.0015214389422908425, -0.0007076926995068789, -0.00019236866501159966, 0.00013343823957256973, -0.00018068945792037994, 4.694624749390641e-06, 2.4500235667801462e-05, 0.005970482714474201, -0.00011659437586786225, 0.0005630317027680576, -2.326709363842383e-05, 1.1359908967278898e-05, 1.1602504855545703e-05, 2.1830950572621077e-05, -3.0240523756219773e-06, 0.0005193559918552637, 1.771169809217099e-05], [0.0009650019928812981, -0.0017381672514602542, 0.00015754933701828122, -1.8135106074623764e-05, -9.884956853056792e-06, -5.498764039657544e-06, 0.00034712074557319283, 0.010911823250353336, -0.0015958219300955534, -3.0678049370180815e-05, 9.913935355143622e-05, -0.0002309294941369444, 1.4056619875191245e-05, -0.00038065164699219167, 3.6343753890832886e-05, 0.0005545360036194324, -0.00022549154527951032, -0.00015359143435489386, 0.0005579948192462325, -0.0012975945137441158, 0.00019503496878314763, 7.233198994072154e-05, 0.0045356955379247665, -4.678667028201744e-05, 0.0007077991031110287, 1.1855595403176267e-05, 3.444371759542264e-05, -1.8468161215423606e-05, 2.886009679059498e-05, 1.8744309272733517e-05, 5.7646342611406e-05, 2.4551986825827044e-06], [-0.003782606916502118, 0.0012610933044925332, -1.1183792594238184e-05, 7.814333002897911e-07, 2.0383844457683153e-05, -1.4489627574221231e-05, -0.0007837470038793981, -5.821736340294592e-05, -0.0005329848499968648, 2.5756109607755207e-05, -1.5184706171567086e-05, 0.00032368171378038824, -1.6615923641438712e-06, -0.00023014098405838013, -1.0382997970737051e-05, -0.0003277266805525869, -2.5997469492722303e-05, -8.005044946912676e-06, -2.547985059209168e-05, 0.00047100949450396, 1.0935137652268168e-05, -1.3341772501007654e-05, -0.0001950716832652688, 1.0445282896398567e-05, 3.018497045559343e-05, 7.49003038436058e-06, 1.8008833649219014e-05, 1.3206146832089871e-05, -4.735833044833271e-06, -1.6090098142740317e-05, 7.655042281839997e-06, 6.955205662961816e-06], [-0.0072373561561107635, 5.392124512582086e-05, -4.376081415102817e-05, 3.930141701857792e-06, 4.173642537352862e-06, -5.235707703832304e-06, -0.0002257006271975115, -6.349849718390033e-05, 0.001254288014024496, -1.0486408427823335e-05, -8.098340003925841e-06, 0.0004927932168357074, -7.38820699552889e-06, 7.069655111990869e-05, 9.164726179733407e-06, 0.00015155014989431947, -1.2576555491250474e-05, -1.4115016711002681e-05, -3.11211115331389e-05, 5.2781106205657125e-05, -3.7839595279365312e-06, -2.4042625227593817e-05, -6.365755689330399e-05, 7.300140623556217e-06, 3.421372821321711e-05, 8.826788871374447e-06, 5.708916432922706e-06, -8.165377948898822e-06, 3.1262950415111845e-06, -1.7735954997988301e-06, 1.8906275727204047e-05, -1.0948610906780232e-05], [-0.0004818072193302214, -0.06412603706121445, 0.0034182050731033087, -0.0016707710456103086, -0.0017928807064890862, -0.00029343305504880846, 0.019240038469433784, 0.06144214794039726, -0.018252909183502197, -0.004566760268062353, 0.0012259857030585408, -0.0010285404277965426, 0.005815836135298014, -0.0014431446325033903, 0.055247798562049866, 0.0009958093287423253, -0.009083883836865425, -0.0004067721019964665, 0.006492303218692541, -0.05779694393277168, 0.0036405965220183134, 0.000265882583335042, 0.06256759166717529, -0.010892007499933243, 0.06297557055950165, -0.007665637880563736, 0.0044931708835065365, -0.0001969754375750199, 0.00020417185442056507, 0.0008011833997443318, 0.001444695401005447, 0.00025175962946377695], [-0.0017586281755939126, 0.004138844553381205, -0.00015357520896941423, 0.0007476101745851338, 0.00020085074356757104, 0.00037136173341423273, -0.0004384708881843835, -0.015386659651994705, 0.0015008943155407906, 9.532322292216122e-05, -0.0001224760344484821, 0.0006353560602292418, -0.00013822516484651715, 0.0012499182485044003, -0.0005029105232097208, -0.0009449548670090735, 0.0004500705108512193, 0.000118621886940673, -0.0011952656786888838, 0.00029496525530703366, -0.00026059235096909106, -7.296344119822606e-05, -0.011429840698838234, 0.002269577933475375, -0.01614561304450035, 0.0003504722844809294, -0.001129899057559669, 0.001773691619746387, -1.0309971912647597e-05, -0.0007760694134049118, -2.301817039551679e-05, -0.000524639617651701], [0.1807543784379959, -0.0018959286389872432, -1.764695844030939e-05, 5.501620762515813e-06, -2.17084857467853e-06, -1.631800114409998e-05, 4.852600977756083e-05, 0.04159967601299286, -0.0005711952107958496, 9.364086508867331e-06, -4.717415322375018e-06, 0.003097754204645753, -1.7684742488199845e-05, -0.0005255485302768648, 1.532693022454623e-05, 0.00015544686175417155, -4.5456781663233414e-06, 9.65946583164623e-07, 2.722573117353022e-05, -0.0008304267539642751, -1.1551779607543722e-05, 2.1539985027629882e-05, 0.0010233370121568441, -9.736923675518483e-05, 0.0004359514859970659, 9.928934332492645e-07, 9.085913006856572e-06, -1.3331744412425905e-05, 1.5005526620370802e-05, 5.635331945086364e-06, 2.0199449863866903e-05, 1.175567649625009e-05], [-0.5653598308563232, 0.0005158215062692761, -2.8522197681013495e-05, 6.489899078587769e-06, 1.129652537201764e-05, -3.852022132377897e-07, -2.947875327663496e-05, -0.021794065833091736, -0.000746775243896991, 1.732994496705942e-05, -4.6081049731583335e-06, 0.0016308589838445187, -1.4337323591462336e-05, 0.0002757423499133438, -2.5249222744605504e-05, -0.0006686325650662184, 2.5272770471929107e-06, -3.9388924051309004e-06, 3.0117658752715215e-05, 0.0007061130600050092, -1.6772037270129658e-05, 1.3349242635740666e-06, -3.330918843857944e-05, 1.3222412235336378e-05, 0.0002342874213354662, 1.084215909941122e-05, 1.2982435691810679e-05, -1.0628482414176688e-05, -8.355673344340175e-06, 1.8857792838389287e-06, -5.531632723432267e-06, -3.611009333326365e-06], [6.97664017934585e-06, 0.03514125198125839, -0.0008729070541448891, 0.0036554508842527866, 0.001425383728928864, 0.0075508723966777325, -0.005857781041413546, -0.033335987478494644, 0.019659535959362984, 0.0009160629124380648, -0.0006116756121627986, -0.001206139218993485, -0.001578005962073803, 7.84460426075384e-05, -0.004085457418113947, 0.0010289183119311929, 0.0010311950463801622, 0.0010789877269417048, -0.0021098654251545668, 0.04241654649376869, -0.0003660029615275562, -0.0011302767088636756, -0.06137233227491379, 0.0006059284205548465, -0.06979720294475555, 0.0009927247883751988, -0.0002531040518078953, 0.0005232312832958996, -0.0033424384891986847, -0.0023810856509953737, -0.00010160414240090176, -0.002125029917806387], [0.004085532855242491, -0.010990149341523647, 0.0008702757768332958, -6.0470105381682515e-05, -0.00010081979417009279, -0.0012628101976588368, 0.006946276407688856, 0.020725786685943604, -0.0014761473285034299, -0.00020789775589946657, 0.0002900397521443665, -0.0007877125171944499, 0.0005355927278287709, -0.00046500941971316934, 8.958206308307126e-05, 6.404156010830775e-05, -0.0015250927535817027, -0.0007332945824600756, 0.0009110671817325056, -0.015989111736416817, 0.0014157876139506698, 0.00019173049076925963, 0.019782207906246185, -0.0009378039394505322, 0.007611670531332493, -0.001108195399865508, 0.0016375657869502902, -0.0006213990272954106, 0.00021430669585242867, 0.00048274584696628153, 0.00020305824000388384, 0.000169111299328506], [-0.0007468368276022375, 0.0007580441888421774, 2.582223532954231e-05, 6.031937573425239e-06, -1.5463981981156394e-05, -1.1487034612400748e-07, -2.5780136638786644e-05, -5.916800546401646e-06, 0.0019547762349247932, 8.331358912982978e-06, -3.8714829315722454e-06, 0.00039918386028148234, -1.030860858008964e-05, 0.00013300360296852887, -1.5381236153189093e-05, 0.0010743779130280018, 1.735967271088157e-05, 6.652451702393591e-06, -0.0003774960059672594, 9.194015729008242e-05, -7.623066721862415e-06, -2.053104981314391e-05, 0.00018878559058066458, 2.7077161576016806e-05, -0.00022933640866540372, 7.461520453944104e-06, -5.098934252600884e-08, 3.6164810808259062e-06, -1.3100395790388575e-06, 5.7906909205485135e-06, 8.059538231464103e-06, -1.6972177036223002e-05], [0.00039554593968205154, 0.04543115571141243, -0.002942257095128298, 0.0011920485412701964, 0.000668628781568259, 0.0019564467947930098, -0.005773850716650486, -0.048376575112342834, 0.013816903345286846, 0.0012464981991797686, -0.0023932503536343575, 0.0004540122754406184, -0.004513775464147329, 0.0003245547995902598, -3.575674054445699e-05, -0.001904775039292872, 0.0016395780257880688, 0.0004398948804009706, -0.0008322676876559854, 0.010155580937862396, -0.001859193085692823, -0.0014045082498341799, -0.05814669281244278, 0.002407579217106104, -0.05958296358585358, 0.0022679350804537535, -0.0004109957080800086, 0.0007209391915239394, -0.0008918849634937942, -0.0015842611901462078, -0.005230203736573458, -0.000978596042841673], [0.0036613529082387686, -0.007731098681688309, 0.0027171780820935965, -0.0018905055476352572, -0.0028058739844709635, -0.0009419933194294572, 0.0038716495037078857, 0.0485076904296875, -0.0016116410261020064, -0.0040707215666770935, 0.0031108781695365906, 0.0003851852670777589, 0.0010519832139834762, -7.831813854863867e-05, 0.0025892015546560287, 0.00019370546215213835, -0.0005003002006560564, -0.0017951938789337873, 0.0019510829588398337, -0.048698633909225464, 0.0014283745549619198, 0.0004192859632894397, 0.021757928654551506, -0.0001623421412659809, 0.022300081327557564, -0.0026164825540035963, 0.0019255948718637228, -0.0006881718873046339, 0.000913779775146395, 0.00027775714988820255, 0.004258090630173683, 0.0025731236673891544], [4.1834147850750014e-05, -0.008267528377473354, 0.0004936360637657344, -0.000134293528390117, -0.0005443962872959673, -0.000810284516774118, 0.0007573426119051874, 0.0035576506052166224, -0.00024743034737184644, -0.00010543233656790107, 2.3217373382067308e-05, -0.0019475204171612859, 0.00012117349251639098, -0.000333792413584888, 0.0005081577692180872, 0.00015619871555827558, -0.0011358913034200668, -5.5135224101832137e-05, 0.001959700370207429, -0.02489366941154003, 0.00013754841347690672, 9.317967487731948e-05, 0.013470926322042942, -0.0009946862701326609, 0.03168520703911781, -0.0009253226453438401, 0.0011161586735397577, -0.0009961433243006468, 0.00038983405102044344, 0.0005596948903985322, 0.0006251927698031068, 1.757132304192055e-05], [0.0009421955910511315, -0.0015655405586585402, 4.1200251871487126e-05, -1.7016489437082782e-05, -2.9711478418903425e-05, -0.0002603296597953886, 0.0001723133318591863, 0.004453502129763365, -0.0014697529841214418, -2.5989156711148098e-05, 0.00019944696396123618, -0.0002479841932654381, 4.981264737580204e-06, 0.00020405124814715236, 4.696411451732274e-06, 0.00373040116392076, -1.848940519266762e-05, -2.241217543996754e-06, -2.0963861970813014e-05, -0.0001666964526521042, 9.342125849798322e-06, 1.325570610788418e-05, 0.004917776212096214, -0.0004118235083296895, 0.0012291442835703492, -0.0001326250348938629, 1.7168109479825944e-05, 1.1412593266868498e-05, 1.7420290532754734e-05, 5.466517905006185e-06, -1.2237476767040789e-05, 2.5879200620693155e-05], [-0.0013055659364908934, -0.0005383045645430684, 0.0034216586500406265, -0.003307559061795473, -0.0018448012415319681, -0.00099589629098773, 0.0041540698148310184, 0.07083457708358765, -0.001448028371669352, -0.0008202994358725846, 0.0017337226308882236, -0.0003968883538618684, 0.0024706826079636812, -0.00011156379332533106, 0.004867832642048597, 0.00010455372830620036, -0.0022345499601215124, -0.0012099598534405231, 4.181258918833919e-05, -0.025839801877737045, 0.004467932973057032, 0.0002708326792344451, 0.016643859446048737, -0.00018280370568390936, 0.013628987595438957, -0.009104474447667599, 5.4953121434664354e-05, -0.0011055837385356426, 0.0010681492276489735, 0.0004941413062624633, 0.0014749547699466348, 0.0032946921419352293], [6.557969027198851e-05, 0.00026744790375232697, -0.00017361673235427588, 4.175084541202523e-05, 2.705768565647304e-05, 0.0005674174171872437, -0.00020787066023331136, -0.014704395085573196, 0.00022950080165173858, 4.184766657999717e-05, 1.8420363630866632e-05, -0.0023965430445969105, -0.0005802100640721619, -4.6725119318580255e-05, -1.283882465941133e-05, -0.0017970675835385919, 0.0001311562373302877, 0.0008079158142209053, -0.001978365471586585, 0.002807679818943143, -0.0007349744555540383, 1.813976268749684e-05, -0.00951005332171917, 0.003069993108510971, -0.0025911263655871153, 2.4479553758283146e-05, -3.827988257398829e-05, 5.339581548469141e-05, -0.0004901740467175841, -3.4691172459133668e-06, -4.746868580696173e-05, -6.686685992463026e-06], [2.5271929189329967e-05, 0.008070901967585087, -0.001283009652979672, 0.0001443865621695295, 0.0006306019495241344, 0.0015844701556488872, -0.0019281255081295967, -0.017300987616181374, 0.0032315021380782127, 0.0009479404543526471, -0.0005705408984795213, -0.0007157101645134389, -0.0007539390353485942, 0.0005289913387969136, -0.0014411309966817498, -0.0026695060078054667, 0.00034176287590526044, 0.002441704971715808, -0.00541770039126277, 0.006000499706715345, -0.0016551328590139747, -0.00038922816747799516, -0.0076009733602404594, 0.0005344509263522923, -0.0068407789804041386, 0.001525361556559801, -0.0005600203876383603, 2.7946489353780635e-05, -0.0006741228280588984, -0.00026468231226317585, -0.004776348825544119, -0.0019207167206332088], [0.0006531074759550393, -0.005393359810113907, 0.0009667903068475425, -0.0017090479377657175, -0.0014924178831279278, -4.239350892021321e-05, 0.000160731200594455, 0.03070099465548992, -0.002148038474842906, -0.001060384209267795, 0.0005405817064456642, -0.0016644997522234917, 0.003951839171350002, -0.0001195195218315348, 0.0015604542568325996, 2.86223366856575e-05, -0.0035529667511582375, -0.002975017298012972, 0.004811850842088461, -0.017261015251278877, 0.0031573676969856024, 0.0017194828251376748, 0.028356103226542473, -0.0042781224474310875, 0.031828492879867554, -0.007027459796518087, 0.00030027303728275, -0.0013492022408172488, 0.0024952769745141268, 0.0006481436430476606, 0.002400491386651993, 0.001272370107471943], [1.8015498426393606e-05, -0.012116963975131512, 0.00013800017768517137, -5.14635285071563e-05, -8.592052472522482e-05, -0.0006203496013768017, 0.00016555686306674033, 0.002306360751390457, -0.0009627975523471832, -2.4427674361504614e-05, 0.0002570071956142783, -0.0006813126383349299, 3.443045716267079e-05, -0.00030971941305324435, 0.00038530686288140714, 0.0036469511687755585, -0.001102425972931087, -0.000808581302408129, 0.00026826802059076726, -0.0012550671817734838, 0.00027596772997640073, -1.934851525220438e-06, 0.010106546804308891, -0.0001556814240757376, 0.001898811780847609, -5.7999201089842245e-05, 0.00025842059403657913, 1.1704595635819715e-05, 6.37577977613546e-05, 1.1773863661801443e-05, 2.428648622299079e-05, 1.2385543413984124e-05]], "sigmanet.nn.4.bias": [-0.005268660839647055, -0.07135435193777084, -0.16872473061084747, -0.03549082577228546, 0.013733750209212303, -0.13209758698940277, -0.15411238372325897, -0.058423034846782684, -0.11040954291820526, 0.16055555641651154, 0.032007116824388504, 0.14449529349803925, 0.02524612657725811, -0.009249797090888023, -0.11496177315711975, 0.11680469661951065, 0.01749415136873722, 0.04448297619819641, -0.17442215979099274, -0.034982454031705856, 0.23349472880363464, 0.06428653746843338, 0.1982339769601822, -0.13183580338954926, 0.10247708112001419, 0.016242271289229393, 0.02444697916507721, -0.012677752412855625, 0.017590772360563278, -0.24541321396827698, 0.06521229445934296, 0.12977755069732666], "sigmanet.nn.4.weight_orig": [[-4.212557541904971e-05, -0.07165045291185379, 2.4880455384845845e-05, 0.00033815522328950465, -0.02790507674217224, -0.0053083281964063644, -5.697300821339013e-06, 0.00044056319165974855, 0.0005051321932114661, 0.009434076957404613, -1.4716997611685656e-05, 1.880316085589584e-05, 2.2040951080271043e-05, -0.0005526505410671234, -3.521122926031239e-05, 3.466994530754164e-05, -2.5645800633355975e-05, 0.011197280138731003, -0.11834125220775604, 6.307894363999367e-05, 0.00025638320948928595, -8.489170431857929e-05, -0.04723621904850006, 1.5262645320035517e-05, 0.039577167481184006, 0.0026843275409191847, 0.03455841913819313, 0.00569913862273097, -6.197766197146848e-06, -0.0003611006250139326, 0.018421508371829987, 4.8501486162422225e-05, -0.0007467110990546644, 0.00012574208085425198, -1.8074029867420904e-05, -0.027430247515439987, -8.784749661572278e-05, 0.00013249617768451571, 0.009765498340129852, -0.030214140191674232, -0.0036546937189996243, -0.037552475929260254, 3.587100582080893e-05, 0.00035529996966943145, 2.9642707886523567e-05, -0.016583111137151718, 0.035913895815610886, 0.04869656637310982, 4.081010411027819e-05, 0.0002882126427721232, 1.740354150570056e-06, 0.11412151902914047, -0.0004628222086466849, -7.330502558033913e-05, 0.020612940192222595, -0.00010285248572472483, 0.0022208429872989655, 8.846522541716695e-05, 0.002691151574254036, 6.0288024542387575e-05, 0.004821973852813244, 0.0045004552230238914, -0.010713445022702217, 3.8523423427250236e-05], [-1.3287243746162858e-05, 0.029670989140868187, -4.790994807990501e-06, 5.161599983694032e-05, 0.0003299000090919435, -0.026537105441093445, 4.99409252370242e-05, 0.0023608722258359194, -0.0007750070653855801, 0.0003559311735443771, 5.450688604469178e-06, -1.2207838153699413e-06, 5.519183469004929e-05, -0.003167081158608198, -8.408050052821636e-05, 1.4257645489124116e-05, -1.6604048141743988e-05, 0.0020662075839936733, -0.0005619871662929654, 2.2003561753081158e-05, 0.0003202907391823828, -9.218647028319538e-05, -0.0010607114527374506, 5.5806485761422664e-05, 0.0010755409020930529, -0.00028637959621846676, 0.025529442355036736, 0.0009267237037420273, -5.1075003284495324e-05, 0.00043543442734517157, -0.0017789752455428243, -5.0086800911230966e-05, -0.0012151921400800347, 1.2010234968329314e-05, -2.6271766273566755e-06, -0.0007841453771106899, -1.816255462472327e-05, -7.436058240273269e-07, 0.00064481032313779, -0.0013816009741276503, -0.00011551995703484863, -0.013587312772870064, -8.510283078067005e-05, -0.0002767005062196404, -4.2616724385879934e-05, -0.00014648446813225746, 0.048279453068971634, -0.04330798611044884, -5.80405758228153e-05, 0.0024506712798029184, -0.0025271656922996044, 0.014750809408724308, -0.0001396175503032282, -9.185753151541576e-05, 0.0003995083679910749, -7.463341898983344e-05, 6.007172123645432e-05, -2.1114616174600087e-05, -0.007643388118594885, 3.7325648008845747e-05, 0.00018463816377334297, 0.004390586633235216, 0.0017780966591089964, 6.879217835376039e-05], [-2.173420762119349e-05, 0.09889890253543854, 0.0001479572820244357, -0.32397323846817017, 0.221345916390419, -0.06526423245668411, 0.00011725607328116894, -0.1297428458929062, -0.2268838882446289, -0.1666642129421234, 0.00011268988600932062, -0.23076267540454865, -4.9114027206087485e-05, 0.185211643576622, 3.42623025062494e-05, -1.5136728279685485e-06, 4.881172571913339e-05, -0.18988840281963348, 0.08822529017925262, -0.3075520694255829, -6.472250242950395e-05, -0.0003233881143387407, 0.06685392558574677, -6.721900717820972e-05, -0.14949803054332733, -0.2580896317958832, -0.054097458720207214, -0.3823748528957367, 0.000776144559495151, -0.005537701305001974, -0.14295604825019836, -5.32243666384602e-06, 0.2063339203596115, -3.500226011965424e-05, -1.44106115840259e-05, 0.08410097658634186, 0.00016934555605985224, -0.23335841298103333, -0.08398613333702087, 0.11353319883346558, 0.004197875969111919, 0.0719546377658844, -5.8691523008747026e-05, -0.24551162123680115, 0.216683492064476, 0.5124233365058899, -0.08160026371479034, -0.07175376266241074, 0.00023033191973809153, -0.12275977432727814, 0.2377687394618988, -0.08538030087947845, 0.01743532530963421, -2.8664846468018368e-05, -0.0034415991976857185, 0.00017929710156749934, 0.027013041079044342, 0.006856757216155529, 0.22173357009887695, 0.0007229845505207777, -0.003283389378339052, -0.15612144768238068, 0.07537264376878738, 0.00011672523396555334], [-1.2474288269004319e-05, 0.05563293397426605, 3.247052154620178e-05, -0.0011242631589993834, 0.15612229704856873, -0.0015725570265203714, -8.70989533723332e-05, -0.009184389375150204, -0.05625803396105766, -0.0030484143644571304, 7.254791125888005e-05, -5.528942438104423e-06, -3.796400415012613e-05, 0.0010594746563583612, 1.09276134026004e-05, 4.366225402918644e-05, 1.901518953673076e-05, -0.014953331090509892, 0.171779066324234, -8.098994294414297e-05, -0.0033770615700632334, -9.554388088872656e-05, 0.045024171471595764, -3.925683813577052e-06, -0.03516017645597458, -0.0007513483869843185, -0.029238469898700714, -0.0023097433149814606, 0.0001841391931520775, -0.0003883145982399583, -0.1158519834280014, 8.337476174347103e-05, 0.0016221951227635145, 4.3474075937410817e-05, 1.9195353161194362e-05, 0.0537295825779438, 2.370947549934499e-05, -0.07302045077085495, -0.02499270811676979, 0.033017124980688095, 0.00014445923443417996, 0.10482418537139893, 1.60435101861367e-05, -0.007737760432064533, 0.005153344012796879, 0.00020167049660813063, -0.04186075180768967, -0.013716718181967735, 4.613060082192533e-05, -0.0018779403762891889, 0.007960914634168148, -0.04579833894968033, 0.0006104896310716867, -0.00011869338050018996, -0.025707025080919266, 6.664345710305497e-05, 0.0021727429702878, -0.00015044776955619454, 0.0003255925257690251, -0.0001350220845779404, -0.0030023863073438406, -0.005416386295109987, 0.004238324239850044, -4.8172198148677126e-05], [9.89854470390128e-06, 0.02933555282652378, -1.6886135199456476e-05, 1.2846752724726684e-05, -8.977462130133063e-05, 0.012446291744709015, -2.064222098852042e-05, 0.0018509788205847144, 0.0026377118192613125, -0.0036665797233581543, 1.8791673937812448e-05, 2.041680772890686e-06, -5.987313670630101e-06, -6.134613795438781e-05, -7.967092096805573e-05, 5.00436253787484e-05, 3.1461426260648295e-05, 0.004327995236963034, -0.0016202948754653335, 2.0944185962434858e-05, 0.00018647979595698416, 0.00016621618124190718, -0.00013247711467556655, -2.2106192773208022e-05, -0.0006774105713702738, 0.0019486893434077501, 0.02096201479434967, 0.0021880909334868193, 1.356738357571885e-05, 5.363407763070427e-05, 0.0017916710348799825, 0.00018272602756042033, -7.986192940734327e-05, -5.532223076443188e-05, -1.6619604139123112e-05, -0.00020603567827492952, -5.791517105535604e-05, 1.1233043551328592e-05, 0.02524402178823948, 0.0002260570618091151, -0.00013234830112196505, -0.015229481272399426, 4.575308776111342e-05, 0.0001709252392174676, 0.00032675673719495535, -0.0005057231755927205, 0.00024999314337037504, 0.0208100825548172, -1.6709183910279535e-05, 6.834379746578634e-05, -0.00023879416403360665, 0.012430139817297459, -0.0004635669756680727, -9.51120164245367e-05, 0.018998926505446434, 3.7368328776210546e-05, 8.841448288876563e-05, -5.174018951947801e-05, 0.006710510700941086, -1.914250424306374e-05, 0.0002921701525337994, 0.0016176828648895025, -0.003097949782386422, -5.203517503105104e-05], [3.779397229664028e-05, 0.03846489265561104, -3.836287942249328e-05, 3.364323856658302e-05, -0.00018329299928154796, -0.0009369500330649316, -3.7477973819477484e-05, 0.005283216014504433, 0.000518007786013186, 0.003195682540535927, -5.97783800913021e-05, 1.4720367289555725e-06, 3.529468085616827e-05, -0.0006340337567962706, -1.53106011566706e-05, -2.600483458081726e-05, -5.221016544965096e-05, 0.0008099486003629863, 0.00039988840580917895, 2.888022663682932e-06, 0.0002016353391809389, 0.00015921516751404852, -0.03268573805689812, -3.4834833058994263e-05, 0.017363933846354485, -0.0012948092771694064, 0.013016280718147755, -0.00012917864660266787, 7.96248968981672e-06, -0.0001552372850710526, -0.003505557542666793, -9.172122372547165e-05, -0.000939398945774883, -5.041023177909665e-05, -0.00011948587780352682, -0.000315722543746233, -5.1784914830932394e-05, 4.735617494588951e-06, -0.00010234335059067234, -0.027369096875190735, -0.003077017841860652, -0.010525128804147243, -2.694672502911999e-06, 0.00023798763868398964, -0.0004022782377433032, -0.00022101521608419716, 0.0014690238749608397, 0.015469057485461235, -2.8361189833958633e-05, 5.2135153964627534e-05, -0.0005004310514777899, 0.013672258704900742, -3.9730195567244664e-05, -4.6315373765537515e-05, 0.033264461904764175, 1.849063664849382e-05, -0.0013245049631223083, -3.8443431549239904e-05, -0.0034096399322152138, -1.7726064470480196e-05, 0.0008077022503130138, 0.00035342545015737414, -0.0028389994986355305, 9.063752077054232e-05], [3.292525070719421e-05, 0.07190531492233276, 3.4287197195226327e-05, -0.0008000874659046531, 0.08825099468231201, -0.05628056451678276, 3.281522367615253e-05, -0.0017920911777764559, -0.13590510189533234, -0.059102702885866165, 4.4469008571468294e-05, -3.311002001282759e-05, 1.039043036143994e-05, 0.0032572713680565357, 1.2145132131990977e-05, -2.7377865990274586e-05, -2.6032626919914037e-05, -0.0005078613758087158, 0.1992579698562622, -3.76228490495123e-05, -0.0014545513549819589, -0.00014741370978299528, 0.05857503414154053, -0.00016842731565702707, -0.05379577726125717, -0.0390840582549572, -0.043233804404735565, -0.0016343009192496538, 7.692109647905454e-05, -0.002709238324314356, -0.16687119007110596, -4.9763020797399804e-05, 0.022358210757374763, -3.8705657061655074e-05, 0.00011683588672894984, 0.03304550051689148, -4.602153057930991e-05, -0.16371865570545197, -0.02862444519996643, 0.06433109194040298, 3.3631953556323424e-05, 0.07094576209783554, 7.528797868872061e-05, -0.03744617477059364, 0.0030887138564139605, 5.77215469093062e-05, -0.020362740382552147, -0.04958027973771095, 0.00014726135123055428, -0.0118112713098526, 0.0011203527683392167, -0.08505600690841675, 0.0011932415654882789, -2.8162950911791995e-05, -0.017123065888881683, -6.066505375201814e-05, 0.0011475973296910524, 2.5409259251318872e-05, 0.003952075727283955, -4.748356150230393e-05, -0.0032564187422394753, -0.007296522613614798, 0.000906431523617357, -9.174443403026089e-05], [-5.503162174136378e-05, -0.018680637702345848, -2.043616768787615e-05, 0.000318609963869676, -0.17878177762031555, 0.022738173604011536, -3.192650910932571e-05, 0.0031402551103383303, 0.12339132279157639, 0.0044507537968456745, -3.82814287149813e-05, 5.363564923754893e-05, 3.027471757377498e-05, -0.0006113014533184469, -2.7070655050920323e-06, 7.969685975695029e-05, 6.740963272022782e-06, 0.011694557964801788, -0.09418746829032898, 0.00038952589966356754, 0.004338535480201244, 0.00042055000085383654, -0.06044190749526024, 2.5426466891076416e-05, 0.09146413952112198, 0.07086420804262161, 0.031248709186911583, 0.01631905324757099, 2.9485650884453207e-05, 0.01081071700900793, 0.10980208963155746, 5.029286694480106e-05, -0.010419356636703014, 1.5330067981267348e-05, -3.359948095749132e-05, -0.03569766879081726, -9.515342389931902e-05, 0.20729883015155792, 0.0595436692237854, -0.04290634021162987, -0.0002644520718604326, -0.04166184738278389, 7.114284380804747e-05, 0.05244855582714081, 0.00021332502365112305, -0.0012784847058355808, 0.05685329809784889, 0.024142177775502205, -8.296993473777547e-05, 0.012052564881742, -0.0008357946062460542, 0.08005981892347336, -0.0006417747354134917, 1.999030791921541e-05, 0.013319272547960281, 8.577047265134752e-05, -0.0017353672301396728, -0.00010964093235088512, -0.02136400155723095, -6.338430102914572e-05, 0.0008403968531638384, 0.004950010217726231, -0.0012131182011216879, -0.0001325896882917732], [-0.0001067681732820347, -0.0064784809947013855, -1.4216422641766258e-05, 0.0004632457857951522, -0.0005900444812141359, -0.011245820671319962, -7.569196895929053e-05, 0.0053132143802940845, 0.0045724050141870975, -0.0006098891608417034, 1.4600751455873251e-05, 5.089176738692913e-06, -4.6613040467491373e-05, -0.003526328131556511, -3.277160067227669e-05, 1.772792347765062e-05, -8.133365554385819e-06, 0.0003188943665008992, -0.0011445597046986222, 3.573759749997407e-05, 0.0026435491163283587, 1.4269465282268357e-05, -0.01155847404152155, 5.6212466006400064e-05, 0.027843434363603592, 3.380145790288225e-05, 0.005720456596463919, 5.658211375703104e-05, -0.00016024640353862196, 0.00031093746656551957, 0.0011164483148604631, 5.007881918572821e-05, -0.0025478717871010303, -5.902573684579693e-05, -5.775113095296547e-05, -0.16701103746891022, -0.00019280800188425928, 1.888128463178873e-05, 0.08255539834499359, -0.058464594185352325, -0.006531616672873497, -0.012123306281864643, -9.369386680191383e-05, 0.002146014478057623, 0.0007436838932335377, -0.0008550950442440808, 0.21492010354995728, 0.014039450325071812, -4.059102138853632e-05, 0.0002535449166316539, 2.1588735762634315e-05, -0.1281910389661789, -0.0009030887158587575, 0.00013126933481544256, 0.05904780700802803, 1.3642918929690495e-05, -0.0011239927262067795, -5.776146281277761e-05, -0.0018294340698048472, -8.941338455770165e-05, 0.00028144140378572047, 0.004316678270697594, -0.0011991809587925673, -2.097019569191616e-05], [1.4750463606105768e-06, -0.015446566976606846, -3.2210391509579495e-05, -1.8510365407564677e-05, 0.00021193057182244956, 0.013567982241511345, 4.150361201027408e-05, -0.0007366101490333676, 0.0014968106988817453, 0.0020823103841394186, -0.0001005803351290524, 2.4649584702274296e-06, -1.7106433006119914e-05, 7.044358062557876e-05, -6.443486927310005e-05, -2.5292692953371443e-05, -1.3589612535724882e-05, -0.003547521075233817, -0.00011601240839809179, 2.5328412448288873e-05, 8.887900185072795e-05, 7.571125024696812e-05, -0.0013259060215204954, -1.0904076589213219e-05, -0.0014282012125477195, 0.000767247867770493, 0.02170989289879799, 0.0017101463163271546, -7.353341061389074e-05, 0.00027985373162664473, 0.0009872696828097105, 0.00010040364577434957, -0.0030311080627143383, -2.6090403480338864e-05, 3.163248038617894e-05, -0.00016102055087685585, -1.9039842300117016e-05, -6.1203204495541286e-06, 0.03119286522269249, 0.0001848097308538854, -4.477903348742984e-05, -0.01284173596650362, -4.097693818039261e-05, -0.00030519309802912176, 0.0006743793492205441, 7.739388820482418e-05, -0.0006771042826585472, 0.015422704629600048, -3.170085255987942e-05, -6.239487993298098e-05, 0.00033453115611337125, -0.019038517028093338, -2.798874629661441e-05, 0.00020674173720180988, 0.021998992189764977, 5.642341056955047e-05, -0.0013290984788909554, 6.634358578594401e-05, 0.006930300034582615, -4.841342888539657e-05, 0.00022116617765277624, 0.0030323821119964123, 0.0030667243991047144, -1.3932450201536994e-05], [-1.4298696441983338e-05, -0.01169216725975275, -3.40463338943664e-05, 6.57706696074456e-05, -0.0001501587248640135, -0.03487173095345497, -9.43673076108098e-05, 0.0002244294446427375, 0.0007171411416493356, 0.0009161698981188238, -4.88407640659716e-05, 2.680445732039516e-07, 2.854443300748244e-05, -6.116065924288705e-05, 6.477068382082507e-05, 0.00012556878209579736, -1.6127049093483947e-05, 0.0006169930566102266, 0.0013192242477089167, 6.0854632465634495e-05, -7.567913417005911e-05, -0.00011518144310684875, -0.00023907836293801665, -3.1327042961493134e-05, 0.00028960665804333985, 0.0004111953894607723, 0.01764177717268467, -0.0008162290323525667, 5.490811872732593e-06, 0.00025072519201785326, -0.0012095295824110508, 5.928491736995056e-05, -0.001419727341271937, -3.684177863760851e-05, -9.793649269340676e-07, -0.000758367998059839, -2.9242799428175204e-05, 1.4459493286267389e-05, 0.05360417813062668, -0.0007725487812422216, -9.001902071759105e-05, -0.005898561328649521, 6.528124504256994e-05, 0.0011536931851878762, -0.0005527469329535961, -0.001049231505021453, 0.0005325488746166229, 0.02683011256158352, 1.2412549949658569e-05, 9.315938223153353e-05, -0.0008091513882391155, -0.018788864836096764, -0.00011756789172068238, -0.00013431996922008693, -0.0002511625352781266, -5.104724914417602e-05, -0.0007297489792108536, -3.603043660405092e-05, -0.0019879001192748547, 1.900869028759189e-05, 0.0007156055071391165, 0.00024870462948456407, 0.001920121954753995, -5.2609746489906684e-05], [-1.585311838425696e-05, -0.01413463894277811, -3.0241202694014646e-05, 0.0005563875311054289, -2.3836431864765473e-05, 0.008393377996981144, -3.717222352861427e-05, 0.0027799205854535103, 0.00036239015753380954, -0.003866308368742466, 3.1114665034692734e-05, -1.3769739553026739e-06, -2.163052158721257e-05, -0.00045215128920972347, -3.57041135430336e-05, 1.6913165381993167e-05, -2.0922578869431163e-07, 0.0013398970477283, -0.0007339062867686152, 2.947844041045755e-05, 0.0002895221405196935, 8.621610322734341e-05, 7.564387487946078e-05, -2.1296505110512953e-06, 0.0005185059853829443, 0.001040217699483037, 0.01580674573779106, 0.0001679374254308641, -1.5608839021297172e-05, -2.7628635507426225e-05, -0.0007550761220045388, -5.2348405006341636e-05, -0.00019269601034466177, -3.810444104601629e-05, -2.8515481972135603e-05, -0.004894281271845102, -2.7336625862517394e-05, -2.0538533362923772e-07, 0.0006009881035424769, -0.0007043556543067098, -8.143483864841983e-05, -0.010056940838694572, 5.2893636166118085e-05, -0.0003152757417410612, -0.00025126870605163276, -5.4790063586551696e-05, 0.0005125437746755779, -0.10347277671098709, -1.2300715752644464e-05, 0.002856830833479762, -0.0005702868802472949, 0.009755194187164307, -8.370538125745952e-05, 9.989661339204758e-05, 0.028848500922322273, 5.49142096133437e-05, -0.0006740926182828844, 2.3839254936319776e-05, -0.0071871024556458, 2.0604285964509472e-05, -3.9136426494224e-05, 0.0037253282498568296, 9.774455975275487e-05, -1.9399487428017892e-05], [3.1952931749401614e-05, -0.011646270751953125, 1.3543210286570684e-07, 0.00011067702871514484, -0.00024856821983121336, 0.00827277172356844, 5.588777275988832e-05, 0.0016004203353077173, -0.0011088469764217734, -0.0013938912888988853, 1.5073083886818495e-05, -8.131300091918092e-06, -7.233967335196212e-05, -0.0005285993684083223, -4.445175363798626e-05, 7.386155630229041e-05, -4.33066779805813e-05, 0.002541708992794156, -0.0008521181880496442, 1.595232606632635e-05, 8.574987441534176e-05, -3.7899524613749236e-05, -0.022768497467041016, -2.098523737004143e-06, 0.0014097160892561078, 6.872919584566262e-06, 0.01602349989116192, 0.0011665481142699718, 1.940504807862453e-05, 8.809591236058623e-05, 0.0013085497776046395, 8.397697092732415e-05, -0.00016471206618007272, 7.401932089123875e-05, -1.2883953786513302e-05, -3.816339813056402e-05, 2.8108564947615378e-05, 1.2018482266284991e-05, 8.751582208788022e-05, -0.020462732762098312, -0.00013115175534039736, -0.008161414414644241, 7.424659270327538e-05, 0.00215992727316916, -0.0003539087774697691, -7.05122365616262e-05, 0.0007184352725744247, 0.038145534694194794, 4.3012547394027933e-05, 4.1206345485989004e-05, -0.00030223638168536127, 0.010353658348321915, -4.4859374611405656e-05, 6.536958971992135e-05, -0.00010971112351398915, 6.67939821141772e-05, -0.00018330254533793777, -7.055879541439936e-05, -0.005188643932342529, 3.9501464925706387e-05, -8.699017053004354e-05, -0.0018925016047433019, 0.0012049662182107568, 2.1757648937636986e-05], [-3.350583210703917e-05, 0.0357598215341568, 3.6083431041333824e-05, 0.00013790884986519814, -0.0006705059786327183, -0.04170437529683113, -7.170065600803355e-06, 0.0021459513809531927, 0.0009567086817696691, -0.0019276750972494483, 1.585167228768114e-05, -8.232752406911459e-06, -9.655090252636e-06, -7.712055958108976e-05, 8.525963494321331e-05, 2.763201882771682e-05, -3.063475014641881e-05, 0.0032158950343728065, -0.0004262038564775139, -1.6884934666450135e-05, 0.0002139496646123007, 0.0008767717517912388, -0.03972097858786583, 1.9611370589700527e-05, 0.01864364556968212, 0.002794330706819892, 0.014698795042932034, 0.0004614918143488467, 9.560391481500119e-05, -0.00018418082618154585, 0.001370875397697091, 1.4964846741349902e-05, -0.0011451243190094829, -5.7969293266069144e-05, 3.781254417845048e-05, 0.0008858768851496279, -7.100988568708999e-06, 9.414588930667378e-06, 0.00016814681293908507, -0.0001180417530122213, -0.00013275032688397914, 0.043198589235544205, -4.914722012472339e-05, 0.00027376582147553563, -0.0008606974151916802, -0.0027478865813463926, -4.242261275066994e-05, 0.0346493236720562, 6.264051626203582e-05, 9.943102486431599e-05, -0.0003222299856133759, 0.011312252841889858, -8.96066048881039e-05, -9.69724205788225e-05, 0.00867133866995573, 2.3632719603483565e-05, 0.00013040355406701565, 3.438891508267261e-05, -0.001111260731704533, 3.0873667128616944e-05, 5.354174572858028e-05, 0.0017436497146263719, -0.0060737840831279755, -1.8430046111461706e-05], [4.7934088797774166e-05, 0.07807459682226181, -2.5275114239775576e-05, -0.00025386951165273786, 0.08146820962429047, -0.08520105481147766, 9.317041985923424e-05, -0.0038953772746026516, -0.1194319948554039, -0.007059037685394287, 3.098048546235077e-05, 1.2341964747974998e-06, -4.365379936643876e-05, 0.0038503578398376703, -4.27407467213925e-05, -0.00010631436452968046, -4.624103894457221e-05, -0.004425249993801117, 0.0744895190000534, -0.0013672085478901863, -0.0024146991781890392, -0.0001673688238952309, 0.060877759009599686, -5.591877561528236e-05, -0.06598010659217834, -0.05046038329601288, -0.09930086135864258, -0.007729938253760338, 5.6991801102412865e-05, -0.0027085214387625456, -0.16415901482105255, -6.026314804330468e-05, 0.00023879650689195842, 8.114632510114461e-05, 8.84330893313745e-06, 0.03661629930138588, 5.198926373850554e-05, -0.14501726627349854, -0.056388162076473236, 0.06829570978879929, 0.0009582636412233114, 0.02284560352563858, 0.0001329975639237091, -0.033782441169023514, 0.003946840297430754, 0.0016318829730153084, -0.028039809316396713, -0.042447444051504135, 3.071989704039879e-05, -0.006525137927383184, 0.00025455281138420105, -0.12209641933441162, 0.0018744815606623888, 0.00010074737656395882, -0.003137880004942417, -8.111767965601757e-05, 0.013930377550423145, -9.165633673546836e-05, 0.008693654090166092, 2.2232030460145324e-05, -0.0030612146947532892, -0.006579102948307991, 0.013629110530018806, -8.978723781183362e-05], [4.860774424741976e-05, -0.03561116009950638, -6.060806481400505e-05, 0.0011132133658975363, -0.002766566351056099, -0.1677875816822052, -6.888129519211361e-06, 0.00974614080041647, -0.004354704637080431, -0.0029180850833654404, -6.0464313719421625e-05, 4.1348653212480713e-07, -1.2850306120526511e-05, -0.0010853736894205213, -9.10748349269852e-05, -3.810114867519587e-05, 4.5749002310913056e-05, 0.0034257792867720127, -0.00020158446568530053, 1.5244864698615856e-05, 0.0005967445322312415, -0.0001445825764676556, -0.043096862733364105, -5.212924224906601e-05, 0.0002058313402812928, -0.0003836864198092371, 0.019925301894545555, 0.0032563447020947933, -4.749799336423166e-05, 0.0003031270462088287, 0.0017060524551197886, -4.561512469081208e-05, -0.0023457049392163754, 6.494584340543952e-06, -1.8813505448633805e-05, -0.13656921684741974, 3.5403503716224805e-05, -4.2390078647258633e-07, 0.00030032102949917316, 0.0004885834059678018, -0.0001296477857977152, -0.016994783654808998, -2.340154787816573e-05, 0.0038486653938889503, -0.0010628175223246217, -0.0004236552049405873, 0.001623986754566431, 0.016495954245328903, -6.325310096144676e-05, -3.47817076544743e-05, -0.00028147274861112237, 0.048759955912828445, 0.00042463545105420053, -0.0001162331536761485, 0.16045771539211273, 0.00011255577555857599, -0.00033381261164322495, -4.551108577288687e-05, 0.0028906266670674086, -4.752816676045768e-05, 0.0007966678822413087, 0.00345773808658123, -0.007737384177744389, 6.75532573950477e-05], [7.869121327530593e-05, -0.0143250972032547, -1.470736606279388e-05, 2.6215553589281626e-05, -0.000664160237647593, -0.038987744599580765, 3.9681432099314407e-05, -0.00021362111147027463, 0.00020647018391173333, 0.0005153404199518263, -3.827536784228869e-05, 3.074145752179902e-06, -1.896831781778019e-05, -0.0012437631376087666, -1.4429999282583594e-05, 1.6497057004016824e-05, -1.0882160495384596e-05, 0.0030776786152273417, -0.00021641860075760633, 1.3290680726640858e-05, -0.00010248921171296388, -6.733665213687345e-05, -0.022957034409046173, -3.238625868107192e-05, -0.0008885880233719945, 0.0022673006169497967, 0.026790574193000793, 0.002931614639237523, -5.5684296967228875e-05, 8.406412234762684e-05, 0.00047131572500802577, 4.139262455282733e-05, -0.0022177225910127163, -9.55536961555481e-06, -1.0481884601176716e-05, -0.00043787265894934535, -3.763255153899081e-05, -1.5357104530266952e-06, 1.696019717201125e-05, -4.897794860880822e-05, -1.8846285456675105e-05, -0.015415007248520851, -4.705744868260808e-05, -0.0002565905742812902, 4.420013738126727e-06, 0.00045232713455334306, 0.07858553528785706, 0.024023592472076416, -3.3367185096722096e-05, 0.0012282297248020768, 0.00010055655729956925, 0.010612252168357372, -8.017913205549121e-05, 5.726208473788574e-05, -5.8199144405080006e-05, 0.0001134190897573717, 0.0011611547088250518, 5.8136061852565035e-05, -0.002084511797875166, 5.039504685555585e-05, 0.0004800074966624379, 0.00010984035179717466, 0.0012866125907748938, 0.00010324828326702118], [-1.1489334106445312, -0.08421343564987183, -1.1486986875534058, 0.567107617855072, -0.13986259698867798, 0.018948756158351898, -1.1485775709152222, 0.8026319146156311, 0.3610038459300995, 0.4473286271095276, -1.1486091613769531, 0.8733962178230286, -1.1490274667739868, -0.8732649087905884, -1.1486544609069824, 1.1483538150787354, -1.1492549180984497, 0.6277138590812683, -0.15608201920986176, 0.485024631023407, 1.0937811136245728, 1.1446595191955566, -0.09925027191638947, 1.1441236734390259, 0.21221435070037842, 0.22040289640426636, 0.12115509808063507, 0.38218578696250916, -1.1476104259490967, 1.001359224319458, 0.18110206723213196, 1.1385457515716553, -0.7312213182449341, 1.14693021774292, -1.1486327648162842, -0.07220396399497986, -1.1485495567321777, 0.19885849952697754, 0.06270434707403183, -0.18699994683265686, -1.1174968481063843, -0.09226059913635254, -1.1481006145477295, 0.3061803877353668, -0.5897111296653748, -0.4596364498138428, 0.12268561869859695, 0.04542427137494087, -1.1482510566711426, 0.9597160220146179, -0.7516563534736633, 0.053663939237594604, -1.0519351959228516, 1.1426451206207275, 0.029685284942388535, 1.1467359066009521, -1.0185737609863281, -1.1414371728897095, -0.579500675201416, -1.1480083465576172, 1.1152740716934204, 0.9067512154579163, -0.7782262563705444, -1.142377495765686], [3.492120958981104e-05, 0.014631401747465134, 5.746713213738985e-06, -5.0204711442347616e-05, 0.0005409495206549764, 0.04106074944138527, -4.047469701617956e-05, -0.004532632417976856, -0.00028137798653915524, -0.00021891498181503266, -6.896971899550408e-05, 1.3292436960909981e-05, 8.549853373551741e-05, 0.0001320121082244441, 5.864891500095837e-05, -5.0344224291620776e-05, 8.496519512846135e-06, -0.002374157076701522, 0.0008424794650636613, -0.00010495245805941522, 0.00012963621702510864, -5.132252772455104e-05, 0.0017816184554249048, -2.0947483790223487e-05, -0.004474759567528963, 7.5531474976742174e-06, -0.01687893085181713, -0.0001661314454395324, 3.649869995570043e-06, -0.00028230089810676873, -0.0004260124987922609, 4.419567630975507e-05, 0.00016801054880488664, -3.832330912700854e-05, 2.7154534109286033e-05, 0.001159380772151053, -5.8648693084251136e-05, -1.3048993423581123e-05, 0.00021705277322325855, 3.0590235837735236e-05, 6.696455966448411e-05, -0.11051059514284134, 5.602131932391785e-05, -0.0007438370957970619, -0.0008332519209943712, -0.0001239361590705812, -0.0010894687147811055, -0.058875326067209244, -9.380836854688823e-05, -0.0013580323429778218, -0.0002033907949225977, -0.019679630175232887, -0.00043030918459407985, -9.001070429803804e-05, -0.08243977278470993, -3.954077692469582e-05, 0.0005485747824423015, -5.814064934384078e-05, 0.00892591942101717, 4.394257121020928e-05, -0.00016598911315668374, 0.0011243617627769709, 0.004280276596546173, -7.218786049634218e-05], [2.496309025445953e-05, 0.004201005678623915, 4.8411857278551906e-05, -1.856260496424511e-05, -0.00043629552237689495, 0.020795023068785667, 8.178044481610414e-06, -0.006914766039699316, 0.0007429757970385253, 0.001635586959309876, -6.109739479143173e-05, -2.6934324068861315e-06, -3.7965834053466097e-05, 0.002841693116351962, 5.4071599151939154e-05, -5.180822336114943e-05, 0.00010189446766162291, -0.004108773078769445, 0.0015586039517074823, -2.709017280722037e-05, -0.003365452168509364, 0.00010042350913863629, 0.06240866705775261, 2.4752203898970038e-05, -0.15556596219539642, -0.06283941864967346, -0.03191749006509781, -0.001371004618704319, 5.8122488553635776e-05, -0.0001863924990175292, -0.0003476480778772384, 0.00010144433326786384, 0.006096896715462208, -0.00013110763393342495, -6.358155951602384e-05, 0.01892198994755745, -2.120163662766572e-05, -3.0386438538698712e-06, -0.08806551992893219, 0.17295123636722565, 0.00011020400415873155, 0.012406767345964909, 2.686110201466363e-05, -0.08078392595052719, 0.002246186602860689, -0.00011385848483769223, -0.02432914264500141, -0.0317535325884819, -5.7451092288829386e-05, -0.00010766724881250411, -0.0005765334935858846, -0.01505980547517538, 0.00010543176904320717, 8.92100651981309e-05, -0.05797017365694046, 4.796732901013456e-05, 0.0002856845094356686, 2.8252474294276908e-05, -0.0029517323710024357, -7.968879799591377e-05, -0.0009422159055247903, -0.0020048515871167183, 0.0003003709716722369, 5.698430322809145e-05], [-2.155063339159824e-05, -0.11342580616474152, 1.9280601918580942e-05, 0.0030721831135451794, -0.0003089926904067397, 0.055686891078948975, -3.154926162096672e-05, 0.004880181979387999, -0.0032220976427197456, 0.0028404174372553825, -2.843726542778313e-05, -9.316250725532882e-06, 5.973465886199847e-05, -0.0005764392553828657, -5.539994526770897e-05, -6.040943480911665e-05, 2.8650045351241715e-05, 0.0036695552989840508, -0.04333053156733513, 6.47642882540822e-05, 9.348693129140884e-05, -8.310934936162084e-05, -0.0001248866756213829, 4.873572106589563e-05, 0.0004001796478405595, -0.00042339556966908276, 0.10888610035181046, 0.0041714021936059, -1.9759383576456457e-05, 0.00038563896669074893, 0.012755981646478176, -0.00017735896108206362, -0.0029677075799554586, -8.444392733508721e-05, -8.710180736670736e-06, -0.0014142938889563084, -2.521017631806899e-05, 1.847572457336355e-05, 0.0008685894426889718, 0.0020318827591836452, -0.00010469266271684319, -0.1070316731929779, -3.436314727878198e-05, 8.779787458479404e-05, -0.0018376442603766918, -0.0005722388159483671, 3.932863546651788e-05, 0.07542020827531815, 5.602101737167686e-05, -0.00023414412862621248, 0.0005000286619178951, 0.03554641827940941, -0.00022553314920514822, 9.991776460083202e-05, -0.0013986799167469144, -5.491739648277871e-05, 0.002160128904506564, 0.0001551880268380046, -0.0026310309767723083, -0.00012874197273049504, 0.00010482798097655177, -0.002413958078250289, 0.004913271404802799, -3.768982060137205e-05], [-1.738529476824624e-06, 0.012161879800260067, -2.4846647647791542e-05, 0.0008897837251424789, -0.002939934842288494, -0.03275121748447418, 4.787818033946678e-05, 0.001467507565394044, 0.0026783396024256945, 0.007237719837576151, -3.821478094323538e-05, 2.8857217330369167e-05, -7.739463399047963e-06, -0.004290883895009756, -4.6694334741914645e-05, -3.700932938954793e-05, 3.0350747692864388e-05, -0.003176407190039754, -0.012586420401930809, 2.8863594707218e-05, 0.006054888945072889, 8.986570901470259e-05, -0.09241336584091187, 1.8589862520457245e-05, 0.04668237268924713, 0.07768817245960236, 0.00738702155649662, 0.0029142482671886683, 3.400591594981961e-05, 0.001986239803954959, 0.0046619838103652, 5.191685431782389e-06, -0.00414672028273344, 8.019227971090004e-05, -0.0001108768192352727, -0.05979029834270477, -7.017886673565954e-05, 2.5602415917092003e-05, 0.17658491432666779, -0.11576253175735474, -0.0024427231401205063, -0.02291816845536232, 2.7609392418526113e-05, 0.12839700281620026, -0.0019015481229871511, -0.00044238660484552383, 0.22121624648571014, 0.022826822474598885, 5.381826849770732e-05, 0.00044401304330676794, -0.001054427120834589, 0.011943567544221878, -0.00010715384996728972, -7.269383786479011e-05, 0.14118780195713043, 3.587131868698634e-05, -0.0016247211024165154, 7.085788092808798e-05, 0.011571121402084827, 6.76688869134523e-05, 0.0001707506162347272, -0.0008376211044378579, -0.002717910800129175, -0.00013667665189132094], [-0.0001057868284988217, -0.010520725511014462, -3.444920730544254e-05, 4.7046840336406603e-05, 0.00014497387746814638, -0.007086215540766716, -0.00011099682160420343, 0.0006388119654729962, 0.0010726863984018564, 0.002086861990392208, 1.4849423678242601e-05, -9.822880201681983e-06, 7.261597056640312e-05, -0.0027504819445312023, 6.839364505140111e-05, 8.047097799135372e-05, -8.909214375307783e-05, 0.008003856986761093, -0.0011376437032595277, 0.00024187430972233415, 0.002517208456993103, 0.0001108684009523131, -0.000450050545623526, 8.324057853315026e-05, 0.0021265894174575806, 0.025956738740205765, 0.043601684272289276, 6.344327266560867e-05, -3.4501154004829004e-05, -0.00011622532474575564, 0.0028458163142204285, -4.502866795519367e-05, -0.0019736438989639282, -3.483840555418283e-05, -5.508216781890951e-05, -0.15146668255329132, -1.0079085768666118e-05, 7.533898497058544e-06, 0.002492807572707534, -0.00011515168444020674, 0.00013536095502786338, -0.0225197896361351, -0.00010695427772589028, 0.0005667750956490636, -0.00019998264906462282, -0.0018890862120315433, -0.0012512647081166506, 0.030853165313601494, -4.0798400732455775e-05, -0.00011041048855986446, -0.0003299943346064538, 0.01084672287106514, -0.0008556513930670917, 4.993219408788718e-05, 0.02676497772336006, -6.740491517120972e-05, 0.0014637649292126298, -8.784152305452153e-05, -0.0032877789344638586, -4.9063779442803934e-05, 0.0007892486755736172, 0.0010758960852399468, -0.004327104892581701, -6.287507858360186e-05], [0.00012174266157671809, 0.08980277925729752, 0.00018920325965154916, -0.2470865547657013, 0.23553207516670227, -0.004130296874791384, -1.198663994728122e-06, -0.12350230664014816, -0.07866185903549194, -0.39704397320747375, 0.00020471634343266487, -0.043964941054582596, 6.978253077249974e-05, 0.05066972225904465, 0.00010421187471365556, -5.6017586757661775e-05, 1.318967952101957e-05, -0.21802206337451935, 0.16676388680934906, -0.35250696539878845, -0.018582267686724663, -0.00039286274113692343, 0.10354652255773544, -0.0001870353298727423, -0.09746266156435013, -0.26929593086242676, -0.10797730088233948, -0.3202376961708069, 0.00014719863247592002, -0.104921855032444, -0.19455407559871674, -0.0009455924155190587, 0.1371336132287979, -0.0003994957951363176, 5.522599894902669e-05, 0.07625991106033325, 7.801364699844271e-05, -0.12231406569480896, -0.0688072070479393, 0.17541319131851196, 0.005175793543457985, 0.05403892695903778, 2.2463978893938474e-05, -0.2135792225599289, 0.29710572957992554, 0.13203522562980652, -0.10935608297586441, -0.02459731511771679, -6.120547914179042e-05, -0.02319907210767269, 0.12223163992166519, -0.06417438387870789, 0.06328627467155457, -0.0015387939056381583, -0.05264599248766899, -3.188260961906053e-05, 0.04278808832168579, 0.00011045946303056553, 0.20968668162822723, 5.890913712391921e-07, -0.003128085983917117, -0.010225487872958183, 0.2090906798839569, 0.0005217151483520865], [2.6614361559040844e-05, -0.022972026839852333, -7.926802936708555e-05, 0.0001916241308208555, 0.0013238978572189808, -0.12965881824493408, 6.865317118354142e-05, 0.0012287860736250877, -0.003371826373040676, 0.0003653957392089069, -2.927140667452477e-05, 3.7080012589285616e-06, -4.872748831985518e-05, -0.001801922800950706, -4.223257565172389e-05, 2.3541138943983242e-05, -2.989494714711327e-05, 0.004514849744737148, 0.0018567128572613, 0.00011354399612173438, -8.982390136225149e-05, -0.0001584432611707598, -0.0002467988815624267, 2.1419416952994652e-05, 0.0013999359216541052, -0.0006644185050390661, 0.02074003592133522, -0.00019452754349913448, -3.1579249480273575e-05, 8.005073323147371e-05, 0.0016940017230808735, -2.4526174456696026e-05, -0.00049638154450804, 4.2505882447585464e-05, -9.677609341451898e-06, -0.09434337168931961, -1.0108605238201562e-05, 4.45329504827896e-07, 0.0019436150323599577, -0.001667615259066224, 0.0001329873048234731, -0.012380425818264484, 6.584799848496914e-05, -4.3560201447689906e-05, -0.000279378640698269, -0.0026328768581151962, 0.0010638885432854295, 0.04618844762444496, -8.48692943691276e-05, 0.00010612824553390965, -0.003271461697295308, 0.007507300470024347, -0.0006008408963680267, -7.117816858226433e-05, 0.13577325642108917, 0.00017036849749274552, -0.007453823462128639, 3.051155545108486e-05, 0.0021602108608931303, -2.5608902433305047e-05, 0.0003444162430241704, -0.001168366172350943, -0.002306779148057103, -2.2106160031398758e-05], [-7.783254113746807e-05, -0.012489326298236847, -2.8656595532083884e-05, 1.949816032720264e-05, -0.0002271609118906781, 0.0031393596436828375, -4.7833404096309096e-05, 0.0019026364898309112, 0.002263815840706229, 0.002025943249464035, -1.4651546734967269e-05, -5.778103968623327e-06, -4.306650225771591e-06, -0.00022236921358853579, 2.632974792504683e-05, 3.446550908847712e-05, -1.1807944247266278e-05, 0.005304036661982536, 0.0019056842429563403, 2.885435606003739e-05, 7.226923480629921e-05, 6.180544733069837e-05, -0.04732607677578926, -4.6178851334843785e-05, 0.06542042642831802, 0.000579948304221034, 0.02052510902285576, 0.00014100897533353418, -4.4797019654652104e-05, -0.0002702609926927835, 0.0006794146611355245, 7.556363561889157e-05, -0.0008508968749083579, 5.715036877518287e-06, 4.930339127895422e-05, -0.026991702616214752, 3.703677430166863e-05, 1.5404895748361014e-05, 0.002635838696733117, -0.00016131244774442166, -0.001659159199334681, -0.0069878180511295795, -2.2877453375258483e-05, 0.002431283239275217, 1.861777718659141e-06, -7.716135587543249e-05, -0.000676897179801017, 0.03814234212040901, -8.911075565265492e-05, 5.267019514576532e-05, -0.0007856876472942531, 0.02111237868666649, 0.00010935182945104316, -0.00011855428601847962, 0.0042566596530377865, 1.9300283383927308e-05, 0.00281621259637177, -3.487346111796796e-05, 0.0034562242217361927, -2.8819476938224398e-05, 0.0018761508399620652, -0.003504245076328516, 0.0015497516142204404, -3.769397153519094e-05], [1.57382291945396e-05, -0.012673011049628258, -6.9605002863681875e-06, 2.3618775230715983e-05, -0.000272276607574895, -0.029821034520864487, 6.077991201891564e-05, -0.0002713041321840137, -0.002232934348285198, 0.00055634108139202, 2.451228465361055e-05, 4.103769242647104e-06, -3.841521902359091e-05, -0.00010036135063273832, 6.690714508295059e-05, -2.509532805561321e-06, -3.1589130230713636e-05, -0.0011422247625887394, -0.0007096609333530068, -1.668435834289994e-05, 0.0025856844149529934, 6.369467882905155e-05, -0.00022251743939705193, 8.780702046351507e-05, 0.001700462307780981, 0.00136257940903306, 0.02210020273923874, 0.0010379691375419497, -3.273894981248304e-05, 0.00035705137997865677, 0.001495044562034309, 7.160582754295319e-05, -0.0010411597322672606, 7.843379717087373e-05, 6.694743206026033e-05, 0.0001439724728697911, 3.9226044464157894e-05, 2.4919900170061737e-06, 3.450607255217619e-05, -0.001999262720346451, -0.00011212944082217291, -0.010152782313525677, -1.955818515853025e-05, 8.496104419464245e-05, 0.00021812986233271658, -0.0009096234571188688, -0.001451128744520247, 0.025208208709955215, -2.7385247449274175e-05, -9.364351717522368e-05, 0.00030190873076207936, 0.00912279449403286, 0.0008936209487728775, -0.00010791621753014624, 0.00030685708043165505, -6.452993693528697e-05, 0.001163451001048088, -3.631975778262131e-05, -0.000622062012553215, 3.0419912945944816e-05, -9.792938362807035e-05, 0.0001380107132717967, -0.00012518130824901164, -3.615001332946122e-05], [-2.3510043320129625e-05, 0.03877592831850052, -3.482356260064989e-05, -1.2864168638770934e-05, 0.0002129000349668786, 0.0038099840749055147, 4.353941767476499e-05, 0.00012405950110405684, -0.0005167591152712703, -0.0011189368087798357, 4.2389772715978324e-05, 1.307821889895422e-06, -4.7162873670458794e-05, -0.00018983270274475217, -6.207274418557063e-05, 7.063526936690323e-06, -3.654219108284451e-05, -0.0005353717715479434, 0.0004425333463586867, 3.580220072763041e-05, 4.777552021550946e-05, 3.3538861316628754e-05, -0.02681787684559822, 4.694330073107267e-06, -0.0007532609743066132, 0.0008754999726079404, -0.057666052132844925, 0.002791450824588537, -9.394112566951662e-05, -0.00013675466470886022, 0.0038405535742640495, 4.023918882012367e-05, -0.0012781971599906683, -1.4869069673295598e-05, 1.665393210714683e-05, -0.015673751011490822, 8.153502858476713e-05, 1.0106286936206743e-05, 0.00030599560705013573, -0.00027414035866968334, -6.98459698469378e-05, -0.009692118503153324, 3.2890729926293716e-05, 0.0009123063646256924, -0.0005494411452673376, 4.518673085840419e-05, 0.0013755367835983634, 0.014279026538133621, 2.508051875338424e-05, 0.00013005852815695107, -0.00030648161191493273, 0.012495456263422966, -0.0002854412014130503, -0.0001127212235587649, 0.03197541832923889, 1.709004027361516e-05, 0.00012488511856645346, 3.909378210664727e-05, -0.0005332251312211156, 4.236027962178923e-05, -5.2806935855187476e-05, -0.00010041739733424038, -0.000169407605426386, 6.574306462425739e-05], [-3.390594429220073e-05, -0.018752971664071083, 4.488701597438194e-05, 0.00025519783957861364, -6.462195597123355e-05, 0.015628570690751076, -5.9464568039402366e-05, 0.0005937345558777452, -0.0007937143673188984, -0.0037081653717905283, -1.74538217834197e-05, 3.457813591012382e-06, -3.3667027310002595e-05, -4.8752055590739474e-05, -3.400197238079272e-05, 2.727320861595217e-05, -1.0744204701040871e-05, 0.00030257849721238017, -0.0002517373359296471, -2.4833767383825034e-05, 7.151209138100967e-05, -9.686803969088942e-05, 0.00029096653452143073, 1.991430872294586e-05, -5.0961956731043756e-05, 0.000366423832019791, 0.02964060567319393, -0.0005918159149587154, -0.00011273826385149732, -0.0002645057102199644, -0.001709573669359088, 5.144799069967121e-05, -0.0011998399859294295, 6.155868322821334e-05, 7.35584762878716e-05, -0.0002771402942016721, -1.432595217920607e-05, -4.1402117290090246e-07, 0.01187647320330143, 0.0002190949016949162, 0.00014174127136357129, -0.017290648072957993, -5.8962591538147535e-06, 0.0009080893360078335, -0.00013634173956234008, -0.001978047424927354, 0.022988859564065933, 0.02975591830909252, -4.6761997509747744e-05, 0.00019892981799785048, 0.0007725217146798968, 0.012315778993070126, -7.741685840301216e-05, -6.30542854196392e-05, 0.009279852733016014, -5.9842892369488254e-05, 0.003065661294385791, -2.06965360121103e-05, -0.002775900298729539, -5.6231277994811535e-05, 0.000140000440296717, 0.004239158239215612, 0.0018315463094040751, -2.4985740310512483e-05], [-5.39024913450703e-05, 0.03667588159441948, -0.0003042140160687268, 0.0018806369043886662, -0.007543404586613178, -0.04632030799984932, 6.83974867570214e-05, 0.01583847776055336, 0.004307855386286974, 0.001686746603809297, -0.00024107436183840036, 0.0017836022889241576, -6.720014789607376e-05, -0.0060461219400167465, 4.977947537554428e-05, 0.0005173011450096965, -2.9705139240832068e-05, 0.0034237320069223642, -0.007350628264248371, 0.0020544433500617743, 0.001348562422208488, 0.0010651984484866261, -0.056467119604349136, 0.004696299787610769, 0.055639009922742844, 0.0557829774916172, -0.04335016757249832, 0.0026627073530107737, -8.933337085181847e-05, 0.01484846044331789, 0.007155449595302343, 0.00882149301469326, -0.0034945656079798937, 0.001396073610521853, -0.0003576580493245274, -0.04812256246805191, -7.354745321208611e-05, 0.0062545295804739, 0.09181973338127136, -0.024595113471150398, -0.0025701483245939016, -0.013556724414229393, -0.0006264136172831059, 0.023673370480537415, -0.002901064930483699, -0.010001160204410553, 0.026324570178985596, 0.024687061086297035, -0.00019117486954201013, 0.0015717014903202653, -0.010525279678404331, 0.02669679932296276, -0.0053330473601818085, 0.003402130911126733, 0.019137755036354065, 0.0015295114135369658, -0.011049030348658562, -0.0001595017674844712, -0.0021888248156756163, -4.161545803071931e-05, 0.0024111666716635227, 0.004060822539031506, -0.0019423874327912927, -0.005624007899314165], [1.1043207450711634e-05, -0.010508593171834946, -2.7480104108690284e-05, 8.515167428413406e-05, -9.281842358177528e-05, -0.1300928145647049, 7.696019019931555e-05, -8.112275827443227e-05, 0.003999979700893164, 0.010295924730598927, -2.8179592845845036e-05, -8.639316547487397e-06, -1.7229114746442065e-05, -0.0006596546736545861, -1.9663282728288323e-05, 2.7916226827073842e-05, 1.5192485989246052e-05, 0.006956272292882204, 0.0010016155429184437, 9.555129508953542e-05, 0.002790199825540185, -6.288613076321781e-05, -0.01394134946167469, 2.9521157557610422e-05, 0.0002846847928594798, 8.596564293839037e-05, 0.013323323801159859, 0.0015979099553078413, -0.0001436717138858512, -0.00019520620116963983, 0.0016892682760953903, 6.841876893304288e-05, -0.0009988379897549748, 2.8601491067092866e-05, 5.6115855841198936e-05, -0.0005663498886860907, 8.169681677827612e-05, 8.297721251437906e-06, 0.18374523520469666, -0.0028611032757908106, 0.00010484842641744763, 0.12850448489189148, -1.0806190402945504e-05, -0.0007576021598652005, 2.6053201509057544e-05, 0.00045945405145175755, 0.00029185510356910527, 0.02047935500741005, -4.124599217902869e-05, 0.0001134569538407959, -0.003497813595458865, 0.0054308162070810795, -0.0005873017362318933, 0.00014509390166494995, 0.1344541758298874, 3.254133480368182e-05, -0.001297055627219379, -2.544436756579671e-05, -0.012979167513549328, -4.856902887695469e-05, 0.0023574947845190763, -0.0011527950409799814, -0.0010146829299628735, -1.850078842835501e-05], [-7.227578316815197e-05, -0.030949989333748817, 4.868131873081438e-05, -2.4547938664909452e-05, -0.000857452629134059, 0.010116644203662872, 8.538764086551964e-05, -0.00510406494140625, -0.0049315206706523895, 0.0008065488655120134, -1.7756798115442507e-05, -3.415551418584073e-06, 2.8277192541281693e-05, -0.0011180535657331347, 7.046964310575277e-05, 0.00010832095722435042, -2.992691042891238e-05, 0.002960466779768467, -0.00047045625979080796, 4.540340887615457e-05, 0.001922477618791163, 5.808190326206386e-05, -0.13024473190307617, -9.4656839792151e-05, 0.0001678171247476712, -0.0006628587725572288, 0.015511597506701946, 0.0001583631819812581, 3.1070430850377306e-05, 8.46698967507109e-05, 0.0011433357140049338, 7.535815529990941e-05, -7.724884198978543e-05, -7.153800106607378e-05, -3.143561480101198e-05, 0.00014586800534743816, 3.4211068850709125e-05, 5.364366643334506e-06, 0.00024324964033439755, -0.002562185050919652, -0.00010149964509764686, -0.016094859689474106, -3.373661093064584e-05, -0.002586487913504243, -0.0008166785701178014, -0.0004663545114453882, 0.0037815466057509184, 0.05866885930299759, -6.290851888479665e-05, 0.00017160488641820848, -0.00019932634313590825, 0.014390046708285809, -0.0006981281330808997, 4.606477887136862e-05, 0.007438576780259609, 5.726400195271708e-05, -0.00039006845327094197, 4.309172436478548e-05, 0.0011592761147767305, -4.027370596304536e-05, 8.340784552274272e-05, 0.001613806001842022, -0.0009930988308042288, -2.1488083802978508e-05]], "sigmanet.nn.6.bias": [-0.14742450416088104], "sigmanet.nn.6.weight_orig": [[-0.2594433128833771, -0.480277955532074, 0.9107429385185242, 0.5058987736701965, -0.45157262682914734, -0.14256666600704193, 0.589711606502533, -0.6108100414276123, -0.5574511885643005, -0.13139359652996063, -0.3082340657711029, -0.1568654179573059, -0.3466413915157318, -0.234517902135849, 0.5838267803192139, -0.3343178927898407, -0.2396901547908783, -1.1501632928848267, 0.23240643739700317, 0.4202304184436798, -0.5272029638290405, -0.33314192295074463, 0.9188723564147949, -0.3308597505092621, -0.27676427364349365, -0.3196522295475006, -0.31173256039619446, -0.21025097370147705, -1.0383925437927246, -0.08222755044698715, -0.30005398392677307, -0.2817436754703522]]}